solver_type L2R_L2LOSS_SVC_DUAL
nr_class 2
label 1 2
nr_feature 40512
bias -1
w
0.0001518198330934074 
-4.468356063358673e-05 
0.0003861756141031631 
-0.000158156531983937 
0.001745179872532473 
-0.001580735849770872 
0 
-0.01267239644933289 
-0.001745179872532473 
-0.001580735849770872 
-0.0003861756141031631 
-0.000158156531983937 
-0.0001518198330934074 
-4.468356063358673e-05 
-1.684192745749184e-05 
-7.861649668331359e-05 
0.0007762148485682273 
-0.0001443182322182695 
0.001978520801220978 
-0.005728385123613537 
0 
-0.01417151130915018 
-0.001978520801220978 
-0.005728385123613537 
-0.0007762148485682273 
-0.0001443182322182695 
1.684192745749184e-05 
-7.861649668331359e-05 
-9.911700520584939e-05 
0.0005869403293607752 
0.0007245348345034534 
0.002857574720900537 
0.005429414779677857 
0.006555477842846863 
0 
0.01606948141047903 
-0.005429414779677857 
0.006555477842846863 
-0.0007245348345034534 
0.002857574720900537 
9.911700520584939e-05 
0.0005869403293607752 
6.160407672108115e-05 
-7.440815822655399e-05 
9.71192348264431e-05 
0.0003784333095246182 
0.002284861982458831 
-0.001342855718471098 
0 
-0.005570776404058999 
-0.002284861982458831 
-0.001342855718471098 
-9.71192348264431e-05 
0.0003784333095246182 
-6.160407672108115e-05 
-7.440815822655399e-05 
0.0001452949579569498 
-0.0001169234223725518 
0.0008506176790813427 
-0.000987673902302359 
0.001197932827604039 
-0.006723478097133141 
0 
-0.01632603191571292 
-0.001197932827604039 
-0.006723478097133141 
-0.0008506176790813427 
-0.000987673902302359 
-0.0001452949579569498 
-0.0001169234223725518 
7.611343931306414e-05 
-0.0001180676993297663 
-0.0001938799013154804 
-0.0001146048050555885 
0.002607462860689978 
-0.001841568675884895 
0 
-0.01309960944473459 
-0.002607462860689978 
-0.001841568675884895 
0.0001938799013154804 
-0.0001146048050555885 
-7.611343931306414e-05 
-0.0001180676993297663 
0.0001508983550445144 
-7.347065144569653e-05 
0.0005538040390869126 
-0.0002200428307999284 
0.002931433479876896 
-0.003609171064651828 
0 
-0.01390277991318973 
-0.002931433479876896 
-0.003609171064651828 
-0.0005538040390869126 
-0.0002200428307999284 
-0.0001508983550445144 
-7.347065144569653e-05 
-6.930226934128073e-05 
5.242584631627802e-06 
9.716450901730071e-05 
0.0002934446859091452 
0.002036035204970031 
-0.0005732318847819737 
0 
-0.005374318262903202 
-0.002036035204970031 
-0.0005732318847819737 
-9.716450901730071e-05 
0.0002934446859091452 
6.930226934128073e-05 
5.242584631627802e-06 
-0.0001557123152223356 
0.0002141846234182673 
-0.0001240266216311707 
0.001210310090691961 
0.004985535741998877 
0.001694694174542157 
0 
-0.007951237343767951 
-0.004985535741998877 
0.001694694174542157 
0.0001240266216311707 
0.001210310090691961 
0.0001557123152223356 
0.0002141846234182673 
5.304421309804671e-05 
-4.964395193699912e-07 
-1.610412901315126e-05 
-1.552706183679219e-06 
0.0008547275458899757 
0.000254522094127011 
0 
-0.002941525094395767 
-0.0008547275458899757 
0.000254522094127011 
1.610412901315126e-05 
-1.552706183679219e-06 
-5.304421309804671e-05 
-4.964395193699912e-07 
5.671399797045145e-05 
2.709776354701779e-05 
0.0001400010168974866 
0.000216310158705181 
0.0009733070097147734 
-0.001186944287410459 
0 
-1.976756409405342e-05 
-0.0009733070097147734 
-0.001186944287410459 
-0.0001400010168974866 
0.000216310158705181 
-5.671399797045145e-05 
2.709776354701779e-05 
-1.296701663264324e-05 
-0.0001452036019810114 
0.0003620426667996774 
-0.0004756237707553686 
-0.0009761292602090549 
-0.004997686822873016 
0 
-0.001522503553824198 
0.0009761292602090549 
-0.004997686822873016 
-0.0003620426667996774 
-0.0004756237707553686 
1.296701663264324e-05 
-0.0001452036019810114 
-7.64733893727961e-06 
-1.048645378851198e-05 
-9.598971600353599e-05 
0.0001769683346039841 
-0.0008354657129780849 
-0.0003049397300906627 
0 
0.005364561567710361 
0.0008354657129780849 
-0.0003049397300906627 
9.598971600353599e-05 
0.0001769683346039841 
7.64733893727961e-06 
-1.048645378851198e-05 
0.0001939376795647192 
-0.0001047099284227328 
0.0004918821649638637 
-0.0008295071695659016 
-0.0004114350833982138 
-0.004293443599120559 
0 
-0.006117538486233505 
0.0004114350833982138 
-0.004293443599120559 
-0.0004918821649638637 
-0.0008295071695659016 
-0.0001939376795647192 
-0.0001047099284227328 
-6.932759166147801e-05 
6.766139915236818e-05 
0.0004205798526282136 
0.0003576822041274234 
0.0009138620755533012 
-0.002612304643097601 
0 
-0.002906521511507723 
-0.0009138620755533012 
-0.002612304643097601 
-0.0004205798526282136 
0.0003576822041274234 
6.932759166147801e-05 
6.766139915236818e-05 
-5.224034863182858e-05 
0.0002248706548392456 
0.0005510274566061391 
0.0007611299821120512 
0.002571975615820409 
-0.0006882696534674212 
0 
-0.003467545330280587 
-0.002571975615820409 
-0.0006882696534674212 
-0.0005510274566061391 
0.0007611299821120512 
5.224034863182858e-05 
0.0002248706548392456 
0.0002468846621291809 
-0.000154407456856374 
-0.000269053077653017 
-0.0008983637680601565 
-0.001531646239576723 
-0.001415984217867664 
0 
3.36091629427391e-05 
0.001531646239576723 
-0.001415984217867664 
0.000269053077653017 
-0.0008983637680601565 
-0.0002468846621291809 
-0.000154407456856374 
-4.347802171940684e-05 
0.0001839204791312783 
0.0002805015916599376 
0.0004201118492389167 
0.0002932269041157957 
0.000790924855296326 
0 
0.002891264757013485 
-0.0002932269041157957 
0.000790924855296326 
-0.0002805015916599376 
0.0004201118492389167 
4.347802171940684e-05 
0.0001839204791312783 
0.0002649665200848879 
1.463133018229434e-05 
0.001117260667268864 
-0.001138089384187281 
0.0003133554944874039 
-0.006121275005969515 
0 
-0.01289530763352883 
-0.0003133554944874039 
-0.006121275005969515 
-0.001117260667268864 
-0.001138089384187281 
-0.0002649665200848879 
1.463133018229434e-05 
0.0001532234801320294 
1.441000211610928e-05 
0.0001474044245588803 
-0.000577254402737325 
-0.001175321800938196 
-0.001155809470161528 
0 
-0.0003684975266621804 
0.001175321800938196 
-0.001155809470161528 
-0.0001474044245588803 
-0.000577254402737325 
-0.0001532234801320294 
1.441000211610928e-05 
-4.735006397269636e-06 
-0.0002081228668169254 
-0.0004180521812619529 
-0.0001095269564693775 
-0.0009922754277455761 
-8.661264715518945e-05 
0 
0.002078292249526923 
0.0009922754277455761 
-8.661264715518945e-05 
0.0004180521812619529 
-0.0001095269564693775 
4.735006397269636e-06 
-0.0002081228668169254 
0.0001903095103699258 
3.228336173883573e-05 
0.0004035767777021727 
-0.0004999124587094791 
-5.135660574761409e-05 
-0.001420935118806378 
0 
-0.003243796571913794 
5.135660574761409e-05 
-0.001420935118806378 
-0.0004035767777021727 
-0.0004999124587094791 
-0.0001903095103699258 
3.228336173883573e-05 
0.0001520075245110426 
2.524652452268775e-05 
0.0002091261971610386 
-0.0003539527687207082 
0.0005399599372180091 
-0.001717254810037915 
0 
-0.004448269767630852 
-0.0005399599372180091 
-0.001717254810037915 
-0.0002091261971610386 
-0.0003539527687207082 
-0.0001520075245110426 
2.524652452268775e-05 
5.478961619668258e-06 
-9.528181422071724e-05 
-0.000849810341573731 
4.097861460604394e-05 
0.0007871166443403077 
0.002140647572358116 
0 
-0.001482613580961317 
-0.0007871166443403077 
0.002140647572358116 
0.000849810341573731 
4.097861460604394e-05 
-5.478961619668258e-06 
-9.528181422071724e-05 
2.006146572563955e-05 
-0.0001845906045479639 
-0.0008061832114926792 
-0.0005104691128596909 
-0.0009371433791312397 
0.001908785671060755 
0 
-0.001109781010958184 
0.0009371433791312397 
0.001908785671060755 
0.0008061832114926792 
-0.0005104691128596909 
-2.006146572563955e-05 
-0.0001845906045479639 
-3.431469207569714e-05 
6.749311427164869e-06 
-5.155376658243594e-05 
-0.0001207738078572681 
-0.001387855021044114 
0.001048890864239859 
0 
0.00253396936293432 
0.001387855021044114 
0.001048890864239859 
5.155376658243594e-05 
-0.0001207738078572681 
3.431469207569714e-05 
6.749311427164869e-06 
4.025640275072467e-05 
9.457026076832986e-05 
-0.0001251581072028347 
0.000139923732755602 
0.0005299680642346747 
0.002121662218332925 
0 
0.0001268142435647883 
-0.0005299680642346747 
0.002121662218332925 
0.0001251581072028347 
0.000139923732755602 
-4.025640275072467e-05 
9.457026076832986e-05 
0.0001326022872230255 
-8.615758970936457e-06 
0.000936722265802023 
-0.0007284088984422731 
0.0005602997109182013 
-0.005663937644553591 
0 
-0.01309424301815069 
-0.0005602997109182013 
-0.005663937644553591 
-0.000936722265802023 
-0.0007284088984422731 
-0.0001326022872230255 
-8.615758970936457e-06 
0.0001220200728796904 
-3.831856431203603e-05 
-3.542652290423544e-05 
-0.0005721232318408878 
-0.0006913691879641986 
-0.0002469595161914202 
0 
0.0007063928954562926 
0.0006913691879641986 
-0.0002469595161914202 
3.542652290423544e-05 
-0.0005721232318408878 
-0.0001220200728796904 
-3.831856431203603e-05 
5.617345132487555e-05 
-0.0001716047019139474 
-0.0006337484104572958 
-0.0009414569271676607 
-0.0033910373251282 
0.002793213741666951 
0 
0.003966278431321606 
0.0033910373251282 
0.002793213741666951 
0.0006337484104572958 
-0.0009414569271676607 
-5.617345132487555e-05 
-0.0001716047019139474 
3.413087117539617e-05 
-0.0001575695007047307 
-3.6304329058549e-05 
-0.0004925983146808109 
-0.002529711848834041 
-0.0002835483371339169 
0 
0.003949431413055025 
0.002529711848834041 
-0.0002835483371339169 
3.6304329058549e-05 
-0.0004925983146808109 
-3.413087117539617e-05 
-0.0001575695007047307 
-5.706638325408696e-05 
6.931917032562062e-06 
-0.0002751193247122713 
-0.0002736060637069579 
3.165936915672106e-05 
-0.0005072811011699834 
0 
-0.005472839047843037 
-3.165936915672106e-05 
-0.0005072811011699834 
0.0002751193247122713 
-0.0002736060637069579 
5.706638325408696e-05 
6.931917032562062e-06 
-7.609167989099147e-05 
9.347221237147834e-07 
-0.0004195190221394173 
-5.254263636904391e-05 
-0.0004195977591489818 
0.001372755275801001 
0 
0.00214382279763588 
0.0004195977591489818 
0.001372755275801001 
0.0004195190221394173 
-5.254263636904391e-05 
7.609167989099147e-05 
9.347221237147834e-07 
0.000107781161702841 
-0.0002526963334388429 
-0.0008164471790206609 
-0.0009962170269657794 
-0.001589122904870777 
0.0008561895353153708 
0 
0.0001485857311820058 
0.001589122904870777 
0.0008561895353153708 
0.0008164471790206609 
-0.0009962170269657794 
-0.000107781161702841 
-0.0002526963334388429 
0.0001041833393698915 
-8.36078384591801e-05 
-0.000238619231167762 
-0.0002825173979682277 
7.745468149928805e-05 
-0.0005153834250917163 
0 
-0.001080559651771981 
-7.745468149928805e-05 
-0.0005153834250917163 
0.000238619231167762 
-0.0002825173979682277 
-0.0001041833393698915 
-8.36078384591801e-05 
-0.0001042523054182741 
0.0002090755381137859 
-0.0002591438250048781 
0.0009115722839955768 
0.0002238086615207971 
0.004832614668685462 
0 
0.006994675249047616 
-0.0002238086615207971 
0.004832614668685462 
0.0002591438250048781 
0.0009115722839955768 
0.0001042523054182741 
0.0002090755381137859 
-9.724593680235193e-06 
3.106966340086229e-05 
0.0002602360967959885 
1.969310764370816e-05 
0.0006847535787046146 
-0.0008514246534774228 
0 
-0.006872694079638392 
-0.0006847535787046146 
-0.0008514246534774228 
-0.0002602360967959885 
1.969310764370816e-05 
9.724593680235193e-06 
3.106966340086229e-05 
0.0002349068302744288 
-6.323025917047655e-05 
0.0004895355168518823 
-0.000654956115856276 
-0.002055506597200116 
-0.003514950273483946 
0 
-1.715402779913149e-05 
0.002055506597200116 
-0.003514950273483946 
-0.0004895355168518823 
-0.000654956115856276 
-0.0002349068302744288 
-6.323025917047655e-05 
-8.355838510224159e-05 
-0.0002263863717594062 
-0.0003623724045323687 
-0.000288665920620687 
-0.0004703112768475636 
-0.0005407193491173704 
0 
-0.002561603615421494 
0.0004703112768475636 
-0.0005407193491173704 
0.0003623724045323687 
-0.000288665920620687 
8.355838510224159e-05 
-0.0002263863717594062 
-4.790814854896403e-05 
1.426222174697732e-05 
-0.0003271610066959985 
-0.0001618682818471518 
-0.0003002927920899635 
0.0004610732014634725 
0 
-0.0002609556328403674 
0.0003002927920899635 
0.0004610732014634725 
0.0003271610066959985 
-0.0001618682818471518 
4.790814854896403e-05 
1.426222174697732e-05 
3.561870736220286e-05 
2.386219461665265e-05 
0.0001618636274392211 
-7.375775478746917e-07 
-0.0006701614989233775 
-0.0006182431052011741 
0 
0.0002325883962294625 
0.0006701614989233775 
-0.0006182431052011741 
-0.0001618636274392211 
-7.375775478746917e-07 
-3.561870736220286e-05 
2.386219461665265e-05 
5.590209984041475e-07 
-7.994502319371538e-05 
-0.0003378178996909576 
-7.751561999435656e-05 
0.001602650164948727 
0.0006683297619219598 
0 
-0.00382792482992983 
-0.001602650164948727 
0.0006683297619219598 
0.0003378178996909576 
-7.751561999435656e-05 
-5.590209984041475e-07 
-7.994502319371538e-05 
6.782127971839028e-05 
-0.0001139664301480062 
3.963820519007607e-05 
-0.0005057964668346424 
-0.001640889669777107 
-0.002001992643054403 
0 
0.0001772877855489858 
0.001640889669777107 
-0.002001992643054403 
-3.963820519007607e-05 
-0.0005057964668346424 
-6.782127971839028e-05 
-0.0001139664301480062 
-2.077653643251251e-05 
-0.0001228323458704679 
-0.0004699403299912444 
-1.074257132016144e-05 
-0.0007479810964774698 
0.0001447673494614287 
0 
0.00357326615914689 
0.0007479810964774698 
0.0001447673494614287 
0.0004699403299912444 
-1.074257132016144e-05 
2.077653643251251e-05 
-0.0001228323458704679 
-0.0002056637918259091 
2.20097358579937e-05 
-0.0004815269810447655 
0.0004526810716572472 
-0.0009478554926703235 
0.003168414287983132 
0 
0.004113453179194659 
0.0009478554926703235 
0.003168414287983132 
0.0004815269810447655 
0.0004526810716572472 
0.0002056637918259091 
2.20097358579937e-05 
6.43081611981851e-05 
0.0001741262947020686 
0.0003297226127504511 
0.0001380996816586544 
0.001100855748026247 
0.002246248575987301 
0 
-0.0008159490869663086 
-0.001100855748026247 
0.002246248575987301 
-0.0003297226127504511 
0.0001380996816586544 
-6.43081611981851e-05 
0.0001741262947020686 
-2.114333430081826e-05 
2.122133940701449e-05 
1.431429043959859e-05 
-0.0001944341538199863 
-0.001448958886552872 
0.0001733277034660147 
0 
0.003940533977353614 
0.001448958886552872 
0.0001733277034660147 
-1.431429043959859e-05 
-0.0001944341538199863 
2.114333430081826e-05 
2.122133940701449e-05 
3.464935665279275e-05 
-7.138606183422915e-05 
-0.0001266151494265187 
-0.0001993008502168319 
-0.0006478901947769496 
-0.0006698850420300284 
0 
0.002881376753901322 
0.0006478901947769496 
-0.0006698850420300284 
0.0001266151494265187 
-0.0001993008502168319 
-3.464935665279275e-05 
-7.138606183422915e-05 
1.557315254981023e-05 
-0.000103520845517277 
4.842741704089427e-05 
-0.0004001685891566108 
-0.001009247940990258 
-0.0001311241254972898 
0 
-2.996792675784164e-05 
0.001009247940990258 
-0.0001311241254972898 
-4.842741704089427e-05 
-0.0004001685891566108 
-1.557315254981023e-05 
-0.000103520845517277 
3.413291165851412e-06 
-5.025978825172237e-05 
0.0001849896289978315 
-0.000206884101201569 
-2.308143254383794e-05 
-0.001845455800587522 
0 
-0.004964095032780114 
2.308143254383794e-05 
-0.001845455800587522 
-0.0001849896289978315 
-0.000206884101201569 
-3.413291165851412e-06 
-5.025978825172237e-05 
0.0001732820261675414 
7.315252459673905e-05 
0.0003679713882271053 
-0.0007378251397261627 
0.0008779840241644448 
-0.001045675036180924 
0 
-0.005954265675100186 
-0.0008779840241644448 
-0.001045675036180924 
-0.0003679713882271053 
-0.0007378251397261627 
-0.0001732820261675414 
7.315252459673905e-05 
9.600858906090103e-05 
-8.264244547890763e-05 
-9.723785019486231e-05 
-0.0003585444009736005 
-0.002678423153315914 
-0.0007646120029752597 
0 
0.004792731308452953 
0.002678423153315914 
-0.0007646120029752597 
9.723785019486231e-05 
-0.0003585444009736005 
-9.600858906090103e-05 
-8.264244547890763e-05 
7.464255621986283e-05 
-5.361764179527576e-05 
7.062572652767123e-06 
-0.0005603759448095805 
-0.00203082423993871 
-0.0001086272063650201 
0 
0.005368782210335745 
0.00203082423993871 
-0.0001086272063650201 
-7.062572652767123e-06 
-0.0005603759448095805 
-7.464255621986283e-05 
-5.361764179527576e-05 
0.0001537419623476529 
-0.0004729671695990512 
-0.001371587996666369 
-0.001697593187821149 
-0.003400378363553003 
0.0002493741561522819 
0 
-0.002408375404111774 
0.003400378363553003 
0.0002493741561522819 
0.001371587996666369 
-0.001697593187821149 
-0.0001537419623476529 
-0.0004729671695990512 
0.00018975092226552 
0.0002157535943413382 
0.0009523948328346119 
0.0003302478691161017 
0.001893198392623098 
-0.002158424622054767 
0 
-0.001470026539933564 
-0.001893198392623098 
-0.002158424622054767 
-0.0009523948328346119 
0.0003302478691161017 
-0.00018975092226552 
0.0002157535943413382 
6.005089874361587e-05 
-4.676736878935785e-05 
0.0003376234463125194 
-0.0003157678516055632 
-0.0002350138543910435 
-0.002399627213218946 
0 
-0.0005810036382256315 
0.0002350138543910435 
-0.002399627213218946 
-0.0003376234463125194 
-0.0003157678516055632 
-6.005089874361587e-05 
-4.676736878935785e-05 
3.220420435586081e-05 
0.0001337383082352242 
-0.0003714700289443717 
0.0001883527280056954 
0.001314137265539746 
0.003450361892115963 
0 
0.003625622393103728 
-0.001314137265539746 
0.003450361892115963 
0.0003714700289443717 
0.0001883527280056954 
-3.220420435586081e-05 
0.0001337383082352242 
0.0001213009262756907 
-0.0001633913094894146 
1.96956789392895e-05 
-0.0008671785530322504 
-0.0009284461802552234 
-0.002086628216593327 
0 
-0.003811385205692093 
0.0009284461802552234 
-0.002086628216593327 
-1.96956789392895e-05 
-0.0008671785530322504 
-0.0001213009262756907 
-0.0001633913094894146 
9.960043475649106e-05 
5.86301332822817e-05 
0.0005119427432020478 
-0.0004686496067659823 
5.252549404448564e-05 
-0.002596204780203535 
0 
-0.006627506907003314 
-5.252549404448564e-05 
-0.002596204780203535 
-0.0005119427432020478 
-0.0004686496067659823 
-9.960043475649106e-05 
5.86301332822817e-05 
-0.0001047386238995315 
-8.250727286682759e-06 
-0.0001961853033522488 
0.0002551366971595708 
0.0005922599651745171 
0.0007421409381136417 
0 
0.000836864119585153 
-0.0005922599651745171 
0.0007421409381136417 
0.0001961853033522488 
0.0002551366971595708 
0.0001047386238995315 
-8.250727286682759e-06 
0.0001441227537439683 
-5.558486707168752e-05 
0.0002809089278424228 
-0.0006183578602306411 
-0.0008520185051952539 
-0.001966362710793346 
0 
-0.006107376624959575 
0.0008520185051952539 
-0.001966362710793346 
-0.0002809089278424228 
-0.0006183578602306411 
-0.0001441227537439683 
-5.558486707168752e-05 
7.515965935261769e-05 
-2.299192888462446e-05 
-0.0001168826668168831 
-0.000250720986336635 
5.707384217409185e-05 
-0.0005497478330296139 
0 
-0.002454841505948399 
-5.707384217409185e-05 
-0.0005497478330296139 
0.0001168826668168831 
-0.000250720986336635 
-7.515965935261769e-05 
-2.299192888462446e-05 
7.113517579526909e-05 
-3.887664477839262e-05 
0.0002100746361418765 
-0.0004784404605144603 
-4.158011559341663e-05 
-0.00194652734293956 
0 
-0.006754392756710763 
4.158011559341663e-05 
-0.00194652734293956 
-0.0002100746361418765 
-0.0004784404605144603 
-7.113517579526909e-05 
-3.887664477839262e-05 
-0.0001623320440899431 
8.649677974251957e-05 
-8.40182149845962e-05 
0.0002783428663442272 
-0.0003500480364506207 
0.0002653583732939145 
0 
0.00424000997777181 
0.0003500480364506207 
0.0002653583732939145 
8.40182149845962e-05 
0.0002783428663442272 
0.0001623320440899431 
8.649677974251957e-05 
9.494922610891163e-05 
-3.129355843195338e-05 
5.729325590021146e-05 
-0.0004761896019350975 
-0.001021108813916123 
-0.001395232968022935 
0 
0.002939213525028207 
0.001021108813916123 
-0.001395232968022935 
-5.729325590021146e-05 
-0.0004761896019350975 
-9.494922610891163e-05 
-3.129355843195338e-05 
-6.526189042882342e-05 
-7.453449409410676e-05 
0.0001495628221112213 
0.0001599827380516401 
0.001660172628150768 
-0.002601519544863211 
0 
-0.00811485781995073 
-0.001660172628150768 
-0.002601519544863211 
-0.0001495628221112213 
0.0001599827380516401 
6.526189042882342e-05 
-7.453449409410676e-05 
-4.627873043058358e-05 
-0.0001239727444724876 
-0.0002008178391843811 
-0.0001756458384672401 
-0.0001404934596521989 
-0.0007816304716022018 
0 
0.0007753599339185644 
0.0001404934596521989 
-0.0007816304716022018 
0.0002008178391843811 
-0.0001756458384672401 
4.627873043058358e-05 
-0.0001239727444724876 
-7.214993353156209e-07 
-0.0002840056755214981 
-0.0003224685424268593 
-0.001505134938809352 
-0.00202348593397271 
-0.001251159756563994 
0 
-0.005796450313914165 
0.00202348593397271 
-0.001251159756563994 
0.0003224685424268593 
-0.001505134938809352 
7.214993353156209e-07 
-0.0002840056755214981 
3.988826090171515e-05 
2.731067430743509e-05 
8.869675626571472e-05 
0.0003958382015370408 
0.001262504769332648 
-0.001658988851679212 
0 
-0.003092835345330274 
-0.001262504769332648 
-0.001658988851679212 
-8.869675626571472e-05 
0.0003958382015370408 
-3.988826090171515e-05 
2.731067430743509e-05 
-0.0001058483226180631 
0.0002846927686676658 
4.090457814829192e-05 
0.001079140950892858 
0.001117585365987904 
0.005004545600702817 
0 
0.009922418769893063 
-0.001117585365987904 
0.005004545600702817 
-4.090457814829192e-05 
0.001079140950892858 
0.0001058483226180631 
0.0002846927686676658 
0.0002137733838656488 
0.0001229071891860448 
0.001041168218101587 
-0.0009593126062587254 
-0.001101083349803599 
-0.004587022811942155 
0 
-0.005451286602342936 
0.001101083349803599 
-0.004587022811942155 
-0.001041168218101587 
-0.0009593126062587254 
-0.0002137733838656488 
0.0001229071891860448 
-2.169286360986267e-05 
8.83179744728443e-05 
0.0003470979821025146 
3.920403968848062e-05 
0.0002827789832101266 
-0.0003162440054878831 
0 
-0.001061750370965062 
-0.0002827789832101266 
-0.0003162440054878831 
-0.0003470979821025146 
3.920403968848062e-05 
2.169286360986267e-05 
8.83179744728443e-05 
-8.770961553393716e-05 
0.0001747839742858773 
0.0001287434490792601 
0.001251173486604356 
0.006111683907839482 
0.001062433509047769 
0 
-0.01491999514952094 
-0.006111683907839482 
0.001062433509047769 
-0.0001287434490792601 
0.001251173486604356 
8.770961553393716e-05 
0.0001747839742858773 
6.13988685458196e-05 
-8.273109795173679e-05 
0.0003981747298083034 
-0.0002344423000166096 
0.002027646399387164 
-0.004499615642836474 
0 
-0.01301198913924599 
-0.002027646399387164 
-0.004499615642836474 
-0.0003981747298083034 
-0.0002344423000166096 
-6.13988685458196e-05 
-8.273109795173679e-05 
8.990308472233751e-06 
0.0005219492051828402 
0.0006772772925503982 
0.002993940561547806 
0.004745029297607304 
0.006864091145276909 
0 
0.01858602752714044 
-0.004745029297607304 
0.006864091145276909 
-0.0006772772925503982 
0.002993940561547806 
-8.990308472233751e-06 
0.0005219492051828402 
1.204443800447637e-05 
0.0001738277674730077 
0.001094197538886051 
0.0005320531388474242 
0.005376866490244735 
-0.004882846809717333 
0 
-0.01818653072186177 
-0.005376866490244735 
-0.004882846809717333 
-0.001094197538886051 
0.0005320531388474242 
-1.204443800447637e-05 
0.0001738277674730077 
0.0001757914747471997 
-5.014391647182463e-05 
0.001127817341952491 
-0.0009738516870307525 
0.002475421580336215 
-0.006709222069232404 
0 
-0.02145694979367248 
-0.002475421580336215 
-0.006709222069232404 
-0.001127817341952491 
-0.0009738516870307525 
-0.0001757914747471997 
-5.014391647182463e-05 
-0.000104555275874185 
-0.0001186772871446637 
-0.0006492519443747516 
0.0001286506518479872 
0.003455218785768193 
0.0003608410936897906 
0 
-0.01089615690444005 
-0.003455218785768193 
0.0003608410936897906 
0.0006492519443747516 
0.0001286506518479872 
0.000104555275874185 
-0.0001186772871446637 
-0.0001969188238705485 
-2.151064746207042e-05 
0.0004209179617199442 
0.0002697558315966323 
0.004147085305613351 
-0.004187092365660344 
0 
-0.01821508832498973 
-0.004147085305613351 
-0.004187092365660344 
-0.0004209179617199442 
0.0002697558315966323 
0.0001969188238705485 
-2.151064746207042e-05 
0.0001012121845153409 
2.654048473854977e-05 
0.0004063995112232107 
-0.0003557876154008372 
0.001389310832768248 
-0.002101927139885955 
0 
-0.007303610043035587 
-0.001389310832768248 
-0.002101927139885955 
-0.0004063995112232107 
-0.0003557876154008372 
-0.0001012121845153409 
2.654048473854977e-05 
9.740936084665595e-07 
-2.831297912824043e-05 
-0.0001554433194862717 
0.000402746501308794 
0.001325835853715366 
-0.0007163656294812691 
0 
-0.003566437398037592 
-0.001325835853715366 
-0.0007163656294812691 
0.0001554433194862717 
0.000402746501308794 
-9.740936084665595e-07 
-2.831297912824043e-05 
-1.179515766509766e-05 
-4.878807862878604e-05 
-0.0002762742014070133 
0.0003645704950067402 
0.001793153268507169 
0.001020036213229698 
0 
-0.006364491100092009 
-0.001793153268507169 
0.001020036213229698 
0.0002762742014070133 
0.0003645704950067402 
1.179515766509766e-05 
-4.878807862878604e-05 
0.0001594913662365244 
-3.375989222286573e-05 
4.31852235816409e-05 
-0.0005322676326231352 
0.0008166034106693325 
-0.001221242682178328 
0 
-0.00669870608144213 
-0.0008166034106693325 
-0.001221242682178328 
-4.31852235816409e-05 
-0.0005322676326231352 
-0.0001594913662365244 
-3.375989222286573e-05 
0.0001114731997153103 
-0.0001945677399110161 
0.0002991438109855274 
-0.001167495373047038 
-0.002571522626144201 
-0.00537362130542333 
0 
-0.0009509843180820917 
0.002571522626144201 
-0.00537362130542333 
-0.0002991438109855274 
-0.001167495373047038 
-0.0001114731997153103 
-0.0001945677399110161 
1.144948125533673e-05 
8.919326493245278e-05 
-0.0004332064995026766 
0.0002072242779351182 
-0.0002284771940350797 
0.002322808404115675 
0 
0.006052419949677358 
0.0002284771940350797 
0.002322808404115675 
0.0004332064995026766 
0.0002072242779351182 
-1.144948125533673e-05 
8.919326493245278e-05 
0.0001507843525692272 
-0.0001528418524345547 
1.421007071062339e-05 
-0.001036503835564992 
-0.001254307964325218 
-0.001889994139418549 
0 
-0.004710943814489435 
0.001254307964325218 
-0.001889994139418549 
-1.421007071062339e-05 
-0.001036503835564992 
-0.0001507843525692272 
-0.0001528418524345547 
-0.0001673403504199846 
-4.208829434332241e-05 
-3.713821111440738e-05 
0.0009608177191079357 
0.004561427230490506 
-0.001672216984014913 
0 
-0.009695764617887849 
-0.004561427230490506 
-0.001672216984014913 
3.713821111440738e-05 
0.0009608177191079357 
0.0001673403504199846 
-4.208829434332241e-05 
7.796517553544519e-05 
-7.823764697196747e-05 
0.0006757327497347112 
-0.0007431654570938164 
0.002032197461871994 
-0.005228857755974814 
0 
-0.01639964021009001 
-0.002032197461871994 
-0.005228857755974814 
-0.0006757327497347112 
-0.0007431654570938164 
-7.796517553544519e-05 
-7.823764697196747e-05 
0.0001312594041348954 
0.0001316509241096836 
0.0003768103978543483 
-0.0005507375183656832 
-0.001030831659391637 
-0.001440047538836528 
0 
0.001768220787728998 
0.001030831659391637 
-0.001440047538836528 
-0.0003768103978543483 
-0.0005507375183656832 
-0.0001312594041348954 
0.0001316509241096836 
-0.0001682888145761745 
0.0002128286033404523 
-2.640770102991973e-05 
0.001481718679814249 
0.003035096959093792 
0.003847818092155891 
0 
0.003068999976801128 
-0.003035096959093792 
0.003847818092155891 
2.640770102991973e-05 
0.001481718679814249 
0.0001682888145761745 
0.0002128286033404523 
0.0001264107162833995 
-2.82079880199403e-05 
0.0006984775254065395 
-0.0007425022873545335 
0.003294049006936044 
-0.006405144759976514 
0 
-0.02083930944785575 
-0.003294049006936044 
-0.006405144759976514 
-0.0006984775254065395 
-0.0007425022873545335 
-0.0001264107162833995 
-2.82079880199403e-05 
-1.075739431124481e-05 
3.131787002513243e-05 
0.0003123199497862073 
4.256295859195957e-05 
0.00108187847724322 
-0.003162136938468425 
0 
-0.00358184657764655 
-0.00108187847724322 
-0.003162136938468425 
-0.0003123199497862073 
4.256295859195957e-05 
1.075739431124481e-05 
3.131787002513243e-05 
7.809297765771031e-05 
9.554049628766797e-05 
0.0003393375285653638 
1.664530517974854e-06 
0.0009630214230726545 
-0.001542355354702837 
0 
-0.001808673522391639 
-0.0009630214230726545 
-0.001542355354702837 
-0.0003393375285653638 
1.664530517974854e-06 
-7.809297765771031e-05 
9.554049628766797e-05 
-0.0001541964678489742 
2.941964416866642e-05 
-0.0001065510116094697 
0.0007571137854474602 
0.0001125654786909042 
0.001122004779181324 
0 
0.006237989766014282 
-0.0001125654786909042 
0.001122004779181324 
0.0001065510116094697 
0.0007571137854474602 
0.0001541964678489742 
2.941964416866642e-05 
0.0002288535799027446 
-3.204123066583236e-05 
0.0003898800459692731 
-0.0008568456262856332 
-0.0009675052250948479 
-0.001006179367136235 
0 
-0.002279319053125692 
0.0009675052250948479 
-0.001006179367136235 
-0.0003898800459692731 
-0.0008568456262856332 
-0.0002288535799027446 
-3.204123066583236e-05 
8.270432860861158e-05 
3.596317057753298e-06 
0.0003148210786236562 
-0.0001473156686180809 
0.001381056140787319 
-0.002599760532885359 
0 
-0.00783211280336746 
-0.001381056140787319 
-0.002599760532885359 
-0.0003148210786236562 
-0.0001473156686180809 
-8.270432860861158e-05 
3.596317057753298e-06 
-2.256401394059237e-05 
-7.711066416041465e-05 
0.0004204272588281251 
-8.056603638102792e-05 
-0.0005236855795734898 
-0.004010746763827022 
0 
-0.001355301413081103 
0.0005236855795734898 
-0.004010746763827022 
-0.0004204272588281251 
-8.056603638102792e-05 
2.256401394059237e-05 
-7.711066416041465e-05 
2.669481046779895e-05 
-4.142345810509725e-05 
-3.239570583832051e-05 
-0.0005923089803399547 
-0.001683471891746712 
0.0001038528177581267 
0 
0.00169458952787246 
0.001683471891746712 
0.0001038528177581267 
3.239570583832051e-05 
-0.0005923089803399547 
-2.669481046779895e-05 
-4.142345810509725e-05 
-0.0002376221933366276 
0.0003419403581610357 
0.0008375668516662331 
0.001867465500769471 
0.005325356612537256 
0.0006541364027396395 
0 
-0.00497760287431393 
-0.005325356612537256 
0.0006541364027396395 
-0.0008375668516662331 
0.001867465500769471 
0.0002376221933366276 
0.0003419403581610357 
5.440786148805874e-05 
9.40713047042675e-05 
0.000726146070414072 
-0.0001426708512928663 
0.001096550285492131 
-0.001733674305648259 
0 
-0.009544695663544949 
-0.001096550285492131 
-0.001733674305648259 
-0.000726146070414072 
-0.0001426708512928663 
-5.440786148805874e-05 
9.40713047042675e-05 
-3.500530732609645e-05 
0.0001143958324817744 
0.0006258578563221082 
-0.0001528099337918299 
-0.0006826636833401496 
-0.002019857320239725 
0 
2.554599238070172e-05 
0.0006826636833401496 
-0.002019857320239725 
-0.0006258578563221082 
-0.0001528099337918299 
3.500530732609645e-05 
0.0001143958324817744 
3.261781583849448e-05 
-0.0001284886739791214 
-0.000130990555310842 
-0.00073482169459182 
-0.001973786583925081 
-0.000213783298785773 
0 
0.002300347404893144 
0.001973786583925081 
-0.000213783298785773 
0.000130990555310842 
-0.00073482169459182 
-3.261781583849448e-05 
-0.0001284886739791214 
-5.622927540467736e-05 
-8.293800290473259e-05 
-8.413999928848941e-05 
-0.0003896269713065504 
-0.001028535700067936 
-0.0003498342699005012 
0 
0.00133891115598567 
0.001028535700067936 
-0.0003498342699005012 
8.413999928848941e-05 
-0.0003896269713065504 
5.622927540467736e-05 
-8.293800290473259e-05 
0.0001401963880449051 
-0.0001027425997840382 
0.0003218300556328785 
-0.0007508824305328774 
6.497023875698232e-05 
-0.002206324502375025 
0 
-0.007959594058839243 
-6.497023875698232e-05 
-0.002206324502375025 
-0.0003218300556328785 
-0.0007508824305328774 
-0.0001401963880449051 
-0.0001027425997840382 
1.759665126168199e-05 
6.176257311516407e-05 
8.136080763131776e-05 
-0.0003777730303936723 
-0.0003548183079859242 
0.0003493700322873823 
0 
-0.00172300162115683 
0.0003548183079859242 
0.0003493700322873823 
-8.136080763131776e-05 
-0.0003777730303936723 
-1.759665126168199e-05 
6.176257311516407e-05 
-0.0001160654096299685 
3.317121882380788e-05 
-0.0002155758000928125 
0.0005094979389255154 
-1.799396303050489e-05 
0.003224771468805235 
0 
0.001733002469801944 
1.799396303050489e-05 
0.003224771468805235 
0.0002155758000928125 
0.0005094979389255154 
0.0001160654096299685 
3.317121882380788e-05 
0.0002267633722095106 
-0.0001303017044354348 
-5.436285491939192e-05 
-0.001041223206840006 
-0.001904337736101924 
-0.0007937996111068774 
0 
0.001165178374930223 
0.001904337736101924 
-0.0007937996111068774 
5.436285491939192e-05 
-0.001041223206840006 
-0.0002267633722095106 
-0.0001303017044354348 
0.000146282661365736 
0.0001708790160065322 
0.0008709002252885535 
-0.0001215559295893993 
0.0008946109134445624 
-0.002833289923824049 
0 
-0.005638241675394881 
-0.0008946109134445624 
-0.002833289923824049 
-0.0008709002252885535 
-0.0001215559295893993 
-0.000146282661365736 
0.0001708790160065322 
0.0001420081490252813 
0.0001478473707691848 
0.0006908497038402082 
0.0001264695161633436 
0.00295971380698532 
-0.0009973751086940978 
0 
-0.01105731443697108 
-0.00295971380698532 
-0.0009973751086940978 
-0.0006908497038402082 
0.0001264695161633436 
-0.0001420081490252813 
0.0001478473707691848 
-7.684974242790085e-05 
-8.602639836678867e-06 
0.0001166143366570689 
-0.000126166718577989 
-0.00119402863296382 
0.0005355733995174339 
0 
0.0005922951188472 
0.00119402863296382 
0.0005355733995174339 
-0.0001166143366570689 
-0.000126166718577989 
7.684974242790085e-05 
-8.602639836678867e-06 
3.193267881864539e-05 
1.361039659631988e-05 
-0.0004364975242127398 
6.728521670754067e-05 
0.001177512760380767 
0.001496496164632734 
0 
-0.001373876564695987 
-0.001177512760380767 
0.001496496164632734 
0.0004364975242127398 
6.728521670754067e-05 
-3.193267881864539e-05 
1.361039659631988e-05 
0.0002404772019494794 
-5.898070679327355e-05 
-7.292328140885077e-06 
-0.0006564247062420163 
0.001017280150774956 
-0.001729350414805974 
0 
-0.009260653999002744 
-0.001017280150774956 
-0.001729350414805974 
7.292328140885077e-06 
-0.0006564247062420163 
-0.0002404772019494794 
-5.898070679327355e-05 
0.0001301511653490776 
-0.000232371681466659 
0.0001305113990017324 
-0.001163219100551981 
-0.0003213281241063325 
-0.003745955769919174 
0 
-0.01449737791181502 
0.0003213281241063325 
-0.003745955769919174 
-0.0001305113990017324 
-0.001163219100551981 
-0.0001301511653490776 
-0.000232371681466659 
0.0001240836173661055 
-3.677066123309453e-05 
0.0003003715132821782 
-0.0004084974706927724 
-0.0004080437668389743 
-0.001420115024127896 
0 
-0.004540220680688076 
0.0004080437668389743 
-0.001420115024127896 
-0.0003003715132821782 
-0.0004084974706927724 
-0.0001240836173661055 
-3.677066123309453e-05 
0.0002152977558751609 
5.060715803888029e-05 
0.0001272873902741773 
-0.0007255984878393831 
9.709848974056689e-06 
0.001080169776340372 
0 
-0.00382553364921563 
-9.709848974056689e-06 
0.001080169776340372 
-0.0001272873902741773 
-0.0007255984878393831 
-0.0002152977558751609 
5.060715803888029e-05 
-1.066515177028812e-05 
-2.902554837747455e-05 
-0.0004731631418645225 
0.0002870911793473498 
0.002106600251062805 
0.0009821941833950557 
0 
-0.003401497762799062 
-0.002106600251062805 
0.0009821941833950557 
0.0004731631418645225 
0.0002870911793473498 
1.066515177028812e-05 
-2.902554837747455e-05 
-4.971951454513241e-05 
-0.0001201186800994181 
-0.0003245533209845066 
2.15477791502075e-05 
-0.0007175801096653204 
0.0008554184419623829 
0 
0.0003884593832177497 
0.0007175801096653204 
0.0008554184419623829 
0.0003245533209845066 
2.15477791502075e-05 
4.971951454513241e-05 
-0.0001201186800994181 
-1.188496207937342e-05 
0.0003013241573007391 
0.0008345998048412507 
0.001035399046234253 
0.00437293359522856 
-0.0005264731501128569 
0 
-0.008486654846932845 
-0.00437293359522856 
-0.0005264731501128569 
-0.0008345998048412507 
0.001035399046234253 
1.188496207937342e-05 
0.0003013241573007391 
0.0001281458308090791 
6.660276762400227e-05 
0.0005170879322498409 
-0.0006420761551967495 
-0.0004749161597315073 
-0.001514839095519561 
0 
-0.003919233035345553 
0.0004749161597315073 
-0.001514839095519561 
-0.0005170879322498409 
-0.0006420761551967495 
-0.0001281458308090791 
6.660276762400227e-05 
4.516257715438894e-06 
-8.924287316777437e-05 
0.0001238946695610503 
-1.041375160481925e-05 
0.002315968803018105 
-0.002587908573887153 
0 
-0.0107220069790311 
-0.002315968803018105 
-0.002587908573887153 
-0.0001238946695610503 
-1.041375160481925e-05 
-4.516257715438894e-06 
-8.924287316777437e-05 
4.970154239185228e-05 
-4.968059792275512e-05 
-7.643608043455971e-05 
-7.803166164456266e-05 
0.0001801994045458201 
-0.0002807219773133291 
0 
-0.004903304849074959 
-0.0001801994045458201 
-0.0002807219773133291 
7.643608043455971e-05 
-7.803166164456266e-05 
-4.970154239185228e-05 
-4.968059792275512e-05 
0.0001055415056725684 
-0.0001749672166666299 
-0.0001129942818001133 
-0.001105946888958728 
-0.001025764582918144 
-0.001288657671332603 
0 
-0.01091717194538507 
0.001025764582918144 
-0.001288657671332603 
0.0001129942818001133 
-0.001105946888958728 
-0.0001055415056725684 
-0.0001749672166666299 
0.0001458547830469372 
3.282756984517716e-06 
-6.670469374714176e-06 
-0.0002774985596522381 
0.002482180167847185 
-0.0007622864382056253 
0 
-0.01222134108281399 
-0.002482180167847185 
-0.0007622864382056253 
6.670469374714176e-06 
-0.0002774985596522381 
-0.0001458547830469372 
3.282756984517716e-06 
1.154388172192512e-05 
-7.008999428314022e-05 
0.0004414682478087328 
-0.000831339514793295 
0.000237321811749526 
-0.001655140153968408 
0 
-0.009668381482250587 
-0.000237321811749526 
-0.001655140153968408 
-0.0004414682478087328 
-0.000831339514793295 
-1.154388172192512e-05 
-7.008999428314022e-05 
8.985785452887063e-05 
-4.504164162064624e-05 
-0.0005204325718888951 
0.0001127459921001535 
0.001330247208861693 
0.0005082560986550302 
0 
-0.004330992485617978 
-0.001330247208861693 
0.0005082560986550302 
0.0005204325718888951 
0.0001127459921001535 
-8.985785452887063e-05 
-4.504164162064624e-05 
2.565168620274157e-05 
1.04883920785007e-05 
0.0002226794609830041 
7.367108836225188e-05 
0.0005695163060064666 
-0.0003695137553266425 
0 
-0.002899219012963976 
-0.0005695163060064666 
-0.0003695137553266425 
-0.0002226794609830041 
7.367108836225188e-05 
-2.565168620274157e-05 
1.04883920785007e-05 
-0.0001912690764752382 
0.0001748932838124623 
0.0002716333498338437 
0.0006782510293229243 
0.000388717441830018 
0.0006006751207267888 
0 
-0.0002595776326346072 
-0.000388717441830018 
0.0006006751207267888 
-0.0002716333498338437 
0.0006782510293229243 
0.0001912690764752382 
0.0001748932838124623 
5.882184524274909e-05 
-6.080422824230428e-05 
-0.0004314254218804796 
-0.0006830438132450104 
-0.002845825189996203 
0.001557873071510609 
0 
0.006058881347233235 
0.002845825189996203 
0.001557873071510609 
0.0004314254218804796 
-0.0006830438132450104 
-5.882184524274909e-05 
-6.080422824230428e-05 
0.0001706458047615067 
-7.488596661251011e-05 
-0.0002597611034138449 
-0.0003193837165215331 
-0.0005925571619684514 
0.001714992485418413 
0 
0.002017202805596289 
0.0005925571619684514 
0.001714992485418413 
0.0002597611034138449 
-0.0003193837165215331 
-0.0001706458047615067 
-7.488596661251011e-05 
8.21655606039558e-05 
-0.0002384538526390122 
-0.0003518339854863647 
-0.000912903051928003 
-0.0008665896047924589 
-0.001375058712268892 
0 
-0.006925005092435342 
0.0008665896047924589 
-0.001375058712268892 
0.0003518339854863647 
-0.000912903051928003 
-8.21655606039558e-05 
-0.0002384538526390122 
0.0001385670976629497 
-0.000164284884639803 
-3.257324579670183e-05 
-0.001007793181499915 
-0.0011352326834198 
-0.001402004657879765 
0 
-0.007673875513530789 
0.0011352326834198 
-0.001402004657879765 
3.257324579670183e-05 
-0.001007793181499915 
-0.0001385670976629497 
-0.000164284884639803 
-7.072879443713911e-05 
1.383430413542147e-05 
4.346904895655782e-05 
0.000359255916062183 
0.0003797462983651228 
0.0009605274942200224 
0 
-0.0007895590147855381 
-0.0003797462983651228 
0.0009605274942200224 
-4.346904895655782e-05 
0.000359255916062183 
7.072879443713911e-05 
1.383430413542147e-05 
-7.51575003503454e-05 
4.979142298136086e-05 
0.0003696569410874133 
0.0002303695378028309 
0.00101839058418528 
-0.002807678282592981 
0 
-0.004507385072030114 
-0.00101839058418528 
-0.002807678282592981 
-0.0003696569410874133 
0.0002303695378028309 
7.51575003503454e-05 
4.979142298136086e-05 
7.161228564780468e-05 
3.339714823429925e-05 
0.0003735570696630595 
-7.857133185834243e-05 
0.002041643975427506 
-0.00301892638107105 
0 
-0.006773056423758929 
-0.002041643975427506 
-0.00301892638107105 
-0.0003735570696630595 
-7.857133185834243e-05 
-7.161228564780468e-05 
3.339714823429925e-05 
5.613546596876057e-05 
6.587882977301719e-05 
0.0005803096483603954 
-0.0006299760736481274 
0.0003069822949729002 
-0.002336598729759637 
0 
-0.008083609602759915 
-0.0003069822949729002 
-0.002336598729759637 
-0.0005803096483603954 
-0.0006299760736481274 
-5.613546596876057e-05 
6.587882977301719e-05 
-0.0002086210812383181 
0.0001178405584156754 
-5.371947164675643e-06 
0.0008006683282683416 
0.001517358850319225 
0.0009155409739241773 
0 
-0.001025273022388389 
-0.001517358850319225 
0.0009155409739241773 
5.371947164675643e-06 
0.0008006683282683416 
0.0002086210812383181 
0.0001178405584156754 
0.0001136464172774691 
3.101286863184587e-05 
0.0006208727474693948 
-0.0003058774479629659 
0.002979458997815204 
-0.003592061874908127 
0 
-0.01357612899676936 
-0.002979458997815204 
-0.003592061874908127 
-0.0006208727474693948 
-0.0003058774479629659 
-0.0001136464172774691 
3.101286863184587e-05 
1.318695689980443e-05 
-0.0001993532317726108 
0.0002111621652343049 
-0.0002006469752121123 
0.004178685381724358 
-0.004390039727178508 
0 
-0.02106389208354975 
-0.004178685381724358 
-0.004390039727178508 
-0.0002111621652343049 
-0.0002006469752121123 
-1.318695689980443e-05 
-0.0001993532317726108 
-2.950711406044968e-05 
-6.139913370859654e-05 
1.214262043269282e-05 
-0.0003499016423234138 
0.0003122607751650127 
-0.001390539999271227 
0 
-0.003676130929377474 
-0.0003122607751650127 
-0.001390539999271227 
-1.214262043269282e-05 
-0.0003499016423234138 
2.950711406044968e-05 
-6.139913370859654e-05 
-5.582689730385524e-06 
-5.843758468775524e-05 
-0.0002313283388058387 
-0.000323944041819314 
0.0001352877486165995 
-0.0004627732719355844 
0 
-0.003318615296566705 
-0.0001352877486165995 
-0.0004627732719355844 
0.0002313283388058387 
-0.000323944041819314 
5.582689730385524e-06 
-5.843758468775524e-05 
4.475780229819264e-05 
6.784538284858988e-05 
0.0002952791689748046 
-0.0001720159515309608 
0.002321644315213086 
-0.0008062321701196226 
0 
-0.00715430639555078 
-0.002321644315213086 
-0.0008062321701196226 
-0.0002952791689748046 
-0.0001720159515309608 
-4.475780229819264e-05 
6.784538284858988e-05 
9.670064565261008e-05 
8.510032495848759e-05 
0.0003886893941819394 
0.0006015315265482 
0.00122314042506819 
0.001325458678467116 
0 
0.003533315882543771 
-0.00122314042506819 
0.001325458678467116 
-0.0003886893941819394 
0.0006015315265482 
-9.670064565261008e-05 
8.510032495848759e-05 
0.0001236788974992457 
-4.54343664547585e-05 
-4.174551151399883e-06 
-0.0003853761516801749 
-0.0003079745122555829 
-0.001146751379734868 
0 
-0.002525626999705682 
0.0003079745122555829 
-0.001146751379734868 
4.174551151399883e-06 
-0.0003853761516801749 
-0.0001236788974992457 
-4.54343664547585e-05 
-0.000204262230747975 
2.959868492660776e-05 
-0.0003044458871486576 
0.0002951923417447148 
-0.001927563936532188 
0.003623355922983502 
0 
0.007445866986563971 
0.001927563936532188 
0.003623355922983502 
0.0003044458871486576 
0.0002951923417447148 
0.000204262230747975 
2.959868492660776e-05 
-8.167109563079068e-05 
-0.0001064514938878189 
-0.0001861860457561724 
0.0002657730210192451 
0.00246750968302322 
-0.001061062698242363 
0 
-0.01012675300217377 
-0.00246750968302322 
-0.001061062698242363 
0.0001861860457561724 
0.0002657730210192451 
8.167109563079068e-05 
-0.0001064514938878189 
5.333568674505694e-05 
2.669929958711421e-06 
0.00047363011516731 
-2.748370766821895e-05 
0.001047637161424371 
-0.002690162587418247 
0 
-0.00491561006074057 
-0.001047637161424371 
-0.002690162587418247 
-0.00047363011516731 
-2.748370766821895e-05 
-5.333568674505694e-05 
2.669929958711421e-06 
-0.0001522734490654437 
0.0002925970208465347 
1.996100591565703e-05 
0.002176066835792706 
0.00295020034269862 
0.005172067223232542 
0 
0.01472097563245995 
-0.00295020034269862 
0.005172067223232542 
-1.996100591565703e-05 
0.002176066835792706 
0.0001522734490654437 
0.0002925970208465347 
5.38430032540525e-05 
1.942348707938181e-05 
0.000764008445887268 
0.000274267764022066 
0.002425314993072045 
-0.003682474837398962 
0 
-0.004209729746224291 
-0.002425314993072045 
-0.003682474837398962 
-0.000764008445887268 
0.000274267764022066 
-5.38430032540525e-05 
1.942348707938181e-05 
3.895853126391329e-05 
-7.081500425455614e-05 
0.0004049532681773766 
-2.329480062860032e-05 
0.001567882401582784 
-0.003110469671980378 
0 
-0.006487709346843769 
-0.001567882401582784 
-0.003110469671980378 
-0.0004049532681773766 
-2.329480062860032e-05 
-3.895853126391329e-05 
-7.081500425455614e-05 
-6.328349471571629e-05 
-5.434239053675424e-05 
-0.0001161132959928864 
1.358652684659755e-05 
0.000427246762145077 
0.0005775570876762091 
0 
-0.003114018136503327 
-0.000427246762145077 
0.0005775570876762091 
0.0001161132959928864 
1.358652684659755e-05 
6.328349471571629e-05 
-5.434239053675424e-05 
-3.945394294736744e-05 
-7.418110320542332e-05 
0.0003500535159453936 
-0.0002543760471443684 
0.002437868606542287 
-0.004655505840193769 
0 
-0.01690975017514013 
-0.002437868606542287 
-0.004655505840193769 
-0.0003500535159453936 
-0.0002543760471443684 
3.945394294736744e-05 
-7.418110320542332e-05 
3.307922754669035e-05 
6.931202134111032e-05 
0.0004495817340012508 
0.000110038217232635 
0.003020176035656344 
-0.00197181151744421 
0 
-0.009131372930973481 
-0.003020176035656344 
-0.00197181151744421 
-0.0004495817340012508 
0.000110038217232635 
-3.307922754669035e-05 
6.931202134111032e-05 
-0.0001054439162590332 
-0.0001201928175254372 
-0.0005008145872428296 
0.0002342273117622525 
0.001752185067397176 
0.0005632076062970404 
0 
-0.003661057753200706 
-0.001752185067397176 
0.0005632076062970404 
0.0005008145872428296 
0.0002342273117622525 
0.0001054439162590332 
-0.0001201928175254372 
0.0001488702429299408 
2.643928350308894e-05 
0.0008504837075302909 
-0.000431868204057899 
0.0007867228461828576 
-0.003805455028459695 
0 
-0.008708513548615399 
-0.0007867228461828576 
-0.003805455028459695 
-0.0008504837075302909 
-0.000431868204057899 
-0.0001488702429299408 
2.643928350308894e-05 
-0.0001063469151918094 
0.0001026250447845686 
0.0003892965616878899 
0.001055480226567756 
0.004462265445248056 
-0.001877958897059997 
0 
-0.009099793373833048 
-0.004462265445248056 
-0.001877958897059997 
-0.0003892965616878899 
0.001055480226567756 
0.0001063469151918094 
0.0001026250447845686 
-5.098631873808063e-05 
-0.0001685916164706349 
-0.0007584679240939491 
-0.0003575631181826558 
-0.0007915556604434375 
0.001035904750202218 
0 
-0.002102128227373003 
0.0007915556604434375 
0.001035904750202218 
0.0007584679240939491 
-0.0003575631181826558 
5.098631873808063e-05 
-0.0001685916164706349 
-8.648091376065719e-05 
2.708374518976024e-05 
-0.0003898344861313711 
0.000195116056137584 
-0.001610554836451181 
0.003472292662420443 
0 
0.01247200298258398 
0.001610554836451181 
0.003472292662420443 
0.0003898344861313711 
0.000195116056137584 
8.648091376065719e-05 
2.708374518976024e-05 
0.000282430214132557 
8.238450576585375e-05 
0.001628488145364463 
-0.0008748651791215105 
0.0002817010785354935 
-0.007985139919675539 
0 
-0.011319648346615 
-0.0002817010785354935 
-0.007985139919675539 
-0.001628488145364463 
-0.0008748651791215105 
-0.000282430214132557 
8.238450576585375e-05 
-7.036471977204759e-05 
6.339151672973726e-05 
0.0007920723988944013 
0.000701912935439435 
0.004643659906197731 
-0.005647019733852191 
0 
-0.01332280316654014 
-0.004643659906197731 
-0.005647019733852191 
-0.0007920723988944013 
0.000701912935439435 
7.036471977204759e-05 
6.339151672973726e-05 
-7.470844975176189e-06 
1.74947717388278e-05 
0.0001182586127749498 
0.0004249005257006947 
0.005157157876642992 
-0.003486223310178067 
0 
-0.01888915534695464 
-0.005157157876642992 
-0.003486223310178067 
-0.0001182586127749498 
0.0004249005257006947 
7.470844975176189e-06 
1.74947717388278e-05 
-0.0001935024697894694 
-0.000114222880219194 
-0.001284915023310315 
0.0006652593528949326 
-0.00260830671149596 
0.005167919850941471 
0 
0.01604549310556849 
0.00260830671149596 
0.005167919850941471 
0.001284915023310315 
0.0006652593528949326 
0.0001935024697894694 
-0.000114222880219194 
1.900464482352332e-05 
-4.21447803801373e-05 
-0.0003590031311405867 
7.850801561862617e-05 
-0.0004722624821405105 
0.0004764110294702624 
0 
0.00129002961304557 
0.0004722624821405105 
0.0004764110294702624 
0.0003590031311405867 
7.850801561862617e-05 
-1.900464482352332e-05 
-4.21447803801373e-05 
-9.657552646811285e-05 
2.992738074443372e-05 
0.0004288752910387575 
0.0008335169142120703 
0.004311092002235238 
-0.001942155706208834 
0 
-0.01134499489798531 
-0.004311092002235238 
-0.001942155706208834 
-0.0004288752910387575 
0.0008335169142120703 
9.657552646811285e-05 
2.992738074443372e-05 
0.0001391906237039564 
8.783735138503318e-05 
0.0009732564082029742 
6.671897624404712e-05 
0.004605029598298132 
-0.005278029365046896 
0 
-0.01482068503204898 
-0.004605029598298132 
-0.005278029365046896 
-0.0009732564082029742 
6.671897624404712e-05 
-0.0001391906237039564 
8.783735138503318e-05 
0.0002608118698314903 
1.584144186088732e-05 
0.0008143566281263787 
-0.0006163049184126478 
0.002463700909450119 
-0.005007270477119213 
0 
-0.0111983236908551 
-0.002463700909450119 
-0.005007270477119213 
-0.0008143566281263787 
-0.0006163049184126478 
-0.0002608118698314903 
1.584144186088732e-05 
-0.000203703497151111 
0.0001876952516797924 
1.375425798861267e-05 
0.001772060381669858 
0.003240228382964468 
0.002483985393873504 
0 
0.003220592942795652 
-0.003240228382964468 
0.002483985393873504 
-1.375425798861267e-05 
0.001772060381669858 
0.000203703497151111 
0.0001876952516797924 
1.044752191271506e-06 
-6.081008512838825e-05 
0.0006040866234864123 
0.0003511612945466177 
0.003743475436727482 
-0.004289303448816903 
0 
-0.01532386796654673 
-0.003743475436727482 
-0.004289303448816903 
-0.0006040866234864123 
0.0003511612945466177 
-1.044752191271506e-06 
-6.081008512838825e-05 
5.988269979953544e-05 
2.749330205414571e-05 
0.00107626533897072 
0.0003667431889849022 
0.00622434795358027 
-0.006144112051176522 
0 
-0.02395030833131297 
-0.00622434795358027 
-0.006144112051176522 
-0.00107626533897072 
0.0003667431889849022 
-5.988269979953544e-05 
2.749330205414571e-05 
6.464703534827145e-06 
-4.35242939093585e-05 
0.0007934725189399292 
-7.990957517602804e-06 
0.003112493059900369 
-0.003541262184308888 
0 
-0.01650812073555175 
-0.003112493059900369 
-0.003541262184308888 
-0.0007934725189399292 
-7.990957517602804e-06 
-6.464703534827145e-06 
-4.35242939093585e-05 
-0.0001892787451713006 
2.630438381826956e-05 
-0.0009964437495094088 
0.000980295753126411 
-0.001158126985189926 
0.00818263756704617 
0 
0.01456616029431756 
0.001158126985189926 
0.00818263756704617 
0.0009964437495094088 
0.000980295753126411 
0.0001892787451713006 
2.630438381826956e-05 
-0.0002029963117386352 
-2.228248420471003e-05 
-0.0001444641266249623 
0.0001726259461420539 
0.0006356782672238348 
-0.0007202963715467053 
0 
-0.007652610315949867 
-0.0006356782672238348 
-0.0007202963715467053 
0.0001444641266249623 
0.0001726259461420539 
0.0002029963117386352 
-2.228248420471003e-05 
-1.703468684422547e-06 
0.0001115437555473466 
0.0001872933802069794 
0.0003576478253565192 
0.001604215059969357 
0.0002225704076550776 
0 
-0.005096023235444825 
-0.001604215059969357 
0.0002225704076550776 
-0.0001872933802069794 
0.0003576478253565192 
1.703468684422547e-06 
0.0001115437555473466 
0.0001107171906035739 
-0.0001829853811109505 
-0.0002530419390721139 
-0.0009027917032493497 
-0.002133371332355914 
0.0005591975800878059 
0 
0.001197343514661756 
0.002133371332355914 
0.0005591975800878059 
0.0002530419390721139 
-0.0009027917032493497 
-0.0001107171906035739 
-0.0001829853811109505 
0.0001762147414101295 
7.833070461173134e-05 
0.0004659009211654279 
-0.0004456218431404721 
0.001001114646343925 
-0.001819964511512818 
0 
-0.003296840553947977 
-0.001001114646343925 
-0.001819964511512818 
-0.0004659009211654279 
-0.0004456218431404721 
-0.0001762147414101295 
7.833070461173134e-05 
-7.357189675216792e-05 
7.632450994626926e-05 
0.0002497690130324281 
0.0005692236799418625 
0.003706285202083723 
-0.002075265012366915 
0 
-0.007690697353357415 
-0.003706285202083723 
-0.002075265012366915 
-0.0002497690130324281 
0.0005692236799418625 
7.357189675216792e-05 
7.632450994626926e-05 
0.0001827270085883569 
-0.0001566241176603498 
0.0002979695764133172 
-0.001367775068725413 
-0.0002180573859568498 
-0.004850991195264227 
0 
-0.01261537751825661 
0.0002180573859568498 
-0.004850991195264227 
-0.0002979695764133172 
-0.001367775068725413 
-0.0001827270085883569 
-0.0001566241176603498 
-0.0001693838923416666 
4.307083069790339e-05 
-0.0004981861316056142 
0.0008567342469483949 
0.002701414051386526 
0.002957912970519707 
0 
-0.0008630474859070589 
-0.002701414051386526 
0.002957912970519707 
0.0004981861316056142 
0.0008567342469483949 
0.0001693838923416666 
4.307083069790339e-05 
-4.175294591924728e-05 
-8.866170851257246e-05 
-0.0001229442934487958 
0.0005536254870728621 
0.003519275239558009 
-0.002107861452491023 
0 
-0.008814601279230705 
-0.003519275239558009 
-0.002107861452491023 
0.0001229442934487958 
0.0005536254870728621 
4.175294591924728e-05 
-8.866170851257246e-05 
0.0001349849259692076 
3.606069977400149e-05 
0.0005700275768947775 
-0.0002037509767271943 
0.002559603263645193 
-0.003510640674194126 
0 
-0.01080620375826042 
-0.002559603263645193 
-0.003510640674194126 
-0.0005700275768947775 
-0.0002037509767271943 
-0.0001349849259692076 
3.606069977400149e-05 
-0.0001792704766998233 
0.0001405611728897545 
-8.434482655007425e-05 
0.001113984745861367 
0.00233466520629632 
0.00228488649655709 
0 
-0.002931093861175116 
-0.00233466520629632 
0.00228488649655709 
8.434482655007425e-05 
0.001113984745861367 
0.0001792704766998233 
0.0001405611728897545 
0.0001222475517625674 
2.653912825370992e-05 
0.0003048316026059376 
-0.0002372125744766064 
-0.0002006515266679588 
-1.005968706485247e-05 
0 
-0.003826292971101526 
0.0002006515266679588 
-1.005968706485247e-05 
-0.0003048316026059376 
-0.0002372125744766064 
-0.0001222475517625674 
2.653912825370992e-05 
0.000171919842864429 
9.551333932396219e-05 
0.0006143529498301433 
-0.0004209441691334821 
-0.0009778586960260782 
-0.001558616168282189 
0 
0.001840882701036288 
0.0009778586960260782 
-0.001558616168282189 
-0.0006143529498301433 
-0.0004209441691334821 
-0.000171919842864429 
9.551333932396219e-05 
0.0002293961968412245 
8.684392986562822e-05 
0.000514482212568872 
-0.0007675086758044556 
-0.0005227630902916356 
-0.002412671310865383 
0 
-0.004489638853626008 
0.0005227630902916356 
-0.002412671310865383 
-0.000514482212568872 
-0.0007675086758044556 
-0.0002293961968412245 
8.684392986562822e-05 
-0.0001131072299722258 
0.0001455181092048478 
0.0006324472559232284 
0.0002423359547680233 
0.001302471950925027 
-0.0007034637692288873 
0 
-0.003932003355737446 
-0.001302471950925027 
-0.0007034637692288873 
-0.0006324472559232284 
0.0002423359547680233 
0.0001131072299722258 
0.0001455181092048478 
-0.0001286039009622971 
-0.0002448661729901316 
-0.0007085147741161183 
7.302812175520774e-05 
0.001365899008283749 
-0.000533715219311325 
0 
-0.009130114947451874 
-0.001365899008283749 
-0.000533715219311325 
0.0007085147741161183 
7.302812175520774e-05 
0.0001286039009622971 
-0.0002448661729901316 
-0.0001370610005447592 
-1.906871609872906e-05 
-0.0001212349310747441 
0.0002931964502932141 
0.0008487234622878949 
-8.429743068107317e-05 
0 
-0.002626296433878688 
-0.0008487234622878949 
-8.429743068107317e-05 
0.0001212349310747441 
0.0002931964502932141 
0.0001370610005447592 
-1.906871609872906e-05 
0.0001030614242139842 
-6.678130643056309e-05 
0.0002985179302445054 
-0.0006128062913167361 
-0.002116223615550101 
-0.001748412324803316 
0 
0.0003076442877961014 
0.002116223615550101 
-0.001748412324803316 
-0.0002985179302445054 
-0.0006128062913167361 
-0.0001030614242139842 
-6.678130643056309e-05 
0.0001241246743113994 
4.730787890701885e-05 
0.0004846205317030852 
-0.0009339414626448356 
-0.002517488682359408 
-0.00145963534471004 
0 
0.004129219532092417 
0.002517488682359408 
-0.00145963534471004 
-0.0004846205317030852 
-0.0009339414626448356 
-0.0001241246743113994 
4.730787890701885e-05 
0.0001032378234645219 
0.0001473686638529335 
0.0004796862706577162 
-0.000101410680817393 
0.0009552248719111856 
-0.001366970952802813 
0 
-0.00421669977294441 
-0.0009552248719111856 
-0.001366970952802813 
-0.0004796862706577162 
-0.000101410680817393 
-0.0001032378234645219 
0.0001473686638529335 
-1.620464688919612e-05 
0.0002135481918634711 
0.0008718572889362251 
0.0006746611976703777 
0.003434555427910396 
-0.001048131721184829 
0 
-0.009613112300661478 
-0.003434555427910396 
-0.001048131721184829 
-0.0008718572889362251 
0.0006746611976703777 
1.620464688919612e-05 
0.0002135481918634711 
0.0002084050124235679 
-6.423033181556283e-05 
0.0006383181935224846 
-0.001136719529967856 
-0.0024088221611756 
-0.004024985614669256 
0 
-0.002593066745370507 
0.0024088221611756 
-0.004024985614669256 
-0.0006383181935224846 
-0.001136719529967856 
-0.0002084050124235679 
-6.423033181556283e-05 
-5.168708401900122e-05 
2.34754962658396e-05 
0.0002982725350605087 
-4.439953041419666e-05 
0.00179222059742303 
-0.001170762272005033 
0 
-0.008205390027210784 
-0.00179222059742303 
-0.001170762272005033 
-0.0002982725350605087 
-4.439953041419666e-05 
5.168708401900122e-05 
2.34754962658396e-05 
6.513877577360112e-06 
9.564527115235312e-06 
-0.0002412677518194505 
-0.0001469174240773994 
0.001286302237145088 
0.0009357744031292426 
0 
-0.006983403346339088 
-0.001286302237145088 
0.0009357744031292426 
0.0002412677518194505 
-0.0001469174240773994 
-6.513877577360112e-06 
9.564527115235312e-06 
-9.425308816686577e-06 
0.0002093374343417459 
0.0001070984745153787 
0.0009020362018564953 
0.001088744301726493 
0.003011044629013983 
0 
0.003635100908955002 
-0.001088744301726493 
0.003011044629013983 
-0.0001070984745153787 
0.0009020362018564953 
9.425308816686577e-06 
0.0002093374343417459 
0.0001563611258156346 
-0.0001759942570265676 
0.0003190195499233257 
-0.0008704456937073921 
-0.001226624481756118 
-0.004243390612784389 
0 
-0.007492057416890231 
0.001226624481756118 
-0.004243390612784389 
-0.0003190195499233257 
-0.0008704456937073921 
-0.0001563611258156346 
-0.0001759942570265676 
-1.34464446902815e-06 
3.218721912464334e-06 
0.0002510942045251297 
2.200125077189843e-05 
0.001425752102366899 
-0.002331773189594411 
0 
-0.007004903161011045 
-0.001425752102366899 
-0.002331773189594411 
-0.0002510942045251297 
2.200125077189843e-05 
1.34464446902815e-06 
3.218721912464334e-06 
0.0001328138564447694 
6.607353557201184e-05 
0.0002348374893349264 
-0.0002149467531239315 
0.0005457290663323116 
-0.001217139987968209 
0 
-0.0004685667041692801 
-0.0005457290663323116 
-0.001217139987968209 
-0.0002348374893349264 
-0.0002149467531239315 
-0.0001328138564447694 
6.607353557201184e-05 
0.0001190663386604018 
4.680611979956157e-05 
0.0008125450168921895 
-2.248301182570989e-06 
0.002195891057096703 
-0.003065369070067359 
0 
-0.008015720055780452 
-0.002195891057096703 
-0.003065369070067359 
-0.0008125450168921895 
-2.248301182570989e-06 
-0.0001190663386604018 
4.680611979956157e-05 
-2.804630383636059e-06 
0.0001831102086399696 
0.0004119915017556633 
0.000635641514036586 
0.001214841574360278 
0.0004593184499449622 
0 
0.001126339242371301 
-0.001214841574360278 
0.0004593184499449622 
-0.0004119915017556633 
0.000635641514036586 
2.804630383636059e-06 
0.0001831102086399696 
0.0001386573821655263 
2.587451476552325e-05 
0.0006453503795084555 
-0.0008492784114415278 
-0.001592559848442884 
-0.002935053363805754 
0 
-0.003988776977676135 
0.001592559848442884 
-0.002935053363805754 
-0.0006453503795084555 
-0.0008492784114415278 
-0.0001386573821655263 
2.587451476552325e-05 
-0.0001274189020996295 
-0.0001470245296130397 
-0.0006032169288222057 
0.0001572795342722923 
0.0003340456361033621 
0.001383723090931845 
0 
-0.002222894966694697 
-0.0003340456361033621 
0.001383723090931845 
0.0006032169288222057 
0.0001572795342722923 
0.0001274189020996295 
-0.0001470245296130397 
-1.743162029854641e-05 
4.301958399165066e-05 
7.262768641670846e-05 
-0.0005039111449714406 
0.0004421558080976899 
-0.0004302523022194588 
0 
-0.006920819724387299 
-0.0004421558080976899 
-0.0004302523022194588 
-7.262768641670846e-05 
-0.0005039111449714406 
1.743162029854641e-05 
4.301958399165066e-05 
-6.856453708468054e-05 
-0.0001170159440960548 
2.270152653760432e-05 
-0.0006585809267503175 
-0.001328532255484544 
-0.001260679443345461 
0 
-0.004758846292285204 
0.001328532255484544 
-0.001260679443345461 
-2.270152653760432e-05 
-0.0006585809267503175 
6.856453708468054e-05 
-0.0001170159440960548 
-8.771713469375451e-05 
4.489920629589411e-05 
0.0004075135148891172 
1.013807279251439e-05 
-0.0007505409407951087 
-0.0008422925169854833 
0 
0.002216126174283345 
0.0007505409407951087 
-0.0008422925169854833 
-0.0004075135148891172 
1.013807279251439e-05 
8.771713469375451e-05 
4.489920629589411e-05 
-8.878747852925515e-05 
2.673696260754823e-05 
-3.76874276702009e-05 
3.260800096517761e-05 
-0.0003905611589159368 
-0.0006027099153645741 
0 
0.0003616701376026347 
0.0003905611589159368 
-0.0006027099153645741 
3.76874276702009e-05 
3.260800096517761e-05 
8.878747852925515e-05 
2.673696260754823e-05 
-4.785567309194891e-05 
-0.0001192546551992409 
-4.577409859205871e-05 
5.391957381573022e-05 
-0.0003197666858809227 
-0.001142199182144019 
0 
-0.000927034727211028 
0.0003197666858809227 
-0.001142199182144019 
4.577409859205871e-05 
5.391957381573022e-05 
4.785567309194891e-05 
-0.0001192546551992409 
9.720502464718156e-05 
-4.944302509395812e-05 
0.0005617945156874179 
-0.0002413502756544593 
0.0002497556765190765 
-0.002624197120347185 
0 
-0.004550204240598592 
-0.0002497556765190765 
-0.002624197120347185 
-0.0005617945156874179 
-0.0002413502756544593 
-9.720502464718156e-05 
-4.944302509395812e-05 
0.0001590106076834292 
-0.0001733269879380774 
0.0003299590781945276 
-0.00100332626660726 
-0.002030984505891955 
-0.004770966395622409 
0 
-0.001819052026868919 
0.002030984505891955 
-0.004770966395622409 
-0.0003299590781945276 
-0.00100332626660726 
-0.0001590106076834292 
-0.0001733269879380774 
-5.954066377912371e-05 
-4.711092736843244e-05 
9.287914357301427e-05 
-7.697904412254936e-05 
0.0001552238076171023 
-0.0009239512640895893 
0 
-0.0009675411309355602 
-0.0001552238076171023 
-0.0009239512640895893 
-9.287914357301427e-05 
-7.697904412254936e-05 
5.954066377912371e-05 
-4.711092736843244e-05 
8.332133855268378e-05 
-9.983176353269604e-05 
0.0002410810623871126 
-2.913824413147356e-05 
0.002581677794161982 
-0.001653969937584889 
0 
-0.01084575638148089 
-0.002581677794161982 
-0.001653969937584889 
-0.0002410810623871126 
-2.913824413147356e-05 
-8.332133855268378e-05 
-9.983176353269604e-05 
4.452024616739e-05 
-7.975537958290219e-05 
-0.0003055149881845744 
-0.0001174956106997352 
-1.838634258711916e-05 
0.0004819981595982771 
0 
0.0007996498220720638 
1.838634258711916e-05 
0.0004819981595982771 
0.0003055149881845744 
-0.0001174956106997352 
-4.452024616739e-05 
-7.975537958290219e-05 
0.0001311024569038987 
-9.279966339293321e-05 
9.353801253430442e-05 
-0.000927043840241929 
-0.002311077133467575 
-0.001425844746704105 
0 
-0.0004489205999604274 
0.002311077133467575 
-0.001425844746704105 
-9.353801253430442e-05 
-0.000927043840241929 
-0.0001311024569038987 
-9.279966339293321e-05 
3.770364754179751e-05 
-0.0001003517230593761 
-0.0001391477585653345 
-5.364737403109423e-05 
0.0009895436638422089 
-0.001621974063789661 
0 
-0.002573251618457436 
-0.0009895436638422089 
-0.001621974063789661 
0.0001391477585653345 
-5.364737403109423e-05 
-3.770364754179751e-05 
-0.0001003517230593761 
-8.892650598604693e-05 
6.017455098158911e-05 
-0.0005072899211866251 
0.0006100908356846672 
0.001104918120435111 
0.0038716132915639 
0 
0.004751987549055433 
-0.001104918120435111 
0.0038716132915639 
0.0005072899211866251 
0.0006100908356846672 
8.892650598604693e-05 
6.017455098158911e-05 
-6.744314626567992e-05 
-0.0001268780433798906 
-0.0006203239483156481 
1.124390994586089e-05 
-0.0004459950835133063 
0.001773501257631245 
0 
0.00270197092240752 
0.0004459950835133063 
0.001773501257631245 
0.0006203239483156481 
1.124390994586089e-05 
6.744314626567992e-05 
-0.0001268780433798906 
-9.101461401593802e-05 
0.0001136145101659588 
-4.791087477965376e-05 
0.0001468467832630543 
-0.001011656838053547 
0.0009024569186478704 
0 
0.005691383374989067 
0.001011656838053547 
0.0009024569186478704 
4.791087477965376e-05 
0.0001468467832630543 
9.101461401593802e-05 
0.0001136145101659588 
6.836193405971104e-05 
9.700494705552314e-05 
0.001073514235064947 
-0.0004390260977791591 
0.0005158325740783242 
-0.004261322000796039 
0 
-0.008803462049335326 
-0.0005158325740783242 
-0.004261322000796039 
-0.001073514235064947 
-0.0004390260977791591 
-6.836193405971104e-05 
9.700494705552314e-05 
0.0001733289401479748 
-8.946156845948798e-05 
0.0001544662851877289 
-0.001048550851669743 
0.0006900998898239192 
-0.003693871829706954 
0 
-0.008429184985277898 
-0.0006900998898239192 
-0.003693871829706954 
-0.0001544662851877289 
-0.001048550851669743 
-0.0001733289401479748 
-8.946156845948798e-05 
1.047918516841124e-05 
0.0003863409497905701 
0.0005954879161492053 
0.001616330768998884 
0.002688555360222174 
0.006434022156973029 
0 
0.01161253644070319 
-0.002688555360222174 
0.006434022156973029 
-0.0005954879161492053 
0.001616330768998884 
-1.047918516841124e-05 
0.0003863409497905701 
-2.51210445747183e-05 
-2.13118957809479e-05 
0.0002571474450639639 
0.0003844805547207151 
0.002834281455891366 
-0.002554455512002478 
0 
-0.008121402949664826 
-0.002834281455891366 
-0.002554455512002478 
-0.0002571474450639639 
0.0003844805547207151 
2.51210445747183e-05 
-2.13118957809479e-05 
0.0001401487555247506 
-2.292840173720864e-05 
0.0007764514848916476 
-0.0003857388448765134 
0.0009731365643931456 
-0.003441700877841148 
0 
-0.00994230333109364 
-0.0009731365643931456 
-0.003441700877841148 
-0.0007764514848916476 
-0.0003857388448765134 
-0.0001401487555247506 
-2.292840173720864e-05 
-8.06386372643035e-07 
9.951455512904832e-05 
0.0003486154868877004 
0.0005349269304031222 
0.003450853828878493 
-0.00023904858508448 
0 
-0.009294958227111896 
-0.003450853828878493 
-0.00023904858508448 
-0.0003486154868877004 
0.0005349269304031222 
8.06386372643035e-07 
9.951455512904832e-05 
1.397781908696161e-05 
-6.206905541698e-05 
2.989454697134338e-05 
-0.0001341350053037814 
0.002997219682196617 
-0.002002872526969215 
0 
-0.01666725214642718 
-0.002997219682196617 
-0.002002872526969215 
-2.989454697134338e-05 
-0.0001341350053037814 
-1.397781908696161e-05 
-6.206905541698e-05 
1.072767233252448e-05 
7.462542855412407e-06 
0.0001339941886178624 
0.0001177568099337697 
0.002929402536385731 
-0.002538885333614469 
0 
-0.009765208729168657 
-0.002929402536385731 
-0.002538885333614469 
-0.0001339941886178624 
0.0001177568099337697 
-1.072767233252448e-05 
7.462542855412407e-06 
2.676883080829429e-05 
7.622130814912521e-05 
-0.000169921674357081 
0.0003719361594190847 
0.001562217850294162 
0.002495464261791776 
0 
-0.002650721646110733 
-0.001562217850294162 
0.002495464261791776 
0.000169921674357081 
0.0003719361594190847 
-2.676883080829429e-05 
7.622130814912521e-05 
5.191650558008079e-05 
-2.42520942920889e-06 
9.621009076350213e-05 
-0.0003057749633286495 
-0.001641343194637545 
-0.000133332310994681 
0 
0.005402740802366815 
0.001641343194637545 
-0.000133332310994681 
-9.621009076350213e-05 
-0.0003057749633286495 
-5.191650558008079e-05 
-2.42520942920889e-06 
-9.680471951976079e-05 
2.335767221508908e-05 
0.0005064200559113797 
0.000288703929380334 
-0.00104625486267652 
-0.001385749136573247 
0 
0.003013303450164622 
0.00104625486267652 
-0.001385749136573247 
-0.0005064200559113797 
0.000288703929380334 
9.680471951976079e-05 
2.335767221508908e-05 
-0.000215646833954358 
-0.0002580935785508945 
-0.001488739210058973 
5.462084144388421e-07 
-0.003987084033873435 
0.004263010282020957 
0 
0.01148307358587674 
0.003987084033873435 
0.004263010282020957 
0.001488739210058973 
5.462084144388421e-07 
0.000215646833954358 
-0.0002580935785508945 
-1.315032721541209e-05 
0.0001276439140740579 
-0.0002399632169314171 
0.0001290102516802101 
-0.0008634234475583104 
0.003187841862861845 
0 
0.006910434932050043 
0.0008634234475583104 
0.003187841862861845 
0.0002399632169314171 
0.0001290102516802101 
1.315032721541209e-05 
0.0001276439140740579 
0.0001331439301060552 
-3.921146388207621e-05 
0.0004432367810035879 
-0.0006019353190950641 
-0.00100301853799277 
-0.004067365085749538 
0 
-0.003310131601421852 
0.00100301853799277 
-0.004067365085749538 
-0.0004432367810035879 
-0.0006019353190950641 
-0.0001331439301060552 
-3.921146388207621e-05 
-0.0001993585627292973 
3.323103483747211e-05 
0.0003517788980418576 
0.0005593727694431321 
-0.0001976101632146272 
-0.001179194085752457 
0 
0.004834188958842167 
0.0001976101632146272 
-0.001179194085752457 
-0.0003517788980418576 
0.0005593727694431321 
0.0001993585627292973 
3.323103483747211e-05 
0.0001020034070095832 
5.088184461444983e-05 
0.001164943681013319 
-0.00125891004603505 
-0.0006831185891627828 
-0.007087073790905824 
0 
-0.01473188074626267 
0.0006831185891627828 
-0.007087073790905824 
-0.001164943681013319 
-0.00125891004603505 
-0.0001020034070095832 
5.088184461444983e-05 
-2.137675153493808e-05 
6.648894768640615e-05 
0.0001792797544048712 
-0.0002060874102729105 
-0.001497099737082094 
0.0002544602807304738 
0 
0.00392534366991831 
0.001497099737082094 
0.0002544602807304738 
-0.0001792797544048712 
-0.0002060874102729105 
2.137675153493808e-05 
6.648894768640615e-05 
0.0004152475997376466 
-1.251014722075309e-05 
0.001341582881960129 
-0.001384034380146061 
-0.0007101206083451226 
-0.007025530024441285 
0 
-0.009434985735675933 
0.0007101206083451226 
-0.007025530024441285 
-0.001341582881960129 
-0.001384034380146061 
-0.0004152475997376466 
-1.251014722075309e-05 
2.920440822068854e-05 
0.0003151504873616576 
0.00141219837305169 
0.0003649866843690149 
0.001824770636293198 
-0.002658640109457552 
0 
-0.005937916569625756 
-0.001824770636293198 
-0.002658640109457552 
-0.00141219837305169 
0.0003649866843690149 
-2.920440822068854e-05 
0.0003151504873616576 
-9.749167724293525e-05 
6.823559891964687e-05 
0.0008789137178197879 
0.0007718777822381958 
0.004942220143299205 
-0.004942046116544152 
0 
-0.01615174297645961 
-0.004942220143299205 
-0.004942046116544152 
-0.0008789137178197879 
0.0007718777822381958 
9.749167724293525e-05 
6.823559891964687e-05 
-9.787057290876563e-05 
6.933871733887914e-05 
0.00131243202215592 
-0.0001099127466462604 
0.0008998853404580698 
-0.006423407167471694 
0 
-0.01164918637467421 
-0.0008998853404580698 
-0.006423407167471694 
-0.00131243202215592 
-0.0001099127466462604 
9.787057290876563e-05 
6.933871733887914e-05 
-5.821819574959347e-05 
6.681650747332537e-05 
-0.001074544106190148 
0.0005648784670964614 
0.0005547312692020133 
0.006739316107552941 
0 
0.007085966318637981 
-0.0005547312692020133 
0.006739316107552941 
0.001074544106190148 
0.0005648784670964614 
5.821819574959347e-05 
6.681650747332537e-05 
0.0002108029293068451 
4.69379371214727e-07 
0.0001517218127102158 
-0.0006090989077643557 
-0.001458919921678858 
9.864154358467041e-05 
0 
-0.0006867337734175707 
0.001458919921678858 
9.864154358467041e-05 
-0.0001517218127102158 
-0.0006090989077643557 
-0.0002108029293068451 
4.69379371214727e-07 
3.927442160561487e-05 
0.0001067708069080775 
0.0007234578099560267 
0.0002611444072850184 
0.002954107558159044 
-0.003986021107804077 
0 
-0.01124971267814077 
-0.002954107558159044 
-0.003986021107804077 
-0.0007234578099560267 
0.0002611444072850184 
-3.927442160561487e-05 
0.0001067708069080775 
8.739858658215284e-05 
0.0001614273390484294 
0.001987623434668506 
-0.0004085832841091696 
0.002412655972276138 
-0.008999890282212902 
0 
-0.01490488534667622 
-0.002412655972276138 
-0.008999890282212902 
-0.001987623434668506 
-0.0004085832841091696 
-8.739858658215284e-05 
0.0001614273390484294 
-2.443800333772012e-05 
-8.68490993501396e-05 
-0.001361352865441112 
0.0001905266466713983 
-0.004553213227351637 
0.007499613183223691 
0 
0.02220956463721049 
0.004553213227351637 
0.007499613183223691 
0.001361352865441112 
0.0001905266466713983 
2.443800333772012e-05 
-8.68490993501396e-05 
0.0004127565692732367 
0.0002475312738431954 
0.002018561422069185 
-0.001139886481956463 
0.0003359587821623006 
-0.006869540065743008 
0 
-0.01232366491557813 
-0.0003359587821623006 
-0.006869540065743008 
-0.002018561422069185 
-0.001139886481956463 
-0.0004127565692732367 
0.0002475312738431954 
8.67466399287358e-05 
0.0005519975646432547 
0.001286927080190244 
0.001648255146932943 
0.003203648479180245 
0.002206677117965773 
0 
0.004800287784850964 
-0.003203648479180245 
0.002206677117965773 
-0.001286927080190244 
0.001648255146932943 
-8.67466399287358e-05 
0.0005519975646432547 
4.536463382301875e-05 
-7.299221704426252e-05 
0.000656610733129748 
3.452780343756163e-05 
0.003224710316803185 
-0.005199118952873412 
0 
-0.0140060199400134 
-0.003224710316803185 
-0.005199118952873412 
-0.000656610733129748 
3.452780343756163e-05 
-4.536463382301875e-05 
-7.299221704426252e-05 
-2.054750256923193e-05 
-2.349909616550704e-05 
0.0002327568354991081 
0.0002488400065485354 
0.003261315400105666 
-0.003750050834289265 
0 
-0.01467599739156566 
-0.003261315400105666 
-0.003750050834289265 
-0.0002327568354991081 
0.0002488400065485354 
2.054750256923193e-05 
-2.349909616550704e-05 
0.0001006583562557139 
0.0001103812796551612 
0.0004977381357035793 
0.0004076257227757895 
0.00359404014490007 
-0.001546884410681367 
0 
-0.007905169881920797 
-0.00359404014490007 
-0.001546884410681367 
-0.0004977381357035793 
0.0004076257227757895 
-0.0001006583562557139 
0.0001103812796551612 
0.0001212293952074008 
0.0002807414482073176 
0.0009109335516419632 
0.0004852074653571314 
0.002219047454864535 
0.001163028542217559 
0 
-0.002433758449455686 
-0.002219047454864535 
0.001163028542217559 
-0.0009109335516419632 
0.0004852074653571314 
-0.0001212293952074008 
0.0002807414482073176 
4.728543120992181e-05 
0.0001286015947636483 
0.000579338393938445 
0.0003897359988142018 
0.005758688366455863 
-0.003219145695536711 
0 
-0.01650482565412591 
-0.005758688366455863 
-0.003219145695536711 
-0.000579338393938445 
0.0003897359988142018 
-4.728543120992181e-05 
0.0001286015947636483 
0.000108714053992964 
-1.419783518997047e-05 
0.000970663466460606 
-5.22214240449436e-05 
0.006685299882570824 
-0.006208198706251871 
0 
-0.02766272341170761 
-0.006685299882570824 
-0.006208198706251871 
-0.000970663466460606 
-5.22214240449436e-05 
-0.000108714053992964 
-1.419783518997047e-05 
5.380354165101973e-05 
-1.458716036553266e-05 
0.0002621670732659058 
0.0001301839140199738 
0.004276703834102264 
-0.003108772142212597 
0 
-0.01240799085654089 
-0.004276703834102264 
-0.003108772142212597 
-0.0002621670732659058 
0.0001301839140199738 
-5.380354165101973e-05 
-1.458716036553266e-05 
0.0002124996914295336 
5.955860287249941e-05 
0.001060245130435051 
-0.0008012462801636815 
-0.001852952761959836 
-0.002373756620035423 
0 
-0.002470977728204086 
0.001852952761959836 
-0.002373756620035423 
-0.001060245130435051 
-0.0008012462801636815 
-0.0002124996914295336 
5.955860287249941e-05 
0.0001483810762899865 
0.000289038776296116 
0.0005783564863331355 
0.0005150143966435329 
0.002874464268869081 
0.001187912637640904 
0 
-0.005168639235265309 
-0.002874464268869081 
0.001187912637640904 
-0.0005783564863331355 
0.0005150143966435329 
-0.0001483810762899865 
0.000289038776296116 
9.025250293709486e-05 
3.981726027437382e-05 
0.0004775606285280537 
-7.024810396254606e-05 
0.004352044584173745 
-0.003349536808864253 
0 
-0.01693324926397405 
-0.004352044584173745 
-0.003349536808864253 
-0.0004775606285280537 
-7.024810396254606e-05 
-9.025250293709486e-05 
3.981726027437382e-05 
0.0001096063683655421 
9.136541469744021e-05 
0.0005801610445230704 
-8.520686567928394e-05 
0.005733423046725332 
-0.003565073268510858 
0 
-0.02257722529964619 
-0.005733423046725332 
-0.003565073268510858 
-0.0005801610445230704 
-8.520686567928394e-05 
-0.0001096063683655421 
9.136541469744021e-05 
-2.342737395204728e-05 
0.0001155726456951484 
0.0004613381095233838 
0.0009030013099895479 
0.007029979404784036 
-0.002031047323351868 
0 
-0.01809471847963537 
-0.007029979404784036 
-0.002031047323351868 
-0.0004613381095233838 
0.0009030013099895479 
2.342737395204728e-05 
0.0001155726456951484 
6.46140056984168e-05 
0.0002555522070040999 
0.0009556911992016859 
0.001133925574588004 
0.00407123559367382 
0.001023169284506542 
0 
-0.003100784679934914 
-0.00407123559367382 
0.001023169284506542 
-0.0009556911992016859 
0.001133925574588004 
-6.46140056984168e-05 
0.0002555522070040999 
5.172306806462334e-05 
2.274249468371627e-06 
0.000432036222040758 
0.0001654497300060729 
0.004573694328818751 
-0.00279535192871466 
0 
-0.01581171339040474 
-0.004573694328818751 
-0.00279535192871466 
-0.000432036222040758 
0.0001654497300060729 
-5.172306806462334e-05 
2.274249468371627e-06 
0.0003129250371829764 
-1.506007246898666e-05 
0.0005255099770295245 
-0.0009248913377647968 
0.00307347037777702 
-0.004327515712071258 
0 
-0.01919346913909234 
-0.00307347037777702 
-0.004327515712071258 
-0.0005255099770295245 
-0.0009248913377647968 
-0.0003129250371829764 
-1.506007246898666e-05 
4.194975984747063e-06 
3.838479551924417e-05 
0.0003020406798194315 
0.0003570108093305167 
0.004462114668709548 
-0.002214079512042415 
0 
-0.01627087058092084 
-0.004462114668709548 
-0.002214079512042415 
-0.0003020406798194315 
0.0003570108093305167 
-4.194975984747063e-06 
3.838479551924417e-05 
0.0001480112612362962 
0.0002853912177716064 
0.001024780737383087 
0.0005777427247504709 
0.003836257470586603 
-0.001106465286817793 
0 
-0.007650487799825136 
-0.003836257470586603 
-0.001106465286817793 
-0.001024780737383087 
0.0005777427247504709 
-0.0001480112612362962 
0.0002853912177716064 
-4.97502226540426e-05 
6.802615310443735e-05 
-0.0002187469978411527 
0.0003244948369393111 
0.001350339365663498 
0.001288635817844903 
0 
-0.00229947041661792 
-0.001350339365663498 
0.001288635817844903 
0.0002187469978411527 
0.0003244948369393111 
4.97502226540426e-05 
6.802615310443735e-05 
9.759005590666482e-05 
-5.121147021173974e-05 
0.0001676818557444337 
-0.0001360468269321347 
0.003996788005081509 
-0.003724723164861341 
0 
-0.01563916370508219 
-0.003996788005081509 
-0.003724723164861341 
-0.0001676818557444337 
-0.0001360468269321347 
-9.759005590666482e-05 
-5.121147021173974e-05 
-6.399078258685958e-05 
7.056080342204432e-05 
0.0007709984425969939 
0.0002129811550272056 
0.006223471398021686 
-0.005235036303882131 
0 
-0.02356985617737246 
-0.006223471398021686 
-0.005235036303882131 
-0.0007709984425969939 
0.0002129811550272056 
6.399078258685958e-05 
7.056080342204432e-05 
-7.442308271776102e-06 
-2.460536764197708e-05 
9.921666733412387e-05 
0.0005190334950780617 
0.006250157424637946 
-0.002158448939822723 
0 
-0.01877213527120107 
-0.006250157424637946 
-0.002158448939822723 
-9.921666733412387e-05 
0.0005190334950780617 
7.442308271776102e-06 
-2.460536764197708e-05 
-0.0001089583577795272 
0.0001038718808421213 
-0.0007547483875964894 
0.001436704967240869 
0.001501117088948257 
0.006600092703101709 
0 
0.01097709973442721 
-0.001501117088948257 
0.006600092703101709 
0.0007547483875964894 
0.001436704967240869 
0.0001089583577795272 
0.0001038718808421213 
-6.499844114573916e-05 
0.0001505861680767479 
0.0005898644606123078 
0.0004268621044174493 
0.004045442962332187 
-0.001802573022370033 
0 
-0.01194711290272398 
-0.004045442962332187 
-0.001802573022370033 
-0.0005898644606123078 
0.0004268621044174493 
6.499844114573916e-05 
0.0001505861680767479 
-5.55396962600305e-06 
-0.0001158428823445871 
0.000184168287385358 
0.0002506282630139436 
0.003386151713300488 
-0.0009878963501188736 
0 
-0.01545442151106911 
-0.003386151713300488 
-0.0009878963501188736 
-0.000184168287385358 
0.0002506282630139436 
5.55396962600305e-06 
-0.0001158428823445871 
0.000111037122148064 
-3.972883689356082e-05 
0.0001556986129096094 
-0.0006246236042982495 
0.002151973999161902 
-0.001525675548957017 
0 
-0.01390359509589209 
-0.002151973999161902 
-0.001525675548957017 
-0.0001556986129096094 
-0.0006246236042982495 
-0.000111037122148064 
-3.972883689356082e-05 
0.000309294789554184 
0.0002391803619810571 
0.001104214821030439 
-0.0001391720063301273 
0.001735938198404691 
-0.002433667218749019 
0 
-0.004545187903282208 
-0.001735938198404691 
-0.002433667218749019 
-0.001104214821030439 
-0.0001391720063301273 
-0.000309294789554184 
0.0002391803619810571 
-5.310063063924879e-05 
7.537260141705363e-05 
0.0003303289763786269 
0.0003703302690242001 
0.001357532282732552 
-0.002364802499186483 
0 
-0.005848848916175558 
-0.001357532282732552 
-0.002364802499186483 
-0.0003303289763786269 
0.0003703302690242001 
5.310063063924879e-05 
7.537260141705363e-05 
-9.153205680669206e-06 
2.759906271485636e-05 
0.0006390068082044722 
0.0002304316754156179 
0.003846141893238876 
-0.003692762807975303 
0 
-0.01420157686383476 
-0.003846141893238876 
-0.003692762807975303 
-0.0006390068082044722 
0.0002304316754156179 
9.153205680669206e-06 
2.759906271485636e-05 
-5.566303915274963e-05 
-7.901410256386608e-05 
-1.919434373217716e-05 
-0.0002617525949538723 
0.002792877777846789 
-0.002403158651397798 
0 
-0.01533322026170471 
-0.002792877777846789 
-0.002403158651397798 
1.919434373217716e-05 
-0.0002617525949538723 
5.566303915274963e-05 
-7.901410256386608e-05 
4.672275945966158e-05 
-1.853174109265314e-05 
-4.18569703343911e-05 
-5.571283866847115e-05 
0.001299468538944993 
2.344075752508561e-05 
0 
-0.004968099685221627 
-0.001299468538944993 
2.344075752508561e-05 
4.18569703343911e-05 
-5.571283866847115e-05 
-4.672275945966158e-05 
-1.853174109265314e-05 
-7.525260071228219e-05 
-2.82870478450071e-05 
-0.0009418329809988215 
0.0002303552810653425 
-0.0006614614953538515 
0.004949198856294661 
0 
0.005750941461342206 
0.0006614614953538515 
0.004949198856294661 
0.0009418329809988215 
0.0002303552810653425 
7.525260071228219e-05 
-2.82870478450071e-05 
-1.882425109841762e-05 
-3.022234385027686e-05 
-0.0002682997395982519 
0.0002866200483896065 
0.001779793029433038 
-3.986953071990849e-05 
0 
-0.004793705838822648 
-0.001779793029433038 
-3.986953071990849e-05 
0.0002682997395982519 
0.0002866200483896065 
1.882425109841762e-05 
-3.022234385027686e-05 
0.0001825821610773609 
1.795505269926504e-05 
0.0001246995934570625 
-0.0004069327115125032 
0.002223433009493385 
-0.001716786663395128 
0 
-0.01312000112045919 
-0.002223433009493385 
-0.001716786663395128 
-0.0001246995934570625 
-0.0004069327115125032 
-0.0001825821610773609 
1.795505269926504e-05 
-9.680785103821625e-05 
5.787931249595146e-05 
0.0006449226565917373 
0.0006207076840031229 
0.003525426194541484 
-0.002959090610560799 
0 
-0.01362658852059237 
-0.003525426194541484 
-0.002959090610560799 
-0.0006449226565917373 
0.0006207076840031229 
9.680785103821625e-05 
5.787931249595146e-05 
0.0002553989102261917 
0.0002915369822117481 
0.001225732714296969 
-0.0002425942558270325 
0.0001015393978617777 
-0.0008680351956963993 
0 
-0.0008391943707060223 
-0.0001015393978617777 
-0.0008680351956963993 
-0.001225732714296969 
-0.0002425942558270325 
-0.0002553989102261917 
0.0002915369822117481 
-8.058341787588183e-06 
1.565156256398245e-05 
0.0003832641190993031 
-0.0002502264574415291 
-0.00020737463277786 
-0.001563803878624344 
0 
-0.0008671156115294963 
0.00020737463277786 
-0.001563803878624344 
-0.0003832641190993031 
-0.0002502264574415291 
8.058341787588183e-06 
1.565156256398245e-05 
6.289675022450619e-05 
-9.470955406369068e-05 
-8.329131249679732e-05 
-0.0002662765060513874 
0.001976443586537287 
-0.001836934771050933 
0 
-0.009047029672922537 
-0.001976443586537287 
-0.001836934771050933 
8.329131249679732e-05 
-0.0002662765060513874 
-6.289675022450619e-05 
-9.470955406369068e-05 
4.088244984645496e-06 
-7.341836793875108e-05 
-0.0002565306840313993 
0.0002840074449555316 
0.004482167810834677 
0.0009462326006746149 
0 
-0.01349930501550446 
-0.004482167810834677 
0.0009462326006746149 
0.0002565306840313993 
0.0002840074449555316 
-4.088244984645496e-06 
-7.341836793875108e-05 
2.044105534696316e-05 
-2.366048509785265e-05 
-0.0001855422849923407 
2.491081942783182e-05 
0.0006633372403207441 
0.0002996074030006628 
0 
-0.001488168607686772 
-0.0006633372403207441 
0.0002996074030006628 
0.0001855422849923407 
2.491081942783182e-05 
-2.044105534696316e-05 
-2.366048509785265e-05 
4.096821789310848e-06 
-0.0001037734287966195 
-0.0007857329579236816 
-0.0002975254253398138 
-0.0008802529205360625 
0.002260061244549756 
0 
0.001004468663573639 
0.0008802529205360625 
0.002260061244549756 
0.0007857329579236816 
-0.0002975254253398138 
-4.096821789310848e-06 
-0.0001037734287966195 
7.219034864881865e-05 
-0.0001364644026397992 
-0.0002282384740709891 
-0.0006212057810364897 
-0.001108902052464522 
0.0004319421062549469 
0 
-0.00144234997146104 
0.001108902052464522 
0.0004319421062549469 
0.0002282384740709891 
-0.0006212057810364897 
-7.219034864881865e-05 
-0.0001364644026397992 
-0.0001100629073945288 
-0.0001222596730313859 
-0.0006828305604040617 
0.0005473742252899833 
0.0006693464324128124 
0.001672773411833676 
0 
-0.0008965764556712961 
-0.0006693464324128124 
0.001672773411833676 
0.0006828305604040617 
0.0005473742252899833 
0.0001100629073945288 
-0.0001222596730313859 
-3.552078472595408e-05 
2.051896328944212e-05 
0.0002895682011286722 
4.357173125399385e-05 
0.001687065153233788 
-0.001972622035607871 
0 
-0.005412569207125633 
-0.001687065153233788 
-0.001972622035607871 
-0.0002895682011286722 
4.357173125399385e-05 
3.552078472595408e-05 
2.051896328944212e-05 
0.0001483890436069667 
-0.0001150545663296463 
-0.0002543293398000821 
-0.000633666684257537 
-0.001602670526971561 
7.822300612226219e-05 
0 
0.001822680646168713 
0.001602670526971561 
7.822300612226219e-05 
0.0002543293398000821 
-0.000633666684257537 
-0.0001483890436069667 
-0.0001150545663296463 
2.173681721609819e-05 
1.222328696896781e-05 
-1.699843541842812e-05 
0.0001424107920721623 
0.002406456258569218 
-0.0007791530908171427 
0 
-0.009847542265459966 
-0.002406456258569218 
-0.0007791530908171427 
1.699843541842812e-05 
0.0001424107920721623 
-2.173681721609819e-05 
1.222328696896781e-05 
-5.583128905354945e-06 
-0.0001726936070665744 
0.0002293480545507132 
-7.310638062838645e-05 
-0.0007362327088845665 
-0.002529099141855176 
0 
-0.003033506880601791 
0.0007362327088845665 
-0.002529099141855176 
-0.0002293480545507132 
-7.310638062838645e-05 
5.583128905354945e-06 
-0.0001726936070665744 
3.728906210053842e-05 
0.0002133091587354384 
0.0001758568889306972 
0.001273770169792653 
0.002115646736517001 
0.002769764088147766 
0 
0.009003786784360521 
-0.002115646736517001 
0.002769764088147766 
-0.0001758568889306972 
0.001273770169792653 
-3.728906210053842e-05 
0.0002133091587354384 
8.389497358601012e-05 
-7.05274853701914e-05 
-0.0001156698279782939 
-0.0003865559550295877 
-5.949483832519482e-05 
0.0002854649545753064 
0 
-0.0006281776406379543 
5.949483832519482e-05 
0.0002854649545753064 
0.0001156698279782939 
-0.0003865559550295877 
-8.389497358601012e-05 
-7.05274853701914e-05 
9.434111698084048e-05 
-8.588686597542784e-05 
-0.000112656560816298 
-0.0002446906282853 
0.0006665618396894253 
0.0005217631983964996 
0 
-0.001343982591544309 
-0.0006665618396894253 
0.0005217631983964996 
0.000112656560816298 
-0.0002446906282853 
-9.434111698084048e-05 
-8.588686597542784e-05 
6.920104797781114e-05 
-3.405389399979458e-05 
-0.0003704605300644385 
-0.0003759243972392564 
0.0003478200248789673 
-0.0001917560405031985 
0 
0.0007908380332570063 
-0.0003478200248789673 
-0.0001917560405031985 
0.0003704605300644385 
-0.0003759243972392564 
-6.920104797781114e-05 
-3.405389399979458e-05 
-5.45819872168728e-05 
-9.606693025887637e-05 
0.0002924164474400279 
0.0002392141611374791 
0.002965752286534723 
-0.004232731379415633 
0 
-0.01404933664723296 
-0.002965752286534723 
-0.004232731379415633 
-0.0002924164474400279 
0.0002392141611374791 
5.45819872168728e-05 
-9.606693025887637e-05 
4.499004825938266e-05 
-9.936348201594733e-05 
-0.0001701202941008744 
-0.0006380101097428901 
0.0003812320295078522 
-0.001334348795758131 
0 
-0.005599598672850702 
-0.0003812320295078522 
-0.001334348795758131 
0.0001701202941008744 
-0.0006380101097428901 
-4.499004825938266e-05 
-9.936348201594733e-05 
-0.0002502035699194763 
5.733522818984481e-05 
-0.0001123381993128212 
0.0005674535688498497 
-0.0001227477240059431 
0.002131451564666886 
0 
0.001185261077400881 
0.0001227477240059431 
0.002131451564666886 
0.0001123381993128212 
0.0005674535688498497 
0.0002502035699194763 
5.733522818984481e-05 
-0.0001620761025331344 
-9.965194016386545e-05 
-0.00112400580407995 
0.000558257164816681 
0.0004469940775695519 
0.003729449761012411 
0 
0.002464772553769245 
-0.0004469940775695519 
0.003729449761012411 
0.00112400580407995 
0.000558257164816681 
0.0001620761025331344 
-9.965194016386545e-05 
-7.337925262238932e-05 
9.297880834732231e-05 
0.00111349493788235 
0.0004112173496762738 
0.001448743238625721 
-0.006054880592317023 
0 
-0.005126790139141543 
-0.001448743238625721 
-0.006054880592317023 
-0.00111349493788235 
0.0004112173496762738 
7.337925262238932e-05 
9.297880834732231e-05 
4.538157945520968e-05 
6.037395621459149e-06 
0.000784488928668458 
-0.0005049020213314159 
-0.001299172036627505 
-0.004936282883435096 
0 
-0.001801231308288485 
0.001299172036627505 
-0.004936282883435096 
-0.000784488928668458 
-0.0005049020213314159 
-4.538157945520968e-05 
6.037395621459149e-06 
-0.0001534283478437198 
-7.170832794151804e-05 
-0.001306791582974216 
0.0004216320686078162 
-0.003172496167572324 
0.007212848679667042 
0 
0.01627767870719391 
0.003172496167572324 
0.007212848679667042 
0.001306791582974216 
0.0004216320686078162 
0.0001534283478437198 
-7.170832794151804e-05 
-4.630325572862762e-06 
-0.0003376417953171177 
-0.001000425535285848 
-0.000911425004857563 
-0.003265657808148245 
0.001370832882021957 
0 
0.002275955580848695 
0.003265657808148245 
0.001370832882021957 
0.001000425535285848 
-0.000911425004857563 
4.630325572862762e-06 
-0.0003376417953171177 
0.0001404622155428519 
-0.0002206619254014523 
-0.0002866899563366674 
-0.0002203473086753423 
0.0005672866270449425 
-0.002650719870459961 
0 
-0.003173788132527031 
-0.0005672866270449425 
-0.002650719870459961 
0.0002866899563366674 
-0.0002203473086753423 
-0.0001404622155428519 
-0.0002206619254014523 
0.0001233347760045833 
-1.947002625647646e-07 
0.0009652708176431891 
-0.0005267614177035085 
0.003301595542958744 
-0.006933268412851112 
0 
-0.02070714470771545 
-0.003301595542958744 
-0.006933268412851112 
-0.0009652708176431891 
-0.0005267614177035085 
-0.0001233347760045833 
-1.947002625647646e-07 
-3.042686237006786e-05 
3.126258285838297e-05 
1.552192687908101e-05 
0.000159721287591746 
0.0007624088072180293 
0.0004548051659940579 
0 
-0.003733057977270692 
-0.0007624088072180293 
0.0004548051659940579 
-1.552192687908101e-05 
0.000159721287591746 
3.042686237006786e-05 
3.126258285838297e-05 
-1.93764786431016e-05 
0.00016834761648431 
0.0004760128078637542 
0.0004250847159766776 
0.00109239709047545 
-0.0004551847198471156 
0 
-0.003178600388679527 
-0.00109239709047545 
-0.0004551847198471156 
-0.0004760128078637542 
0.0004250847159766776 
1.93764786431016e-05 
0.00016834761648431 
0.0001082571062532971 
-2.096288472602593e-05 
-0.0001788846399798298 
-0.0001978219128444664 
0.0003420113522236436 
0.0008038850364986996 
0 
-0.002417031811967704 
-0.0003420113522236436 
0.0008038850364986996 
0.0001788846399798298 
-0.0001978219128444664 
-0.0001082571062532971 
-2.096288472602593e-05 
0.0001020319550882168 
0.0001400100016783669 
0.001109683362993708 
-3.655386102890104e-05 
0.006011570082930939 
-0.006574738836022385 
0 
-0.02375031265096367 
-0.006011570082930939 
-0.006574738836022385 
-0.001109683362993708 
-3.655386102890104e-05 
-0.0001020319550882168 
0.0001400100016783669 
6.966022145280577e-05 
2.399730052634766e-05 
0.0005093090882825257 
-1.7450827256516e-05 
0.004330945277582055 
-0.003434911797292518 
0 
-0.01613230713266623 
-0.004330945277582055 
-0.003434911797292518 
-0.0005093090882825257 
-1.7450827256516e-05 
-6.966022145280577e-05 
2.399730052634766e-05 
1.368214864962396e-05 
-2.02926074112217e-05 
5.958130279330028e-05 
-9.959141713352504e-05 
0.0003954025764385393 
-0.001485075453390403 
0 
-0.002303374030614504 
-0.0003954025764385393 
-0.001485075453390403 
-5.958130279330028e-05 
-9.959141713352504e-05 
-1.368214864962396e-05 
-2.02926074112217e-05 
-0.0001610607638585697 
1.686243517306161e-05 
-0.0008549662116202108 
0.0005646707134695105 
-0.0009129710642509439 
0.005432585672986306 
0 
0.00965983293221012 
0.0009129710642509439 
0.005432585672986306 
0.0008549662116202108 
0.0005646707134695105 
0.0001610607638585697 
1.686243517306161e-05 
0.0001699268744454091 
2.496116854932126e-05 
0.0003900748369245976 
-0.0007197521518554718 
0.0001046921925938468 
-0.002319125917597157 
0 
-0.003909086025355675 
-0.0001046921925938468 
-0.002319125917597157 
-0.0003900748369245976 
-0.0007197521518554718 
-0.0001699268744454091 
2.496116854932126e-05 
0.0001189332598441854 
-3.725595476890058e-06 
0.001233376866790913 
-0.0002597397652563133 
0.002304354553618309 
-0.008757478638682018 
0 
-0.01653262973797573 
-0.002304354553618309 
-0.008757478638682018 
-0.001233376866790913 
-0.0002597397652563133 
-0.0001189332598441854 
-3.725595476890058e-06 
4.746750968649209e-06 
-3.588519131146546e-05 
0.0007039708933285556 
-1.124150523239285e-05 
0.001421855509152538 
-0.004057972502017304 
0 
-0.006807717233945125 
-0.001421855509152538 
-0.004057972502017304 
-0.0007039708933285556 
-1.124150523239285e-05 
-4.746750968649209e-06 
-3.588519131146546e-05 
-0.000204169615276817 
0.0005017369235762267 
0.0007139273421731348 
0.001972438957007869 
0.003024171045204945 
0.004084988030581814 
0 
0.005646327237137488 
-0.003024171045204945 
0.004084988030581814 
-0.0007139273421731348 
0.001972438957007869 
0.000204169615276817 
0.0005017369235762267 
-5.164893703215557e-05 
0.0002061948119969439 
0.0001118847682794378 
0.0006711447407299274 
0.0007525352979226075 
0.002317052971129363 
0 
0.003784619249471198 
-0.0007525352979226075 
0.002317052971129363 
-0.0001118847682794378 
0.0006711447407299274 
5.164893703215557e-05 
0.0002061948119969439 
0.0001713560755085767 
0.000125077790588637 
0.000881001486021789 
-0.0001236476250990816 
0.003350949826165556 
-0.003473457641462408 
0 
-0.01123143211090786 
-0.003350949826165556 
-0.003473457641462408 
-0.000881001486021789 
-0.0001236476250990816 
-0.0001713560755085767 
0.000125077790588637 
0.0002135766483406683 
4.853138696271059e-05 
0.0008886990172141984 
-0.0006007729374203409 
0.001704604535082917 
-0.005743958292321345 
0 
-0.01201610855391338 
-0.001704604535082917 
-0.005743958292321345 
-0.0008886990172141984 
-0.0006007729374203409 
-0.0002135766483406683 
4.853138696271059e-05 
7.691028309992465e-05 
-0.0002775637475724655 
-0.0006855281129923488 
-0.0002956584142185966 
0.001164096123309071 
-5.058918013877405e-06 
0 
-0.004704992951350357 
-0.001164096123309071 
-5.058918013877405e-06 
0.0006855281129923488 
-0.0002956584142185966 
-7.691028309992465e-05 
-0.0002775637475724655 
-6.005452608487802e-05 
8.246106250849501e-05 
-7.336182882467964e-05 
0.000792675771125573 
0.0002962686872370584 
0.002893175453816732 
0 
0.008453602720894311 
-0.0002962686872370584 
0.002893175453816732 
7.336182882467964e-05 
0.000792675771125573 
6.005452608487802e-05 
8.246106250849501e-05 
0.0001882891497316681 
4.121405161899843e-05 
0.000430184027824921 
-0.0002378119556746001 
0.001726151808118123 
-0.00288581311723511 
0 
-0.009149660742449526 
-0.001726151808118123 
-0.00288581311723511 
-0.000430184027824921 
-0.0002378119556746001 
-0.0001882891497316681 
4.121405161899843e-05 
2.08702149614937e-05 
1.681975280931151e-05 
0.0007554517152097677 
-1.950204578652024e-05 
0.004019855503926933 
-0.00392881480226594 
0 
-0.01681621423014536 
-0.004019855503926933 
-0.00392881480226594 
-0.0007554517152097677 
-1.950204578652024e-05 
-2.08702149614937e-05 
1.681975280931151e-05 
9.080354841560875e-05 
1.773497062359541e-05 
-9.920441834022245e-06 
0.0005504802812535735 
0.005642160799776651 
-0.002245112002394954 
0 
-0.01538011075961847 
-0.005642160799776651 
-0.002245112002394954 
9.920441834022245e-06 
0.0005504802812535735 
-9.080354841560875e-05 
1.773497062359541e-05 
-2.255284182933591e-05 
0.0001758888004240288 
0.0005024449761667594 
0.0003585524507608724 
0.001363099455811991 
-0.00106734954247927 
0 
-0.003875496282715149 
-0.001363099455811991 
-0.00106734954247927 
-0.0005024449761667594 
0.0003585524507608724 
2.255284182933591e-05 
0.0001758888004240288 
-0.0001648782460869346 
0.0001881499236839643 
-0.0002458755506482406 
0.001168182275955422 
0.001948997382409516 
0.004211431903101439 
0 
0.003636501610761056 
-0.001948997382409516 
0.004211431903101439 
0.0002458755506482406 
0.001168182275955422 
0.0001648782460869346 
0.0001881499236839643 
-1.01323433723845e-05 
-7.412293331940099e-05 
0.0003864877574092823 
0.0002417482330109832 
0.00327140537563675 
-0.003488245014056046 
0 
-0.01188861650741562 
-0.00327140537563675 
-0.003488245014056046 
-0.0003864877574092823 
0.0002417482330109832 
1.01323433723845e-05 
-7.412293331940099e-05 
4.642028546552189e-05 
-0.000105636920923592 
0.0009973601174300629 
0.0005604137282333114 
0.006645384608743563 
-0.00656668898747428 
0 
-0.02634205278596058 
-0.006645384608743563 
-0.00656668898747428 
-0.0009973601174300629 
0.0005604137282333114 
-4.642028546552189e-05 
-0.000105636920923592 
3.672456568681419e-05 
-1.675015757590301e-05 
0.000333734051497319 
0.0001195972708158819 
0.005366588299924408 
-0.003617216199158748 
0 
-0.01935518543496705 
-0.005366588299924408 
-0.003617216199158748 
-0.000333734051497319 
0.0001195972708158819 
-3.672456568681419e-05 
-1.675015757590301e-05 
-3.282218322810572e-07 
4.18589261630046e-05 
0.0004953366965221915 
0.0004372539326392626 
0.002521605956528028 
-0.001072350946283584 
0 
-0.007856930822010378 
-0.002521605956528028 
-0.001072350946283584 
-0.0004953366965221915 
0.0004372539326392626 
3.282218322810572e-07 
4.18589261630046e-05 
-0.0001815654363663861 
-0.0001247383531661479 
-0.0004835083043850892 
0.001210760119725962 
0.002704719170743294 
0.002301327565160869 
0 
-0.001007856370157226 
-0.002704719170743294 
0.002301327565160869 
0.0004835083043850892 
0.001210760119725962 
0.0001815654363663861 
-0.0001247383531661479 
-8.0503453614307e-06 
0.0001104014575653701 
0.0009935252072875845 
-4.171879374295056e-05 
0.003939351234782677 
-0.003911986211935565 
0 
-0.01824636299022511 
-0.003939351234782677 
-0.003911986211935565 
-0.0009935252072875845 
-4.171879374295056e-05 
8.0503453614307e-06 
0.0001104014575653701 
-2.313022846142344e-05 
-2.930386562282256e-06 
-3.852478364381173e-05 
0.0001733883793365331 
0.003255940398446209 
-0.0002493546823660427 
0 
-0.01171788581088062 
-0.003255940398446209 
-0.0002493546823660427 
3.852478364381173e-05 
0.0001733883793365331 
2.313022846142344e-05 
-2.930386562282256e-06 
7.941956667811503e-06 
0.0002269261526384521 
0.0007008868977078378 
0.0005508544166495126 
0.002698961508062736 
-0.0009650692436600268 
0 
-0.007879237408919038 
-0.002698961508062736 
-0.0009650692436600268 
-0.0007008868977078378 
0.0005508544166495126 
-7.941956667811503e-06 
0.0002269261526384521 
-0.0001881828522303968 
0.0002071783590575547 
-0.0002635990803883996 
0.001050770084116181 
0.001451950142075695 
0.003996586999310386 
0 
0.004043342615276018 
-0.001451950142075695 
0.003996586999310386 
0.0002635990803883996 
0.001050770084116181 
0.0001881828522303968 
0.0002071783590575547 
1.186362718123663e-05 
-9.449878065942731e-05 
2.532859348380933e-05 
0.000405816680977086 
0.004496446071485501 
-0.003533737506187518 
0 
-0.01411921689698916 
-0.004496446071485501 
-0.003533737506187518 
-2.532859348380933e-05 
0.000405816680977086 
-1.186362718123663e-05 
-9.449878065942731e-05 
0.000121876105108727 
-1.188913581219004e-05 
0.0007227137852517902 
-0.0006469769274474687 
0.002072557452083 
-0.005479908443516659 
0 
-0.01723340867422758 
-0.002072557452083 
-0.005479908443516659 
-0.0007227137852517902 
-0.0006469769274474687 
-0.000121876105108727 
-1.188913581219004e-05 
3.392316651185312e-05 
9.946660464211917e-05 
0.000700797555415929 
0.0003476985311819748 
0.0035260330374206 
-0.003373404420412363 
0 
-0.00871358751879789 
-0.0035260330374206 
-0.003373404420412363 
-0.000700797555415929 
0.0003476985311819748 
-3.392316651185312e-05 
9.946660464211917e-05 
2.593978043250706e-05 
7.783286196849134e-05 
-0.0002484272996273272 
0.0005366412143141194 
-0.001012052109664421 
0.004469662664499413 
0 
0.01202013143488259 
0.001012052109664421 
0.004469662664499413 
0.0002484272996273272 
0.0005366412143141194 
-2.593978043250706e-05 
7.783286196849134e-05 
-0.0001233146135586442 
-4.732860054449933e-05 
0.0002783377862175772 
0.0007892760500755243 
0.002500777248168911 
-0.002911443135915754 
0 
-0.006432247342496949 
-0.002500777248168911 
-0.002911443135915754 
-0.0002783377862175772 
0.0007892760500755243 
0.0001233146135586442 
-4.732860054449933e-05 
0.0001146609951976985 
2.709750855811661e-05 
0.0004818937702368922 
-0.0003242041260587944 
0.00410337696884755 
-0.004824246980373683 
0 
-0.01615433717807416 
-0.00410337696884755 
-0.004824246980373683 
-0.0004818937702368922 
-0.0003242041260587944 
-0.0001146609951976985 
2.709750855811661e-05 
3.756794329166463e-06 
-5.847384325099564e-05 
-0.0001037747643476502 
0.0002170011958017776 
0.003090937755916946 
-0.0008139043129523379 
0 
-0.01036465943965937 
-0.003090937755916946 
-0.0008139043129523379 
0.0001037747643476502 
0.0002170011958017776 
-3.756794329166463e-06 
-5.847384325099564e-05 
-0.0001813576354652133 
-2.454005618411607e-05 
-0.0001449746496808355 
0.000130584678834832 
0.0004736104175925659 
-0.0006989736880323625 
0 
-0.00525053472365178 
-0.0004736104175925659 
-0.0006989736880323625 
0.0001449746496808355 
0.000130584678834832 
0.0001813576354652133 
-2.454005618411607e-05 
-0.0001168367069129792 
0.0002056845774777831 
0.0003712169414958292 
0.0006618492211203128 
0.001136137523661835 
0.001108615418624401 
0 
-0.0009397812469177959 
-0.001136137523661835 
0.001108615418624401 
-0.0003712169414958292 
0.0006618492211203128 
0.0001168367069129792 
0.0002056845774777831 
2.025940089312486e-05 
0.000135159738234722 
0.0009438436913649388 
2.016193041718622e-05 
0.002456597156558716 
-0.004419108049320741 
0 
-0.009595152010861242 
-0.002456597156558716 
-0.004419108049320741 
-0.0009438436913649388 
2.016193041718622e-05 
-2.025940089312486e-05 
0.000135159738234722 
0.0001330785754335871 
-2.305372869434919e-05 
0.0006431087247874976 
-0.0002865935050838446 
0.001970237564922262 
-0.00497468044807838 
0 
-0.01387863101177565 
-0.001970237564922262 
-0.00497468044807838 
-0.0006431087247874976 
-0.0002865935050838446 
-0.0001330785754335871 
-2.305372869434919e-05 
-5.099833399090869e-06 
-9.7203874737397e-05 
-0.0002089542313062099 
-0.0004622945425705786 
-0.003204558494165175 
0.0015122265846621 
0 
0.006924348277916078 
0.003204558494165175 
0.0015122265846621 
0.0002089542313062099 
-0.0004622945425705786 
5.099833399090869e-06 
-9.7203874737397e-05 
-0.0001345622347064668 
-0.0001523521136520768 
-0.001297666512635823 
-0.0004570190222674717 
-0.004845168224424568 
0.00486203946148559 
0 
0.01221186328530147 
0.004845168224424568 
0.00486203946148559 
0.001297666512635823 
-0.0004570190222674717 
0.0001345622347064668 
-0.0001523521136520768 
-1.925207465611897e-05 
-3.69356499323806e-05 
9.367828444483661e-05 
-9.97019265081688e-06 
-0.000408744155463437 
-0.001208224877484996 
0 
0.001815913076761226 
0.000408744155463437 
-0.001208224877484996 
-9.367828444483661e-05 
-9.97019265081688e-06 
1.925207465611897e-05 
-3.69356499323806e-05 
7.520209830253787e-05 
8.828212594008079e-06 
0.001316698012732282 
-0.0003996702262762321 
0.003024619049551498 
-0.007180680674071382 
0 
-0.01843129788163336 
-0.003024619049551498 
-0.007180680674071382 
-0.001316698012732282 
-0.0003996702262762321 
-7.520209830253787e-05 
8.828212594008079e-06 
7.193289238817256e-05 
-7.322700093082357e-05 
0.0004990772699526682 
-0.0002955391192808844 
0.002046586422824311 
-0.003296624737276169 
0 
-0.008059179046671578 
-0.002046586422824311 
-0.003296624737276169 
-0.0004990772699526682 
-0.0002955391192808844 
-7.193289238817256e-05 
-7.322700093082357e-05 
9.290978146180324e-05 
0.0001068842243277545 
-0.0003907677453327359 
0.0004108094566303996 
0.0009868476267967739 
0.003542688785041693 
0 
0.002905640570669246 
-0.0009868476267967739 
0.003542688785041693 
0.0003907677453327359 
0.0004108094566303996 
-9.290978146180324e-05 
0.0001068842243277545 
5.065967709553469e-05 
4.10694504850564e-05 
0.001150766095239347 
-0.0004899668525224004 
0.0004944672480415665 
-0.006137519609088047 
0 
-0.01062501160807039 
-0.0004944672480415665 
-0.006137519609088047 
-0.001150766095239347 
-0.0004899668525224004 
-5.065967709553469e-05 
4.10694504850564e-05 
7.810595930922423e-05 
-8.926407772771998e-05 
-0.0006266876722542207 
-0.0004072769656452938 
0.0003270002814430226 
0.001061462410325947 
0 
-0.002844878745533075 
-0.0003270002814430226 
0.001061462410325947 
0.0006266876722542207 
-0.0004072769656452938 
-7.810595930922423e-05 
-8.926407772771998e-05 
-9.724595462481666e-05 
-1.758658055552186e-05 
0.0001807272490490305 
0.0004633297250298745 
0.005534055680793968 
-0.001641602080794839 
0 
-0.01715914080366368 
-0.005534055680793968 
-0.001641602080794839 
-0.0001807272490490305 
0.0004633297250298745 
9.724595462481666e-05 
-1.758658055552186e-05 
-0.0001160020165498078 
-8.866768667027381e-06 
-4.870307621343369e-05 
0.0001310387480248202 
0.000355178260422686 
0.0005261971023344954 
0 
-0.001247107931301592 
-0.000355178260422686 
0.0005261971023344954 
4.870307621343369e-05 
0.0001310387480248202 
0.0001160020165498078 
-8.866768667027381e-06 
4.601379288744324e-05 
3.712078304348469e-05 
0.0006731531627506536 
9.95715141502747e-05 
0.0003718895180589706 
-0.001983690305830832 
0 
-0.004600316768349479 
-0.0003718895180589706 
-0.001983690305830832 
-0.0006731531627506536 
9.95715141502747e-05 
-4.601379288744324e-05 
3.712078304348469e-05 
-0.000148547175233872 
-2.544639629768745e-05 
0.0001119146455931714 
0.0005975732344628158 
0.001149368517195474 
-0.0003176217478574218 
0 
-0.003451094899640896 
-0.001149368517195474 
-0.0003176217478574218 
-0.0001119146455931714 
0.0005975732344628158 
0.000148547175233872 
-2.544639629768745e-05 
-0.0001204249765252213 
0.0001636774428076329 
0.0002527600375846928 
0.0006517854323787397 
4.878920804271481e-05 
0.001344240900868647 
0 
0.003282342215403194 
-4.878920804271481e-05 
0.001344240900868647 
-0.0002527600375846928 
0.0006517854323787397 
0.0001204249765252213 
0.0001636774428076329 
0.0001477815873618483 
4.492777790481765e-05 
0.0009298624661217898 
-0.0006199652195194571 
-0.0009240018279461089 
-0.004540577312502667 
0 
-0.008276411936636799 
0.0009240018279461089 
-0.004540577312502667 
-0.0009298624661217898 
-0.0006199652195194571 
-0.0001477815873618483 
4.492777790481765e-05 
-0.0001019205291971213 
-5.148109107183655e-05 
-0.000517539492947267 
0.0005808496418997563 
0.002170441186204404 
0.001664585463287868 
0 
-0.002494548064739697 
-0.002170441186204404 
0.001664585463287868 
0.000517539492947267 
0.0005808496418997563 
0.0001019205291971213 
-5.148109107183655e-05 
-0.0001407229343082126 
9.933535116169194e-05 
0.000333108694264352 
0.0004482056072128827 
0.004236493233451909 
-0.002325025289752935 
0 
-0.0116940305346915 
-0.004236493233451909 
-0.002325025289752935 
-0.000333108694264352 
0.0004482056072128827 
0.0001407229343082126 
9.933535116169194e-05 
0.0001068154301501816 
0.0001488415113042023 
0.0007063365714381904 
0.0002149992700140854 
0.003152349727555845 
-0.003139439397610096 
0 
-0.009211272555094765 
-0.003152349727555845 
-0.003139439397610096 
-0.0007063365714381904 
0.0002149992700140854 
-0.0001068154301501816 
0.0001488415113042023 
2.990238125075062e-05 
0.0002225712957347885 
0.0001155753088344764 
0.001380671249371585 
0.003564133275406362 
0.007032549440315192 
0 
0.006657182962416419 
-0.003564133275406362 
0.007032549440315192 
-0.0001155753088344764 
0.001380671249371585 
-2.990238125075062e-05 
0.0002225712957347885 
0.0002270707176067706 
3.389936505657898e-05 
0.0004320940918216251 
-0.0004776804527970514 
0.001935700671047835 
-0.002720799121579938 
0 
-0.0109590818268098 
-0.001935700671047835 
-0.002720799121579938 
-0.0004320940918216251 
-0.0004776804527970514 
-0.0002270707176067706 
3.389936505657898e-05 
8.220214295181129e-05 
-0.0002281336975815194 
-0.0004055980599077755 
-0.000933734440209385 
0.001265894931401761 
-0.002379159494164912 
0 
-0.01698247181640014 
-0.001265894931401761 
-0.002379159494164912 
0.0004055980599077755 
-0.000933734440209385 
-8.220214295181129e-05 
-0.0002281336975815194 
0.0001430942737675385 
5.868122120076088e-05 
0.0002242797240518383 
-0.0003644254043713659 
0.001459156957944811 
-0.001448289054479703 
0 
-0.006577070117611356 
-0.001459156957944811 
-0.001448289054479703 
-0.0002242797240518383 
-0.0003644254043713659 
-0.0001430942737675385 
5.868122120076088e-05 
-4.115693083057486e-05 
-0.0002184785389719527 
-0.0002471979427090443 
-0.0004133856771162715 
0.001941369939647752 
-0.002885867159290048 
0 
-0.01524167600188797 
-0.001941369939647752 
-0.002885867159290048 
0.0002471979427090443 
-0.0004133856771162715 
4.115693083057486e-05 
-0.0002184785389719527 
-4.079543350622476e-05 
-0.0001330613087141857 
-0.0005032566259541382 
0.0002509565139565066 
0.002311985115087928 
-0.0009922263550920796 
0 
-0.009138243094958774 
-0.002311985115087928 
-0.0009922263550920796 
0.0005032566259541382 
0.0002509565139565066 
4.079543350622476e-05 
-0.0001330613087141857 
-9.773033894776004e-05 
0.0002169764962112246 
-1.611456850038482e-05 
0.001065899073027901 
0.002527766805372384 
0.003825692190843513 
0 
0.002474345218643315 
-0.002527766805372384 
0.003825692190843513 
1.611456850038482e-05 
0.001065899073027901 
9.773033894776004e-05 
0.0002169764962112246 
-0.0002324175337989209 
5.692108840499552e-05 
0.0002714054831025245 
0.001174086248477555 
0.003057010641475925 
-0.002652101924165648 
0 
-0.00500889736566848 
-0.003057010641475925 
-0.002652101924165648 
-0.0002714054831025245 
0.001174086248477555 
0.0002324175337989209 
5.692108840499552e-05 
0.0001090148547337962 
8.307705103659059e-05 
0.0004051335979167859 
-0.0001611135458233769 
0.0003123239155705984 
-0.001869377227931012 
0 
-0.002431453102235532 
-0.0003123239155705984 
-0.001869377227931012 
-0.0004051335979167859 
-0.0001611135458233769 
-0.0001090148547337962 
8.307705103659059e-05 
-0.0001247603570649011 
3.460652231543584e-05 
0.0009883071336116746 
0.0003185719820871313 
0.003567774667927846 
-0.006150056364498151 
0 
-0.01282380315348624 
-0.003567774667927846 
-0.006150056364498151 
-0.0009883071336116746 
0.0003185719820871313 
0.0001247603570649011 
3.460652231543584e-05 
-7.423000431279979e-05 
4.591528786338109e-05 
-0.0002767823884804201 
0.0004930114346043433 
-5.657830957137698e-05 
0.002112874501821709 
0 
0.005191667414738722 
5.657830957137698e-05 
0.002112874501821709 
0.0002767823884804201 
0.0004930114346043433 
7.423000431279979e-05 
4.591528786338109e-05 
8.304876531970279e-05 
0.0002146362845791288 
0.0006374497711536934 
0.0004011835535214905 
0.0008651954457732856 
0.001520260428062453 
0 
0.001127284954441446 
-0.0008651954457732856 
0.001520260428062453 
-0.0006374497711536934 
0.0004011835535214905 
-8.304876531970279e-05 
0.0002146362845791288 
7.446867110488403e-05 
6.013636776963344e-05 
0.0004373423794408527 
9.202282285630999e-05 
0.002184169879667855 
-0.003051880526625405 
0 
-0.005501832034015802 
-0.002184169879667855 
-0.003051880526625405 
-0.0004373423794408527 
9.202282285630999e-05 
-7.446867110488403e-05 
6.013636776963344e-05 
0.0001289802967815631 
9.799100557298669e-06 
0.0005724171143403801 
-0.0006798695766614605 
0.001427260056404131 
-0.00455409984403356 
0 
-0.01127914246869851 
-0.001427260056404131 
-0.00455409984403356 
-0.0005724171143403801 
-0.0006798695766614605 
-0.0001289802967815631 
9.799100557298669e-06 
-6.701466980642885e-05 
2.891074002044603e-05 
9.910628808430894e-06 
-0.0001063422418537282 
0.001036525923241903 
-0.001012550533334633 
0 
-0.001338561453515396 
-0.001036525923241903 
-0.001012550533334633 
-9.910628808430894e-06 
-0.0001063422418537282 
6.701466980642885e-05 
2.891074002044603e-05 
2.027495961951993e-07 
-5.626875328711329e-05 
-0.0003873310905624786 
-0.0003016856759122921 
-0.0006632125330741963 
0.000669694392825562 
0 
-0.0002820169131538697 
0.0006632125330741963 
0.000669694392825562 
0.0003873310905624786 
-0.0003016856759122921 
-2.027495961951993e-07 
-5.626875328711329e-05 
0.0001459864852596824 
0.0001630801873874965 
0.001244028702855807 
-0.0001175950945258739 
0.001778133481346198 
-0.00491766289959067 
0 
-0.008782976699636215 
-0.001778133481346198 
-0.00491766289959067 
-0.001244028702855807 
-0.0001175950945258739 
-0.0001459864852596824 
0.0001630801873874965 
0.0001048723233124158 
9.070940027828922e-05 
0.0003849597824147244 
-0.0003044839795070648 
0.00422253974798661 
-0.002527316147107186 
0 
-0.01622331770416678 
-0.00422253974798661 
-0.002527316147107186 
-0.0003849597824147244 
-0.0003044839795070648 
-0.0001048723233124158 
9.070940027828922e-05 
-3.943988452993231e-05 
2.243975155634658e-05 
0.0005490123383444458 
0.0002142297941435403 
0.005675047125246096 
-0.004152831665595057 
0 
-0.02091205482224161 
-0.005675047125246096 
-0.004152831665595057 
-0.0005490123383444458 
0.0002142297941435403 
3.943988452993231e-05 
2.243975155634658e-05 
-1.084927668140877e-05 
0.0001134587899509765 
0.0007800819567339228 
0.0001949452615870464 
0.001760059418518819 
-0.00246232373786921 
0 
-0.005374245376248615 
-0.001760059418518819 
-0.00246232373786921 
-0.0007800819567339228 
0.0001949452615870464 
1.084927668140877e-05 
0.0001134587899509765 
-1.870696150548381e-05 
0.0004178684210283371 
-0.0001379078854839574 
0.002076606601241392 
0.003159110658845834 
0.01020182446123325 
0 
0.01743457888225898 
-0.003159110658845834 
0.01020182446123325 
0.0001379078854839574 
0.002076606601241392 
1.870696150548381e-05 
0.0004178684210283371 
-1.33043379470888e-05 
0.0001362314394560616 
0.001292352887905012 
0.000814470295559249 
0.005943853395551866 
-0.006623337467906117 
0 
-0.01732781958665611 
-0.005943853395551866 
-0.006623337467906117 
-0.001292352887905012 
0.000814470295559249 
1.33043379470888e-05 
0.0001362314394560616 
1.768676403676533e-05 
-4.984052853710072e-05 
0.0004389973887989933 
8.543087118239535e-05 
0.005439756799175368 
-0.005016836719088511 
0 
-0.01931452139917067 
-0.005439756799175368 
-0.005016836719088511 
-0.0004389973887989933 
8.543087118239535e-05 
-1.768676403676533e-05 
-4.984052853710072e-05 
3.363370580500263e-05 
-2.198867204677498e-05 
0.0004919861404908306 
0.000485113536643082 
0.00455149112145528 
-0.002611811954943213 
0 
-0.01476595562150459 
-0.00455149112145528 
-0.002611811954943213 
-0.0004919861404908306 
0.000485113536643082 
-3.363370580500263e-05 
-2.198867204677498e-05 
0.0002388898847655714 
0.0001288812111287367 
0.0005724009762625299 
-0.0002890089833606582 
0.002514490956004434 
-0.002190566120070194 
0 
-0.00912366858543659 
-0.002514490956004434 
-0.002190566120070194 
-0.0005724009762625299 
-0.0002890089833606582 
-0.0002388898847655714 
0.0001288812111287367 
-3.068372822980774e-05 
0.0002455686650245625 
0.0003130651612352981 
0.001097388059147626 
0.0008038917347365178 
0.00280612917950976 
0 
0.007666141936321189 
-0.0008038917347365178 
0.00280612917950976 
-0.0003130651612352981 
0.001097388059147626 
3.068372822980774e-05 
0.0002455686650245625 
9.531177377622499e-05 
9.601755694941732e-05 
0.0004962038331044692 
-0.0001019467989929245 
0.003125842314168324 
-0.002882267931162717 
0 
-0.01215463432006756 
-0.003125842314168324 
-0.002882267931162717 
-0.0004962038331044692 
-0.0001019467989929245 
-9.531177377622499e-05 
9.601755694941732e-05 
0.0001988265218046731 
3.973937097616468e-05 
0.001042132476383534 
-0.0006651011739184568 
0.00169650963964891 
-0.00447502363547072 
0 
-0.01779357744347032 
-0.00169650963964891 
-0.00447502363547072 
-0.001042132476383534 
-0.0006651011739184568 
-0.0001988265218046731 
3.973937097616468e-05 
0.0001180641456421611 
-2.585621680788437e-06 
0.0004470378782241509 
-0.0002903507987708506 
0.002799673458512788 
-0.005848275419254974 
0 
-0.01548102272703127 
-0.002799673458512788 
-0.005848275419254974 
-0.0004470378782241509 
-0.0002903507987708506 
-0.0001180641456421611 
-2.585621680788437e-06 
-2.824965921888489e-06 
0.0001562374489137201 
-0.0002624222252353863 
0.0006170253923991121 
-0.000320069537392362 
0.005163599415973151 
0 
0.008309570895784914 
0.000320069537392362 
0.005163599415973151 
0.0002624222252353863 
0.0006170253923991121 
2.824965921888489e-06 
0.0001562374489137201 
0.0001106728215402767 
0.00013047911426445 
0.000339316960771087 
4.699542982370382e-05 
0.001497752440396703 
0.0002545077296001992 
0 
-0.001634830857587288 
-0.001497752440396703 
0.0002545077296001992 
-0.000339316960771087 
4.699542982370382e-05 
-0.0001106728215402767 
0.00013047911426445 
0.0001694633481022049 
7.09737153953951e-05 
0.001037717183183575 
-0.0003875528225046331 
0.004895583944196294 
-0.006104025511980872 
0 
-0.02365810163115763 
-0.004895583944196294 
-0.006104025511980872 
-0.001037717183183575 
-0.0003875528225046331 
-0.0001694633481022049 
7.09737153953951e-05 
2.020081043275638e-05 
0.0001052810614766758 
0.0006708877180529384 
0.0004503286308951705 
0.005728485917678465 
-0.003292133623292468 
0 
-0.01896404870704743 
-0.005728485917678465 
-0.003292133623292468 
-0.0006708877180529384 
0.0004503286308951705 
-2.020081043275638e-05 
0.0001052810614766758 
9.245143058125937e-06 
0.000112395451248275 
0.0001643696747400717 
0.0004187084093386998 
0.001965316430957198 
0.001417363698901746 
0 
-0.002258376801347194 
-0.001965316430957198 
0.001417363698901746 
-0.0001643696747400717 
0.0004187084093386998 
-9.245143058125937e-06 
0.000112395451248275 
-0.0001631786809844285 
2.775337455372361e-05 
-0.0003439897602812932 
0.0005236063983746067 
-0.0006599333020067624 
0.003098226236487885 
0 
0.006159057371217006 
0.0006599333020067624 
0.003098226236487885 
0.0003439897602812932 
0.0005236063983746067 
0.0001631786809844285 
2.775337455372361e-05 
0.0002533600810292853 
2.162136410830022e-05 
0.0006670556952946358 
-0.0005772059653595963 
0.00280750921769081 
-0.004581296735386039 
0 
-0.01388819181314249 
-0.00280750921769081 
-0.004581296735386039 
-0.0006670556952946358 
-0.0005772059653595963 
-0.0002533600810292853 
2.162136410830022e-05 
0.0001709232980481483 
9.855895705747628e-05 
0.0009279249540234713 
-0.0002652086196594195 
0.003174997528438013 
-0.004426225422003533 
0 
-0.0147163744215982 
-0.003174997528438013 
-0.004426225422003533 
-0.0009279249540234713 
-0.0002652086196594195 
-0.0001709232980481483 
9.855895705747628e-05 
4.440344071719512e-05 
0.0001747893264977712 
0.0009944554253289624 
6.416473438644305e-05 
0.001066014459492174 
-0.002059857155531299 
0 
-0.004058562699826261 
-0.001066014459492174 
-0.002059857155531299 
-0.0009944554253289624 
6.416473438644305e-05 
-4.440344071719512e-05 
0.0001747893264977712 
-0.0001481598650761291 
-2.574798561984218e-06 
-0.0004830403610484279 
0.0002451580740527134 
-0.0005178857121856429 
0.00168458611141671 
0 
0.0005732387185680791 
0.0005178857121856429 
0.00168458611141671 
0.0004830403610484279 
0.0002451580740527134 
0.0001481598650761291 
-2.574798561984218e-06 
-7.357080315082314e-05 
0.0001529813615542991 
-0.0005211998094685793 
0.000889741167202324 
0.0009921596559391999 
0.004329719650558702 
0 
0.008871320446221874 
-0.0009921596559391999 
0.004329719650558702 
0.0005211998094685793 
0.000889741167202324 
7.357080315082314e-05 
0.0001529813615542991 
0.0001419574144098591 
0.0001261651329375114 
0.00105585764978659 
-0.0001720231816447875 
0.002230805495762852 
-0.004463540520132603 
0 
-0.01270373859272882 
-0.002230805495762852 
-0.004463540520132603 
-0.00105585764978659 
-0.0001720231816447875 
-0.0001419574144098591 
0.0001261651329375114 
0.0001985617846288471 
0.0001007142925118921 
0.001217933259791703 
-0.0002661354156102088 
0.00340017900680292 
-0.005544392981975492 
0 
-0.01589804105182499 
-0.00340017900680292 
-0.005544392981975492 
-0.001217933259791703 
-0.0002661354156102088 
-0.0001985617846288471 
0.0001007142925118921 
6.698141272394552e-05 
0.0002952978966162194 
0.001539576569323637 
0.0002753633746002551 
0.002377351652861394 
-0.003824708900164546 
0 
-0.01007929582803487 
-0.002377351652861394 
-0.003824708900164546 
-0.001539576569323637 
0.0002753633746002551 
-6.698141272394552e-05 
0.0002952978966162194 
1.989958966934139e-05 
5.974667011868814e-05 
0.0001053014375328483 
0.0003158599133571695 
0.0001282916165106329 
0.001390164454909234 
0 
0.001419460402266946 
-0.0001282916165106329 
0.001390164454909234 
-0.0001053014375328483 
0.0003158599133571695 
-1.989958966934139e-05 
5.974667011868814e-05 
-8.78518572043662e-05 
2.691013981258592e-05 
0.000145455004710365 
0.0006114961561053685 
0.004501699628897009 
-0.001760657232437885 
0 
-0.01239870397332882 
-0.004501699628897009 
-0.001760657232437885 
-0.000145455004710365 
0.0006114961561053685 
8.78518572043662e-05 
2.691013981258592e-05 
1.398797871386904e-07 
5.135038580764659e-05 
0.0005721779401924844 
0.0002001439492937416 
0.003109704771392924 
-0.002479500658286584 
0 
-0.0144289403225053 
-0.003109704771392924 
-0.002479500658286584 
-0.0005721779401924844 
0.0002001439492937416 
-1.398797871386904e-07 
5.135038580764659e-05 
-3.418177086827162e-05 
0.000151162137659401 
0.0003470665325294821 
0.0005856011101271603 
0.003407102900221761 
-0.001424654941518256 
0 
-0.008628837656645745 
-0.003407102900221761 
-0.001424654941518256 
-0.0003470665325294821 
0.0005856011101271603 
3.418177086827162e-05 
0.000151162137659401 
7.472086091051409e-05 
-3.027382138774214e-05 
0.0003162327824490576 
-0.0005333471226962669 
0.0005620207089569303 
-0.002356965817887309 
0 
-0.01055417214380765 
-0.0005620207089569303 
-0.002356965817887309 
-0.0003162327824490576 
-0.0005333471226962669 
-7.472086091051409e-05 
-3.027382138774214e-05 
0.0001158906071721916 
-3.484936541782241e-05 
0.0008031048340665071 
-0.0004399142557451438 
0.002153935627918741 
-0.005832988057251906 
0 
-0.01487380471970228 
-0.002153935627918741 
-0.005832988057251906 
-0.0008031048340665071 
-0.0004399142557451438 
-0.0001158906071721916 
-3.484936541782241e-05 
0.0001377764553877673 
-2.401873186778446e-05 
0.0002789986826869934 
-4.979123941284712e-05 
0.003319779395381109 
-0.002453071831976703 
0 
-0.01104936554576548 
-0.003319779395381109 
-0.002453071831976703 
-0.0002789986826869934 
-4.979123941284712e-05 
-0.0001377764553877673 
-2.401873186778446e-05 
3.29976057566995e-05 
-6.278152066670306e-05 
-0.0005020863428580066 
0.0002548675585691831 
0.002853064896852747 
0.000770457777406882 
0 
-0.007595118234191939 
-0.002853064896852747 
0.000770457777406882 
0.0005020863428580066 
0.0002548675585691831 
-3.29976057566995e-05 
-6.278152066670306e-05 
-7.259707395559333e-05 
0.0003247113098130699 
0.0004883959344226423 
0.000856645082327391 
-1.054962477523475e-05 
0.002728801716409047 
0 
0.006647882388721332 
1.054962477523475e-05 
0.002728801716409047 
-0.0004883959344226423 
0.000856645082327391 
7.259707395559333e-05 
0.0003247113098130699 
0.000116030095767177 
5.051247836364908e-05 
0.0002179825151707995 
-0.0001400855140988821 
0.0001889474086642901 
0.0009166517334648757 
0 
-0.001273053819566778 
-0.0001889474086642901 
0.0009166517334648757 
-0.0002179825151707995 
-0.0001400855140988821 
-0.000116030095767177 
5.051247836364908e-05 
0.0001536412565158846 
4.745831451196488e-05 
0.000641251050907273 
-0.0008633866447511065 
-0.0001292332646838472 
-0.00351110366906553 
0 
-0.007482716077647329 
0.0001292332646838472 
-0.00351110366906553 
-0.000641251050907273 
-0.0008633866447511065 
-0.0001536412565158846 
4.745831451196488e-05 
9.189303046886053e-05 
5.981397416183633e-05 
0.0007100441904993048 
-0.0004071816580355793 
-0.0002048998700509237 
-0.002530966101265576 
0 
-0.005898939180293976 
0.0002048998700509237 
-0.002530966101265576 
-0.0007100441904993048 
-0.0004071816580355793 
-9.189303046886053e-05 
5.981397416183633e-05 
6.327997459201517e-05 
0.0001192444834058218 
0.000716369394869616 
-0.0002396433282101448 
0.0003922897171706967 
-0.002798882192128619 
0 
-0.002184714731299743 
-0.0003922897171706967 
-0.002798882192128619 
-0.000716369394869616 
-0.0002396433282101448 
-6.327997459201517e-05 
0.0001192444834058218 
0.0001374989061527172 
-0.0002290538995295964 
-0.0006151203881162923 
-0.00134701965771935 
-0.002795457736070788 
-0.0003827532906249607 
0 
-0.005089902348436189 
0.002795457736070788 
-0.0003827532906249607 
0.0006151203881162923 
-0.00134701965771935 
-0.0001374989061527172 
-0.0002290538995295964 
0.000113194010292805 
-0.0001473626769658815 
-0.0007219617708993271 
-0.0008009037297175573 
-0.002356139735746734 
0.001686073338977071 
0 
0.00632080160046543 
0.002356139735746734 
0.001686073338977071 
0.0007219617708993271 
-0.0008009037297175573 
-0.000113194010292805 
-0.0001473626769658815 
-1.985127122249783e-05 
-6.902403815562046e-05 
0.0001803777509997926 
-0.0003165197389047614 
0.0002185056734735281 
-0.003881531604501337 
0 
-0.004077038327269652 
-0.0002185056734735281 
-0.003881531604501337 
-0.0001803777509997926 
-0.0003165197389047614 
1.985127122249783e-05 
-6.902403815562046e-05 
-5.371642271570856e-05 
-0.0001305362960123451 
-0.0004892109780202233 
0.0003216902696431121 
0.002192983690274332 
-0.0002316673513816664 
0 
-0.003105664879262893 
-0.002192983690274332 
-0.0002316673513816664 
0.0004892109780202233 
0.0003216902696431121 
5.371642271570856e-05 
-0.0001305362960123451 
-0.0002765975563191489 
9.899228773266189e-05 
-0.001231824646498879 
0.001040987913278765 
-8.046458481847534e-05 
0.008067687267283821 
0 
0.01081325668406239 
8.046458481847534e-05 
0.008067687267283821 
0.001231824646498879 
0.001040987913278765 
0.0002765975563191489 
9.899228773266189e-05 
-3.075765211465139e-05 
7.696277757085819e-05 
0.0002860390797473569 
0.0001781285718819388 
0.0006420498866975008 
-0.0009427060441850871 
0 
-6.250311106636057e-05 
-0.0006420498866975008 
-0.0009427060441850871 
-0.0002860390797473569 
0.0001781285718819388 
3.075765211465139e-05 
7.696277757085819e-05 
2.169736604152753e-05 
-5.106890739925275e-05 
-0.0003996646414585296 
0.000201417537111338 
0.001297404184563334 
3.502638558751795e-05 
0 
0.0007074996359904995 
-0.001297404184563334 
3.502638558751795e-05 
0.0003996646414585296 
0.000201417537111338 
-2.169736604152753e-05 
-5.106890739925275e-05 
0.0001078019008842971 
-2.419274662200096e-05 
0.0002705188622218459 
-0.0001703912244344413 
0.001893913064616246 
-0.002070496553059512 
0 
-0.007862510092632131 
-0.001893913064616246 
-0.002070496553059512 
-0.0002705188622218459 
-0.0001703912244344413 
-0.0001078019008842971 
-2.419274662200096e-05 
-3.687588626884902e-05 
-1.485434062381307e-05 
0.0002209624456356172 
0.0003805945182325772 
0.001512605122637353 
-0.001008121607443595 
0 
-0.002048272880516771 
-0.001512605122637353 
-0.001008121607443595 
-0.0002209624456356172 
0.0003805945182325772 
3.687588626884902e-05 
-1.485434062381307e-05 
1.036417736556641e-05 
-0.0002447734026349875 
-0.0004390458106369549 
-0.0002256122294442929 
0.001375449139506613 
-0.001478452717935519 
0 
-0.01175897907046591 
-0.001375449139506613 
-0.001478452717935519 
0.0004390458106369549 
-0.0002256122294442929 
-1.036417736556641e-05 
-0.0002447734026349875 
0.0002255134451466323 
-8.75798354615232e-05 
-7.669974013590591e-05 
-0.0004089727596637587 
0.002161145502469859 
-0.001975352674543231 
0 
-0.009977360168221224 
-0.002161145502469859 
-0.001975352674543231 
7.669974013590591e-05 
-0.0004089727596637587 
-0.0002255134451466323 
-8.75798354615232e-05 
0.0001221971325909125 
-1.773459372512288e-05 
-0.0001996003708146596 
0.0005310232190458805 
0.00185108990606687 
0.003324243812887807 
0 
0.003778739623284244 
-0.00185108990606687 
0.003324243812887807 
0.0001996003708146596 
0.0005310232190458805 
-0.0001221971325909125 
-1.773459372512288e-05 
-4.484246655204772e-05 
-6.218481935177725e-05 
0.0002243686161396664 
4.679434688172812e-05 
0.001092054998099454 
-0.002005033901936276 
0 
-0.006565203769786308 
-0.001092054998099454 
-0.002005033901936276 
-0.0002243686161396664 
4.679434688172812e-05 
4.484246655204772e-05 
-6.218481935177725e-05 
-7.367152131497663e-05 
-5.909202020560329e-05 
9.256740995681984e-05 
-0.000455753298788888 
0.0003163593932099845 
-0.002707976518381097 
0 
-0.01275452747146365 
-0.0003163593932099845 
-0.002707976518381097 
-9.256740995681984e-05 
-0.000455753298788888 
7.367152131497663e-05 
-5.909202020560329e-05 
-0.0001386616086970352 
6.938271807324038e-05 
8.427668721723992e-06 
0.0007929749169789652 
0.00262777163913565 
1.155721478408182e-05 
0 
-0.005039964866487533 
-0.00262777163913565 
1.155721478408182e-05 
-8.427668721723992e-06 
0.0007929749169789652 
0.0001386616086970352 
6.938271807324038e-05 
0.0001144791873310008 
9.400239664851656e-05 
0.0006235265758062442 
-0.000363276413079075 
0.0005166550004394368 
-0.002670733454056181 
0 
-0.005638131518795935 
-0.0005166550004394368 
-0.002670733454056181 
-0.0006235265758062442 
-0.000363276413079075 
-0.0001144791873310008 
9.400239664851656e-05 
-2.282742106832323e-05 
0.0002785038689577491 
-3.08357399566899e-05 
0.001556608494517855 
0.003136567038730543 
0.007202487114503546 
0 
0.01127940548460553 
-0.003136567038730543 
0.007202487114503546 
3.08357399566899e-05 
0.001556608494517855 
2.282742106832323e-05 
0.0002785038689577491 
3.445155429163861e-05 
-6.627827489720953e-05 
0.0004544450169212094 
0.0002699188921601456 
0.003834478464494015 
-0.002563251998655628 
0 
-0.01513307235561719 
-0.003834478464494015 
-0.002563251998655628 
-0.0004544450169212094 
0.0002699188921601456 
-3.445155429163861e-05 
-6.627827489720953e-05 
9.45290306413621e-06 
-0.0001597174762726594 
-9.639071626633988e-05 
-0.0004063668918090285 
-0.0002387287299799994 
-0.001700690041915662 
0 
-0.005884788286130775 
0.0002387287299799994 
-0.001700690041915662 
9.639071626633988e-05 
-0.0004063668918090285 
-9.45290306413621e-06 
-0.0001597174762726594 
0.0001918434108789886 
-0.000171117941050279 
-0.0001045384873000482 
-0.0005873237586835327 
0.0003786921774066937 
-0.00311949361023833 
0 
-0.005099336557721029 
-0.0003786921774066937 
-0.00311949361023833 
0.0001045384873000482 
-0.0005873237586835327 
-0.0001918434108789886 
-0.000171117941050279 
6.224149152413197e-05 
-2.277766452165506e-06 
0.0001621896002102644 
0.0002707823296746782 
0.005196971501610527 
-0.002854132626778646 
0 
-0.01816391628879924 
-0.005196971501610527 
-0.002854132626778646 
-0.0001621896002102644 
0.0002707823296746782 
-6.224149152413197e-05 
-2.277766452165506e-06 
1.113184169859883e-05 
-8.941063511201823e-05 
-7.271337796001918e-05 
9.911602121825499e-05 
0.00230766334385664 
-0.001206850385035166 
0 
-0.009404704419646314 
-0.00230766334385664 
-0.001206850385035166 
7.271337796001918e-05 
9.911602121825499e-05 
-1.113184169859883e-05 
-8.941063511201823e-05 
3.73766659963196e-06 
-1.419632667960253e-05 
-0.0004901634282430952 
7.389578093708268e-06 
-0.0001685475064178297 
0.001905511142371171 
0 
0.002456888577526375 
0.0001685475064178297 
0.001905511142371171 
0.0004901634282430952 
7.389578093708268e-06 
-3.73766659963196e-06 
-1.419632667960253e-05 
-8.095537307421905e-05 
8.895725286576217e-05 
0.0004779836849745988 
0.0006001209760161299 
0.001349910968246761 
-0.0008756889585851786 
0 
-0.002994096577092604 
-0.001349910968246761 
-0.0008756889585851786 
-0.0004779836849745988 
0.0006001209760161299 
8.095537307421905e-05 
8.895725286576217e-05 
-1.780922577338545e-05 
2.815069784575047e-05 
0.000306389408375895 
0.0003340173613282136 
0.001004591153319247 
-0.002041837530437642 
0 
-0.002566950859053774 
-0.001004591153319247 
-0.002041837530437642 
-0.000306389408375895 
0.0003340173613282136 
1.780922577338545e-05 
2.815069784575047e-05 
0.0001584634269372861 
-5.252572255261567e-05 
0.000724365715810407 
-0.0007692298930110498 
0.0008490741385691036 
-0.005236908935860479 
0 
-0.0138429523052596 
-0.0008490741385691036 
-0.005236908935860479 
-0.000724365715810407 
-0.0007692298930110498 
-0.0001584634269372861 
-5.252572255261567e-05 
-0.0001101466100839148 
-0.0001161953386732754 
-0.0001903419657945758 
0.0004305086354703159 
0.003025315354160361 
-0.001009793509435723 
0 
-0.008090027112575787 
-0.003025315354160361 
-0.001009793509435723 
0.0001903419657945758 
0.0004305086354703159 
0.0001101466100839148 
-0.0001161953386732754 
-0.0002722563443103763 
0.0001603370399441363 
-0.0001913866871141681 
0.001440373931151891 
0.002061507635953242 
0.003079971603844183 
0 
0.003709944954980901 
-0.002061507635953242 
0.003079971603844183 
0.0001913866871141681 
0.001440373931151891 
0.0002722563443103763 
0.0001603370399441363 
9.424952926756158e-05 
-2.772552960010352e-05 
0.0003567361346599657 
-0.0001016437160019244 
-0.001201181998253934 
-0.003413243874804225 
0 
0.003430729562594 
0.001201181998253934 
-0.003413243874804225 
-0.0003567361346599657 
-0.0001016437160019244 
-9.424952926756158e-05 
-2.772552960010352e-05 
-2.610403819494397e-05 
9.690082525070796e-06 
8.084729379261137e-05 
7.934836693646285e-05 
0.001786864068836239 
-0.0006219187452057478 
0 
-0.006764513048236147 
-0.001786864068836239 
-0.0006219187452057478 
-8.084729379261137e-05 
7.934836693646285e-05 
2.610403819494397e-05 
9.690082525070796e-06 
-6.589000433170448e-05 
0.0001204916216497491 
0.0008038525637695173 
0.0005396644459327621 
0.002326384989391 
-0.003732468015972588 
0 
-0.008476104670951719 
-0.002326384989391 
-0.003732468015972588 
-0.0008038525637695173 
0.0005396644459327621 
6.589000433170448e-05 
0.0001204916216497491 
-1.257012339807922e-05 
-1.821103268071381e-05 
-0.0003011581819919658 
-0.0002423889505801508 
-0.00181797728226362 
0.001415203501295985 
0 
0.003513687398163524 
0.00181797728226362 
0.001415203501295985 
0.0003011581819919658 
-0.0002423889505801508 
1.257012339807922e-05 
-1.821103268071381e-05 
0.0001886203829526393 
7.305158811179943e-05 
0.001105108591998375 
-0.001037372544436303 
-8.598281855171555e-05 
-0.005922892861580355 
0 
-0.0114741164811147 
8.598281855171555e-05 
-0.005922892861580355 
-0.001105108591998375 
-0.001037372544436303 
-0.0001886203829526393 
7.305158811179943e-05 
-5.593749121780731e-05 
-9.37976841904611e-06 
0.0008655031228383417 
0.0003340232334771962 
0.002555908272840217 
-0.004440685431560128 
0 
-0.008384373005602659 
-0.002555908272840217 
-0.004440685431560128 
-0.0008655031228383417 
0.0003340232334771962 
5.593749121780731e-05 
-9.37976841904611e-06 
-2.937668611410646e-05 
-0.0001185226421231561 
9.478098640521268e-05 
-0.0002387016080999086 
0.000220678871687685 
-0.001513138881004757 
0 
-0.002745520718159809 
-0.000220678871687685 
-0.001513138881004757 
-9.478098640521268e-05 
-0.0002387016080999086 
2.937668611410646e-05 
-0.0001185226421231561 
5.617081251328281e-05 
5.314662183845602e-05 
-3.861157570213311e-05 
-0.0001005856710582853 
0.0007564412454890581 
-0.0001196615369074711 
0 
-0.001913869767674937 
-0.0007564412454890581 
-0.0001196615369074711 
3.861157570213311e-05 
-0.0001005856710582853 
-5.617081251328281e-05 
5.314662183845602e-05 
-0.0001982104608230433 
5.89708168761342e-05 
-0.0004674375884124042 
0.0007881208426865145 
0.0003503369218703882 
0.003445558380703284 
0 
0.00493314428776009 
-0.0003503369218703882 
0.003445558380703284 
0.0004674375884124042 
0.0007881208426865145 
0.0001982104608230433 
5.89708168761342e-05 
2.290625977616777e-05 
-1.525048937882077e-05 
-0.0002297284550825365 
-0.0004120820004316996 
-0.000647484943732443 
0.001427270803276269 
0 
0.002870166745510421 
0.000647484943732443 
0.001427270803276269 
0.0002297284550825365 
-0.0004120820004316996 
-2.290625977616777e-05 
-1.525048937882077e-05 
-0.0001589875610053422 
-0.0001479194326054626 
-0.0007281344876735314 
-9.251516497214589e-05 
-0.0002739682024989949 
0.001691011102827804 
0 
-0.003510348602196563 
0.0002739682024989949 
0.001691011102827804 
0.0007281344876735314 
-9.251516497214589e-05 
0.0001589875610053422 
-0.0001479194326054626 
-3.329776428556728e-06 
1.710148987743269e-05 
0.0002635414670709894 
-0.0002576810658883327 
0.0003154378094876844 
-0.0008030375114666998 
0 
-0.005173617087533998 
-0.0003154378094876844 
-0.0008030375114666998 
-0.0002635414670709894 
-0.0002576810658883327 
3.329776428556728e-06 
1.710148987743269e-05 
-0.0001036162817698135 
3.446350030589348e-05 
-0.0002871473054654222 
0.0004179357451883804 
-7.264996755728963e-05 
0.002020730341839279 
0 
0.002316145629670048 
7.264996755728963e-05 
0.002020730341839279 
0.0002871473054654222 
0.0004179357451883804 
0.0001036162817698135 
3.446350030589348e-05 
8.934566078873873e-05 
5.167878311542648e-05 
0.0001454877879745747 
-0.0001943783206003019 
0.0009342673771415865 
-0.0006574469272337128 
0 
-0.005516237964248552 
-0.0009342673771415865 
-0.0006574469272337128 
-0.0001454877879745747 
-0.0001943783206003019 
-8.934566078873873e-05 
5.167878311542648e-05 
6.217489004815709e-05 
-8.432868684171264e-05 
0.000367551280982146 
-7.447139712964683e-05 
0.002267459746188793 
-0.00317550402468745 
0 
-0.01128623347515507 
-0.002267459746188793 
-0.00317550402468745 
-0.000367551280982146 
-7.447139712964683e-05 
-6.217489004815709e-05 
-8.432868684171264e-05 
3.168650337124839e-05 
-0.000104688950164613 
-0.0002441798754217026 
0.0002456490793585062 
0.003480961999769165 
-0.0006886312687609543 
0 
-0.0113469899742135 
-0.003480961999769165 
-0.0006886312687609543 
0.0002441798754217026 
0.0002456490793585062 
-3.168650337124839e-05 
-0.000104688950164613 
-4.944453140778731e-05 
6.073274176887397e-05 
0.0003470600554422857 
9.967308448016655e-05 
0.002408271468724343 
-0.002253374026314952 
0 
-0.008101727669751453 
-0.002408271468724343 
-0.002253374026314952 
-0.0003470600554422857 
9.967308448016655e-05 
4.944453140778731e-05 
6.073274176887397e-05 
-0.0001274096339581952 
0.0004514800155860684 
0.0002912636085413591 
0.002137164660365741 
0.003374778353476808 
0.0079251693923634 
0 
0.01193229165571614 
-0.003374778353476808 
0.0079251693923634 
-0.0002912636085413591 
0.002137164660365741 
0.0001274096339581952 
0.0004514800155860684 
2.915145751220544e-05 
-0.0001132556165249997 
-0.0001238649902446891 
5.032133696356254e-05 
0.003461557686678256 
-0.001663432801687116 
0 
-0.01351458434326032 
-0.003461557686678256 
-0.001663432801687116 
0.0001238649902446891 
5.032133696356254e-05 
-2.915145751220544e-05 
-0.0001132556165249997 
0.0002408682597411045 
-0.0001923713502002811 
-0.0001023836145647985 
-0.0009773370430070025 
0.001534646121594225 
-0.00210724835133349 
0 
-0.01366942497181893 
-0.001534646121594225 
-0.00210724835133349 
0.0001023836145647985 
-0.0009773370430070025 
-0.0002408682597411045 
-0.0001923713502002811 
-4.283940580596377e-05 
-1.94868354940556e-05 
0.0002061393244819776 
0.0006122766135606085 
0.004552925571484766 
-0.003172136895101427 
0 
-0.01190359759785219 
-0.004552925571484766 
-0.003172136895101427 
-0.0002061393244819776 
0.0006122766135606085 
4.283940580596377e-05 
-1.94868354940556e-05 
5.166695765606973e-05 
-9.994479463272849e-05 
0.0002001304997903069 
-0.0006787091205161183 
8.82424776067129e-05 
-0.002374826538017208 
0 
-0.01079146856810701 
-8.82424776067129e-05 
-0.002374826538017208 
-0.0002001304997903069 
-0.0006787091205161183 
-5.166695765606973e-05 
-9.994479463272849e-05 
4.980323541647234e-05 
3.619132762030307e-05 
0.0008980260543296467 
-6.175700233683196e-06 
0.002328600090605158 
-0.004701094431449998 
0 
-0.01176858572329382 
-0.002328600090605158 
-0.004701094431449998 
-0.0008980260543296467 
-6.175700233683196e-06 
-4.980323541647234e-05 
3.619132762030307e-05 
0.0001459780347601943 
-0.0001035190018202926 
-6.771016914212686e-05 
-0.0002399610248233455 
0.001123924056871622 
-0.002055232269570219 
0 
-0.00792132817473786 
-0.001123924056871622 
-0.002055232269570219 
6.771016914212686e-05 
-0.0002399610248233455 
-0.0001459780347601943 
-0.0001035190018202926 
-0.0001662580468196954 
-0.0001506162375944613 
-0.00079495464717259 
0.0008704738961391545 
0.002999111393122343 
0.0005055897873877005 
0 
-0.006524599830167006 
-0.002999111393122343 
0.0005055897873877005 
0.00079495464717259 
0.0008704738961391545 
0.0001662580468196954 
-0.0001506162375944613 
9.182980924218312e-05 
-0.000102341769458096 
-0.000587705250999708 
-0.0002867373110526388 
0.001082793807425972 
0.0009904313273301391 
0 
-0.005156000089012208 
-0.001082793807425972 
0.0009904313273301391 
0.000587705250999708 
-0.0002867373110526388 
-9.182980924218312e-05 
-0.000102341769458096 
-8.47783505015852e-05 
0.0001285576854062314 
-0.0005091150659861004 
0.001435055258076732 
0.001732975830929163 
0.007610842487007272 
0 
0.009292389158066862 
-0.001732975830929163 
0.007610842487007272 
0.0005091150659861004 
0.001435055258076732 
8.47783505015852e-05 
0.0001285576854062314 
-7.096300175840732e-05 
-0.0001335326444877771 
-0.000485201152139841 
0.0005368105854402494 
0.002086021843651238 
0.0002763695065282521 
0 
-0.003638262715349785 
-0.002086021843651238 
0.0002763695065282521 
0.000485201152139841 
0.0005368105854402494 
7.096300175840732e-05 
-0.0001335326444877771 
0.0001304495319664103 
-0.0001191111082645848 
-0.0002074558155099519 
-0.0006174169939292986 
-0.0001241222888217581 
-0.0002901982111903173 
0 
-0.004385735407678969 
0.0001241222888217581 
-0.0002901982111903173 
0.0002074558155099519 
-0.0006174169939292986 
-0.0001304495319664103 
-0.0001191111082645848 
-2.411933969788919e-05 
1.624294186804487e-06 
5.550049251356957e-05 
0.0004251603246268313 
0.004081270653578802 
-0.001245580321404264 
0 
-0.009769266876193072 
-0.004081270653578802 
-0.001245580321404264 
-5.550049251356957e-05 
0.0004251603246268313 
2.411933969788919e-05 
1.624294186804487e-06 
7.247080329559374e-05 
-0.0002925104737435578 
0.0001285024258521014 
-0.0009951792388737336 
0.0005767890135219662 
-0.005737380502339288 
0 
-0.01663144123454004 
-0.0005767890135219662 
-0.005737380502339288 
-0.0001285024258521014 
-0.0009951792388737336 
-7.247080329559374e-05 
-0.0002925104737435578 
7.257356279066358e-06 
6.739574168438906e-05 
0.000282861701011656 
-9.83903113568584e-05 
0.0001930256831190196 
-0.0004351834362680182 
0 
-0.004229585120280278 
-0.0001930256831190196 
-0.0004351834362680182 
-0.000282861701011656 
-9.83903113568584e-05 
-7.257356279066358e-06 
6.739574168438906e-05 
-0.0001237496759526468 
9.357031903255045e-05 
-0.0001576233878335261 
0.001047606485001074 
0.004521561761553319 
0.001257709062571137 
0 
-0.009000113859156474 
-0.004521561761553319 
0.001257709062571137 
0.0001576233878335261 
0.001047606485001074 
0.0001237496759526468 
9.357031903255045e-05 
-0.0001207636611977887 
6.711887272027139e-05 
0.0001891822030921818 
-8.275802753225147e-05 
0.003003289088809795 
-0.001657221838219459 
0 
-0.01377382185604883 
-0.003003289088809795 
-0.001657221838219459 
-0.0001891822030921818 
-8.275802753225147e-05 
0.0001207636611977887 
6.711887272027139e-05 
-5.517291167130591e-05 
0.0001204284138704916 
0.0001943863173285339 
0.0003078835264357587 
0.001618398949610188 
-1.649017005143369e-05 
0 
-0.005561993200693962 
-0.001618398949610188 
-1.649017005143369e-05 
-0.0001943863173285339 
0.0003078835264357587 
5.517291167130591e-05 
0.0001204284138704916 
-7.590420087596796e-05 
0.0002755356938996805 
0.000519309120571326 
0.001553525998772878 
0.00403912233055955 
0.002135160889716053 
0 
-0.00127929677467065 
-0.00403912233055955 
0.002135160889716053 
-0.000519309120571326 
0.001553525998772878 
7.590420087596796e-05 
0.0002755356938996805 
0.0001136775801280731 
-8.761584347601303e-05 
0.0005010264438790139 
-0.0005622044525207606 
0.000337168747608226 
-0.003914288352329899 
0 
-0.008351837049355266 
-0.000337168747608226 
-0.003914288352329899 
-0.0005010264438790139 
-0.0005622044525207606 
-0.0001136775801280731 
-8.761584347601303e-05 
5.108248831326576e-06 
5.11034871716979e-05 
0.0005560081050724317 
-7.90542237178825e-06 
0.00223109236692437 
-0.002445484219304735 
0 
-0.008582325250886267 
-0.00223109236692437 
-0.002445484219304735 
-0.0005560081050724317 
-7.90542237178825e-06 
-5.108248831326576e-06 
5.11034871716979e-05 
0.0001008139237221137 
-3.750572346341801e-05 
0.0006370105883832925 
2.048670064397284e-05 
0.002539731362830538 
-0.003649146173286349 
0 
-0.01307907245926218 
-0.002539731362830538 
-0.003649146173286349 
-0.0006370105883832925 
2.048670064397284e-05 
-0.0001008139237221137 
-3.750572346341801e-05 
0.0001127322912919445 
-0.0001446445852127242 
0.0003344468231907991 
-0.0007621661409143111 
-0.001009047603096573 
-0.001502561969036858 
0 
-0.007552969413836325 
0.001009047603096573 
-0.001502561969036858 
-0.0003344468231907991 
-0.0007621661409143111 
-0.0001127322912919445 
-0.0001446445852127242 
0.000252308627342807 
-0.0001512075167228204 
-3.354488022808004e-05 
-0.001030436972320593 
-4.871011737410796e-05 
-0.002909769239609948 
0 
-0.01089731207861836 
4.871011737410796e-05 
-0.002909769239609948 
3.354488022808004e-05 
-0.001030436972320593 
-0.000252308627342807 
-0.0001512075167228204 
-0.0001451732515207036 
-3.517345889933233e-05 
-0.0002753554648764248 
0.0009488303271798587 
0.002647975162433012 
0.002382496484298978 
0 
-0.005135367849604054 
-0.002647975162433012 
0.002382496484298978 
0.0002753554648764248 
0.0009488303271798587 
0.0001451732515207036 
-3.517345889933233e-05 
-6.800300960713137e-05 
-0.0001565758324733725 
-9.579008864816288e-05 
6.412347787055123e-05 
0.0006604285638865255 
-0.001196570556324126 
0 
-0.009016436161394905 
-0.0006604285638865255 
-0.001196570556324126 
9.579008864816288e-05 
6.412347787055123e-05 
6.800300960713137e-05 
-0.0001565758324733725 
-0.0001364143150169697 
-7.172761074240326e-06 
0.0005023649525392875 
0.0002095397961013747 
0.00135878912196869 
-0.001497762672793033 
0 
-0.009671927640567072 
-0.00135878912196869 
-0.001497762672793033 
-0.0005023649525392875 
0.0002095397961013747 
0.0001364143150169697 
-7.172761074240326e-06 
-0.0001302374806071929 
0.0001936812504705975 
-0.0005789100060602577 
0.001518887527726576 
0.001776765969863783 
0.007054355024119746 
0 
0.006500886807427167 
-0.001776765969863783 
0.007054355024119746 
0.0005789100060602577 
0.001518887527726576 
0.0001302374806071929 
0.0001936812504705975 
6.670878139158849e-05 
-0.0001746043820163603 
-0.0003718779305118464 
-0.0003157421812289155 
-0.0007909263669384954 
0.0007301150363126506 
0 
-0.001830589750728036 
0.0007909263669384954 
0.0007301150363126506 
0.0003718779305118464 
-0.0003157421812289155 
-6.670878139158849e-05 
-0.0001746043820163603 
7.301141582861267e-05 
-0.0002068262670111112 
-0.0001832001617356173 
-0.0004668358783073285 
0.0009015952168853691 
-0.002277774767977764 
0 
-0.01052352002394698 
-0.0009015952168853691 
-0.002277774767977764 
0.0001832001617356173 
-0.0004668358783073285 
-7.301141582861267e-05 
-0.0002068262670111112 
-7.068825134106203e-06 
-5.165920554173821e-05 
0.0001398985071589669 
0.0003060054280343471 
0.002004995626679165 
-0.0009584019316653965 
0 
-0.006841723986053332 
-0.002004995626679165 
-0.0009584019316653965 
-0.0001398985071589669 
0.0003060054280343471 
7.068825134106203e-06 
-5.165920554173821e-05 
0.0003060799848250022 
-0.0001166390361979654 
0.0008110513536615133 
-0.00104204348330134 
0.0003776037386383535 
-0.005150181396023907 
0 
-0.01339679057590764 
-0.0003776037386383535 
-0.005150181396023907 
-0.0008110513536615133 
-0.00104204348330134 
-0.0003060799848250022 
-0.0001166390361979654 
2.39974530392154e-05 
-2.965213351253492e-05 
6.373437579941139e-06 
-0.0004082015756276868 
-0.001015835797831207 
-0.0003188432611231776 
0 
-0.001073093973255285 
0.001015835797831207 
-0.0003188432611231776 
-6.373437579941139e-06 
-0.0004082015756276868 
-2.39974530392154e-05 
-2.965213351253492e-05 
2.767122669388479e-05 
5.625479470641611e-05 
0.0004980778026041804 
-6.344433858304825e-05 
0.002458927346424163 
-0.001650235105123567 
0 
-0.00766172353957946 
-0.002458927346424163 
-0.001650235105123567 
-0.0004980778026041804 
-6.344433858304825e-05 
-2.767122669388479e-05 
5.625479470641611e-05 
1.374086050270848e-05 
-1.073378066043383e-05 
0.0005314062494198446 
0.0001366584062594623 
0.004288813806102002 
-0.00344023916772372 
0 
-0.01493943038604033 
-0.004288813806102002 
-0.00344023916772372 
-0.0005314062494198446 
0.0001366584062594623 
-1.374086050270848e-05 
-1.073378066043383e-05 
6.446408826247645e-05 
8.252085527128841e-06 
0.0006367780984356126 
9.097889500811207e-05 
0.001560909175858878 
-0.004177066432771712 
0 
-0.006441089748912691 
-0.001560909175858878 
-0.004177066432771712 
-0.0006367780984356126 
9.097889500811207e-05 
-6.446408826247645e-05 
8.252085527128841e-06 
7.194024376845848e-06 
-5.11552454160124e-05 
-3.147703520075449e-05 
-2.290043105763921e-05 
0.001814563216261814 
0.0002231768316296672 
0 
-0.01080132298162804 
-0.001814563216261814 
0.0002231768316296672 
3.147703520075449e-05 
-2.290043105763921e-05 
-7.194024376845848e-06 
-5.11552454160124e-05 
3.255969373393264e-05 
-0.0001277283242473519 
1.413714280700918e-05 
-0.0002568328452246885 
0.001146058842489554 
-0.0008866416383558603 
0 
-0.01059305456583441 
-0.001146058842489554 
-0.0008866416383558603 
-1.413714280700918e-05 
-0.0002568328452246885 
-3.255969373393264e-05 
-0.0001277283242473519 
-0.0001167463915716253 
0.000243972515976861 
-1.430922612756913e-05 
0.001581650008229089 
0.004362972962833438 
0.004240849212405934 
0 
0.001621852272855432 
-0.004362972962833438 
0.004240849212405934 
1.430922612756913e-05 
0.001581650008229089 
0.0001167463915716253 
0.000243972515976861 
-6.462317602197073e-05 
0.0001650688366526086 
0.0007257908766016034 
0.0002722018887088724 
0.001907741585733277 
-0.002032542001754901 
0 
-0.005237785448166463 
-0.001907741585733277 
-0.002032542001754901 
-0.0007257908766016034 
0.0002722018887088724 
6.462317602197073e-05 
0.0001650688366526086 
0.0001147915821074557 
-8.665954851459244e-05 
0.0002645382109819721 
-0.001047342203625645 
-0.001015084544251125 
-0.001474940220331418 
0 
-0.007739445520381625 
0.001015084544251125 
-0.001474940220331418 
-0.0002645382109819721 
-0.001047342203625645 
-0.0001147915821074557 
-8.665954851459244e-05 
-7.98246761683726e-05 
5.118362432000847e-05 
0.0007472007135014072 
0.0007224187566172569 
0.004478184208914959 
-0.005469067525748993 
0 
-0.01279064826990623 
-0.004478184208914959 
-0.005469067525748993 
-0.0007472007135014072 
0.0007224187566172569 
7.98246761683726e-05 
5.118362432000847e-05 
-6.051743596936477e-07 
0.0001662491848046442 
0.0009254337389336209 
0.0002432035220806107 
0.003330154693944706 
-0.004853843565159561 
0 
-0.009871717864511033 
-0.003330154693944706 
-0.004853843565159561 
-0.0009254337389336209 
0.0002432035220806107 
6.051743596936477e-07 
0.0001662491848046442 
0.0001597945901258512 
0.0005618896152686365 
0.0007919612563286394 
0.002573924402564487 
0.004959425291059016 
0.009332575131751047 
0 
0.0199525378237529 
-0.004959425291059016 
0.009332575131751047 
-0.0007919612563286394 
0.002573924402564487 
-0.0001597945901258512 
0.0005618896152686365 
-3.074139459457432e-05 
0.0001179527498596384 
0.0005289193358639108 
0.0004697445471672237 
0.006023059121673867 
-0.003938418166708451 
0 
-0.02003251413932793 
-0.006023059121673867 
-0.003938418166708451 
-0.0005289193358639108 
0.0004697445471672237 
3.074139459457432e-05 
0.0001179527498596384 
-5.227062999864548e-06 
2.13138671607091e-06 
0.000239859494351515 
0.0002694774208134618 
0.004660936000660483 
-0.003288347897672486 
0 
-0.01859923247153846 
-0.004660936000660483 
-0.003288347897672486 
-0.000239859494351515 
0.0002694774208134618 
5.227062999864548e-06 
2.13138671607091e-06 
6.105494339459488e-05 
-0.0001347217724517142 
-0.0003013510218069771 
0.0001955898357570799 
0.002642328329552087 
-0.001305004052875211 
0 
-0.005430026779317663 
-0.002642328329552087 
-0.001305004052875211 
0.0003013510218069771 
0.0001955898357570799 
-6.105494339459488e-05 
-0.0001347217724517142 
-0.00010213250332649 
0.0001028178056779904 
0.0005447907902772875 
0.000726764943907691 
0.006243639809601817 
-0.004236144361041537 
0 
-0.01917448281184047 
-0.006243639809601817 
-0.004236144361041537 
-0.0005447907902772875 
0.000726764943907691 
0.00010213250332649 
0.0001028178056779904 
-5.938839856954034e-05 
-1.069121130205132e-05 
-0.0003105614485098669 
0.0005137908588370223 
0.003131556685032996 
0.0008770440005962184 
0 
-0.005510692002249989 
-0.003131556685032996 
0.0008770440005962184 
0.0003105614485098669 
0.0005137908588370223 
5.938839856954034e-05 
-1.069121130205132e-05 
-3.65621689428441e-05 
-0.0002267302490214937 
-0.0005344334143893826 
8.680688896692538e-05 
0.001988032337930404 
-0.001734588068993707 
0 
-0.007283763491304884 
-0.001988032337930404 
-0.001734588068993707 
0.0005344334143893826 
8.680688896692538e-05 
3.65621689428441e-05 
-0.0002267302490214937 
0.0001572446696574691 
-0.0001016980448981961 
0.000327178280654402 
-0.0008997890437676328 
-0.0003229397697073832 
-0.003651358189536332 
0 
-0.007126609425003726 
0.0003229397697073832 
-0.003651358189536332 
-0.000327178280654402 
-0.0008997890437676328 
-0.0001572446696574691 
-0.0001016980448981961 
5.841508615708383e-05 
1.105363725025416e-05 
0.0001058189434164457 
0.0001691740592275666 
0.001687444619757929 
-0.0017053751026134 
0 
-0.002481000577865216 
-0.001687444619757929 
-0.0017053751026134 
-0.0001058189434164457 
0.0001691740592275666 
-5.841508615708383e-05 
1.105363725025416e-05 
8.747712194635869e-05 
-0.0001215908066250307 
0.0002261929958457878 
-0.0001518839333844529 
0.002023608998290903 
-0.003915410157767273 
0 
-0.01184672021007642 
-0.002023608998290903 
-0.003915410157767273 
-0.0002261929958457878 
-0.0001518839333844529 
-8.747712194635869e-05 
-0.0001215908066250307 
-5.447651521300732e-06 
-9.88745998778895e-05 
-0.0005059193965166683 
0.0002212963042193552 
0.001727822762559003 
0.0009962044486071255 
0 
-0.005061712339224549 
-0.001727822762559003 
0.0009962044486071255 
0.0005059193965166683 
0.0002212963042193552 
5.447651521300732e-06 
-9.88745998778895e-05 
0.0001503698265900235 
8.831287064001785e-05 
0.00047471824101287 
-0.0004740305759164653 
0.0002764175903511486 
-0.001341351282600462 
0 
-0.006433522094447322 
-0.0002764175903511486 
-0.001341351282600462 
-0.00047471824101287 
-0.0004740305759164653 
-0.0001503698265900235 
8.831287064001785e-05 
0.0001702338470211859 
-0.0001772718198097822 
-0.0001378119411727924 
-0.0005418794548673915 
-0.0004061167555719715 
-0.001126822667660148 
0 
-0.002281565946048198 
0.0004061167555719715 
-0.001126822667660148 
0.0001378119411727924 
-0.0005418794548673915 
-0.0001702338470211859 
-0.0001772718198097822 
-3.540636882216025e-05 
4.767352282678562e-05 
-0.0004180210054628854 
-1.269241117829821e-07 
-0.0008819068412520122 
0.002387620255920063 
0 
0.003995303267004343 
0.0008819068412520122 
0.002387620255920063 
0.0004180210054628854 
-1.269241117829821e-07 
3.540636882216025e-05 
4.767352282678562e-05 
-0.0001384145757118355 
-6.450647294391796e-05 
-0.001006113301779762 
0.0002435101406988665 
7.685881655712238e-05 
0.004445226453989836 
0 
0.007172649072983226 
-7.685881655712238e-05 
0.004445226453989836 
0.001006113301779762 
0.0002435101406988665 
0.0001384145757118355 
-6.450647294391796e-05 
-0.0001022358189418429 
-0.000205873889019798 
-0.0009244503780581012 
8.436397976194417e-05 
-0.00139517252106993 
0.002343957965620198 
0 
0.006050945317534001 
0.00139517252106993 
0.002343957965620198 
0.0009244503780581012 
8.436397976194417e-05 
0.0001022358189418429 
-0.000205873889019798 
-9.409951595013912e-06 
2.009004609099936e-05 
2.833370582919082e-05 
-0.0003471280091730754 
-0.0006601728606903614 
-0.001463291485088648 
0 
-0.00074079448903439 
0.0006601728606903614 
-0.001463291485088648 
-2.833370582919082e-05 
-0.0003471280091730754 
9.409951595013912e-06 
2.009004609099936e-05 
0.0001186011951340986 
5.21657806259811e-06 
0.0001896273573965743 
-0.0006329776730304575 
-0.0002292195676771779 
-0.001244840655413291 
0 
-0.002166632360994981 
0.0002292195676771779 
-0.001244840655413291 
-0.0001896273573965743 
-0.0006329776730304575 
-0.0001186011951340986 
5.21657806259811e-06 
8.440325441236002e-05 
-1.019505112634608e-07 
0.0001326785706645003 
-0.0006575195528037616 
0.0004885176125095143 
-0.0005474608460653354 
0 
-0.005496910413560589 
-0.0004885176125095143 
-0.0005474608460653354 
-0.0001326785706645003 
-0.0006575195528037616 
-8.440325441236002e-05 
-1.019505112634608e-07 
6.292862975941731e-05 
-2.736407005386121e-06 
0.0005498131082582273 
0.0002645103249869459 
0.00153240067057817 
-0.002026505922330459 
0 
-0.009024831546092595 
-0.00153240067057817 
-0.002026505922330459 
-0.0005498131082582273 
0.0002645103249869459 
-6.292862975941731e-05 
-2.736407005386121e-06 
-1.509722864302476e-05 
-4.349694289772925e-05 
-9.72383482542152e-05 
0.0001570552076910982 
0.001538795301972587 
-0.0001229333027228149 
0 
-0.004727547643752171 
-0.001538795301972587 
-0.0001229333027228149 
9.72383482542152e-05 
0.0001570552076910982 
1.509722864302476e-05 
-4.349694289772925e-05 
7.735011836079389e-05 
7.932357725593787e-06 
0.0004454340678765198 
-4.594939857974805e-05 
0.0006940475047749793 
-0.002491817734257211 
0 
-0.003964691901073385 
-0.0006940475047749793 
-0.002491817734257211 
-0.0004454340678765198 
-4.594939857974805e-05 
-7.735011836079389e-05 
7.932357725593787e-06 
0.0001128118792390824 
-6.791902876715016e-05 
-0.0001900423722774164 
-0.0006047575403409065 
-0.0003780396786968937 
-0.0004662035406753399 
0 
-0.00310739151574363 
0.0003780396786968937 
-0.0004662035406753399 
0.0001900423722774164 
-0.0006047575403409065 
-0.0001128118792390824 
-6.791902876715016e-05 
2.391196641251466e-06 
-0.0001974363215752977 
-0.0003591078431181922 
-0.0003926051330229928 
-4.315361294957656e-05 
0.0005839146844248631 
0 
-0.004890678046334036 
4.315361294957656e-05 
0.0005839146844248631 
0.0003591078431181922 
-0.0003926051330229928 
-2.391196641251466e-06 
-0.0001974363215752977 
-0.0001910415503413773 
0.0002213373021478379 
9.560416901707372e-05 
0.00124472103826136 
0.0009071391614656711 
0.003082533807609779 
0 
0.007071322119100634 
-0.0009071391614656711 
0.003082533807609779 
-9.560416901707372e-05 
0.00124472103826136 
0.0001910415503413773 
0.0002213373021478379 
-0.0001913201543543709 
-6.480988617935181e-05 
5.386155180728708e-05 
0.0001563166677598413 
2.791284442830468e-05 
-0.00147150339357801 
0 
-0.004136648606722431 
-2.791284442830468e-05 
-0.00147150339357801 
-5.386155180728708e-05 
0.0001563166677598413 
0.0001913201543543709 
-6.480988617935181e-05 
5.276878859797881e-05 
-0.0001230230864393591 
-0.0002150737029810914 
-0.0002422974378391897 
4.173454334277831e-06 
-0.0008372402351138501 
0 
-0.001635541708148641 
-4.173454334277831e-06 
-0.0008372402351138501 
0.0002150737029810914 
-0.0002422974378391897 
-5.276878859797881e-05 
-0.0001230230864393591 
0.0001147777116302528 
1.554148247263688e-05 
0.0003537469062321546 
-0.0003167436175342697 
0.0003184707168959569 
-0.003413291954582288 
0 
-0.001268416105238981 
-0.0003184707168959569 
-0.003413291954582288 
-0.0003537469062321546 
-0.0003167436175342697 
-0.0001147777116302528 
1.554148247263688e-05 
-0.0001202293478911122 
7.663293074702326e-05 
0.0003051001138736547 
0.001329140725552664 
0.00426053146808951 
-0.002291208439509577 
0 
-0.006357633195342362 
-0.00426053146808951 
-0.002291208439509577 
-0.0003051001138736547 
0.001329140725552664 
0.0001202293478911122 
7.663293074702326e-05 
0.0002487056133327394 
-4.807780452206365e-05 
0.0008973004638956629 
-0.001070787234755506 
0.0007200503878948863 
-0.005936716986925931 
0 
-0.01474222997380845 
-0.0007200503878948863 
-0.005936716986925931 
-0.0008973004638956629 
-0.001070787234755506 
-0.0002487056133327394 
-4.807780452206365e-05 
-3.194492621189418e-05 
2.092333163932866e-05 
0.0005059920413278772 
0.0003503813393536084 
-0.0002836587923798922 
-0.003180687955892829 
0 
0.003496164896425607 
0.0002836587923798922 
-0.003180687955892829 
-0.0005059920413278772 
0.0003503813393536084 
3.194492621189418e-05 
2.092333163932866e-05 
-6.597276899722738e-05 
-3.131717504943686e-05 
0.000206396070926453 
-0.0003372736043945378 
-0.0007946233456411714 
-0.001498881706019614 
0 
-0.00142319278632503 
0.0007946233456411714 
-0.001498881706019614 
-0.000206396070926453 
-0.0003372736043945378 
6.597276899722738e-05 
-3.131717504943686e-05 
7.670865147200775e-05 
-4.262669756221833e-05 
0.0003744571451846976 
-0.0006540904939118827 
-0.0009463312729456216 
-0.001332747146474623 
0 
-0.003089286552445641 
0.0009463312729456216 
-0.001332747146474623 
-0.0003744571451846976 
-0.0006540904939118827 
-7.670865147200775e-05 
-4.262669756221833e-05 
-0.0003167282211409393 
0.0002081279917072276 
-0.0004049807268913029 
0.001958314583518174 
0.00153324354852861 
0.006156447216779031 
0 
0.010722518205522 
-0.00153324354852861 
0.006156447216779031 
0.0004049807268913029 
0.001958314583518174 
0.0003167282211409393 
0.0002081279917072276 
-0.0001066753003936427 
-0.0001333299579994878 
-1.257886990885598e-05 
-0.000381436134102904 
-0.0003158184031600732 
-0.001920528835621121 
0 
-0.005528405726174452 
0.0003158184031600732 
-0.001920528835621121 
1.257886990885598e-05 
-0.000381436134102904 
0.0001066753003936427 
-0.0001333299579994878 
-0.0001404867661982715 
-9.070025869814835e-05 
-0.0004770965413521269 
0.0002976087380225745 
0.0002420157970557344 
0.002590178048949553 
0 
0.003826149771284052 
-0.0002420157970557344 
0.002590178048949553 
0.0004770965413521269 
0.0002976087380225745 
0.0001404867661982715 
-9.070025869814835e-05 
-3.988023878691742e-05 
-9.513399957403883e-05 
-0.0005559930105528886 
7.547972665619827e-05 
0.002224639261918514 
0.001035572077983766 
0 
-0.006969688083921457 
-0.002224639261918514 
0.001035572077983766 
0.0005559930105528886 
7.547972665619827e-05 
3.988023878691742e-05 
-9.513399957403883e-05 
3.894414120037631e-05 
-5.057553776985189e-05 
-0.0001072887323172908 
-0.0005843132020340649 
-0.0008200997669768746 
0.0005096347004392775 
0 
-0.00353625628239135 
0.0008200997669768746 
0.0005096347004392775 
0.0001072887323172908 
-0.0005843132020340649 
-3.894414120037631e-05 
-5.057553776985189e-05 
0.0001147888738283356 
-0.0001784077460056684 
0.0006600758461986927 
-0.000830900049887857 
0.001405490335728442 
-0.006020719627168255 
0 
-0.01893930626306328 
-0.001405490335728442 
-0.006020719627168255 
-0.0006600758461986927 
-0.000830900049887857 
-0.0001147888738283356 
-0.0001784077460056684 
1.352471825876125e-05 
1.6633814176279e-05 
3.336536994786146e-05 
-0.0001425594717591685 
0.0005540508512439559 
6.239914554593211e-05 
0 
-0.002819623353209336 
-0.0005540508512439559 
6.239914554593211e-05 
-3.336536994786146e-05 
-0.0001425594717591685 
-1.352471825876125e-05 
1.6633814176279e-05 
4.04064371910072e-05 
-0.0001148269267400269 
-0.0003933962419513427 
-0.0002653544694701387 
-0.0004642162745258671 
0.0004450664685896063 
0 
-0.0009912909836321223 
0.0004642162745258671 
0.0004450664685896063 
0.0003933962419513427 
-0.0002653544694701387 
-4.04064371910072e-05 
-0.0001148269267400269 
-9.334617899540659e-05 
2.126677607749814e-05 
-0.0001709031350299028 
0.0002361545505630023 
-0.0001483122329954423 
0.001536347254977633 
0 
0.00134866974091386 
0.0001483122329954423 
0.001536347254977633 
0.0001709031350299028 
0.0002361545505630023 
9.334617899540659e-05 
2.126677607749814e-05 
-0.0001943501672473512 
0.0001438781128650973 
-0.0003888124312183333 
0.0008789621546730055 
0.002438321121855377 
0.002531722567688709 
0 
-0.004463425122930436 
-0.002438321121855377 
0.002531722567688709 
0.0003888124312183333 
0.0008789621546730055 
0.0001943501672473512 
0.0001438781128650973 
-8.580976213175892e-05 
0.0002282830850985646 
0.0009298440281144171 
0.0004118217751936252 
0.002848487077026518 
-0.002543525246684301 
0 
-0.01023710892221381 
-0.002848487077026518 
-0.002543525246684301 
-0.0009298440281144171 
0.0004118217751936252 
8.580976213175892e-05 
0.0002282830850985646 
-1.178290123540923e-05 
8.07439426641439e-05 
-8.630461878926717e-05 
0.0006320560137828522 
0.002105817837719012 
0.000660209845124807 
0 
-0.00178016542067229 
-0.002105817837719012 
0.000660209845124807 
8.630461878926717e-05 
0.0006320560137828522 
1.178290123540923e-05 
8.07439426641439e-05 
1.804016482032284e-05 
-2.439244459586883e-05 
7.054710693184531e-06 
-7.568178508195303e-05 
0.001344492326581179 
-0.0007364416347651402 
0 
-0.005698586507442834 
-0.001344492326581179 
-0.0007364416347651402 
-7.054710693184531e-06 
-7.568178508195303e-05 
-1.804016482032284e-05 
-2.439244459586883e-05 
9.722316758173072e-05 
-8.228468327640751e-05 
-0.0004933934638534401 
-0.0002290654578310161 
0.0009784095742916405 
-0.0001083425608650497 
0 
-0.004472551148968385 
-0.0009784095742916405 
-0.0001083425608650497 
0.0004933934638534401 
-0.0002290654578310161 
-9.722316758173072e-05 
-8.228468327640751e-05 
-6.090767051698992e-05 
0.0001988920864109576 
0.0002022809541452873 
0.001060328083460384 
0.003823801869306817 
0.001559084073584379 
0 
-0.00385135686644103 
-0.003823801869306817 
0.001559084073584379 
-0.0002022809541452873 
0.001060328083460384 
6.090767051698992e-05 
0.0001988920864109576 
0.0001259774852057821 
-1.900781724691457e-05 
0.000186725506363932 
-0.0003835250670365104 
0.0005453041842730245 
-0.001745285900303077 
0 
-0.006368085493064599 
-0.0005453041842730245 
-0.001745285900303077 
-0.000186725506363932 
-0.0003835250670365104 
-0.0001259774852057821 
-1.900781724691457e-05 
0.0001641685449795021 
-0.0001468356983810397 
-0.0004405034076818939 
-0.0003718545986758297 
0.0002514584939176629 
-0.0002425668411971686 
0 
-0.00318597741172974 
-0.0002514584939176629 
-0.0002425668411971686 
0.0004405034076818939 
-0.0003718545986758297 
-0.0001641685449795021 
-0.0001468356983810397 
2.314260019684361e-05 
5.945360816939229e-05 
8.975182299651651e-05 
-0.0002140169002398166 
0.0003370890407948535 
0.00102218724173997 
0 
-0.003500900995524686 
-0.0003370890407948535 
0.00102218724173997 
-8.975182299651651e-05 
-0.0002140169002398166 
-2.314260019684361e-05 
5.945360816939229e-05 
-3.682202744189821e-05 
-8.244541804783557e-05 
-0.0003048340185085492 
-0.0004748964981493917 
0.0008786667012232677 
-0.001606194406889861 
0 
-0.009066804323243655 
-0.0008786667012232677 
-0.001606194406889861 
0.0003048340185085492 
-0.0004748964981493917 
3.682202744189821e-05 
-8.244541804783557e-05 
-5.396761953657304e-05 
3.439564550335661e-06 
-9.698708557827778e-05 
0.0002809639296213267 
-0.000251187959950972 
0.000968480379197527 
0 
0.003336737923798746 
0.000251187959950972 
0.000968480379197527 
9.698708557827778e-05 
0.0002809639296213267 
5.396761953657304e-05 
3.439564550335661e-06 
6.070202735222942e-05 
9.394959260726105e-05 
5.134499273874713e-06 
0.0001461248209776021 
0.0007386077232127176 
-8.159498153822779e-05 
0 
0.003545710599744319 
-0.0007386077232127176 
-8.159498153822779e-05 
-5.134499273874713e-06 
0.0001461248209776021 
-6.070202735222942e-05 
9.394959260726105e-05 
2.335080277603218e-05 
-7.596691235496692e-05 
-0.0003277047465614238 
0.0003192503596308607 
0.000684388622525488 
-0.0001855290570523782 
0 
-0.0004719735619594702 
-0.000684388622525488 
-0.0001855290570523782 
0.0003277047465614238 
0.0003192503596308607 
-2.335080277603218e-05 
-7.596691235496692e-05 
-3.180739084743497e-05 
4.406708909040649e-05 
0.0004434699605156146 
0.0002414726813308629 
0.0009413494795718463 
-0.002595526273069986 
0 
-0.0004694741370712378 
-0.0009413494795718463 
-0.002595526273069986 
-0.0004434699605156146 
0.0002414726813308629 
3.180739084743497e-05 
4.406708909040649e-05 
-8.880505118687799e-05 
-0.0001457464755107986 
-0.0002634657148547757 
2.414538145426344e-05 
-3.12060026706298e-05 
-0.0004981194238401844 
0 
-0.004814588711487748 
3.12060026706298e-05 
-0.0004981194238401844 
0.0002634657148547757 
2.414538145426344e-05 
8.880505118687799e-05 
-0.0001457464755107986 
1.66585182968906e-05 
8.085796187820181e-05 
0.0006072167128434979 
6.01429850553423e-05 
0.001822709355307396 
-0.004050692425466401 
0 
-0.004200945995667972 
-0.001822709355307396 
-0.004050692425466401 
-0.0006072167128434979 
6.01429850553423e-05 
-1.66585182968906e-05 
8.085796187820181e-05 
5.428464916394467e-05 
-7.588474991716291e-05 
0.000514399636668523 
-0.0003346642511116648 
0.0006751331361889657 
-0.004073736016202725 
0 
-0.004517734557324607 
-0.0006751331361889657 
-0.004073736016202725 
-0.000514399636668523 
-0.0003346642511116648 
-5.428464916394467e-05 
-7.588474991716291e-05 
1.040385396590743e-05 
7.605792428106516e-05 
0.0004093512170739085 
0.0002674068063695434 
0.00120991738745445 
-0.002494020808591194 
0 
-0.002656091520628937 
-0.00120991738745445 
-0.002494020808591194 
-0.0004093512170739085 
0.0002674068063695434 
-1.040385396590743e-05 
7.605792428106516e-05 
-8.762336619119735e-06 
7.555669570775735e-05 
-0.000169921130286707 
0.0001641947913245342 
-0.0002818856686329662 
0.001161770327362744 
0 
0.003226161699864297 
0.0002818856686329662 
0.001161770327362744 
0.000169921130286707 
0.0001641947913245342 
8.762336619119735e-06 
7.555669570775735e-05 
8.496913255869306e-05 
-2.447144775645415e-05 
0.0001252964048270341 
-0.0003467049296938188 
0.0003063124097111945 
-0.0017259944962315 
0 
-0.001894964342684148 
-0.0003063124097111945 
-0.0017259944962315 
-0.0001252964048270341 
-0.0003467049296938188 
-8.496913255869306e-05 
-2.447144775645415e-05 
-0.0001907333257136118 
-5.682572715665869e-05 
-0.0003833544027793572 
0.0008505121320772215 
0.00297424975480993 
5.018605144950223e-05 
0 
-0.0003804847954997858 
-0.00297424975480993 
5.018605144950223e-05 
0.0003833544027793572 
0.0008505121320772215 
0.0001907333257136118 
-5.682572715665869e-05 
-8.226772008442529e-05 
6.090961963554381e-05 
0.0001618380919417801 
0.0007617295160642519 
0.004504496326735554 
-0.001739228927571576 
0 
-0.006744080448589247 
-0.004504496326735554 
-0.001739228927571576 
-0.0001618380919417801 
0.0007617295160642519 
8.226772008442529e-05 
6.090961963554381e-05 
5.710419934343572e-06 
-0.000149287945048879 
-0.0001249339994310334 
2.709804537698012e-05 
0.001183947474448667 
-0.0008693666094647238 
0 
-0.00245212699548125 
-0.001183947474448667 
-0.0008693666094647238 
0.0001249339994310334 
2.709804537698012e-05 
-5.710419934343572e-06 
-0.000149287945048879 
-5.627097862471133e-05 
6.641739852664458e-05 
0.0001136174677079945 
0.0008685854872797871 
0.003582804890731745 
0.000397381139379028 
0 
-0.008292510979923697 
-0.003582804890731745 
0.000397381139379028 
-0.0001136174677079945 
0.0008685854872797871 
5.627097862471133e-05 
6.641739852664458e-05 
6.761290116256837e-05 
-0.0002471924166079071 
-0.0001257072007226212 
9.838255638291035e-05 
0.003699607183740201 
-0.003678370116687202 
0 
-0.01811321877317761 
-0.003699607183740201 
-0.003678370116687202 
0.0001257072007226212 
9.838255638291035e-05 
-6.761290116256837e-05 
-0.0002471924166079071 
-4.26033409206519e-05 
0.0003985832107244995 
0.0001394638903335824 
0.002040327560306888 
0.00304459586226537 
0.008471579740584923 
0 
0.01823700111042985 
-0.00304459586226537 
0.008471579740584923 
-0.0001394638903335824 
0.002040327560306888 
4.26033409206519e-05 
0.0003985832107244995 
-2.080548476141931e-05 
5.542381330987377e-05 
0.0005133139424513022 
0.0004300347922073627 
0.002219084906485542 
-0.003300441692139227 
0 
-0.002327381849103404 
-0.002219084906485542 
-0.003300441692139227 
-0.0005133139424513022 
0.0004300347922073627 
2.080548476141931e-05 
5.542381330987377e-05 
0.0002409356839429917 
-4.665297425806319e-05 
0.0006372428156095966 
-0.001247645427911724 
-0.000697539200395618 
-0.004775138070355058 
0 
-0.009780823187221838 
0.000697539200395618 
-0.004775138070355058 
-0.0006372428156095966 
-0.001247645427911724 
-0.0002409356839429917 
-4.665297425806319e-05 
0.0002110178962357352 
-3.435764146547356e-05 
0.0005170907685722972 
-0.0005205589906237268 
0.002222148691310281 
-0.00235900597956542 
0 
-0.01439975203159261 
-0.002222148691310281 
-0.00235900597956542 
-0.0005170907685722972 
-0.0005205589906237268 
-0.0002110178962357352 
-3.435764146547356e-05 
0.0001591686800191864 
-3.205709307219563e-06 
0.0005941897287850503 
-0.0006657112596330125 
0.001212706832335641 
-0.00340817639214035 
0 
-0.01263656343759684 
-0.001212706832335641 
-0.00340817639214035 
-0.0005941897287850503 
-0.0006657112596330125 
-0.0001591686800191864 
-3.205709307219563e-06 
4.111504521163571e-05 
0.0001617186636151436 
0.0002215685371135863 
0.0006361638399940238 
0.002837855824039802 
0.001968865150534384 
0 
-0.002366017833327212 
-0.002837855824039802 
0.001968865150534384 
-0.0002215685371135863 
0.0006361638399940238 
-4.111504521163571e-05 
0.0001617186636151436 
-5.295576150949099e-05 
5.546777537139406e-05 
0.0007294104137981191 
0.0002880850140838405 
0.002141498106606331 
-0.00261284542075496 
0 
-0.008847424164789409 
-0.002141498106606331 
-0.00261284542075496 
-0.0007294104137981191 
0.0002880850140838405 
5.295576150949099e-05 
5.546777537139406e-05 
0.0001313602165979997 
-0.0001224399666526667 
0.000549892415651629 
-0.001242738042892479 
0.001142200508009794 
-0.006373148069203755 
0 
-0.0215164910724484 
-0.001142200508009794 
-0.006373148069203755 
-0.000549892415651629 
-0.001242738042892479 
-0.0001313602165979997 
-0.0001224399666526667 
9.785975677581794e-05 
-0.0001239096659919462 
-0.0002558520916876581 
-0.0005466451441456558 
0.001672398908829695 
-0.00128434045599802 
0 
-0.01121590292229108 
-0.001672398908829695 
-0.00128434045599802 
0.0002558520916876581 
-0.0005466451441456558 
-9.785975677581794e-05 
-0.0001239096659919462 
2.769636476506633e-05 
4.571846770534665e-05 
-4.501889373021101e-05 
9.234760978210112e-05 
0.000903908349626489 
0.0008774267847220643 
0 
0.00306655339054055 
-0.000903908349626489 
0.0008774267847220643 
4.501889373021101e-05 
9.234760978210112e-05 
-2.769636476506633e-05 
4.571846770534665e-05 
9.880648318870532e-05 
4.563781636981493e-05 
0.000484926292794425 
-0.0004374432499472582 
-0.0006476358865501259 
-0.002790202810682393 
0 
-0.0006755219641997193 
0.0006476358865501259 
-0.002790202810682393 
-0.000484926292794425 
-0.0004374432499472582 
-9.880648318870532e-05 
4.563781636981493e-05 
-8.967772344200944e-05 
5.125130392818931e-05 
-0.0001915603154661812 
0.0009613921455049259 
0.002562256063081784 
0.00210974599199327 
0 
0.00199310589090777 
-0.002562256063081784 
0.00210974599199327 
0.0001915603154661812 
0.0009613921455049259 
8.967772344200944e-05 
5.125130392818931e-05 
-5.758839559001106e-05 
0.0001046793902532153 
0.000158043706190329 
0.0006534564276997012 
0.0005019456743703094 
0.000743757692363976 
0 
0.004436411178623301 
-0.0005019456743703094 
0.000743757692363976 
-0.000158043706190329 
0.0006534564276997012 
5.758839559001106e-05 
0.0001046793902532153 
6.052347274902985e-05 
-0.0001684239966823677 
0.0003606682758897151 
-0.0006782335647377159 
-0.0005713045218969021 
-0.00535809024726497 
0 
-0.006047406003954435 
0.0005713045218969021 
-0.00535809024726497 
-0.0003606682758897151 
-0.0006782335647377159 
-6.052347274902985e-05 
-0.0001684239966823677 
8.319249203408634e-05 
0.0002809271563666879 
0.0004421334420604801 
0.00119834008186805 
0.0005261406401112586 
0.002800915924413582 
0 
0.02234147890033868 
-0.0005261406401112586 
0.002800915924413582 
-0.0004421334420604801 
0.00119834008186805 
-8.319249203408634e-05 
0.0002809271563666879 
-1.36380305503616e-06 
-4.251552230624325e-05 
-1.492827225603534e-05 
-0.0001463191135778701 
-0.001843580716270407 
8.456384453771912e-05 
0 
0.008170614808487841 
0.001843580716270407 
8.456384453771912e-05 
1.492827225603534e-05 
-0.0001463191135778701 
1.36380305503616e-06 
-4.251552230624325e-05 
-7.363329075158909e-06 
-0.0002127427102965245 
-0.0002037124653876913 
-0.000895110022169908 
-0.001344895479226086 
-0.005070163370607658 
0 
-0.003622563357234714 
0.001344895479226086 
-0.005070163370607658 
0.0002037124653876913 
-0.000895110022169908 
7.363329075158909e-06 
-0.0002127427102965245 
-0.0001252075671281809 
1.898829385898604e-05 
-5.555507250855606e-06 
0.0003836659353626036 
-0.0004067060722576713 
-0.0004173596774663773 
0 
0.005743262100477269 
0.0004067060722576713 
-0.0004173596774663773 
5.555507250855606e-06 
0.0003836659353626036 
0.0001252075671281809 
1.898829385898604e-05 
5.903574373790668e-05 
-4.281943441046492e-05 
-0.0003989890697331454 
-0.0002632793731417779 
-0.0003204623999763118 
0.0006226463181533541 
0 
0.002575561685554056 
0.0003204623999763118 
0.0006226463181533541 
0.0003989890697331454 
-0.0002632793731417779 
-5.903574373790668e-05 
-4.281943441046492e-05 
-2.477067436033451e-05 
-0.0001389292335131752 
-0.0003431734770244319 
-0.0001196072838622664 
-0.001078527873704472 
2.535620709876614e-05 
0 
0.002512616576272049 
0.001078527873704472 
2.535620709876614e-05 
0.0003431734770244319 
-0.0001196072838622664 
2.477067436033451e-05 
-0.0001389292335131752 
-0.000141777263492025 
-9.204222478948788e-05 
-0.0003658349812734076 
0.0001742632902747403 
-0.001228188230905596 
0.001078920810845805 
0 
0.003208667424460165 
0.001228188230905596 
0.001078920810845805 
0.0003658349812734076 
0.0001742632902747403 
0.000141777263492025 
-9.204222478948788e-05 
-7.539582569522026e-05 
3.629176387489498e-05 
9.264063190235802e-05 
0.0002140592102812592 
-0.0003644911923591138 
0.000316386172987437 
0 
0.002022643824915336 
0.0003644911923591138 
0.000316386172987437 
-9.264063190235802e-05 
0.0002140592102812592 
7.539582569522026e-05 
3.629176387489498e-05 
6.729835427001724e-05 
9.897975437888294e-05 
0.0008809856312955961 
-0.0002114775938483635 
0.0009644499818471539 
-0.003739074622825275 
0 
-0.00473351962124073 
-0.0009644499818471539 
-0.003739074622825275 
-0.0008809856312955961 
-0.0002114775938483635 
-6.729835427001724e-05 
9.897975437888294e-05 
-1.652274284639507e-05 
-5.315539396674101e-05 
-0.0001547181292105078 
-0.0002105993210683913 
-0.0009548283555872449 
-0.002683094543920425 
0 
0.003767993330229628 
0.0009548283555872449 
-0.002683094543920425 
0.0001547181292105078 
-0.0002105993210683913 
1.652274284639507e-05 
-5.315539396674101e-05 
-9.957527660619523e-05 
-0.000124859123204215 
-0.0003718501063554551 
-0.0001596932309277236 
-0.003983591919796258 
0.0005665599941064942 
0 
0.016580061221369 
0.003983591919796258 
0.0005665599941064942 
0.0003718501063554551 
-0.0001596932309277236 
9.957527660619523e-05 
-0.000124859123204215 
0.0001072893360022338 
-0.0002405590973444924 
-0.0004404849806769021 
-0.00146524302734349 
-0.004333266010718643 
-0.002185090079723225 
0 
0.002038475823397398 
0.004333266010718643 
-0.002185090079723225 
0.0004404849806769021 
-0.00146524302734349 
-0.0001072893360022338 
-0.0002405590973444924 
2.000772718456558e-05 
4.123904485449801e-06 
1.597003122980186e-05 
-6.199671587901076e-05 
-0.001023963380175025 
-0.0004668845817198638 
0 
0.007647218625816071 
0.001023963380175025 
-0.0004668845817198638 
-1.597003122980186e-05 
-6.199671587901076e-05 
-2.000772718456558e-05 
4.123904485449801e-06 
-1.684515603558821e-05 
-4.027306863853182e-05 
-0.0005125922832842754 
0.0002457654376274272 
-0.001525331913676057 
0.003623891536031822 
0 
0.01281324366678784 
0.001525331913676057 
0.003623891536031822 
0.0005125922832842754 
0.0002457654376274272 
1.684515603558821e-05 
-4.027306863853182e-05 
8.413822656903797e-05 
-0.0001329984553343157 
0.0004424661005879759 
-0.0005717188145293945 
-0.00256807507424805 
-0.003229205735812796 
0 
0.00900397692366838 
0.00256807507424805 
-0.003229205735812796 
-0.0004424661005879759 
-0.0005717188145293945 
-8.413822656903797e-05 
-0.0001329984553343157 
-0.0002184639558964903 
-5.019622124194466e-06 
-0.0007687972841956592 
0.0002567516644369876 
-0.003176439843587678 
0.001954004257848469 
0 
0.01530302088743923 
0.003176439843587678 
0.001954004257848469 
0.0007687972841956592 
0.0002567516644369876 
0.0002184639558964903 
-5.019622124194466e-06 
-9.5016139464493e-05 
5.069455331350924e-05 
-0.0008518041783583002 
0.0004721635267383382 
-0.0001889442098913807 
0.00549056333320143 
0 
0.007631452892443857 
0.0001889442098913807 
0.00549056333320143 
0.0008518041783583002 
0.0004721635267383382 
9.5016139464493e-05 
5.069455331350924e-05 
-8.017134120860861e-05 
-4.270667329413189e-05 
-0.000327829491375665 
0.0004288957377118576 
0.0002416772780669887 
0.0007743606232900679 
0 
0.006257799027355139 
-0.0002416772780669887 
0.0007743606232900679 
0.000327829491375665 
0.0004288957377118576 
8.017134120860861e-05 
-4.270667329413189e-05 
0.0001016385621470306 
-3.432096455143424e-05 
0.0003693838829425625 
-0.0008943262123181223 
-0.003019205772389098 
-0.003673686684261795 
0 
0.006612547668472173 
0.003019205772389098 
-0.003673686684261795 
-0.0003693838829425625 
-0.0008943262123181223 
-0.0001016385621470306 
-3.432096455143424e-05 
-8.18547004595878e-05 
0.0001321949487138575 
0.0005479744707266363 
6.82852393878487e-05 
-0.001549320945012873 
-0.001600623142797366 
0 
0.0114660304447537 
0.001549320945012873 
-0.001600623142797366 
-0.0005479744707266363 
6.82852393878487e-05 
8.18547004595878e-05 
0.0001321949487138575 
1.254150904806746e-05 
-0.0001956407447136524 
-0.0002923428211569402 
-0.0008461708061491135 
-0.001354509982339434 
-0.003553876944899967 
0 
-0.001824934161459576 
0.001354509982339434 
-0.003553876944899967 
0.0002923428211569402 
-0.0008461708061491135 
-1.254150904806746e-05 
-0.0001956407447136524 
-1.022672008275571e-05 
-0.0001526881461427939 
-0.0001893386782874856 
-0.0006946144995375248 
-0.001971611457744036 
-0.001254468754350634 
0 
0.001160348356444926 
0.001971611457744036 
-0.001254468754350634 
0.0001893386782874856 
-0.0006946144995375248 
1.022672008275571e-05 
-0.0001526881461427939 
-0.000129901079311004 
0.0001956282316517694 
-8.614681330312856e-05 
0.0008696828448860037 
0.0006225999469292798 
0.0032276577322894 
0 
0.007336642870799731 
-0.0006225999469292798 
0.0032276577322894 
8.614681330312856e-05 
0.0008696828448860037 
0.000129901079311004 
0.0001956282316517694 
0.0001049611626248877 
-2.532104743790831e-05 
0.0001453626655995595 
-0.0007199418966203899 
-0.002814339613216822 
-0.001608518467847398 
0 
0.00582747002353611 
0.002814339613216822 
-0.001608518467847398 
-0.0001453626655995595 
-0.0007199418966203899 
-0.0001049611626248877 
-2.532104743790831e-05 
-0.0001110234875165149 
-0.0001673455898222611 
-0.0005250400925969336 
-0.000508875097404955 
-0.003269511393676642 
-0.001820881845371707 
0 
0.00494669786581222 
0.003269511393676642 
-0.001820881845371707 
0.0005250400925969336 
-0.000508875097404955 
0.0001110234875165149 
-0.0001673455898222611 
0.0001942630841760993 
-2.182153650124176e-05 
0.000667944704901662 
-0.0009153817447194827 
-0.001126549497084101 
-0.003424793015930332 
0 
-0.003991321239786103 
0.001126549497084101 
-0.003424793015930332 
-0.000667944704901662 
-0.0009153817447194827 
-0.0001942630841760993 
-2.182153650124176e-05 
2.128265275545574e-05 
3.418320151987317e-05 
0.0002802265978713829 
-6.040511052313905e-05 
-0.002104092736821759 
-0.001168634596628121 
0 
0.01161907695722005 
0.002104092736821759 
-0.001168634596628121 
-0.0002802265978713829 
-6.040511052313905e-05 
-2.128265275545574e-05 
3.418320151987317e-05 
-1.994972732091674e-05 
-5.040004733088229e-05 
3.643400357754741e-05 
-0.0007160811750196497 
-0.003037901623998369 
-0.001988981103666983 
0 
0.006877259137133465 
0.003037901623998369 
-0.001988981103666983 
-3.643400357754741e-05 
-0.0007160811750196497 
1.994972732091674e-05 
-5.040004733088229e-05 
-0.0001025201632792256 
-4.218580888763609e-05 
-0.0002348150448998867 
-0.0001007424640200133 
-0.001831714466368616 
0.0002575484682712435 
0 
0.01193451346310829 
0.001831714466368616 
0.0002575484682712435 
0.0002348150448998867 
-0.0001007424640200133 
0.0001025201632792256 
-4.218580888763609e-05 
-2.959169853194177e-05 
-0.0003397405612424324 
-0.001476986886628487 
-0.001483606186757804 
-0.005652822446707039 
-0.0001266223497780199 
0 
0.01118463002491131 
0.005652822446707039 
-0.0001266223497780199 
0.001476986886628487 
-0.001483606186757804 
2.959169853194177e-05 
-0.0003397405612424324 
4.027610344283079e-05 
-0.0001552690668053984 
-0.0007439532762405906 
-0.0007574216356526531 
-0.003872148812798793 
0.001651606132136222 
0 
0.01427635471130028 
0.003872148812798793 
0.001651606132136222 
0.0007439532762405906 
-0.0007574216356526531 
-4.027610344283079e-05 
-0.0001552690668053984 
-3.705659211091208e-05 
0.0001573029512287846 
2.443260064208364e-05 
-5.854381446436535e-05 
-0.002479419159251527 
0.001454697309568012 
0 
0.01013187112954779 
0.002479419159251527 
0.001454697309568012 
-2.443260064208364e-05 
-5.854381446436535e-05 
3.705659211091208e-05 
0.0001573029512287846 
0.0001094493693740583 
-1.135332471085345e-05 
-0.0004327169426842289 
-0.0002909719317180945 
-0.00193645021477642 
0.00136462193824726 
0 
0.008672116112677151 
0.00193645021477642 
0.00136462193824726 
0.0004327169426842289 
-0.0002909719317180945 
-0.0001094493693740583 
-1.135332471085345e-05 
1.779097285621759e-06 
0.0001674593253047232 
0.0005560275709734953 
2.466091568200578e-05 
-0.001420165555846411 
-0.0007400905954848433 
0 
0.006910547025519597 
0.001420165555846411 
-0.0007400905954848433 
-0.0005560275709734953 
2.466091568200578e-05 
-1.779097285621759e-06 
0.0001674593253047232 
4.08122713697729e-05 
0.0001055027695617239 
0.0006250322692018991 
-0.0001061396243308898 
-0.0002614679207285421 
-0.002227083932291269 
0 
0.002052293172146512 
0.0002614679207285421 
-0.002227083932291269 
-0.0006250322692018991 
-0.0001061396243308898 
-4.08122713697729e-05 
0.0001055027695617239 
0.0001229915089357119 
-3.969121197124911e-05 
9.883673233154248e-05 
-0.0007861247869087205 
-0.003639542175111113 
-0.0008294131097655885 
0 
0.009956906673451543 
0.003639542175111113 
-0.0008294131097655885 
-9.883673233154248e-05 
-0.0007861247869087205 
-0.0001229915089357119 
-3.969121197124911e-05 
3.350921496667695e-05 
-0.0001148330126382087 
-0.0003526402650114287 
-0.0008008952891261186 
-0.003891857028218517 
-0.0003798723153232712 
0 
0.01039662486164046 
0.003891857028218517 
-0.0003798723153232712 
0.0003526402650114287 
-0.0008008952891261186 
-3.350921496667695e-05 
-0.0001148330126382087 
-7.320968625564942e-05 
-3.518224791163273e-05 
-8.520091817918198e-05 
0.0001388116149446876 
-0.001082098266854519 
-0.001152537684769637 
0 
0.008639065564419235 
0.001082098266854519 
-0.001152537684769637 
8.520091817918198e-05 
0.0001388116149446876 
7.320968625564942e-05 
-3.518224791163273e-05 
-9.878630991419363e-05 
-0.0002732798691189249 
-0.0006270530729741426 
-0.001161314531954052 
-0.004244981973858056 
-0.003398314449297354 
0 
0.001505658909589118 
0.004244981973858056 
-0.003398314449297354 
0.0006270530729741426 
-0.001161314531954052 
9.878630991419363e-05 
-0.0002732798691189249 
6.020772036055956e-05 
-6.525342151709322e-05 
-0.000305632423646134 
-5.696693864133232e-05 
-0.0002766135534184559 
0.001288059947305558 
0 
0.003641994152909847 
0.0002766135534184559 
0.001288059947305558 
0.000305632423646134 
-5.696693864133232e-05 
-6.020772036055956e-05 
-6.525342151709322e-05 
-0.0001666517816578431 
2.14099918601409e-05 
-0.0006956338083230283 
0.001089725048270432 
-0.001023797508501258 
0.005432488968062863 
0 
0.01793294241137781 
0.001023797508501258 
0.005432488968062863 
0.0006956338083230283 
0.001089725048270432 
0.0001666517816578431 
2.14099918601409e-05 
-0.0001615153651304732 
1.038729472009187e-05 
-4.13434979430068e-05 
0.0003211800489923114 
-0.001213711763398236 
0.001046365310230131 
0 
0.003619410506091579 
0.001213711763398236 
0.001046365310230131 
4.13434979430068e-05 
0.0003211800489923114 
0.0001615153651304732 
1.038729472009187e-05 
-2.675419126289343e-05 
-0.0001389869441605993 
4.712622044378292e-05 
-0.0003431184525304612 
-0.0002798305946669896 
-0.003701212973515792 
0 
-0.005296143792098405 
0.0002798305946669896 
-0.003701212973515792 
-4.712622044378292e-05 
-0.0003431184525304612 
2.675419126289343e-05 
-0.0001389869441605993 
-8.626194622693857e-05 
-8.772272064728246e-05 
-0.0002691142691719956 
-0.000248938646089657 
-0.001226207059776572 
-0.0009287856280397694 
0 
-0.001874451198384763 
0.001226207059776572 
-0.0009287856280397694 
0.0002691142691719956 
-0.000248938646089657 
8.626194622693857e-05 
-8.772272064728246e-05 
8.142867722069922e-05 
-8.3988565356034e-05 
-6.257093248706858e-05 
-0.0003706657080898935 
-0.001766286189905213 
-0.0005148243963628044 
0 
0.005354222344844178 
0.001766286189905213 
-0.0005148243963628044 
6.257093248706858e-05 
-0.0003706657080898935 
-8.142867722069922e-05 
-8.3988565356034e-05 
-1.372896505486193e-05 
-0.0001667559195161524 
-0.0005278925315436117 
-0.00063904138808684 
-0.004897254015662725 
0.001239776105197938 
0 
0.0204591611629554 
0.004897254015662725 
0.001239776105197938 
0.0005278925315436117 
-0.00063904138808684 
1.372896505486193e-05 
-0.0001667559195161524 
-6.445717651982612e-05 
-8.481231211289902e-05 
-0.0005095404314891139 
9.436519520774547e-05 
-0.003039185098115978 
0.001644073927693355 
0 
0.01528645300723753 
0.003039185098115978 
0.001644073927693355 
0.0005095404314891139 
9.436519520774547e-05 
6.445717651982612e-05 
-8.481231211289902e-05 
-0.0002219138809175231 
-0.0001664407029952942 
-0.0003937598729075747 
-0.0003261771769670782 
-0.002402642018802904 
-0.002439892540101923 
0 
0.002018762144745397 
0.002402642018802904 
-0.002439892540101923 
0.0003937598729075747 
-0.0003261771769670782 
0.0002219138809175231 
-0.0001664407029952942 
2.681428880053163e-05 
-9.4859588255599e-05 
0.0001888298119298649 
-0.0004010157000242166 
-0.00365286932300824 
-0.001939965384658561 
0 
0.01110735273286244 
0.00365286932300824 
-0.001939965384658561 
-0.0001888298119298649 
-0.0004010157000242166 
-2.681428880053163e-05 
-9.4859588255599e-05 
-1.433476962735007e-05 
-4.224868059190444e-05 
-0.0005077933789624244 
-0.000212158384570183 
-0.001272980317059282 
0.001186915323903434 
0 
0.008488771827427806 
0.001272980317059282 
0.001186915323903434 
0.0005077933789624244 
-0.000212158384570183 
1.433476962735007e-05 
-4.224868059190444e-05 
-1.03415039948179e-05 
3.420718907333196e-05 
0.0005557068922496579 
-0.0003568454805382731 
4.387252200954928e-05 
-0.001805142720013999 
0 
-0.006453519256617918 
-4.387252200954928e-05 
-0.001805142720013999 
-0.0005557068922496579 
-0.0003568454805382731 
1.03415039948179e-05 
3.420718907333196e-05 
-0.000146096534892887 
-0.0001204490138184458 
-0.0006791647091509955 
-0.0001244760964250816 
-0.00354196525984232 
0.003068599408753283 
0 
0.01383756782028906 
0.00354196525984232 
0.003068599408753283 
0.0006791647091509955 
-0.0001244760964250816 
0.000146096534892887 
-0.0001204490138184458 
1.151501837838776e-05 
-0.0001022041849283348 
0.0006839676901434559 
-0.0003477849627789368 
0.0003191676601255037 
-0.006140735067879773 
0 
-0.007015132256520875 
-0.0003191676601255037 
-0.006140735067879773 
-0.0006839676901434559 
-0.0003477849627789368 
-1.151501837838776e-05 
-0.0001022041849283348 
1.644931694162612e-06 
8.361770479815652e-05 
3.652488997178326e-05 
0.0005609312131478787 
0.0006426717239985342 
0.001288479649163892 
0 
0.003339668165463383 
-0.0006426717239985342 
0.001288479649163892 
-3.652488997178326e-05 
0.0005609312131478787 
-1.644931694162612e-06 
8.361770479815652e-05 
-3.617985602125093e-05 
-0.0001186666076833204 
-0.0005198126295100142 
-0.0003126654626421393 
-0.002699424668636944 
0.001592207284874469 
0 
0.007884585373526806 
0.002699424668636944 
0.001592207284874469 
0.0005198126295100142 
-0.0003126654626421393 
3.617985602125093e-05 
-0.0001186666076833204 
-0.0001136821994578927 
-0.0001005613624161422 
-0.0001584513665970298 
-0.0002069597950463081 
-0.003410747205896675 
0.001031681643318963 
0 
0.01258638682093983 
0.003410747205896675 
0.001031681643318963 
0.0001584513665970298 
-0.0002069597950463081 
0.0001136821994578927 
-0.0001005613624161422 
-3.814638175191979e-05 
-0.0002862132847075258 
-0.001357663585383794 
-0.0007941109322999579 
-0.005326964151034144 
0.001656938760376856 
0 
0.01337868501611342 
0.005326964151034144 
0.001656938760376856 
0.001357663585383794 
-0.0007941109322999579 
3.814638175191979e-05 
-0.0002862132847075258 
-0.0001223695478867489 
-6.537669285396395e-05 
-0.001001628949489306 
7.844626868918427e-05 
-0.001577224815503094 
0.003694755119299297 
0 
0.01042760115974091 
0.001577224815503094 
0.003694755119299297 
0.001001628949489306 
7.844626868918427e-05 
0.0001223695478867489 
-6.537669285396395e-05 
0.0001043007822469542 
-0.000131236209042649 
-0.0001063736446788524 
-0.001312212116323313 
-0.003419468466994543 
-0.002418499610668398 
0 
0.001186812829407679 
0.003419468466994543 
-0.002418499610668398 
0.0001063736446788524 
-0.001312212116323313 
-0.0001043007822469542 
-0.000131236209042649 
4.907386527309262e-05 
-7.779034070092663e-05 
0.0002348047954060284 
-0.0007452510775834883 
-0.001677675818768798 
-0.001580626929131951 
0 
-0.001216008132070815 
0.001677675818768798 
-0.001580626929131951 
-0.0002348047954060284 
-0.0007452510775834883 
-4.907386527309262e-05 
-7.779034070092663e-05 
8.484957688280433e-05 
0.0001783633087667765 
0.0007554398240935342 
0.0002337914550290339 
-0.002235747821672883 
0.0007920225690142627 
0 
0.01287686621713251 
0.002235747821672883 
0.0007920225690142627 
-0.0007554398240935342 
0.0002337914550290339 
-8.484957688280433e-05 
0.0001783633087667765 
4.436532846803854e-05 
-0.0001011013115140133 
-0.0004697350544942477 
-0.0002285029167788682 
-2.493345582179172e-05 
0.0006097847023286031 
0 
-0.001514428244617124 
2.493345582179172e-05 
0.0006097847023286031 
0.0004697350544942477 
-0.0002285029167788682 
-4.436532846803854e-05 
-0.0001011013115140133 
-9.397611988871993e-05 
4.503742389510012e-05 
0.0004063907448382541 
0.0002235202050991944 
0.0006926509502725138 
-0.00158307077685745 
0 
-0.001173555751719706 
-0.0006926509502725138 
-0.00158307077685745 
-0.0004063907448382541 
0.0002235202050991944 
9.397611988871993e-05 
4.503742389510012e-05 
1.253788448907359e-05 
0.000256375845994576 
0.001124188100492321 
0.0008645355024865222 
0.003663233040921592 
-0.001807428118973155 
0 
-0.006616763583525443 
-0.003663233040921592 
-0.001807428118973155 
-0.001124188100492321 
0.0008645355024865222 
-1.253788448907359e-05 
0.000256375845994576 
7.484304846638781e-05 
-6.130121651655696e-05 
0.0004140703973368687 
-0.0001448403131985061 
0.001487308297337088 
-0.002904710081753518 
0 
-0.01066407517193211 
-0.001487308297337088 
-0.002904710081753518 
-0.0004140703973368687 
-0.0001448403131985061 
-7.484304846638781e-05 
-6.130121651655696e-05 
7.44213164313432e-05 
-7.238577952355033e-05 
1.952292882793311e-05 
-0.0002770551971772412 
0.0004656881188866999 
-0.0007384353933513056 
0 
-0.006043512611357929 
-0.0004656881188866999 
-0.0007384353933513056 
-1.952292882793311e-05 
-0.0002770551971772412 
-7.44213164313432e-05 
-7.238577952355033e-05 
8.753296120325364e-05 
-0.0001056386221456452 
0.0004330255170071522 
-0.0007930585985237495 
8.08557178677414e-05 
-0.00472867450939831 
0 
-0.009565575045730267 
-8.08557178677414e-05 
-0.00472867450939831 
-0.0004330255170071522 
-0.0007930585985237495 
-8.753296120325364e-05 
-0.0001056386221456452 
8.167398760412934e-05 
-0.0001312719304290801 
7.230286435523562e-05 
-0.0009417364375290367 
0.001197090139236054 
-0.003815639983428763 
0 
-0.01559050516424187 
-0.001197090139236054 
-0.003815639983428763 
-7.230286435523562e-05 
-0.0009417364375290367 
-8.167398760412934e-05 
-0.0001312719304290801 
6.398962947453711e-05 
-7.947192994627466e-05 
-0.0002029728578379272 
0.0001835689718752202 
0.0005320912829048876 
-0.001332376719686234 
0 
0.002309131632269038 
-0.0005320912829048876 
-0.001332376719686234 
0.0002029728578379272 
0.0001835689718752202 
-6.398962947453711e-05 
-7.947192994627466e-05 
-0.0001551403825685204 
2.411829580031115e-05 
-0.0004270923352698548 
0.000679426660203941 
0.000658338528834876 
0.001179004879573664 
0 
0.004795330962638793 
-0.000658338528834876 
0.001179004879573664 
0.0004270923352698548 
0.000679426660203941 
0.0001551403825685204 
2.411829580031115e-05 
-0.0001127612023642674 
-8.627419561483132e-05 
-0.0001421917967779838 
3.713512519334208e-06 
-6.304338333539773e-05 
-0.001124136037386928 
0 
-0.003170552813883646 
6.304338333539773e-05 
-0.001124136037386928 
0.0001421917967779838 
3.713512519334208e-06 
0.0001127612023642674 
-8.627419561483132e-05 
6.043992990781882e-05 
-0.0001273872403934763 
0.0001254770515482107 
-0.0007254973923385761 
-0.0009562104808322764 
-0.004172160538205799 
0 
-0.006263405932015498 
0.0009562104808322764 
-0.004172160538205799 
-0.0001254770515482107 
-0.0007254973923385761 
-6.043992990781882e-05 
-0.0001273872403934763 
1.306495050995262e-05 
0.0001911131800333104 
0.0004106228170470367 
0.001122965955115922 
0.001412580119878569 
0.002959082294455477 
0 
0.01229560377601406 
-0.001412580119878569 
0.002959082294455477 
-0.0004106228170470367 
0.001122965955115922 
-1.306495050995262e-05 
0.0001911131800333104 
-0.000167607558892785 
3.06109214412703e-05 
0.0001255908502722526 
0.0006694965618253279 
0.001327023483788089 
-0.001175856289625172 
0 
-0.001193102146127789 
-0.001327023483788089 
-0.001175856289625172 
-0.0001255908502722526 
0.0006694965618253279 
0.000167607558892785 
3.06109214412703e-05 
0.000236308053916334 
-0.000177200534179859 
0.0006013392769250445 
-0.001672456582359915 
-0.001939523215932816 
-0.006609502851344929 
0 
-0.008013745957031542 
0.001939523215932816 
-0.006609502851344929 
-0.0006013392769250445 
-0.001672456582359915 
-0.000236308053916334 
-0.000177200534179859 
8.272741685982411e-05 
-0.0002633034115391729 
-0.0003641061879752943 
-0.0009833422514157887 
-0.002958943724345155 
-0.001884323680773185 
0 
0.002100348590584564 
0.002958943724345155 
-0.001884323680773185 
0.0003641061879752943 
-0.0009833422514157887 
-8.272741685982411e-05 
-0.0002633034115391729 
-0.000178675466433622 
0.0001174253461233378 
-0.0007050772031090321 
0.001122341562455786 
0.001244251388399276 
0.004805206127868939 
0 
0.005928928181631721 
-0.001244251388399276 
0.004805206127868939 
0.0007050772031090321 
0.001122341562455786 
0.000178675466433622 
0.0001174253461233378 
3.999174807550747e-05 
-7.777304453074713e-05 
-0.000128031724910253 
-0.0004586842047072685 
-0.002013931573530867 
-0.0001607906001369299 
0 
0.004124618973517522 
0.002013931573530867 
-0.0001607906001369299 
0.000128031724910253 
-0.0004586842047072685 
-3.999174807550747e-05 
-7.777304453074713e-05 
-0.0001146404612298219 
0.0001642739588248676 
-0.0002984391137694487 
0.0006833389104401947 
0.0001339140762527196 
0.002630575816255778 
0 
0.007576778925280196 
-0.0001339140762527196 
0.002630575816255778 
0.0002984391137694487 
0.0006833389104401947 
0.0001146404612298219 
0.0001642739588248676 
0.0001531964640587485 
-8.22560658034057e-05 
0.0004669440114625491 
-0.0008611562054068355 
0.000369025794583824 
-0.00422802859435095 
0 
-0.008327918155221029 
-0.000369025794583824 
-0.00422802859435095 
-0.0004669440114625491 
-0.0008611562054068355 
-0.0001531964640587485 
-8.22560658034057e-05 
-3.503839013785933e-05 
-6.124080927823706e-05 
-4.790457139537675e-05 
-2.331067711565422e-05 
-0.001256059395270652 
-0.0008803966765245329 
0 
0.00763124373679587 
0.001256059395270652 
-0.0008803966765245329 
4.790457139537675e-05 
-2.331067711565422e-05 
3.503839013785933e-05 
-6.124080927823706e-05 
-6.481429104255796e-07 
-0.0001017832339299102 
-0.0002386567289744327 
-0.0006080583140479174 
-0.001101298981680701 
-0.002053015668409106 
0 
0.002036092078550126 
0.001101298981680701 
-0.002053015668409106 
0.0002386567289744327 
-0.0006080583140479174 
6.481429104255796e-07 
-0.0001017832339299102 
4.063404015467316e-05 
7.26444419281313e-05 
0.0008733860152401603 
-8.825862442087869e-05 
0.0001470630306016344 
-0.003912791854710259 
0 
4.858298832273034e-06 
-0.0001470630306016344 
-0.003912791854710259 
-0.0008733860152401603 
-8.825862442087869e-05 
-4.063404015467316e-05 
7.26444419281313e-05 
3.160589000639057e-05 
-0.000122667423843943 
-6.973495003508452e-05 
-9.944066142408144e-05 
2.425796916397519e-05 
-0.0006765308896630439 
0 
-0.0002376180424988228 
-2.425796916397519e-05 
-0.0006765308896630439 
6.973495003508452e-05 
-9.944066142408144e-05 
-3.160589000639057e-05 
-0.000122667423843943 
0.0001431351121113927 
-2.956260237118479e-05 
0.0001021898701498961 
-0.0009697368970204646 
-0.002478636155884988 
-0.002154718594360595 
0 
0.005251784623321241 
0.002478636155884988 
-0.002154718594360595 
-0.0001021898701498961 
-0.0009697368970204646 
-0.0001431351121113927 
-2.956260237118479e-05 
-1.748008002526422e-05 
8.856176379449779e-05 
-0.0001049228391304491 
0.0004148019490436222 
0.001102362893599422 
0.001774494776845718 
0 
0.002089254654312477 
-0.001102362893599422 
0.001774494776845718 
0.0001049228391304491 
0.0004148019490436222 
1.748008002526422e-05 
8.856176379449779e-05 
7.393700553419868e-05 
-2.55317169408745e-05 
0.0002012665436407911 
-0.0007024378753907009 
-0.00310974593938309 
-0.002178453790348052 
0 
0.008117935375005408 
0.00310974593938309 
-0.002178453790348052 
-0.0002012665436407911 
-0.0007024378753907009 
-7.393700553419868e-05 
-2.55317169408745e-05 
-0.0001977282805674044 
0.0001238063367099569 
-0.00104568421695143 
0.0009416983212834138 
-0.0002402136323427663 
0.006553790039162548 
0 
0.01439873920137868 
0.0002402136323427663 
0.006553790039162548 
0.00104568421695143 
0.0009416983212834138 
0.0001977282805674044 
0.0001238063367099569 
3.707094848077544e-05 
0.0001602399291346042 
0.0003021785114411134 
0.0004213691107262986 
7.654526761879897e-05 
0.00167949956142962 
0 
0.006438470098720362 
-7.654526761879897e-05 
0.00167949956142962 
-0.0003021785114411134 
0.0004213691107262986 
-3.707094848077544e-05 
0.0001602399291346042 
-0.0001039626734665039 
-6.916446261801079e-06 
0.0002395195638095091 
-0.0001518785205247079 
-0.002048308794333709 
-0.001165156350435319 
0 
0.01021467567269527 
0.002048308794333709 
-0.001165156350435319 
-0.0002395195638095091 
-0.0001518785205247079 
0.0001039626734665039 
-6.916446261801079e-06 
0.0001197843090048316 
-0.0001056990115132665 
-0.0002742149713835914 
-0.0006784285771724873 
-0.001806111153030116 
-0.002571114200045429 
0 
0.009475899943224396 
0.001806111153030116 
-0.002571114200045429 
0.0002742149713835914 
-0.0006784285771724873 
-0.0001197843090048316 
-0.0001056990115132665 
-6.219979463237129e-05 
-0.0001587772382690278 
-0.0006395705440933512 
0.0004181678609583209 
-0.0004546985935664157 
0.0008065144756218682 
0 
0.01182102165768441 
0.0004546985935664157 
0.0008065144756218682 
0.0006395705440933512 
0.0004181678609583209 
6.219979463237129e-05 
-0.0001587772382690278 
0.0002084911332270888 
-0.0001564671716242942 
0.0003887521323877999 
-0.001572518112133009 
-0.002935861399818114 
-0.005750544727764778 
0 
-0.002137151256514737 
0.002935861399818114 
-0.005750544727764778 
-0.0003887521323877999 
-0.001572518112133009 
-0.0002084911332270888 
-0.0001564671716242942 
3.628922853907295e-05 
-9.945280487049394e-05 
-0.0002539335826438321 
-0.0008058606008912549 
-0.003755900269779873 
-0.0005812278008878206 
0 
0.01086586186831005 
0.003755900269779873 
-0.0005812278008878206 
0.0002539335826438321 
-0.0008058606008912549 
-3.628922853907295e-05 
-9.945280487049394e-05 
-0.0001141579966948122 
-0.0001735393757181227 
-0.0003797487186690667 
-0.0003648105868584933 
-0.0022813818198311 
-0.001398152544062594 
0 
0.003597220915641567 
0.0022813818198311 
-0.001398152544062594 
0.0003797487186690667 
-0.0003648105868584933 
0.0001141579966948122 
-0.0001735393757181227 
0.0001344932680986687 
-7.116509911100871e-07 
-7.221700002524707e-05 
-0.001038908034468577 
-0.004582416376438176 
-0.001099676948898911 
0 
0.01435502223588032 
0.004582416376438176 
-0.001099676948898911 
7.221700002524707e-05 
-0.001038908034468577 
-0.0001344932680986687 
-7.116509911100871e-07 
-1.821555731591428e-05 
3.246558087242952e-05 
-0.0002411300870752884 
0.0003457053244588359 
5.18079878569298e-05 
0.001429779371242211 
0 
0.002826281894100366 
-5.18079878569298e-05 
0.001429779371242211 
0.0002411300870752884 
0.0003457053244588359 
1.821555731591428e-05 
3.246558087242952e-05 
0.0001506806879023318 
-2.62214632395244e-05 
0.0006899069391904656 
-0.000710034541334316 
-0.0003122474305151028 
-0.004752168534014432 
0 
-0.006206197197560961 
0.0003122474305151028 
-0.004752168534014432 
-0.0006899069391904656 
-0.000710034541334316 
-0.0001506806879023318 
-2.62214632395244e-05 
-2.537538997749848e-06 
6.072152884025248e-05 
0.0005709417641097323 
0.0002152845534400551 
0.001350873075643579 
-0.002894592922051638 
0 
-0.006876223884366772 
-0.001350873075643579 
-0.002894592922051638 
-0.0005709417641097323 
0.0002152845534400551 
2.537538997749848e-06 
6.072152884025248e-05 
1.959058397448976e-05 
8.085290153162586e-05 
0.0003421652101648799 
2.199763044656002e-05 
-0.001505554985408354 
-0.001615154663906485 
0 
0.01187326792323009 
0.001505554985408354 
-0.001615154663906485 
-0.0003421652101648799 
2.199763044656002e-05 
-1.959058397448976e-05 
8.085290153162586e-05 
3.766820886796107e-05 
9.878146701173462e-05 
0.0009903962714163472 
-0.0001283309825073248 
0.0009119790829236885 
-0.005199139231477428 
0 
-0.0006383156352457578 
-0.0009119790829236885 
-0.005199139231477428 
-0.0009903962714163472 
-0.0001283309825073248 
-3.766820886796107e-05 
9.878146701173462e-05 
4.963095985785789e-05 
4.462092625399023e-05 
0.0005177106382830871 
-1.031970829212016e-05 
0.0001750233449689298 
-0.00284119352555808 
0 
0.002130639327979909 
-0.0001750233449689298 
-0.00284119352555808 
-0.0005177106382830871 
-1.031970829212016e-05 
-4.963095985785789e-05 
4.462092625399023e-05 
0.0001192370704642717 
0.0001468102211591618 
0.0004637922858438692 
-0.0006214831541327137 
-0.001440734724395139 
-0.001428187281831746 
0 
0.005093202182636114 
0.001440734724395139 
-0.001428187281831746 
-0.0004637922858438692 
-0.0006214831541327137 
-0.0001192370704642717 
0.0001468102211591618 
-9.81968848896012e-05 
-8.335568365974574e-05 
-0.000336257574118954 
-0.0005084805126396364 
-0.001641188312933334 
-0.001312678980189364 
0 
-0.001009463609173386 
0.001641188312933334 
-0.001312678980189364 
0.000336257574118954 
-0.0005084805126396364 
9.81968848896012e-05 
-8.335568365974574e-05 
-4.943233967741167e-06 
-1.067707164238882e-06 
-0.0002841521666305282 
0.0002831094516081949 
-0.0004067738099458072 
0.0005704368771811632 
0 
0.007211815414945753 
0.0004067738099458072 
0.0005704368771811632 
0.0002841521666305282 
0.0002831094516081949 
4.943233967741167e-06 
-1.067707164238882e-06 
-0.0001419011376208058 
8.889105192974622e-05 
-0.000656364652514493 
0.0003406325472939203 
-0.001830123852790056 
0.004455880871000327 
0 
0.01311046319201335 
0.001830123852790056 
0.004455880871000327 
0.000656364652514493 
0.0003406325472939203 
0.0001419011376208058 
8.889105192974622e-05 
3.692121734218595e-05 
-1.816539667824405e-05 
0.0003690707040375843 
-0.0001177546384946136 
-0.0001669369464668861 
-0.001877724117960463 
0 
-0.0002869553806301026 
0.0001669369464668861 
-0.001877724117960463 
-0.0003690707040375843 
-0.0001177546384946136 
-3.692121734218595e-05 
-1.816539667824405e-05 
-1.20792632561025e-05 
-3.616342803103317e-05 
0.0002065297066153873 
-4.890453153190304e-05 
-0.002486423997582272 
-0.003039941820571206 
0 
0.01444771177673559 
0.002486423997582272 
-0.003039941820571206 
-0.0002065297066153873 
-4.890453153190304e-05 
1.20792632561025e-05 
-3.616342803103317e-05 
3.818091864489063e-05 
-0.0001145061335321754 
-6.375766491485902e-05 
-0.0005605684180872339 
-0.001238100511795713 
-0.001799472878093167 
0 
0.002154071311067939 
0.001238100511795713 
-0.001799472878093167 
6.375766491485902e-05 
-0.0005605684180872339 
-3.818091864489063e-05 
-0.0001145061335321754 
0.000138127696853441 
2.232701611980539e-05 
0.0008102103102153299 
-0.0006992457320451972 
-9.167500363215415e-05 
-0.005442468587544245 
0 
-0.008503706441743331 
9.167500363215415e-05 
-0.005442468587544245 
-0.0008102103102153299 
-0.0006992457320451972 
-0.000138127696853441 
2.232701611980539e-05 
0.0001927743763310398 
0.0001075618396502364 
0.0008343272093646274 
-0.0002958701681744161 
-0.0007197165664188667 
-0.001588971240720308 
0 
0.003818872421762763 
0.0007197165664188667 
-0.001588971240720308 
-0.0008343272093646274 
-0.0002958701681744161 
-0.0001927743763310398 
0.0001075618396502364 
-5.767079422490217e-05 
0.0001071261704317197 
-7.168213243484989e-05 
0.0004737171985845507 
-0.0005244146641608241 
0.002240367283086064 
0 
0.007788818858546132 
0.0005244146641608241 
0.002240367283086064 
7.168213243484989e-05 
0.0004737171985845507 
5.767079422490217e-05 
0.0001071261704317197 
-0.0001187343770839344 
-6.912014588613733e-05 
-0.0004623125594622867 
-1.162285460531582e-05 
-0.001704982201523266 
0.0006846385300701847 
0 
0.005379388089536402 
0.001704982201523266 
0.0006846385300701847 
0.0004623125594622867 
-1.162285460531582e-05 
0.0001187343770839344 
-6.912014588613733e-05 
9.19592366521978e-05 
-0.0001667442956193984 
-0.0003599305071813585 
-0.0007831083393560517 
-0.002582831485013562 
-0.00128110232062133 
0 
0.004235560793680557 
0.002582831485013562 
-0.00128110232062133 
0.0003599305071813585 
-0.0007831083393560517 
-9.19592366521978e-05 
-0.0001667442956193984 
-0.0001327801115374057 
2.922774407398589e-06 
-9.501739854964064e-05 
0.0004099303975149308 
0.000810476494057804 
0.001410526540444219 
0 
-0.003800227244310886 
-0.000810476494057804 
0.001410526540444219 
9.501739854964064e-05 
0.0004099303975149308 
0.0001327801115374057 
2.922774407398589e-06 
-0.0001113906409763756 
1.994552446442466e-05 
-9.410614582794982e-05 
0.0001978322339498544 
-0.0003036359905497288 
0.001444738190997412 
0 
0.00144723593763872 
0.0003036359905497288 
0.001444738190997412 
9.410614582794982e-05 
0.0001978322339498544 
0.0001113906409763756 
1.994552446442466e-05 
1.597208415094335e-05 
-8.477538234936057e-05 
7.032051639598862e-05 
-0.0006154953578515167 
-0.001629025993653641 
-0.002138041905228081 
0 
-6.025002598312159e-05 
0.001629025993653641 
-0.002138041905228081 
-7.032051639598862e-05 
-0.0006154953578515167 
-1.597208415094335e-05 
-8.477538234936057e-05 
8.212957927503624e-05 
-0.0001574482937788577 
-0.0009476548733840652 
-0.0004717161043436002 
-0.002128593790929896 
0.002086451010967739 
0 
0.010646897468704 
0.002128593790929896 
0.002086451010967739 
0.0009476548733840652 
-0.0004717161043436002 
-8.212957927503624e-05 
-0.0001574482937788577 
0.0001246582527226915 
-0.000242772575378021 
-0.0003734052033032685 
-0.001191928673767969 
-0.003714608260452955 
-0.001227200304769517 
0 
0.0001182458880617075 
0.003714608260452955 
-0.001227200304769517 
0.0003734052033032685 
-0.001191928673767969 
-0.0001246582527226915 
-0.000242772575378021 
-9.224080819233182e-05 
-3.919794773292433e-05 
-0.0003807688457344125 
3.603082833008663e-05 
-0.001398527294583209 
0.00229399550943803 
0 
0.006532094900550566 
0.001398527294583209 
0.00229399550943803 
0.0003807688457344125 
3.603082833008663e-05 
9.224080819233182e-05 
-3.919794773292433e-05 
9.889856098856747e-06 
-9.459084710736471e-05 
-0.0004812196171349861 
-0.0001626334012988497 
-0.0008656201068787376 
0.001178468654551887 
0 
0.001945233959627608 
0.0008656201068787376 
0.001178468654551887 
0.0004812196171349861 
-0.0001626334012988497 
-9.889856098856747e-06 
-9.459084710736471e-05 
4.133330326296839e-05 
-0.0001937882027195086 
1.276660583419373e-05 
-0.001007746630824031 
-0.003217861036508549 
-0.003070976408873499 
0 
0.003277821860891652 
0.003217861036508549 
-0.003070976408873499 
-1.276660583419373e-05 
-0.001007746630824031 
-4.133330326296839e-05 
-0.0001937882027195086 
1.749980643463718e-05 
-3.687040939253938e-05 
0.0009481812992467043 
-0.000476904696600035 
-0.0006753760931227719 
-0.005636146446889669 
0 
-0.002756577311551554 
0.0006753760931227719 
-0.005636146446889669 
-0.0009481812992467043 
-0.000476904696600035 
-1.749980643463718e-05 
-3.687040939253938e-05 
-7.830101158370442e-05 
0.000110590735659977 
-0.0002877218726597308 
0.0006008560330142578 
-0.0005116434212696076 
0.002293096837822182 
0 
0.00915364043122042 
0.0005116434212696076 
0.002293096837822182 
0.0002877218726597308 
0.0006008560330142578 
7.830101158370442e-05 
0.000110590735659977 
3.76796836531079e-05 
8.100781108312084e-05 
0.0005411921433459642 
0.0001819456800486662 
0.00121942006132859 
-0.001184191841021876 
0 
-0.004558058643980642 
-0.00121942006132859 
-0.001184191841021876 
-0.0005411921433459642 
0.0001819456800486662 
-3.76796836531079e-05 
8.100781108312084e-05 
-4.440235486189736e-05 
0.0001137938483388029 
0.000498699505039972 
-0.0002492657968309581 
-0.002700400700317523 
-0.002606869154374347 
0 
0.01398682348961691 
0.002700400700317523 
-0.002606869154374347 
-0.000498699505039972 
-0.0002492657968309581 
4.440235486189736e-05 
0.0001137938483388029 
9.618575200169716e-05 
-0.0001399329431674706 
-0.0002958174197697687 
-0.000616964832628827 
-0.002026986990539235 
-0.0007937081536929069 
0 
0.004515384805097242 
0.002026986990539235 
-0.0007937081536929069 
0.0002958174197697687 
-0.000616964832628827 
-9.618575200169716e-05 
-0.0001399329431674706 
0.0001158005270853055 
-7.908184118010746e-05 
0.0004713823914085919 
-0.000705238291110025 
-0.00296090779315573 
-0.002182696926890018 
0 
0.003983653808082513 
0.00296090779315573 
-0.002182696926890018 
-0.0004713823914085919 
-0.000705238291110025 
-0.0001158005270853055 
-7.908184118010746e-05 
-3.569592878052387e-05 
-3.798776504046417e-05 
-0.000139834122391934 
-9.555330958551515e-05 
-0.000772408404788942 
-0.0008304214485624902 
0 
-0.0003056223917230783 
0.000772408404788942 
-0.0008304214485624902 
0.000139834122391934 
-9.555330958551515e-05 
3.569592878052387e-05 
-3.798776504046417e-05 
2.646907536167528e-05 
-3.398692771246235e-05 
0.0006225886224442549 
-4.719322306921683e-05 
0.0008011504562236908 
-0.004122717180878482 
0 
-0.008027081278081947 
-0.0008011504562236908 
-0.004122717180878482 
-0.0006225886224442549 
-4.719322306921683e-05 
-2.646907536167528e-05 
-3.398692771246235e-05 
6.388575105562417e-06 
-0.0001069231233531391 
-0.0003610254408505963 
-0.0003963451041165062 
-0.002811996969816038 
0.0004888635265600249 
0 
0.008990299520073021 
0.002811996969816038 
0.0004888635265600249 
0.0003610254408505963 
-0.0003963451041165062 
-6.388575105562417e-06 
-0.0001069231233531391 
-9.678976331027283e-05 
-2.968687488675169e-06 
0.0003920924145293503 
0.0002539423786099802 
-0.001080343919748033 
-0.003342340233424299 
0 
0.006782598381159003 
0.001080343919748033 
-0.003342340233424299 
-0.0003920924145293503 
0.0002539423786099802 
9.678976331027283e-05 
-2.968687488675169e-06 
-6.665969907762863e-05 
0.0001468826791247589 
0.0001791703174643569 
0.0003239831951149177 
-0.002122243332809601 
0.0003761774807569035 
0 
0.01235816566035201 
0.002122243332809601 
0.0003761774807569035 
-0.0001791703174643569 
0.0003239831951149177 
6.665969907762863e-05 
0.0001468826791247589 
-5.960367561243859e-05 
-6.303894528894139e-05 
5.697578740991349e-05 
-1.08708228680386e-05 
2.444936932806732e-05 
-0.001043057154061302 
0 
-0.003412773534106437 
-2.444936932806732e-05 
-0.001043057154061302 
-5.697578740991349e-05 
-1.08708228680386e-05 
5.960367561243859e-05 
-6.303894528894139e-05 
0.0001249176591643174 
-5.066707682126473e-05 
0.0006423389495711894 
-0.0008037087944341654 
-0.0006368946172842511 
-0.004416592162079549 
0 
-0.005470559412970258 
0.0006368946172842511 
-0.004416592162079549 
-0.0006423389495711894 
-0.0008037087944341654 
-0.0001249176591643174 
-5.066707682126473e-05 
-4.826236836911126e-05 
0.0001431969710420022 
0.0002650343040091022 
0.0005114995324506819 
0.000437461633299115 
0.001767864678079332 
0 
0.00246362818914629 
-0.000437461633299115 
0.001767864678079332 
-0.0002650343040091022 
0.0005114995324506819 
4.826236836911126e-05 
0.0001431969710420022 
1.273258156184565e-06 
0.0001114928752368795 
0.0006101102713348682 
0.000626597341711907 
0.003336554221814219 
-0.00260109125453169 
0 
-0.009247866876918946 
-0.003336554221814219 
-0.00260109125453169 
-0.0006101102713348682 
0.000626597341711907 
-1.273258156184565e-06 
0.0001114928752368795 
1.197774861527766e-05 
-0.0001687003737991822 
0.0005881381593880303 
-0.001099010252812209 
-2.856944551254486e-06 
-0.006503065454704674 
0 
-0.01600051325969328 
2.856944551254486e-06 
-0.006503065454704674 
-0.0005881381593880303 
-0.001099010252812209 
-1.197774861527766e-05 
-0.0001687003737991822 
-5.666823746381115e-05 
8.049157031041578e-05 
0.0004472934414761111 
0.0005722485592531367 
0.002591064860955212 
-0.0007735526007558187 
0 
-0.009331017670299311 
-0.002591064860955212 
-0.0007735526007558187 
-0.0004472934414761111 
0.0005722485592531367 
5.666823746381115e-05 
8.049157031041578e-05 
4.8123541488962e-05 
-8.924757815907665e-05 
0.0002493926378710777 
-0.0008645816552142051 
0.0008563514776219843 
-0.005571043557245342 
0 
-0.01921441348503264 
-0.0008563514776219843 
-0.005571043557245342 
-0.0002493926378710777 
-0.0008645816552142051 
-4.8123541488962e-05 
-8.924757815907665e-05 
1.157013546444861e-05 
-8.525815579954293e-05 
-0.0003059308609776743 
-0.0002303582952243387 
-0.0009489546173494292 
-0.0004835222178142224 
0 
0.008078918400225541 
0.0009489546173494292 
-0.0004835222178142224 
0.0003059308609776743 
-0.0002303582952243387 
-1.157013546444861e-05 
-8.525815579954293e-05 
-6.483674249173642e-05 
1.005686432665183e-05 
-0.0005610656292272493 
0.0003364748518754828 
-0.001388922734336198 
0.003471534286540762 
0 
0.01086534923908474 
0.001388922734336198 
0.003471534286540762 
0.0005610656292272493 
0.0003364748518754828 
6.483674249173642e-05 
1.005686432665183e-05 
-3.384687139091551e-06 
7.519180235526805e-05 
0.0001494833082720667 
0.0003315844260657484 
0.001677213402929586 
0.0008513369181839281 
0 
-0.00507938187293763 
-0.001677213402929586 
0.0008513369181839281 
-0.0001494833082720667 
0.0003315844260657484 
3.384687139091551e-06 
7.519180235526805e-05 
0.0001761942811330833 
-0.0003037533374659789 
0.0002496275078880383 
-0.001229878355197705 
-0.0004898984876554879 
-0.005460289514665258 
0 
-0.01196613524685972 
0.0004898984876554879 
-0.005460289514665258 
-0.0002496275078880383 
-0.001229878355197705 
-0.0001761942811330833 
-0.0003037533374659789 
0.0001118437897336472 
0.0002689617891532152 
0.0009156734184103141 
0.0009728786375436145 
0.002701874577940391 
0.0004570360377210426 
0 
0.003754853748048617 
-0.002701874577940391 
0.0004570360377210426 
-0.0009156734184103141 
0.0009728786375436145 
-0.0001118437897336472 
0.0002689617891532152 
-1.248351142769133e-06 
0.0001982687136610409 
0.001090236528811533 
0.0003156528990670791 
0.004188303065834057 
-0.003683551419983888 
0 
-0.01645635122243133 
-0.004188303065834057 
-0.003683551419983888 
-0.001090236528811533 
0.0003156528990670791 
1.248351142769133e-06 
0.0001982687136610409 
8.587798335456457e-05 
-0.0001282690354296105 
0.0002492795511436913 
-0.0007425588578035935 
-0.0001809821934133175 
-0.00224512864176775 
0 
-0.01134574641512602 
0.0001809821934133175 
-0.00224512864176775 
-0.0002492795511436913 
-0.0007425588578035935 
-8.587798335456457e-05 
-0.0001282690354296105 
-3.171374175518164e-05 
-3.67384920845009e-05 
-0.0002664788414498988 
-0.0002350816511099853 
-0.001572752057936093 
0.001967703621744868 
0 
0.002842590222100754 
0.001572752057936093 
0.001967703621744868 
0.0002664788414498988 
-0.0002350816511099853 
3.171374175518164e-05 
-3.67384920845009e-05 
-0.0001158076104161998 
6.15489388946155e-05 
-0.000307891366474927 
0.0001966501770444233 
-0.0002471430346532625 
0.002061934228266631 
0 
0.002928050911845825 
0.0002471430346532625 
0.002061934228266631 
0.000307891366474927 
0.0001966501770444233 
0.0001158076104161998 
6.15489388946155e-05 
0.0001348940377628829 
8.206088812289544e-06 
0.0005968564411512629 
-0.0004323523051556231 
-0.0006641780830304651 
-0.003120206597308734 
0 
0.00105146880692104 
0.0006641780830304651 
-0.003120206597308734 
-0.0005968564411512629 
-0.0004323523051556231 
-0.0001348940377628829 
8.206088812289544e-06 
1.743622468878621e-05 
7.138163068520148e-05 
0.000111825495094953 
0.0001527555186388268 
-0.0002287992217595733 
-0.0004050160536650815 
0 
0.004125155541552785 
0.0002287992217595733 
-0.0004050160536650815 
-0.000111825495094953 
0.0001527555186388268 
-1.743622468878621e-05 
7.138163068520148e-05 
7.738849654047609e-05 
-0.0001667695729426174 
-0.0003207038268742835 
-0.0004483379948978604 
0.0006446151014248374 
-0.001416716756554685 
0 
-0.008315186924483886 
-0.0006446151014248374 
-0.001416716756554685 
0.0003207038268742835 
-0.0004483379948978604 
-7.738849654047609e-05 
-0.0001667695729426174 
2.916303279269996e-05 
-0.0001309366335217689 
-0.0001181353213825586 
-0.0007157712423852205 
-0.001712024313922993 
-0.001508268744556904 
0 
0.002838594293720677 
0.001712024313922993 
-0.001508268744556904 
0.0001181353213825586 
-0.0007157712423852205 
-2.916303279269996e-05 
-0.0001309366335217689 
-5.676623490393977e-05 
-5.676913131968544e-05 
-0.0001742652897018344 
-0.0002748061100283724 
-0.001700358535667692 
-0.001106528739385348 
0 
0.006301197072872563 
0.001700358535667692 
-0.001106528739385348 
0.0001742652897018344 
-0.0002748061100283724 
5.676623490393977e-05 
-5.676913131968544e-05 
4.786445454002883e-05 
-0.0001634997149914019 
-0.0005394060951720906 
-0.0006055314679303818 
-0.002475414461686731 
0.00069695693229271 
0 
0.007661598206469104 
0.002475414461686731 
0.00069695693229271 
0.0005394060951720906 
-0.0006055314679303818 
-4.786445454002883e-05 
-0.0001634997149914019 
-0.0001666741486136133 
-5.363575708834401e-06 
-0.0001129816086824008 
-0.0001213230328684672 
-0.0005650434164519849 
-0.0008190791319860498 
0 
-0.002007328589814822 
0.0005650434164519849 
-0.0008190791319860498 
0.0001129816086824008 
-0.0001213230328684672 
0.0001666741486136133 
-5.363575708834401e-06 
-0.0001004178276738673 
-0.0001881839566107364 
-0.0007219372197017018 
-8.548220554161069e-05 
-0.001170803051158937 
0.0008018245147593358 
0 
0.006892422049540215 
0.001170803051158937 
0.0008018245147593358 
0.0007219372197017018 
-8.548220554161069e-05 
0.0001004178276738673 
-0.0001881839566107364 
4.155834795404664e-05 
1.731648828053888e-05 
-0.0001061230511219815 
3.412929363231207e-05 
-0.0008298899714828325 
0.0003624921810363187 
0 
0.005452406549718239 
0.0008298899714828325 
0.0003624921810363187 
0.0001061230511219815 
3.412929363231207e-05 
-4.155834795404664e-05 
1.731648828053888e-05 
0.0001628541367886362 
0.0001025018179169124 
0.00120893879295333 
-0.0008058736035435534 
-0.001362962844307997 
-0.006402189045507434 
0 
0.003129857143780505 
0.001362962844307997 
-0.006402189045507434 
-0.00120893879295333 
-0.0008058736035435534 
-0.0001628541367886362 
0.0001025018179169124 
-2.885873649808187e-06 
0.0001172296587582834 
-1.856629948883612e-05 
0.0004658453395649731 
0.0005192243142792366 
0.001923133704629723 
0 
0.008084235909667743 
-0.0005192243142792366 
0.001923133704629723 
1.856629948883612e-05 
0.0004658453395649731 
2.885873649808187e-06 
0.0001172296587582834 
9.357058093307847e-06 
3.117369533835246e-05 
8.538259417388088e-05 
-0.0004120894237581722 
-3.724513155358966e-05 
-0.001319719962055971 
0 
-0.004252857376216194 
3.724513155358966e-05 
-0.001319719962055971 
-8.538259417388088e-05 
-0.0004120894237581722 
-9.357058093307847e-06 
3.117369533835246e-05 
7.601867093818578e-05 
9.160934777433362e-05 
0.0001932330029598484 
-2.708119125953294e-05 
-0.0006909885438442259 
-5.744621970655031e-05 
0 
0.007817189271635803 
0.0006909885438442259 
-5.744621970655031e-05 
-0.0001932330029598484 
-2.708119125953294e-05 
-7.601867093818578e-05 
9.160934777433362e-05 
9.562946118596676e-05 
-6.167873843353269e-05 
0.0004932696479794832 
-0.0006408329953876218 
-0.002115176498343757 
-0.005083647933164433 
0 
0.004079335789999283 
0.002115176498343757 
-0.005083647933164433 
-0.0004932696479794832 
-0.0006408329953876218 
-9.562946118596676e-05 
-6.167873843353269e-05 
0.0001037618846570046 
-0.0001667187327762805 
-0.0002442418015625595 
-0.0003680877633775924 
-0.002372098206959408 
-0.0006040670015900234 
0 
0.01098137995462171 
0.002372098206959408 
-0.0006040670015900234 
0.0002442418015625595 
-0.0003680877633775924 
-0.0001037618846570046 
-0.0001667187327762805 
7.835960660612515e-05 
-0.0001345866780113176 
-0.000462874857445101 
-0.0003702109102268403 
-0.0003607826336666795 
-0.0004587948027935341 
0 
0.002125634016463918 
0.0003607826336666795 
-0.0004587948027935341 
0.000462874857445101 
-0.0003702109102268403 
-7.835960660612515e-05 
-0.0001345866780113176 
8.383850444463185e-05 
2.008878153941642e-05 
0.0003508526749862339 
-0.0001984599480695857 
-0.0009310781391329218 
-0.002593931415074649 
0 
0.00133734666835343 
0.0009310781391329218 
-0.002593931415074649 
-0.0003508526749862339 
-0.0001984599480695857 
-8.383850444463185e-05 
2.008878153941642e-05 
-2.779474012871141e-05 
-6.431141052068517e-05 
0.0002616198694525009 
-0.0004589424124207518 
-0.002018370547204315 
-0.003115084615414951 
0 
0.001753073857650478 
0.002018370547204315 
-0.003115084615414951 
-0.0002616198694525009 
-0.0004589424124207518 
2.779474012871141e-05 
-6.431141052068517e-05 
4.687462200316393e-05 
-0.000105216174542929 
-3.573786271234631e-05 
-0.0005187170727620613 
-0.002161174137465297 
-0.001982017855694431 
0 
0.006011654482876097 
0.002161174137465297 
-0.001982017855694431 
3.573786271234631e-05 
-0.0005187170727620613 
-4.687462200316393e-05 
-0.000105216174542929 
-9.401269073109043e-05 
3.339197165771651e-05 
-0.0004025741112831114 
0.0004675694183236561 
0.0007702242229950562 
0.001682415652829688 
0 
0.002270872188602564 
-0.0007702242229950562 
0.001682415652829688 
0.0004025741112831114 
0.0004675694183236561 
9.401269073109043e-05 
3.339197165771651e-05 
1.143943981052809e-05 
-2.921169528868617e-05 
0.0004357334798981824 
-0.0003677244988357986 
0.0005608669065157206 
-0.004006959103427774 
0 
-0.008120147610207245 
-0.0005608669065157206 
-0.004006959103427774 
-0.0004357334798981824 
-0.0003677244988357986 
-1.143943981052809e-05 
-2.921169528868617e-05 
2.819859181087154e-06 
-8.85248096925214e-05 
0.0003692375058800424 
-0.0008465451327870417 
-0.001821588334029016 
-0.003794769730303498 
0 
2.939114158894208e-05 
0.001821588334029016 
-0.003794769730303498 
-0.0003692375058800424 
-0.0008465451327870417 
-2.819859181087154e-06 
-8.85248096925214e-05 
-3.186467208434973e-05 
-5.241594448385232e-05 
-3.847961089522672e-05 
0.0002062151699049753 
-0.0006972724861538491 
-0.001622365847514184 
0 
0.007976242385458507 
0.0006972724861538491 
-0.001622365847514184 
3.847961089522672e-05 
0.0002062151699049753 
3.186467208434973e-05 
-5.241594448385232e-05 
-7.782450771639057e-05 
-8.653046384945955e-05 
0.0001573264360298372 
0.0001160004746989151 
-0.0008694772848275181 
-0.00249165877799725 
0 
0.002642984990395746 
0.0008694772848275181 
-0.00249165877799725 
-0.0001573264360298372 
0.0001160004746989151 
7.782450771639057e-05 
-8.653046384945955e-05 
7.547000988421078e-05 
-0.0001931785081148844 
-0.0004849903959876811 
-0.0006239342242053715 
-0.000821113583152342 
-1.994270398092847e-05 
0 
0.00208664647191493 
0.000821113583152342 
-1.994270398092847e-05 
0.0004849903959876811 
-0.0006239342242053715 
-7.547000988421078e-05 
-0.0001931785081148844 
5.360216565102764e-05 
2.584434402940023e-05 
7.964972821068806e-05 
-0.0005545508717418834 
-0.003191006124800304 
-0.0003756040345232181 
0 
0.0109006836482303 
0.003191006124800304 
-0.0003756040345232181 
-7.964972821068806e-05 
-0.0005545508717418834 
-5.360216565102764e-05 
2.584434402940023e-05 
-0.0002196836357278739 
-0.0001355644469548598 
-0.00087813656492753 
-0.0002942858170035859 
-0.003008478734765756 
0.0002411019483898885 
0 
0.006833889676112724 
0.003008478734765756 
0.0002411019483898885 
0.00087813656492753 
-0.0002942858170035859 
0.0002196836357278739 
-0.0001355644469548598 
-0.0002184383301005292 
-4.849743265810246e-05 
-0.001013589001737899 
0.0001874526235052742 
-0.002076561029452125 
0.00325184786497269 
0 
0.01051087727973169 
0.002076561029452125 
0.00325184786497269 
0.001013589001737899 
0.0001874526235052742 
0.0002184383301005292 
-4.849743265810246e-05 
-0.0001330244103114354 
-3.4224163142902e-05 
-0.0006588948136817032 
0.0005241174880038557 
0.0004927302628317392 
0.002339486726595449 
0 
0.002947855170405813 
-0.0004927302628317392 
0.002339486726595449 
0.0006588948136817032 
0.0005241174880038557 
0.0001330244103114354 
-3.4224163142902e-05 
-5.715043636564006e-05 
-9.572260728272652e-05 
0.0002376231217530439 
-0.000518801529588703 
-0.0001339724101439696 
-0.003832390172254223 
0 
-0.007968098524825273 
0.0001339724101439696 
-0.003832390172254223 
-0.0002376231217530439 
-0.000518801529588703 
5.715043636564006e-05 
-9.572260728272652e-05 
-8.273099153711438e-05 
3.54404519106102e-05 
0.0001245953624905983 
-7.414196081246546e-05 
-0.001242866252663487 
-0.001056262812592346 
0 
0.006415362610576303 
0.001242866252663487 
-0.001056262812592346 
-0.0001245953624905983 
-7.414196081246546e-05 
8.273099153711438e-05 
3.54404519106102e-05 
7.037252115194932e-05 
-2.286773752604965e-05 
0.0004583304093246796 
-0.0009074977738091539 
-0.001878250092587636 
-0.003676053635829575 
0 
-0.0002652035227925035 
0.001878250092587636 
-0.003676053635829575 
-0.0004583304093246796 
-0.0009074977738091539 
-7.037252115194932e-05 
-2.286773752604965e-05 
3.86251837128113e-05 
4.313367249325904e-05 
0.0003091795287752531 
-0.0001605243216179613 
-0.002463336545832132 
-0.001228142613595287 
0 
0.01310529021314579 
0.002463336545832132 
-0.001228142613595287 
-0.0003091795287752531 
-0.0001605243216179613 
-3.86251837128113e-05 
4.313367249325904e-05 
-2.064180951163229e-05 
-3.63806951757613e-05 
-3.309608626660452e-05 
-0.0004275249714989051 
-0.003515908605135947 
-0.0001291668297137493 
0 
0.009202733377027787 
0.003515908605135947 
-0.0001291668297137493 
3.309608626660452e-05 
-0.0004275249714989051 
2.064180951163229e-05 
-3.63806951757613e-05 
0.0001151149278452599 
-0.0001239655198842937 
-0.0002480247398049169 
-0.0006548570133268558 
-0.001819531320754019 
-0.0006240774719482583 
0 
0.005155911724674574 
0.001819531320754019 
-0.0006240774719482583 
0.0002480247398049169 
-0.0006548570133268558 
-0.0001151149278452599 
-0.0001239655198842937 
-6.624363900166153e-05 
-8.289907028248893e-05 
-0.0003881827794990324 
9.900329626016401e-05 
-0.003224221727069142 
0.001114085594654262 
0 
0.01963785857838123 
0.003224221727069142 
0.001114085594654262 
0.0003881827794990324 
9.900329626016401e-05 
6.624363900166153e-05 
-8.289907028248893e-05 
-5.776108608396131e-05 
-0.0001904841437412868 
-0.0001078252781506949 
-0.0006188196026451156 
-0.002748033033303496 
-0.001758403923144834 
0 
0.005665929168140028 
0.002748033033303496 
-0.001758403923144834 
0.0001078252781506949 
-0.0006188196026451156 
5.776108608396131e-05 
-0.0001904841437412868 
8.242356054944981e-05 
-0.0002079941541482906 
-0.0006616243882687123 
-0.0004717869619350542 
-0.002528334243497175 
0.001813460093543622 
0 
0.004527233181214977 
0.002528334243497175 
0.001813460093543622 
0.0006616243882687123 
-0.0004717869619350542 
-8.242356054944981e-05 
-0.0002079941541482906 
0.0001594916365269236 
-0.0001508857535991223 
3.313941924853846e-05 
-0.0008637848746464306 
0.000245021490529987 
-0.002202893379108118 
0 
-0.009824092992682483 
-0.000245021490529987 
-0.002202893379108118 
-3.313941924853846e-05 
-0.0008637848746464306 
-0.0001594916365269236 
-0.0001508857535991223 
5.695210533979135e-05 
-0.0001080557262752117 
0.0001712114611623241 
-0.0004356216141004499 
-0.001092724707104243 
-0.004297678477025082 
0 
0.002871153154464984 
0.001092724707104243 
-0.004297678477025082 
-0.0001712114611623241 
-0.0004356216141004499 
-5.695210533979135e-05 
-0.0001080557262752117 
2.551510683125826e-05 
-1.973043054628286e-05 
-7.480500320360967e-07 
-0.0001143469055894949 
-0.0008939536621887553 
-0.0007286896104448057 
0 
0.004683088080068802 
0.0008939536621887553 
-0.0007286896104448057 
7.480500320360967e-07 
-0.0001143469055894949 
-2.551510683125826e-05 
-1.973043054628286e-05 
-9.836801985719464e-05 
-0.0001070340064142561 
-0.0002079999545898275 
0.0004300842641851632 
-0.0004583217809194832 
-0.001253544830783783 
0 
0.002687712465378848 
0.0004583217809194832 
-0.001253544830783783 
0.0002079999545898275 
0.0004300842641851632 
9.836801985719464e-05 
-0.0001070340064142561 
-0.0001435837753977396 
-5.924388571546891e-05 
-0.0004831787215297601 
3.040616315283543e-05 
-0.001896681641579086 
0.001703417791195334 
0 
0.009304489923639593 
0.001896681641579086 
0.001703417791195334 
0.0004831787215297601 
3.040616315283543e-05 
0.0001435837753977396 
-5.924388571546891e-05 
1.885972244699174e-05 
-4.767408448536641e-05 
-0.0005879313399217452 
-0.0002976564516057486 
-0.002775193979434041 
0.003358688818995884 
0 
0.01062593298992016 
0.002775193979434041 
0.003358688818995884 
0.0005879313399217452 
-0.0002976564516057486 
-1.885972244699174e-05 
-4.767408448536641e-05 
0.0001859928527381325 
9.569836408325584e-06 
0.0005298141748661849 
-0.0009596802705871531 
-0.002255950221844166 
-0.002927363416848493 
0 
0.001183073366382111 
0.002255950221844166 
-0.002927363416848493 
-0.0005298141748661849 
-0.0009596802705871531 
-0.0001859928527381325 
9.569836408325584e-06 
1.294225900484204e-05 
-5.769148675052373e-05 
-4.819055950988554e-05 
-0.000488759950464137 
-0.001435039293393072 
-0.0004570724396315084 
0 
0.00231441101949213 
0.001435039293393072 
-0.0004570724396315084 
4.819055950988554e-05 
-0.000488759950464137 
-1.294225900484204e-05 
-5.769148675052373e-05 
0.0001034336516612374 
-6.713672103779702e-05 
-0.0004436861019028992 
-0.0008483255649013611 
-0.002391526366119303 
2.17167669785458e-05 
0 
0.006593884580697722 
0.002391526366119303 
2.17167669785458e-05 
0.0004436861019028992 
-0.0008483255649013611 
-0.0001034336516612374 
-6.713672103779702e-05 
-5.33265772612542e-05 
-0.0001932632031126661 
-0.0007316427196816629 
-0.0003889203650145829 
-0.0007341019051388075 
0.0007984434384604209 
0 
-0.0009298405071116131 
0.0007341019051388075 
0.0007984434384604209 
0.0007316427196816629 
-0.0003889203650145829 
5.33265772612542e-05 
-0.0001932632031126661 
-0.0001362645944788862 
3.719731622908359e-05 
7.424001292389155e-05 
8.842512158486732e-05 
-0.001811840554865126 
-0.0003303241719393499 
0 
0.007990656015391458 
0.001811840554865126 
-0.0003303241719393499 
-7.424001292389155e-05 
8.842512158486732e-05 
0.0001362645944788862 
3.719731622908359e-05 
7.111058418453338e-05 
-0.0001213407168985783 
7.369882373437627e-05 
-0.001075681109199235 
-0.002746150782527752 
-0.002565744918995294 
0 
0.000334590885044682 
0.002746150782527752 
-0.002565744918995294 
-7.369882373437627e-05 
-0.001075681109199235 
-7.111058418453338e-05 
-0.0001213407168985783 
1.883286967701363e-05 
-0.0001603980038845648 
-0.000499202519268031 
-0.0005696715108956161 
-0.002420482159618706 
0.001036501791771144 
0 
0.005408047994957213 
0.002420482159618706 
0.001036501791771144 
0.000499202519268031 
-0.0005696715108956161 
-1.883286967701363e-05 
-0.0001603980038845648 
-0.0001672859861506355 
-9.211813435860111e-05 
-0.001107928869033568 
0.0001452176117959813 
-0.00132493058586309 
0.002922021540045008 
0 
0.006133887505618009 
0.00132493058586309 
0.002922021540045008 
0.001107928869033568 
0.0001452176117959813 
0.0001672859861506355 
-9.211813435860111e-05 
8.250276803149e-05 
-7.24966003217265e-05 
1.337306545476754e-05 
-0.0006486863718333075 
-0.002342023234984568 
-0.001111620440844566 
0 
0.005675447877474138 
0.002342023234984568 
-0.001111620440844566 
-1.337306545476754e-05 
-0.0006486863718333075 
-8.250276803149e-05 
-7.24966003217265e-05 
-7.556007864605853e-05 
-9.809460569220859e-05 
-5.780190251506679e-05 
-0.0001807722384824324 
-0.0005508226675360908 
-0.001230563466285297 
0 
0.0002631521328647779 
0.0005508226675360908 
-0.001230563466285297 
5.780190251506679e-05 
-0.0001807722384824324 
7.556007864605853e-05 
-9.809460569220859e-05 
8.703872801758079e-05 
-6.157712792424776e-05 
0.0005626336304924716 
-0.000623817343755743 
-0.001095136269709303 
-0.003683791112845907 
0 
-0.001283837428396826 
0.001095136269709303 
-0.003683791112845907 
-0.0005626336304924716 
-0.000623817343755743 
-8.703872801758079e-05 
-6.157712792424776e-05 
-0.0001030801344461971 
2.091420877288445e-05 
-0.0005973877975690534 
-0.0001221048679061216 
-0.002291003929286152 
0.002432812024850487 
0 
0.006422341116218161 
0.002291003929286152 
0.002432812024850487 
0.0005973877975690534 
-0.0001221048679061216 
0.0001030801344461971 
2.091420877288445e-05 
-4.397861986173171e-05 
4.342448573058639e-05 
-0.0002949930374229059 
-2.553630278274934e-05 
-0.0002318770167246558 
0.003226520440856324 
0 
0.0006380755244092216 
0.0002318770167246558 
0.003226520440856324 
0.0002949930374229059 
-2.553630278274934e-05 
4.397861986173171e-05 
4.342448573058639e-05 
5.039160471996915e-05 
-5.033086646346009e-05 
0.0001507478014576016 
-0.0007263200661261154 
-0.002517756962914677 
-0.001357512885820183 
0 
0.002506417649165692 
0.002517756962914677 
-0.001357512885820183 
-0.0001507478014576016 
-0.0007263200661261154 
-5.039160471996915e-05 
-5.033086646346009e-05 
-2.546405913521008e-06 
9.756192993173345e-05 
0.0003754824059168238 
0.00017579077941221 
0.0001411396515667614 
-0.0015233223764651 
0 
0.002732897606709686 
-0.0001411396515667614 
-0.0015233223764651 
-0.0003754824059168238 
0.00017579077941221 
2.546405913521008e-06 
9.756192993173345e-05 
5.393690170211826e-05 
2.10644951684261e-05 
0.0006999880195126731 
-4.640462850205511e-05 
0.002033799752261319 
-0.003832785880645302 
0 
-0.008683954277305552 
-0.002033799752261319 
-0.003832785880645302 
-0.0006999880195126731 
-4.640462850205511e-05 
-5.393690170211826e-05 
2.10644951684261e-05 
1.844133985962231e-05 
-0.0001109501193473682 
0.0002137314218737869 
-0.0003369307832030918 
0.001321832895227936 
-0.003383255745000566 
0 
-0.01236383165436212 
-0.001321832895227936 
-0.003383255745000566 
-0.0002137314218737869 
-0.0003369307832030918 
-1.844133985962231e-05 
-0.0001109501193473682 
-4.465010358383278e-05 
-0.0001039585767855516 
-0.0001309576444664055 
-0.0002381318232154578 
-0.0007304716683664605 
-0.001369887655789568 
0 
-0.0008607689825216787 
0.0007304716683664605 
-0.001369887655789568 
0.0001309576444664055 
-0.0002381318232154578 
4.465010358383278e-05 
-0.0001039585767855516 
4.906027902609014e-05 
-0.0001189515888349797 
0.0002341944862201263 
-0.0009537187134511216 
-0.0007317711612697307 
-0.004481874641282834 
0 
-0.0104782445882503 
0.0007317711612697307 
-0.004481874641282834 
-0.0002341944862201263 
-0.0009537187134511216 
-4.906027902609014e-05 
-0.0001189515888349797 
3.8218860490656e-05 
1.098841479027406e-05 
0.00014357025162779 
-0.0006512519650879843 
-0.001239730605636958 
-0.0009694347217915077 
0 
0.0009427575778001874 
0.001239730605636958 
-0.0009694347217915077 
-0.00014357025162779 
-0.0006512519650879843 
-3.8218860490656e-05 
1.098841479027406e-05 
-5.990778472147385e-06 
-6.518208018655766e-05 
-0.0002279853137826776 
-0.0001939703325995995 
-0.0009643921644638174 
4.989764908393948e-05 
0 
0.001429889366129986 
0.0009643921644638174 
4.989764908393948e-05 
0.0002279853137826776 
-0.0001939703325995995 
5.990778472147385e-06 
-6.518208018655766e-05 
-7.531094532539136e-06 
0.0001536579169094431 
0.0008599436492077813 
0.0002304596114734618 
0.002198018851516235 
-0.002046033385559478 
0 
-0.01057065170907004 
-0.002198018851516235 
-0.002046033385559478 
-0.0008599436492077813 
0.0002304596114734618 
7.531094532539136e-06 
0.0001536579169094431 
-4.826453148267634e-05 
-9.534236952050646e-05 
0.0002659348963208899 
-2.803022339633132e-05 
0.0009900933130377622 
-0.004217227034052486 
0 
-0.003540517337534144 
-0.0009900933130377622 
-0.004217227034052486 
-0.0002659348963208899 
-2.803022339633132e-05 
4.826453148267634e-05 
-9.534236952050646e-05 
-4.389324117972382e-05 
0.0003141690912320195 
0.0005732999397281668 
0.001912654511505063 
0.002514444628897781 
0.002597504052076321 
0 
0.01675284988286369 
-0.002514444628897781 
0.002597504052076321 
-0.0005732999397281668 
0.001912654511505063 
4.389324117972382e-05 
0.0003141690912320195 
0.0001003884770098252 
4.729052374133097e-05 
0.0009481568802687031 
7.351020450880822e-05 
0.002470198666447116 
-0.0060257986483071 
0 
-0.008573579973942896 
-0.002470198666447116 
-0.0060257986483071 
-0.0009481568802687031 
7.351020450880822e-05 
-0.0001003884770098252 
4.729052374133097e-05 
0.0001686200814968894 
-0.0001148121371812358 
0.0006161519002093118 
-0.0009663139572726113 
0.0007131288128054432 
-0.004819085883885826 
0 
-0.01551066607717056 
-0.0007131288128054432 
-0.004819085883885826 
-0.0006161519002093118 
-0.0009663139572726113 
-0.0001686200814968894 
-0.0001148121371812358 
6.136754771894385e-05 
-0.0002249069716520731 
-0.000476358694642003 
-0.0007249842383865022 
-0.00123723870833137 
3.720933274666517e-05 
0 
-0.002078998867065331 
0.00123723870833137 
3.720933274666517e-05 
0.000476358694642003 
-0.0007249842383865022 
-6.136754771894385e-05 
-0.0002249069716520731 
2.070076646385858e-05 
-3.148520913118164e-05 
-6.021524305558752e-05 
0.0002856069718408228 
0.0008811192489873389 
-0.0001716917733752749 
0 
0.001972810069045469 
-0.0008811192489873389 
-0.0001716917733752749 
6.021524305558752e-05 
0.0002856069718408228 
-2.070076646385858e-05 
-3.148520913118164e-05 
-2.162452187815432e-05 
-2.083280379833401e-05 
-0.0002864549067702146 
-0.0003086407286474352 
-0.00295184904671664 
0.002355056411325041 
0 
0.009672798692590025 
0.00295184904671664 
0.002355056411325041 
0.0002864549067702146 
-0.0003086407286474352 
2.162452187815432e-05 
-2.083280379833401e-05 
-4.535537906019563e-05 
-9.0340587114644e-05 
-0.0004470474151032734 
-0.0005572370048493162 
-0.002117602302523633 
5.35529937899827e-05 
0 
0.00513625611470335 
0.002117602302523633 
5.35529937899827e-05 
0.0004470474151032734 
-0.0005572370048493162 
4.535537906019563e-05 
-9.0340587114644e-05 
0.0002202209220611532 
-0.0001004298964190894 
0.0002604892087656386 
-0.001303261349633019 
-0.002785870915124051 
-0.002627160628011799 
0 
0.000242027260653261 
0.002785870915124051 
-0.002627160628011799 
-0.0002604892087656386 
-0.001303261349633019 
-0.0002202209220611532 
-0.0001004298964190894 
2.385589775910239e-05 
-1.407252542842003e-05 
0.0001202228659850257 
-0.000294662886262894 
-0.000567449249599302 
-0.0004289166422512347 
0 
-0.0005456897583490555 
0.000567449249599302 
-0.0004289166422512347 
-0.0001202228659850257 
-0.000294662886262894 
-2.385589775910239e-05 
-1.407252542842003e-05 
5.443934666102575e-06 
-0.0001076522745881917 
-0.0001932145294838472 
-0.000571009412475193 
-0.003453017420171437 
-0.002103615141109703 
0 
0.01092285714604643 
0.003453017420171437 
-0.002103615141109703 
0.0001932145294838472 
-0.000571009412475193 
-5.443934666102575e-06 
-0.0001076522745881917 
0.000187366571634117 
1.199205784463239e-05 
0.0005006768211655194 
-0.0006703613094357231 
0.0007462547583973646 
-0.003071516758537321 
0 
-0.002176817504790284 
-0.0007462547583973646 
-0.003071516758537321 
-0.0005006768211655194 
-0.0006703613094357231 
-0.000187366571634117 
1.199205784463239e-05 
5.829115372989061e-05 
-0.0001768903411312236 
-5.141192414428418e-05 
-0.0004618117931337359 
0.0001704120687839467 
-0.003080281705439291 
0 
-0.004796991124591038 
-0.0001704120687839467 
-0.003080281705439291 
5.141192414428418e-05 
-0.0004618117931337359 
-5.829115372989061e-05 
-0.0001768903411312236 
-1.614391131529982e-05 
1.795705666095371e-05 
9.464362636732528e-06 
0.0005305130336677302 
0.002439435177351283 
-0.0008968683556974549 
0 
-0.00417083598192674 
-0.002439435177351283 
-0.0008968683556974549 
-9.464362636732528e-06 
0.0005305130336677302 
1.614391131529982e-05 
1.795705666095371e-05 
0.0001076857964455083 
-0.0001568245240767548 
9.612687276186364e-05 
-0.0008435370602725687 
-0.0009820398859400547 
-0.003237263660443687 
0 
-0.0001456943515168691 
0.0009820398859400547 
-0.003237263660443687 
-9.612687276186364e-05 
-0.0008435370602725687 
-0.0001076857964455083 
-0.0001568245240767548 
-0.0001733764407686219 
-3.162765365047211e-06 
-0.0004678645994392509 
-8.65803580900327e-05 
-0.004313396482235255 
0.002974624402343067 
0 
0.02148980619367501 
0.004313396482235255 
0.002974624402343067 
0.0004678645994392509 
-8.65803580900327e-05 
0.0001733764407686219 
-3.162765365047211e-06 
-0.0001671636644687467 
7.433395394895037e-05 
-0.0004944628014868441 
0.0009661768007534291 
-0.0007839153133712948 
0.003897171200380515 
0 
0.01535268362309872 
0.0007839153133712948 
0.003897171200380515 
0.0004944628014868441 
0.0009661768007534291 
0.0001671636644687467 
7.433395394895037e-05 
6.751520600039091e-06 
3.280789528199174e-05 
-5.955928792228382e-05 
0.0002253108740391757 
0.003123025626190381 
-0.0002237303962578879 
0 
-0.01013530505000041 
-0.003123025626190381 
-0.0002237303962578879 
5.955928792228382e-05 
0.0002253108740391757 
-6.751520600039091e-06 
3.280789528199174e-05 
0.0001480358674907285 
-5.511020760426816e-05 
0.0002018943753267515 
-0.0002438209969756622 
0.003767873468922022 
-0.003560534443856378 
0 
-0.01545341914962643 
-0.003767873468922022 
-0.003560534443856378 
-0.0002018943753267515 
-0.0002438209969756622 
-0.0001480358674907285 
-5.511020760426816e-05 
7.719386966904273e-06 
-2.019676467386183e-05 
0.0006359239506643996 
-0.0006941056597855443 
-0.001563383426716726 
-0.005139186684188353 
0 
0.004343006368261449 
0.001563383426716726 
-0.005139186684188353 
-0.0006359239506643996 
-0.0006941056597855443 
-7.719386966904273e-06 
-2.019676467386183e-05 
2.814920896243142e-05 
-2.737158013279672e-05 
-0.0004387560380459723 
0.0004717930032499594 
-0.000622040389161322 
0.003027812820527429 
0 
0.01638474684619604 
0.000622040389161322 
0.003027812820527429 
0.0004387560380459723 
0.0004717930032499594 
-2.814920896243142e-05 
-2.737158013279672e-05 
2.001074544236584e-05 
-0.0001033496463311558 
-0.0002038979572169602 
-0.0001777967224857865 
-0.0006689170606703363 
-0.0004493994280724452 
0 
0.001414952351048069 
0.0006689170606703363 
-0.0004493994280724452 
0.0002038979572169602 
-0.0001777967224857865 
-2.001074544236584e-05 
-0.0001033496463311558 
7.31424586954786e-05 
2.123355668986411e-05 
0.0008739484603185733 
-6.63845859596696e-05 
0.002053893219306547 
-0.005418777619312302 
0 
-0.007160166656161438 
-0.002053893219306547 
-0.005418777619312302 
-0.0008739484603185733 
-6.63845859596696e-05 
-7.31424586954786e-05 
2.123355668986411e-05 
6.405847049110891e-05 
1.477513855311558e-05 
0.0002947550114253136 
-8.383952950881461e-05 
0.002573199016404214 
-0.002271562101813937 
0 
-0.0100342481060144 
-0.002573199016404214 
-0.002271562101813937 
-0.0002947550114253136 
-8.383952950881461e-05 
-6.405847049110891e-05 
1.477513855311558e-05 
-0.0001037548102315743 
0.0001450202754095475 
0.0003856285360899356 
0.0008135825667082453 
0.00241230088970498 
0.0001824004445293249 
0 
-0.001858577816503942 
-0.00241230088970498 
0.0001824004445293249 
-0.0003856285360899356 
0.0008135825667082453 
0.0001037548102315743 
0.0001450202754095475 
-0.0002223489713729155 
3.577735095050728e-05 
-0.000481672507679497 
0.001045576138584944 
0.002050323137284051 
0.001751950994523012 
0 
0.002111397410636083 
-0.002050323137284051 
0.001751950994523012 
0.000481672507679497 
0.001045576138584944 
0.0002223489713729155 
3.577735095050728e-05 
-4.746626749194879e-05 
-6.466228730224986e-05 
0.0005488328786249682 
-0.0006006553470222789 
0.001085710702465398 
-0.006142147032686125 
0 
-0.01480662790701816 
-0.001085710702465398 
-0.006142147032686125 
-0.0005488328786249682 
-0.0006006553470222789 
4.746626749194879e-05 
-6.466228730224986e-05 
-2.654155037093191e-05 
-8.364223919136766e-05 
0.0004904843374578719 
0.0001297492659054703 
0.0007609983239005424 
-0.006325329735851831 
0 
0.0004959835289166607 
-0.0007609983239005424 
-0.006325329735851831 
-0.0004904843374578719 
0.0001297492659054703 
2.654155037093191e-05 
-8.364223919136766e-05 
0.0001144202166735705 
-7.908063640981651e-05 
0.000127218587363761 
-0.0005395685128787322 
0.0003483208751739474 
-0.00330263043014096 
0 
-0.00547513280024793 
-0.0003483208751739474 
-0.00330263043014096 
-0.000127218587363761 
-0.0005395685128787322 
-0.0001144202166735705 
-7.908063640981651e-05 
-9.249796218666768e-05 
7.122250488354496e-06 
-0.0001488512262194014 
0.0006117822658399469 
0.000677799312285439 
0.0008545184834658982 
0 
0.008682059821860476 
-0.000677799312285439 
0.0008545184834658982 
0.0001488512262194014 
0.0006117822658399469 
9.249796218666768e-05 
7.122250488354496e-06 
-2.097371476056572e-05 
-0.0001655513373154157 
-0.001102112264777586 
-8.565725773410418e-05 
-0.002145366095547872 
0.00429871741020518 
0 
0.01013438653680741 
0.002145366095547872 
0.00429871741020518 
0.001102112264777586 
-8.565725773410418e-05 
2.097371476056572e-05 
-0.0001655513373154157 
-0.0001370547208975392 
-9.892220502192125e-05 
-0.0005603660393246607 
-7.492010652767018e-05 
0.0005780021653931398 
0.0003103926001039409 
0 
-0.005109623725009394 
-0.0005780021653931398 
0.0003103926001039409 
0.0005603660393246607 
-7.492010652767018e-05 
0.0001370547208975392 
-9.892220502192125e-05 
-3.665262933299219e-05 
-5.428711900335638e-05 
-0.0002554417936941165 
-0.0002051387758745877 
-0.00152846667965557 
-0.0007568925536188973 
0 
0.005637354850209482 
0.00152846667965557 
-0.0007568925536188973 
0.0002554417936941165 
-0.0002051387758745877 
3.665262933299219e-05 
-5.428711900335638e-05 
-5.711830934506435e-05 
-3.19218112407123e-05 
-0.0005516212545188546 
0.0003058273730222477 
-0.0008348154281501368 
0.001729157460296518 
0 
0.008935013144733606 
0.0008348154281501368 
0.001729157460296518 
0.0005516212545188546 
0.0003058273730222477 
5.711830934506435e-05 
-3.19218112407123e-05 
-0.000174329823233096 
7.46195525740899e-05 
-0.0004488513325551098 
0.000643488537897764 
0.001737620926686374 
0.002081812933393763 
0 
0.0005417788331782887 
-0.001737620926686374 
0.002081812933393763 
0.0004488513325551098 
0.000643488537897764 
0.000174329823233096 
7.46195525740899e-05 
7.465938695779081e-05 
-8.56613364243515e-05 
0.0002055800861260108 
-0.0004245156315363354 
0.001067997646799609 
-0.003267367793881169 
0 
-0.009130300050629661 
-0.001067997646799609 
-0.003267367793881169 
-0.0002055800861260108 
-0.0004245156315363354 
-7.465938695779081e-05 
-8.56613364243515e-05 
5.810936461447161e-05 
-2.54153782205838e-05 
0.0006429878878698822 
-0.0005607827450327591 
0.0005420475044255167 
-0.004270105436320525 
0 
-0.006098346800140319 
-0.0005420475044255167 
-0.004270105436320525 
-0.0006429878878698822 
-0.0005607827450327591 
-5.810936461447161e-05 
-2.54153782205838e-05 
5.88775222531643e-05 
-0.0001671052961541066 
-0.0005452907976639013 
-0.0005320110643141889 
-0.002049885122126583 
0.0006683189165292803 
0 
0.008646759603051588 
0.002049885122126583 
0.0006683189165292803 
0.0005452907976639013 
-0.0005320110643141889 
-5.88775222531643e-05 
-0.0001671052961541066 
-2.958047941975117e-05 
-4.738960550827087e-05 
-0.0007721765166402075 
-0.0002243746557259279 
-0.003184092977994415 
0.00348996181290447 
0 
0.0149115266577895 
0.003184092977994415 
0.00348996181290447 
0.0007721765166402075 
-0.0002243746557259279 
2.958047941975117e-05 
-4.738960550827087e-05 
-0.0001611916925109055 
-0.0001213612833103636 
-0.0009448619992737163 
-0.0003238570157944001 
-0.002557207008557414 
0.001996891388281823 
0 
0.007498353479450406 
0.002557207008557414 
0.001996891388281823 
0.0009448619992737163 
-0.0003238570157944001 
0.0001611916925109055 
-0.0001213612833103636 
7.598419718396646e-05 
-0.0001817152754639686 
-0.0001453331369862404 
-0.0005923072834772542 
-0.003348765888064172 
-0.002499029436827676 
0 
0.0119871245897555 
0.003348765888064172 
-0.002499029436827676 
0.0001453331369862404 
-0.0005923072834772542 
-7.598419718396646e-05 
-0.0001817152754639686 
1.282736440929637e-05 
-0.0001349243990607553 
6.699003151465698e-05 
-0.0004935930221510897 
-0.0009168931689088663 
-0.003148285038711 
0 
0.0004558819654865818 
0.0009168931689088663 
-0.003148285038711 
-6.699003151465698e-05 
-0.0004935930221510897 
-1.282736440929637e-05 
-0.0001349243990607553 
-4.087874863503132e-06 
-0.0001357568352098888 
0.0001618897004245392 
-0.0002295128868384383 
-0.0008797489406651961 
-0.002719003371496596 
0 
0.00178763859038876 
0.0008797489406651961 
-0.002719003371496596 
-0.0001618897004245392 
-0.0002295128868384383 
4.087874863503132e-06 
-0.0001357568352098888 
3.21684461352779e-05 
0.0002215005145060504 
0.0001858895946667913 
0.0007456322783350987 
0.00190688298243099 
0.001425536712477111 
0 
0.0005371715170476488 
-0.00190688298243099 
0.001425536712477111 
-0.0001858895946667913 
0.0007456322783350987 
-3.21684461352779e-05 
0.0002215005145060504 
-2.224147752848762e-05 
8.992917222453196e-05 
0.0002680645837627577 
0.0002617120218261998 
0.0004402169412288194 
0.0002498025153653947 
0 
-0.0009606689967702895 
-0.0004402169412288194 
0.0002498025153653947 
-0.0002680645837627577 
0.0002617120218261998 
2.224147752848762e-05 
8.992917222453196e-05 
0.0001099797348806976 
-0.0001287591020278471 
-0.0002228922839897314 
-0.000643407476820753 
-0.001505817188981032 
-0.0005312191954185318 
0 
0.00268264077287626 
0.001505817188981032 
-0.0005312191954185318 
0.0002228922839897314 
-0.000643407476820753 
-0.0001099797348806976 
-0.0001287591020278471 
-9.806115498342439e-05 
-8.957254841483721e-05 
-0.0003353963116890748 
-0.0001773249685356742 
-0.0008609975701541753 
-0.0009649961972640085 
0 
0.003772073616549562 
0.0008609975701541753 
-0.0009649961972640085 
0.0003353963116890748 
-0.0001773249685356742 
9.806115498342439e-05 
-8.957254841483721e-05 
4.822742282626162e-06 
-8.266926378107564e-06 
-2.439732277258705e-05 
-5.029805323601123e-06 
-0.00237668417251003 
-0.001013080407730071 
0 
0.01570717226150418 
0.00237668417251003 
-0.001013080407730071 
2.439732277258705e-05 
-5.029805323601123e-06 
-4.822742282626162e-06 
-8.266926378107564e-06 
-6.136419554633321e-05 
-0.000107308396840973 
-0.0004401158887058489 
-0.00091613390598705 
-0.002321317311269037 
-0.0005588350287073078 
0 
-0.001975203263264505 
0.002321317311269037 
-0.0005588350287073078 
0.0004401158887058489 
-0.00091613390598705 
6.136419554633321e-05 
-0.000107308396840973 
2.911095327807206e-05 
-4.274986711649926e-05 
0.0002183656370209545 
-0.000443185832844576 
0.0001601993696909042 
-0.003731710048155448 
0 
-0.00417129074503639 
-0.0001601993696909042 
-0.003731710048155448 
-0.0002183656370209545 
-0.000443185832844576 
-2.911095327807206e-05 
-4.274986711649926e-05 
-6.509495332166385e-05 
-4.760385134079774e-05 
-0.0001175678109013126 
-0.0002896386834063531 
-0.001258860494491425 
-0.0008863796812242556 
0 
0.0002949429319671432 
0.001258860494491425 
-0.0008863796812242556 
0.0001175678109013126 
-0.0002896386834063531 
6.509495332166385e-05 
-4.760385134079774e-05 
1.935434046005676e-05 
1.741095611387792e-05 
0.0003448832126998987 
-0.000175490503060463 
0.0003379858571655365 
-0.002373903073378765 
0 
-0.00238691786305163 
-0.0003379858571655365 
-0.002373903073378765 
-0.0003448832126998987 
-0.000175490503060463 
-1.935434046005676e-05 
1.741095611387792e-05 
-6.241792961776614e-05 
5.712148385288098e-05 
-0.0004148012904733586 
0.0001607937487547416 
-0.001058982247927972 
0.002460547874457796 
0 
0.0094163778740581 
0.001058982247927972 
0.002460547874457796 
0.0004148012904733586 
0.0001607937487547416 
6.241792961776614e-05 
5.712148385288098e-05 
-4.70329206178965e-05 
0.0001306041020911915 
0.0003804716124275533 
0.0003819705554156865 
-0.00128973403572798 
0.001930211223882495 
0 
0.004244820212006709 
0.00128973403572798 
0.001930211223882495 
-0.0003804716124275533 
0.0003819705554156865 
4.70329206178965e-05 
0.0001306041020911915 
6.893268266550503e-05 
-0.0001379664639152609 
0.0001152219621184885 
-0.0004282494923206142 
-0.002404979058350559 
-0.002209451948158951 
0 
0.005885157958981479 
0.002404979058350559 
-0.002209451948158951 
-0.0001152219621184885 
-0.0004282494923206142 
-6.893268266550503e-05 
-0.0001379664639152609 
-4.935118023443959e-05 
-0.0001789046977452491 
-0.0004439820601935258 
-0.0004265167431367039 
-0.002197533115008653 
-0.0004083997129693681 
0 
0.005658162794035916 
0.002197533115008653 
-0.0004083997129693681 
0.0004439820601935258 
-0.0004265167431367039 
4.935118023443959e-05 
-0.0001789046977452491 
-1.133731610917577e-05 
-6.685919455843224e-05 
-0.0002722286016883698 
-0.0001856893183160932 
-0.0006752452507677176 
-0.0001144936175351089 
0 
0.002745297743972766 
0.0006752452507677176 
-0.0001144936175351089 
0.0002722286016883698 
-0.0001856893183160932 
1.133731610917577e-05 
-6.685919455843224e-05 
2.725988908519896e-05 
-0.0002469970948833633 
-0.0003965456551577303 
-0.001010675110071559 
-0.002470684604398122 
-0.00200091667744773 
0 
-0.003602346823563541 
0.002470684604398122 
-0.00200091667744773 
0.0003965456551577303 
-0.001010675110071559 
-2.725988908519896e-05 
-0.0002469970948833633 
9.281051600792024e-05 
-0.0002325128107868311 
-0.0006400879266631953 
-0.000369427879318444 
-0.0004224208035454351 
0.0008630802595023668 
0 
0.001931131724669302 
0.0004224208035454351 
0.0008630802595023668 
0.0006400879266631953 
-0.000369427879318444 
-9.281051600792024e-05 
-0.0002325128107868311 
4.509352821950588e-05 
2.071550131033962e-05 
0.0001340009969736961 
-3.553213519659645e-05 
0.001026471462218596 
0.0001726964817858558 
0 
-0.001001901206323368 
-0.001026471462218596 
0.0001726964817858558 
-0.0001340009969736961 
-3.553213519659645e-05 
-4.509352821950588e-05 
2.071550131033962e-05 
0.0001509502107789324 
3.307129249616735e-05 
0.0007828032036856695 
-0.0006917468212429434 
-0.0004021077545694412 
-0.004102730970755387 
0 
-0.004377705198556936 
0.0004021077545694412 
-0.004102730970755387 
-0.0007828032036856695 
-0.0006917468212429434 
-0.0001509502107789324 
3.307129249616735e-05 
2.089743067005027e-05 
-2.907970114232473e-05 
-0.0002652028249120579 
-0.0004759349397113732 
-0.0004773009264514626 
0.0001360300577996372 
0 
-0.002948120834895528 
0.0004773009264514626 
0.0001360300577996372 
0.0002652028249120579 
-0.0004759349397113732 
-2.089743067005027e-05 
-2.907970114232473e-05 
-6.324648295434559e-05 
-9.618930445494409e-05 
-0.0004653505668993005 
-0.0001806264109141714 
-0.0001454912405892245 
0.0006530450464643264 
0 
-0.003530981852865229 
0.0001454912405892245 
0.0006530450464643264 
0.0004653505668993005 
-0.0001806264109141714 
6.324648295434559e-05 
-9.618930445494409e-05 
9.813581045044183e-05 
-5.87447562180747e-05 
0.0001353223974347975 
-0.000469920624641283 
-0.000210560259413912 
-0.002203977266481879 
0 
-0.001622856004633132 
0.000210560259413912 
-0.002203977266481879 
-0.0001353223974347975 
-0.000469920624641283 
-9.813581045044183e-05 
-5.87447562180747e-05 
-2.61537652219223e-05 
0.0001959805862096707 
0.0003448313266592971 
0.0006120209586451068 
-0.000468425584969674 
0.002275885744565412 
0 
0.008637680955371938 
0.000468425584969674 
0.002275885744565412 
-0.0003448313266592971 
0.0006120209586451068 
2.61537652219223e-05 
0.0001959805862096707 
0.000114552043321851 
5.135920378102586e-06 
0.0008777554952711484 
-0.0004571188968317703 
-0.0001516245510180652 
-0.00464449632186973 
0 
-0.003714321020850181 
0.0001516245510180652 
-0.00464449632186973 
-0.0008777554952711484 
-0.0004571188968317703 
-0.000114552043321851 
5.135920378102586e-06 
2.783732379929375e-05 
-2.053095612223828e-05 
-6.48947515607868e-05 
-0.0001547020736792839 
-0.0008750482572951992 
0.0008684028138704884 
0 
0.001544707074218403 
0.0008750482572951992 
0.0008684028138704884 
6.48947515607868e-05 
-0.0001547020736792839 
-2.783732379929375e-05 
-2.053095612223828e-05 
1.494987683920168e-05 
-0.000123571018175604 
7.925463382300371e-05 
-0.0003285265944252669 
-0.003313305064866936 
-0.0007120710484284491 
0 
0.00927258104743141 
0.003313305064866936 
-0.0007120710484284491 
-7.925463382300371e-05 
-0.0003285265944252669 
-1.494987683920168e-05 
-0.000123571018175604 
9.205997296986751e-05 
-0.00017077706886358 
0.0001530476051403162 
-0.0008757905759411309 
0.0002693687743727152 
-0.005045293100506784 
0 
-0.01333272893034818 
-0.0002693687743727152 
-0.005045293100506784 
-0.0001530476051403162 
-0.0008757905759411309 
-9.205997296986751e-05 
-0.00017077706886358 
0.0001982241662365834 
-8.724564076524044e-05 
0.000321385136540537 
-0.0009581102770786118 
-0.0003211031122724455 
-0.003243520908977292 
0 
-0.005094847357098059 
0.0003211031122724455 
-0.003243520908977292 
-0.000321385136540537 
-0.0009581102770786118 
-0.0001982241662365834 
-8.724564076524044e-05 
5.278697534831776e-05 
-0.0001447786590081473 
6.581033863535563e-05 
-0.0003018604726854162 
0.0007091018374741209 
-0.002632881229806688 
0 
-0.004932260529652979 
-0.0007091018374741209 
-0.002632881229806688 
-6.581033863535563e-05 
-0.0003018604726854162 
-5.278697534831776e-05 
-0.0001447786590081473 
-7.371194209876478e-05 
3.524471991820073e-05 
0.0002467696225453021 
5.521829130335262e-05 
0.001126113545704838 
-0.002118436822592486 
0 
-0.006963943067751993 
-0.001126113545704838 
-0.002118436822592486 
-0.0002467696225453021 
5.521829130335262e-05 
7.371194209876478e-05 
3.524471991820073e-05 
0.0003153012798331343 
-4.035148323344719e-05 
0.001118931100362249 
-0.0009083956342691381 
0.001695761412807537 
-0.00674971524822585 
0 
-0.0150808790257679 
-0.001695761412807537 
-0.00674971524822585 
-0.001118931100362249 
-0.0009083956342691381 
-0.0003153012798331343 
-4.035148323344719e-05 
4.509058334795518e-05 
0.0002647286545750521 
0.001344179931950099 
0.0007395544202633583 
0.003662815062233334 
-0.00325467802874164 
0 
-0.005939879025402491 
-0.003662815062233334 
-0.00325467802874164 
-0.001344179931950099 
0.0007395544202633583 
-4.509058334795518e-05 
0.0002647286545750521 
-2.996447469854613e-05 
1.492814994881148e-05 
0.0002618805405878035 
4.565219007308829e-05 
0.000739242338938419 
-0.001396125548965185 
0 
-0.0003532751932066804 
-0.000739242338938419 
-0.001396125548965185 
-0.0002618805405878035 
4.565219007308829e-05 
2.996447469854613e-05 
1.492814994881148e-05 
0.0001794686688784114 
6.365292646280562e-05 
0.0006549503356353408 
-0.0003048594347834635 
-0.000133604510049589 
-0.002433880859934841 
0 
0.004514133525439153 
0.000133604510049589 
-0.002433880859934841 
-0.0006549503356353408 
-0.0003048594347834635 
-0.0001794686688784114 
6.365292646280562e-05 
1.973040071877059e-05 
0.0002465954677951639 
0.0003257947263956708 
0.0003129859508613436 
0.0006149001461141365 
0.001288034295466856 
0 
0.002614155704361636 
-0.0006149001461141365 
0.001288034295466856 
-0.0003257947263956708 
0.0003129859508613436 
-1.973040071877059e-05 
0.0002465954677951639 
-8.079544731460868e-06 
7.536121613523329e-05 
0.0003637104148884542 
8.966177305232484e-05 
0.0003601521807719493 
-0.001215115996090944 
0 
-0.001262172685626896 
-0.0003601521807719493 
-0.001215115996090944 
-0.0003637104148884542 
8.966177305232484e-05 
8.079544731460868e-06 
7.536121613523329e-05 
-4.770652346033092e-05 
-0.0001375369715718229 
-0.0001340389842489654 
-9.714175327737652e-05 
-0.0007809990775892349 
-0.001504300952382223 
0 
0.0008837762976089825 
0.0007809990775892349 
-0.001504300952382223 
0.0001340389842489654 
-9.714175327737652e-05 
4.770652346033092e-05 
-0.0001375369715718229 
-9.58546725547772e-05 
2.363594377798024e-05 
-0.0004066951155990902 
0.0005359959012268287 
0.0003999413074932496 
0.001673421310639799 
0 
0.005614331772973955 
-0.0003999413074932496 
0.001673421310639799 
0.0004066951155990902 
0.0005359959012268287 
9.58546725547772e-05 
2.363594377798024e-05 
0.0001058581077968065 
6.376962723810086e-06 
0.0007375832935615761 
-0.0007055263541065527 
0.001061536201340206 
-0.004761585965145985 
0 
-0.008653212091530029 
-0.001061536201340206 
-0.004761585965145985 
-0.0007375832935615761 
-0.0007055263541065527 
-0.0001058581077968065 
6.376962723810086e-06 
4.60957837273701e-06 
7.883998385426975e-05 
0.001272286279345088 
0.0003344478407124144 
0.003088227490968099 
-0.006268426533860877 
0 
-0.009488112420614451 
-0.003088227490968099 
-0.006268426533860877 
-0.001272286279345088 
0.0003344478407124144 
-4.60957837273701e-06 
7.883998385426975e-05 
4.443538481535861e-05 
-5.773193607411179e-05 
1.009943419694302e-05 
-0.0004331503668162506 
0.0007371727967248109 
-0.001955433217682483 
0 
-0.00246122471699344 
-0.0007371727967248109 
-0.001955433217682483 
-1.009943419694302e-05 
-0.0004331503668162506 
-4.443538481535861e-05 
-5.773193607411179e-05 
-7.118299899088976e-05 
0.0002108802941063316 
-6.09355401350682e-05 
0.0005477162218675398 
-0.0004881387099543998 
0.00277936044162738 
0 
0.01160344511634938 
0.0004881387099543998 
0.00277936044162738 
6.09355401350682e-05 
0.0005477162218675398 
7.118299899088976e-05 
0.0002108802941063316 
7.303291703719145e-05 
0.0002251302046530523 
0.0009609580707096757 
0.0002876042880153397 
0.0004540171182712238 
-0.001287825494866507 
0 
0.003957967251619179 
-0.0004540171182712238 
-0.001287825494866507 
-0.0009609580707096757 
0.0002876042880153397 
-7.303291703719145e-05 
0.0002251302046530523 
7.390189903710275e-05 
-0.0001387526123098545 
0.0003346158700769192 
-0.000738706762378132 
-0.000192452152050848 
-0.00526463990537808 
0 
-0.004291695916595725 
0.000192452152050848 
-0.00526463990537808 
-0.0003346158700769192 
-0.000738706762378132 
-7.390189903710275e-05 
-0.0001387526123098545 
-0.0001075850607624182 
-5.086287649951921e-05 
-0.0009508071013728773 
0.0006144115472812838 
0.0006717082713850501 
0.003700571873098983 
0 
0.005491440935204806 
-0.0006717082713850501 
0.003700571873098983 
0.0009508071013728773 
0.0006144115472812838 
0.0001075850607624182 
-5.086287649951921e-05 
-0.0001017260929011271 
0.0002124750970501274 
0.0004018897861987436 
0.000803443173348164 
0.001503383213250589 
-0.0001135239314427129 
0 
0.004994300950741678 
-0.001503383213250589 
-0.0001135239314427129 
-0.0004018897861987436 
0.000803443173348164 
0.0001017260929011271 
0.0002124750970501274 
-1.563391109141578e-05 
-0.0001131324031936028 
1.823679380295019e-05 
-0.000259496886678904 
-0.0003544825652588456 
-0.002035955352843768 
0 
-0.003808195149713754 
0.0003544825652588456 
-0.002035955352843768 
-1.823679380295019e-05 
-0.000259496886678904 
1.563391109141578e-05 
-0.0001131324031936028 
-4.986597337974139e-05 
-8.571232867967502e-05 
0.0005010328469345981 
0.0002470050067303668 
0.001537665816257634 
-0.004371100719789025 
0 
-0.003717681611872953 
-0.001537665816257634 
-0.004371100719789025 
-0.0005010328469345981 
0.0002470050067303668 
4.986597337974139e-05 
-8.571232867967502e-05 
2.815393327916684e-05 
-1.313476109162429e-05 
0.0002175370305004937 
0.0002371721873116872 
0.003434161348744846 
-0.002735328163900295 
0 
-0.01114949477333688 
-0.003434161348744846 
-0.002735328163900295 
-0.0002175370305004937 
0.0002371721873116872 
-2.815393327916684e-05 
-1.313476109162429e-05 
-1.363014270919602e-05 
-7.509726831110055e-05 
-0.0001306903957948418 
-0.0003963516481539474 
-0.001682289587448649 
-0.0001245602330585525 
0 
0.005422271630168257 
0.001682289587448649 
-0.0001245602330585525 
0.0001306903957948418 
-0.0003963516481539474 
1.363014270919602e-05 
-7.509726831110055e-05 
0.0001317202764663435 
-6.873675312575913e-05 
-0.0008615790056883456 
0.0001178750003046612 
-0.002008547539339127 
0.003331046902622732 
0 
0.019907014878183 
0.002008547539339127 
0.003331046902622732 
0.0008615790056883456 
0.0001178750003046612 
-0.0001317202764663435 
-6.873675312575913e-05 
0.0001631102385387591 
-9.947832151616688e-05 
0.0008773797957230792 
-0.001292585032409186 
0.0006681024539233386 
-0.008088902738281986 
0 
-0.01556384176666776 
-0.0006681024539233386 
-0.008088902738281986 
-0.0008773797957230792 
-0.001292585032409186 
-0.0001631102385387591 
-9.947832151616688e-05 
2.500219114647816e-05 
-8.306141262737684e-05 
0.000453837311253171 
5.313484983147344e-05 
0.004108380017421977 
-0.005244708833679307 
0 
-0.01707674934817678 
-0.004108380017421977 
-0.005244708833679307 
-0.000453837311253171 
5.313484983147344e-05 
-2.500219114647816e-05 
-8.306141262737684e-05 
1.119797615907643e-05 
0.0002461341389693468 
0.001005356777987591 
0.000792136037708859 
0.005689535652695094 
-0.003702526469746408 
0 
-0.01473762441655587 
-0.005689535652695094 
-0.003702526469746408 
-0.001005356777987591 
0.000792136037708859 
-1.119797615907643e-05 
0.0002461341389693468 
-0.0001618521289987779 
7.113016851268263e-05 
-0.000329128687965044 
0.0009110302034099636 
-0.0001596444019753769 
0.003101716697611631 
0 
0.0151762140888978 
0.0001596444019753769 
0.003101716697611631 
0.000329128687965044 
0.0009110302034099636 
0.0001618521289987779 
7.113016851268263e-05 
-0.0001955409144459279 
0.0002486146545267438 
-0.0001733160678532863 
0.001489064654172567 
0.001838874495990128 
0.003086914485978158 
0 
0.007927794907297973 
-0.001838874495990128 
0.003086914485978158 
0.0001733160678532863 
0.001489064654172567 
0.0001955409144459279 
0.0002486146545267438 
0.0001268849208942703 
-2.152046578120972e-05 
0.0002367706459661211 
-0.0005039584679635837 
0.0006932104759272765 
-0.002283064743704419 
0 
-0.00604598944661704 
-0.0006932104759272765 
-0.002283064743704419 
-0.0002367706459661211 
-0.0005039584679635837 
-0.0001268849208942703 
-2.152046578120972e-05 
0.0001044675318703352 
-5.051504942315852e-05 
-0.0001201759892054502 
-0.0005081531241531583 
0.0003275939201446262 
-0.001189543576033771 
0 
-0.002103021618151686 
-0.0003275939201446262 
-0.001189543576033771 
0.0001201759892054502 
-0.0005081531241531583 
-0.0001044675318703352 
-5.051504942315852e-05 
5.529923935369898e-05 
0.0001742463866210947 
0.000609568903498822 
0.0003477500916971876 
0.001265526242461136 
-0.0006662275582670612 
0 
0.002023946488430097 
-0.001265526242461136 
-0.0006662275582670612 
-0.000609568903498822 
0.0003477500916971876 
-5.529923935369898e-05 
0.0001742463866210947 
-2.511231571762768e-06 
0.0001321912297042557 
0.0003259542306033257 
0.0007226741225569785 
0.001542664439752672 
0.000659520162022484 
0 
0.006899299430450422 
-0.001542664439752672 
0.000659520162022484 
-0.0003259542306033257 
0.0007226741225569785 
2.511231571762768e-06 
0.0001321912297042557 
0.0001201107464159251 
-0.0002667426386718323 
0.0003550564805912979 
-0.001423148306842434 
0.0007710053354441439 
-0.008676970163989484 
0 
-0.01858939218665334 
-0.0007710053354441439 
-0.008676970163989484 
-0.0003550564805912979 
-0.001423148306842434 
-0.0001201107464159251 
-0.0002667426386718323 
5.43066920409217e-05 
-1.505010985273661e-06 
0.001091093000716926 
-0.0001414551165685744 
0.003930719461336309 
-0.006978664685872994 
0 
-0.01838716084968475 
-0.003930719461336309 
-0.006978664685872994 
-0.001091093000716926 
-0.0001414551165685744 
-5.43066920409217e-05 
-1.505010985273661e-06 
0.000132325888430452 
3.513406845074857e-06 
0.0003771487199602387 
-0.000364163049247689 
0.001576203980578594 
-0.003484359908906975 
0 
-0.007749196978207934 
-0.001576203980578594 
-0.003484359908906975 
-0.0003771487199602387 
-0.000364163049247689 
-0.000132325888430452 
3.513406845074857e-06 
-7.582819616477519e-05 
0.0002930797857599357 
-0.0002718197028981694 
0.0009035595867839047 
-0.0008782861303808346 
0.006117891846510229 
0 
0.01922300161633276 
0.0008782861303808346 
0.006117891846510229 
0.0002718197028981694 
0.0009035595867839047 
7.582819616477519e-05 
0.0002930797857599357 
-0.0003033817884710557 
3.900849533224564e-05 
-0.0003617337965548037 
0.001100526024897192 
0.0005234668414562623 
0.002137289571037398 
0 
0.005788158061288343 
-0.0005234668414562623 
0.002137289571037398 
0.0003617337965548037 
0.001100526024897192 
0.0003033817884710557 
3.900849533224564e-05 
0.0001491334154099903 
-2.15994038622997e-07 
0.0003418160484869757 
-0.000236566197862062 
-0.00054363138474667 
-0.001010517541379913 
0 
0.0031729379579529 
0.00054363138474667 
-0.001010517541379913 
-0.0003418160484869757 
-0.000236566197862062 
-0.0001491334154099903 
-2.15994038622997e-07 
8.324036525573123e-05 
0.0001239130486761455 
0.0009628607428208742 
-0.0001568933820847902 
0.0003884753534607372 
-0.003973085523828995 
0 
-0.001153153144335479 
-0.0003884753534607372 
-0.003973085523828995 
-0.0009628607428208742 
-0.0001568933820847902 
-8.324036525573123e-05 
0.0001239130486761455 
9.770757051370006e-05 
-0.0001849903688306329 
0.000114629895984943 
-0.000712224901785823 
-0.0008762144909997516 
-0.00358985333639658 
0 
-0.0001696742859772809 
0.0008762144909997516 
-0.00358985333639658 
-0.000114629895984943 
-0.000712224901785823 
-9.770757051370006e-05 
-0.0001849903688306329 
-9.790204420068845e-05 
6.39682710015425e-05 
-0.0003875854335046331 
0.0003811231123302271 
0.001589670123701692 
-0.0001302615379552969 
0 
0.0005504279228248101 
-0.001589670123701692 
-0.0001302615379552969 
0.0003875854335046331 
0.0003811231123302271 
9.790204420068845e-05 
6.39682710015425e-05 
-3.56475846105109e-05 
-0.0002654886841240253 
-0.00059922178778246 
-0.001119379317647669 
-0.002359915446282175 
-0.002704297435587021 
0 
-0.002636368200531971 
0.002359915446282175 
-0.002704297435587021 
0.00059922178778246 
-0.001119379317647669 
3.56475846105109e-05 
-0.0002654886841240253 
6.719640658592333e-05 
7.630023047013326e-05 
0.0005238804438644151 
5.098767071897563e-07 
0.00154316349565146 
-0.001986198042112178 
0 
-0.0048271637962896 
-0.00154316349565146 
-0.001986198042112178 
-0.0005238804438644151 
5.098767071897563e-07 
-6.719640658592333e-05 
7.630023047013326e-05 
2.16820297169502e-05 
-0.0001871204425664071 
-0.0005642351197203145 
-0.0003283516639320812 
-0.001401416504221624 
-7.459284594133748e-05 
0 
0.006390052543361899 
0.001401416504221624 
-7.459284594133748e-05 
0.0005642351197203145 
-0.0003283516639320812 
-2.16820297169502e-05 
-0.0001871204425664071 
2.197085982993952e-05 
-0.0002139654417244045 
-0.0005802547297116158 
-0.0002034677466592314 
-0.001859347560107122 
3.488112010402391e-05 
0 
0.00716534995402068 
0.001859347560107122 
3.488112010402391e-05 
0.0005802547297116158 
-0.0002034677466592314 
-2.197085982993952e-05 
-0.0002139654417244045 
-0.0002610628906421404 
-4.893060596607767e-05 
-0.001193933286033616 
0.001043122911973814 
-3.054161429057598e-05 
0.005586490013439972 
0 
0.01083001660652707 
3.054161429057598e-05 
0.005586490013439972 
0.001193933286033616 
0.001043122911973814 
0.0002610628906421404 
-4.893060596607767e-05 
-0.0001232274532417664 
5.002158513927619e-05 
-0.0006794347110744267 
0.0005481196121252874 
-0.0008347958786417198 
0.00403802351978095 
0 
0.009658521352151393 
0.0008347958786417198 
0.00403802351978095 
0.0006794347110744267 
0.0005481196121252874 
0.0001232274532417664 
5.002158513927619e-05 
0.0001441142170169519 
-5.571310482117814e-06 
0.0007045757391524348 
-0.0006677110409696888 
-0.0007275092247258977 
-0.003745854076611408 
0 
-0.001099153021850194 
0.0007275092247258977 
-0.003745854076611408 
-0.0007045757391524348 
-0.0006677110409696888 
-0.0001441142170169519 
-5.571310482117814e-06 
8.451209842851396e-05 
-0.0002862287925769336 
-0.0006698618061633833 
-0.001039791287942751 
-0.003860179141736738 
-0.0008909718653657067 
0 
0.008258188149409143 
0.003860179141736738 
-0.0008909718653657067 
0.0006698618061633833 
-0.001039791287942751 
-8.451209842851396e-05 
-0.0002862287925769336 
-8.995721224187973e-05 
-4.124785983355003e-05 
0.0001055491666383882 
-6.768104610585747e-05 
-0.001836630266810049 
-0.0004486223887482737 
0 
0.00790942352136758 
0.001836630266810049 
-0.0004486223887482737 
-0.0001055491666383882 
-6.768104610585747e-05 
8.995721224187973e-05 
-4.124785983355003e-05 
-5.25259416383106e-05 
9.870615546670755e-06 
0.0002794752049418378 
0.0002817083443571241 
0.0007073360681821567 
-0.00226962918212516 
0 
-0.001426367229881412 
-0.0007073360681821567 
-0.00226962918212516 
-0.0002794752049418378 
0.0002817083443571241 
5.25259416383106e-05 
9.870615546670755e-06 
5.246409834542735e-05 
-4.74535694859711e-05 
0.0003263394680384643 
-0.0003273593795468657 
0.0003267055376322815 
-0.002988832469296805 
0 
-0.001285960329061343 
-0.0003267055376322815 
-0.002988832469296805 
-0.0003263394680384643 
-0.0003273593795468657 
-5.246409834542735e-05 
-4.74535694859711e-05 
-2.662673613676445e-05 
-6.085720646312434e-05 
0.0001533501202782733 
-6.922119507202823e-05 
-0.001014704241996123 
-0.00207616760336634 
0 
0.004613490642226846 
0.001014704241996123 
-0.00207616760336634 
-0.0001533501202782733 
-6.922119507202823e-05 
2.662673613676445e-05 
-6.085720646312434e-05 
-2.086020100553964e-05 
-0.0003335330759786847 
-0.0004000631755348371 
-0.0003630270484099241 
-7.960409345137064e-05 
-0.003034476368350822 
0 
-0.006432431157208057 
7.960409345137064e-05 
-0.003034476368350822 
0.0004000631755348371 
-0.0003630270484099241 
2.086020100553964e-05 
-0.0003335330759786847 
-9.647236543370396e-05 
3.009570800410522e-05 
-0.0001337633533821339 
0.0004091267360579126 
0.0004596560719085609 
0.0010228732112046 
0 
0.001102005118968091 
-0.0004596560719085609 
0.0010228732112046 
0.0001337633533821339 
0.0004091267360579126 
9.647236543370396e-05 
3.009570800410522e-05 
1.398484181260124e-05 
0.000125274608949516 
0.0008873198268411709 
-0.0001415487239619753 
0.0006916750395620984 
-0.003459545456526391 
0 
-0.006706446920409882 
-0.0006916750395620984 
-0.003459545456526391 
-0.0008873198268411709 
-0.0001415487239619753 
-1.398484181260124e-05 
0.000125274608949516 
0.000205965940489184 
-4.480280653900289e-05 
-0.0001597206070351862 
-0.00119948791005755 
-0.002239546097122646 
-0.0005598810663874002 
0 
0.002588808273866648 
0.002239546097122646 
-0.0005598810663874002 
0.0001597206070351862 
-0.00119948791005755 
-0.000205965940489184 
-4.480280653900289e-05 
3.354056953559452e-05 
-0.0001922625053451967 
-0.0004066062332517645 
-0.0007895326130833303 
-0.001296150542739383 
-0.001043755802996762 
0 
0.0002595423721470886 
0.001296150542739383 
-0.001043755802996762 
0.0004066062332517645 
-0.0007895326130833303 
-3.354056953559452e-05 
-0.0001922625053451967 
-1.909776177811415e-05 
-5.088764369058203e-05 
0.0001952100979598786 
-0.0001790821570737083 
0.0003357963961015044 
-0.001797305749628004 
0 
-0.002768880282979503 
-0.0003357963961015044 
-0.001797305749628004 
-0.0001952100979598786 
-0.0001790821570737083 
1.909776177811415e-05 
-5.088764369058203e-05 
9.645209630940364e-05 
-0.0003044295321305306 
-0.0003828629666586404 
-0.001041296555281941 
-0.001701432643996015 
-0.001581413160520319 
0 
-0.002865859472688887 
0.001701432643996015 
-0.001581413160520319 
0.0003828629666586404 
-0.001041296555281941 
-9.645209630940364e-05 
-0.0003044295321305306 
-9.239419442980339e-05 
-4.788356552918913e-05 
0.0001177307910289198 
8.59816414263672e-05 
-0.001539004207839434 
5.752474160713746e-05 
0 
0.009397622823230525 
0.001539004207839434 
5.752474160713746e-05 
-0.0001177307910289198 
8.59816414263672e-05 
9.239419442980339e-05 
-4.788356552918913e-05 
4.145646849822816e-05 
-2.284623279811669e-05 
0.0004685613940751536 
-0.0002434171639562855 
0.001283731975428101 
-0.002085119270017277 
0 
-0.009517279145417354 
-0.001283731975428101 
-0.002085119270017277 
-0.0004685613940751536 
-0.0002434171639562855 
-4.145646849822816e-05 
-2.284623279811669e-05 
-1.460519456222792e-05 
2.273486156253279e-06 
0.000409555613147936 
0.0002331877504515735 
0.001461744303560738 
-0.003069743981035441 
0 
-0.003906370266435754 
-0.001461744303560738 
-0.003069743981035441 
-0.000409555613147936 
0.0002331877504515735 
1.460519456222792e-05 
2.273486156253279e-06 
-0.0002060283787505961 
0.0001887760786303832 
-0.0001317784212830185 
0.001229959498023901 
0.001808127903494268 
0.004040990811797976 
0 
0.004906133239246983 
-0.001808127903494268 
0.004040990811797976 
0.0001317784212830185 
0.001229959498023901 
0.0002060283787505961 
0.0001887760786303832 
-9.660418027985902e-06 
-4.122280216765289e-05 
4.920058435267615e-05 
-5.243231135577201e-06 
0.00172241516119036 
-0.001964161610603163 
0 
-0.009729628284818269 
-0.00172241516119036 
-0.001964161610603163 
-4.920058435267615e-05 
-5.243231135577201e-06 
9.660418027985902e-06 
-4.122280216765289e-05 
-7.296683320119553e-05 
-4.723153533331739e-05 
-8.492133593189414e-05 
0.0002582908309821404 
0.0005991939113815362 
-0.0009137393496667996 
0 
0.0003212283886598334 
-0.0005991939113815362 
-0.0009137393496667996 
8.492133593189414e-05 
0.0002582908309821404 
7.296683320119553e-05 
-4.723153533331739e-05 
-0.0001708268719735922 
-7.300308446327159e-05 
-0.0002702989522053972 
0.0003084481615164858 
-0.0004939337820345049 
0.0004228764075305139 
0 
0.002812598667129157 
0.0004939337820345049 
0.0004228764075305139 
0.0002702989522053972 
0.0003084481615164858 
0.0001708268719735922 
-7.300308446327159e-05 
8.809169250296114e-05 
3.163336231996097e-05 
0.0005113567616756354 
-0.0004783691045224326 
0.0002571957063043087 
-0.002663008317313389 
0 
-0.004902813051269268 
-0.0002571957063043087 
-0.002663008317313389 
-0.0005113567616756354 
-0.0004783691045224326 
-8.809169250296114e-05 
3.163336231996097e-05 
-5.988824790537567e-06 
-0.0001048392257084964 
-0.0003774299401721333 
-0.0001121250531230413 
0.0002099739889381677 
0.0003995161813288259 
0 
-0.002426603139834065 
-0.0002099739889381677 
0.0003995161813288259 
0.0003774299401721333 
-0.0001121250531230413 
5.988824790537567e-06 
-0.0001048392257084964 
0.0001275080880934285 
2.678012774042666e-05 
4.937319120481561e-05 
-0.0007930238668493745 
-0.003151926837136536 
0.000638099629403585 
0 
0.01021380324127767 
0.003151926837136536 
0.000638099629403585 
-4.937319120481561e-05 
-0.0007930238668493745 
-0.0001275080880934285 
2.678012774042666e-05 
-8.221439308877392e-06 
-0.0002050690727903147 
-0.0006937056561467838 
-0.0007813579598091271 
-0.0003261074017404984 
-0.001536796873395183 
0 
-0.004511500793148471 
0.0003261074017404984 
-0.001536796873395183 
0.0006937056561467838 
-0.0007813579598091271 
8.221439308877392e-06 
-0.0002050690727903147 
-0.0001142895608303707 
1.349110180199518e-05 
0.0003619621423013385 
1.310209789122244e-05 
0.0006647831782271552 
-0.002429695404147258 
0 
-0.00269498180400984 
-0.0006647831782271552 
-0.002429695404147258 
-0.0003619621423013385 
1.310209789122244e-05 
0.0001142895608303707 
1.349110180199518e-05 
1.802840933236733e-05 
3.707272830548399e-05 
0.0005925162025986717 
-0.0004526093416782106 
-0.0003660566816993907 
-0.002550503161035961 
0 
-0.005460581506799776 
0.0003660566816993907 
-0.002550503161035961 
-0.0005925162025986717 
-0.0004526093416782106 
-1.802840933236733e-05 
3.707272830548399e-05 
6.670674948012939e-05 
1.631376231798132e-06 
-8.227556978422309e-05 
5.762165052834632e-05 
0.002494347655660038 
-2.006687486393915e-05 
0 
-0.00972904351359625 
-0.002494347655660038 
-2.006687486393915e-05 
8.227556978422309e-05 
5.762165052834632e-05 
-6.670674948012939e-05 
1.631376231798132e-06 
0.0001374443697131171 
-2.370916492243544e-05 
0.0005827423269353072 
-0.0007193087745492608 
-0.0009736073321684975 
-0.003345611351072701 
0 
-0.005317015567067362 
0.0009736073321684975 
-0.003345611351072701 
-0.0005827423269353072 
-0.0007193087745492608 
-0.0001374443697131171 
-2.370916492243544e-05 
2.867930856836415e-05 
-9.155931402153432e-05 
-0.0005539761234871818 
-5.282533370521921e-05 
-0.002288133908627077 
0.002382220560943874 
0 
0.01572439148284326 
0.002288133908627077 
0.002382220560943874 
0.0005539761234871818 
-5.282533370521921e-05 
-2.867930856836415e-05 
-9.155931402153432e-05 
0.0001097242401878306 
1.59011533440096e-05 
0.0003195682243405588 
-0.0004022920022245725 
-0.001051813946548061 
-0.0008225380139031055 
0 
0.004945253133060864 
0.001051813946548061 
-0.0008225380139031055 
-0.0003195682243405588 
-0.0004022920022245725 
-0.0001097242401878306 
1.59011533440096e-05 
0.000204301491495925 
-0.0001365239799054237 
0.0001264268240363983 
-0.001290918638090763 
-0.001820818188330813 
-0.004882009775772765 
0 
-0.003434894230161886 
0.001820818188330813 
-0.004882009775772765 
-0.0001264268240363983 
-0.001290918638090763 
-0.000204301491495925 
-0.0001365239799054237 
0.0001014355008145557 
-0.0001481372449429004 
-0.0005455937124417394 
-0.001119866317264187 
-0.003545441043433515 
0.0007940325813368449 
0 
0.00675070659743621 
0.003545441043433515 
0.0007940325813368449 
0.0005455937124417394 
-0.001119866317264187 
-0.0001014355008145557 
-0.0001481372449429004 
-8.154338186827148e-05 
6.403511017864876e-05 
-0.0005138140421099498 
0.0007353756453170757 
0.0005018461506874613 
0.003582643112685962 
0 
0.00772977775157557 
-0.0005018461506874613 
0.003582643112685962 
0.0005138140421099498 
0.0007353756453170757 
8.154338186827148e-05 
6.403511017864876e-05 
1.917523761542298e-06 
-7.249079233680345e-05 
-0.000437846647404183 
-0.0003740845332570296 
-0.002172193022810132 
0.001436613793889852 
0 
0.007055063738464373 
0.002172193022810132 
0.001436613793889852 
0.000437846647404183 
-0.0003740845332570296 
-1.917523761542298e-06 
-7.249079233680345e-05 
-6.438169684817087e-05 
-0.0001884043908555053 
-0.0009341830089899432 
-0.0003199731646349044 
-0.001172705423845424 
0.001507474530971991 
0 
0.003375594499494301 
0.001172705423845424 
0.001507474530971991 
0.0009341830089899432 
-0.0003199731646349044 
6.438169684817087e-05 
-0.0001884043908555053 
6.354559270947061e-06 
-0.0001019368585316166 
0.0007405498264872349 
-0.0002380979298324768 
0.00121831045600637 
-0.004910677404259175 
0 
-0.01306569257308475 
-0.00121831045600637 
-0.004910677404259175 
-0.0007405498264872349 
-0.0002380979298324768 
-6.354559270947061e-06 
-0.0001019368585316166 
3.641522545651222e-05 
0.0001245830800131971 
0.0001862357652446338 
0.0001989636600161783 
0.000368481727050515 
0.0002543338352143667 
0 
0.004197233526165589 
-0.000368481727050515 
0.0002543338352143667 
-0.0001862357652446338 
0.0001989636600161783 
-3.641522545651222e-05 
0.0001245830800131971 
6.729214105140164e-05 
-2.941717560671895e-05 
0.0001788585244858287 
-0.0003351671121112617 
-8.506640030248662e-05 
-0.002451317061641015 
0 
-0.002105010901079605 
8.506640030248662e-05 
-0.002451317061641015 
-0.0001788585244858287 
-0.0003351671121112617 
-6.729214105140164e-05 
-2.941717560671895e-05 
-3.8495336758083e-05 
1.136114734326827e-05 
-0.0001365997158899399 
0.0007349406511950024 
0.002269077885313145 
-0.0003772386254047102 
0 
0.001905679874488232 
-0.002269077885313145 
-0.0003772386254047102 
0.0001365997158899399 
0.0007349406511950024 
3.8495336758083e-05 
1.136114734326827e-05 
9.403109362125828e-05 
-4.14762943798989e-05 
0.0005832496734301688 
-0.000607619536081036 
0.000573301240142247 
-0.004577647486426273 
0 
-0.006851568211101414 
-0.000573301240142247 
-0.004577647486426273 
-0.0005832496734301688 
-0.000607619536081036 
-9.403109362125828e-05 
-4.14762943798989e-05 
-4.850965824094913e-07 
-9.539318446926542e-05 
-0.000449400417446656 
-0.0003398065014371943 
-0.0001265270424314088 
-0.0002615947342905731 
0 
0.0006152446523588487 
0.0001265270424314088 
-0.0002615947342905731 
0.000449400417446656 
-0.0003398065014371943 
4.850965824094913e-07 
-9.539318446926542e-05 
-5.536390149245861e-05 
9.106064539756049e-05 
-0.0005058196311589556 
0.000307442741734555 
-0.001886773804633795 
0.003872370551118307 
0 
0.01406256555157783 
0.001886773804633795 
0.003872370551118307 
0.0005058196311589556 
0.000307442741734555 
5.536390149245861e-05 
9.106064539756049e-05 
2.624111959901191e-05 
-0.0001204741867498698 
-0.0002755369377518678 
-0.0002510127288807008 
-0.00316492732821375 
-0.0005504722051544264 
0 
0.01683799804269646 
0.00316492732821375 
-0.0005504722051544264 
0.0002755369377518678 
-0.0002510127288807008 
-2.624111959901191e-05 
-0.0001204741867498698 
3.914762289561413e-05 
-0.000227587207843307 
-0.0007414807348153603 
-0.0001065743652748219 
0.0004151626740009904 
-0.000870741535032312 
0 
0.0002423933809298998 
-0.0004151626740009904 
-0.000870741535032312 
0.0007414807348153603 
-0.0001065743652748219 
-3.914762289561413e-05 
-0.000227587207843307 
-9.611457467708093e-05 
0.0001274628635817086 
0.000505804301458631 
0.0006761470406019252 
0.00353932515548339 
-0.002545286600851896 
0 
-0.007296460141932078 
-0.00353932515548339 
-0.002545286600851896 
-0.000505804301458631 
0.0006761470406019252 
9.611457467708093e-05 
0.0001274628635817086 
-9.962479863490691e-05 
0.0001577420969185933 
0.0005486530971421366 
0.0003048679733977224 
0.001383593361011698 
-0.001478410330164052 
0 
-0.001404927144137964 
-0.001383593361011698 
-0.001478410330164052 
-0.0005486530971421366 
0.0003048679733977224 
9.962479863490691e-05 
0.0001577420969185933 
3.631753657056565e-05 
0.0001499848263690027 
-0.0001336385393945499 
-0.0001330299582194667 
-0.002092513632963631 
0.001619138859791072 
0 
0.01527420871341369 
0.002092513632963631 
0.001619138859791072 
0.0001336385393945499 
-0.0001330299582194667 
-3.631753657056565e-05 
0.0001499848263690027 
-0.0001520430104526609 
3.530785698997775e-05 
-0.0002629275784395149 
0.0008789359768483238 
0.0003794383031907553 
0.0009043592422817716 
0 
0.01271668255575081 
-0.0003794383031907553 
0.0009043592422817716 
0.0002629275784395149 
0.0008789359768483238 
0.0001520430104526609 
3.530785698997775e-05 
0.0002311674740420922 
-1.324805659391759e-05 
0.001344059898224361 
-0.0009453757518526685 
0.001774806713167232 
-0.007841859267281608 
0 
-0.01595123067443835 
-0.001774806713167232 
-0.007841859267281608 
-0.001344059898224361 
-0.0009453757518526685 
-0.0002311674740420922 
-1.324805659391759e-05 
3.07979605269066e-05 
0.0002310964398628027 
0.001010274868543575 
0.0004726778794112357 
0.003753549753484414 
-0.002528861153413584 
0 
-0.001926514907394001 
-0.003753549753484414 
-0.002528861153413584 
-0.001010274868543575 
0.0004726778794112357 
-3.07979605269066e-05 
0.0002310964398628027 
0.0001078696879015952 
-4.276487120051771e-05 
0.00058944113774246 
-0.0004259014119032521 
0.001708680867387025 
-0.004071812130286631 
0 
-0.008875210785371599 
-0.001708680867387025 
-0.004071812130286631 
-0.00058944113774246 
-0.0004259014119032521 
-0.0001078696879015952 
-4.276487120051771e-05 
-7.679584633156416e-05 
-0.0001200038101829903 
-0.001098722842503176 
0.0005333712400338035 
-0.002599665373156413 
0.003758805413060687 
0 
0.02322934811419572 
0.002599665373156413 
0.003758805413060687 
0.001098722842503176 
0.0005333712400338035 
7.679584633156416e-05 
-0.0001200038101829903 
0.0002532698312831629 
-0.0001520824521586298 
0.0004864007789780662 
-0.001536694032716865 
-0.001386243030591642 
-0.005452020270162674 
0 
-0.006881503090095117 
0.001386243030591642 
-0.005452020270162674 
-0.0004864007789780662 
-0.001536694032716865 
-0.0002532698312831629 
-0.0001520824521586298 
-6.494385622623786e-05 
0.0001956946392487761 
0.001039206767712824 
0.0005387939390079692 
0.004894797522254918 
-0.004471945514760572 
0 
-0.01500348059678786 
-0.004894797522254918 
-0.004471945514760572 
-0.001039206767712824 
0.0005387939390079692 
6.494385622623786e-05 
0.0001956946392487761 
3.630122492898838e-05 
-5.906708131459865e-05 
0.0007177775805573859 
5.392718579969652e-05 
0.003141043225519261 
-0.005249323185751224 
0 
-0.008507742738798309 
-0.003141043225519261 
-0.005249323185751224 
-0.0007177775805573859 
5.392718579969652e-05 
-3.630122492898838e-05 
-5.906708131459865e-05 
-7.926759043724861e-05 
-0.0002509426751681862 
-0.0004623938497486097 
-0.0005522401169623706 
-0.0002951602193220133 
-0.001903727401252584 
0 
-0.005589449003143123 
0.0002951602193220133 
-0.001903727401252584 
0.0004623938497486097 
-0.0005522401169623706 
7.926759043724861e-05 
-0.0002509426751681862 
-0.0003192690272318761 
0.0002351978976317948 
-0.000730206223287489 
0.001983083105927045 
0.001040106034001084 
0.005647925236141159 
0 
0.0239855785167483 
-0.001040106034001084 
0.005647925236141159 
0.000730206223287489 
0.001983083105927045 
0.0003192690272318761 
0.0002351978976317948 
0.0002306788908069314 
7.85061252388023e-05 
0.001079992448295565 
-0.000115557928132923 
0.002739997318422419 
-0.004793750016451558 
0 
-0.008123200184648313 
-0.002739997318422419 
-0.004793750016451558 
-0.001079992448295565 
-0.000115557928132923 
-0.0002306788908069314 
7.85061252388023e-05 
5.945157203385316e-05 
4.693390356394137e-05 
0.0009172068409381849 
-4.136090637256947e-05 
0.00441324687684814 
-0.005662046999363925 
0 
-0.01540659245206202 
-0.00441324687684814 
-0.005662046999363925 
-0.0009172068409381849 
-4.136090637256947e-05 
-5.945157203385316e-05 
4.693390356394137e-05 
0.0001727895209988779 
2.15437743074671e-06 
0.0009793886973733918 
-0.0009072561913519458 
0.0002818932566262771 
-0.006400610268766135 
0 
-0.01065723722780355 
-0.0002818932566262771 
-0.006400610268766135 
-0.0009793886973733918 
-0.0009072561913519458 
-0.0001727895209988779 
2.15437743074671e-06 
-0.0001459233235350554 
0.0004814381489420916 
-0.0001710486606033003 
0.001923954411305738 
0.0005024556789636303 
0.008259028783860463 
0 
0.02613460374392035 
-0.0005024556789636303 
0.008259028783860463 
0.0001710486606033003 
0.001923954411305738 
0.0001459233235350554 
0.0004814381489420916 
8.237740039630124e-05 
-0.0001726891746298765 
0.0004768108879673666 
-0.001088557271034386 
-0.001486035745617326 
-0.005264622572725875 
0 
-0.005581119858393009 
0.001486035745617326 
-0.005264622572725875 
-0.0004768108879673666 
-0.001088557271034386 
-8.237740039630124e-05 
-0.0001726891746298765 
-4.772688951733089e-05 
0.0001896648944255575 
0.0004957283040978429 
0.0005170153720774935 
0.001618666581138045 
0.0003451713121647918 
0 
0.001912198340888503 
-0.001618666581138045 
0.0003451713121647918 
-0.0004957283040978429 
0.0005170153720774935 
4.772688951733089e-05 
0.0001896648944255575 
3.219945331412851e-05 
4.19102413649896e-05 
0.0008125225002387292 
-0.000123421854436989 
0.001944283454183103 
-0.003894554924247437 
0 
-0.003520572795851166 
-0.001944283454183103 
-0.003894554924247437 
-0.0008125225002387292 
-0.000123421854436989 
-3.219945331412851e-05 
4.19102413649896e-05 
0.0001951578125704259 
0.0001011392531823914 
0.0008131628140707728 
-0.0009242453161464849 
-0.0007621678661399472 
-0.004601956421423253 
0 
0.0004110303385569604 
0.0007621678661399472 
-0.004601956421423253 
-0.0008131628140707728 
-0.0009242453161464849 
-0.0001951578125704259 
0.0001011392531823914 
0.0001143193903426559 
7.359559099984176e-05 
8.773260815668368e-05 
-1.62694979960663e-05 
0.0007932631462354162 
-0.0002341314916118239 
0 
0.0001755470291749923 
-0.0007932631462354162 
-0.0002341314916118239 
-8.773260815668368e-05 
-1.62694979960663e-05 
-0.0001143193903426559 
7.359559099984176e-05 
0.0001775220423399493 
-2.174969902406717e-05 
-8.111539259604668e-05 
-0.0001573992108218784 
-0.001548175190224868 
0.0002535621010915349 
0 
0.01231253222338145 
0.001548175190224868 
0.0002535621010915349 
8.111539259604668e-05 
-0.0001573992108218784 
-0.0001775220423399493 
-2.174969902406717e-05 
0.0001824519487840407 
0.0001024884007562788 
0.0006156056688093572 
-0.0006626795847186415 
-0.0007143470028514072 
-0.003040182152161472 
0 
0.004780796491569355 
0.0007143470028514072 
-0.003040182152161472 
-0.0006156056688093572 
-0.0006626795847186415 
-0.0001824519487840407 
0.0001024884007562788 
0.0001216305995430402 
-4.697620282105625e-05 
0.0007204790134050493 
-0.0009786229807990658 
-0.0008516628263430257 
-0.004842783754989839 
0 
-0.00474343742866946 
0.0008516628263430257 
-0.004842783754989839 
-0.0007204790134050493 
-0.0009786229807990658 
-0.0001216305995430402 
-4.697620282105625e-05 
-8.207857075378454e-05 
7.419541709944373e-05 
-0.0002110747104722534 
0.000203897480843311 
-0.001882158148279863 
0.002146347166102877 
0 
0.01287598976408399 
0.001882158148279863 
0.002146347166102877 
0.0002110747104722534 
0.000203897480843311 
8.207857075378454e-05 
7.419541709944373e-05 
0.0001182344085322258 
-6.224731334699489e-05 
6.575482583421992e-05 
-0.0002289448302966947 
0.0001061938771668592 
-0.002610158314083219 
0 
-0.00258198509902878 
-0.0001061938771668592 
-0.002610158314083219 
-6.575482583421992e-05 
-0.0002289448302966947 
-0.0001182344085322258 
-6.224731334699489e-05 
-6.522862950985483e-05 
0.0003035884238297246 
0.0007519306810727713 
0.0007922806105159706 
0.0004794682667389308 
0.0007160326428163186 
0 
0.007687099505197136 
-0.0004794682667389308 
0.0007160326428163186 
-0.0007519306810727713 
0.0007922806105159706 
6.522862950985483e-05 
0.0003035884238297246 
-0.0001028158518927162 
-1.889428552862277e-05 
-0.0006376354812186935 
0.00018078296452243 
-0.001834345462892281 
0.002326659155843393 
0 
0.01525916059615258 
0.001834345462892281 
0.002326659155843393 
0.0006376354812186935 
0.00018078296452243 
0.0001028158518927162 
-1.889428552862277e-05 
-3.702665346363524e-05 
-5.237692672047311e-05 
-3.542750028553455e-06 
-0.0002140558067535384 
0.0005192766191521534 
-0.00218466916920529 
0 
-0.001475302881700146 
-0.0005192766191521534 
-0.00218466916920529 
3.542750028553455e-06 
-0.0002140558067535384 
3.702665346363524e-05 
-5.237692672047311e-05 
9.269902278903231e-05 
-0.0001179584393898075 
-0.0002690425965380526 
-0.0008183689793137211 
-0.00252722196823245 
-0.0009112792067025961 
0 
0.009542122689284916 
0.00252722196823245 
-0.0009112792067025961 
0.0002690425965380526 
-0.0008183689793137211 
-9.269902278903231e-05 
-0.0001179584393898075 
-1.316891141167962e-05 
1.134306482500302e-05 
3.967135779685879e-05 
-0.0003122651871478869 
-0.001679709141099211 
-0.0004560306971641241 
0 
0.008438397270248182 
0.001679709141099211 
-0.0004560306971641241 
-3.967135779685879e-05 
-0.0003122651871478869 
1.316891141167962e-05 
1.134306482500302e-05 
-5.929330144526297e-05 
4.30282761788935e-05 
-0.000294346414222096 
-0.000275196009463787 
-0.001961151706947351 
0.002470195004076466 
0 
0.009604457359487699 
0.001961151706947351 
0.002470195004076466 
0.000294346414222096 
-0.000275196009463787 
5.929330144526297e-05 
4.30282761788935e-05 
-2.006135518190523e-05 
-4.261242295040922e-06 
0.0006163130074503982 
-3.619251524532505e-05 
0.002077602535436565 
-0.004882466857651831 
0 
-0.0086495620318209 
-0.002077602535436565 
-0.004882466857651831 
-0.0006163130074503982 
-3.619251524532505e-05 
2.006135518190523e-05 
-4.261242295040922e-06 
0.0001491671215599012 
-7.923857543095632e-05 
0.0002953719444838881 
-0.0008822432204575844 
0.0003946145752497719 
-0.002903495147187388 
0 
-0.00615793240156683 
-0.0003946145752497719 
-0.002903495147187388 
-0.0002953719444838881 
-0.0008822432204575844 
-0.0001491671215599012 
-7.923857543095632e-05 
0.0001477468453725418 
1.464447203010726e-05 
0.0006268039188771698 
-0.0008182095605259324 
-0.0001081601637113606 
-0.003623768548915442 
0 
-0.008550392484213567 
0.0001081601637113606 
-0.003623768548915442 
-0.0006268039188771698 
-0.0008182095605259324 
-0.0001477468453725418 
1.464447203010726e-05 
-4.530807615202998e-05 
-9.037908977897972e-05 
-0.0007805666977046437 
4.039926400813815e-05 
-0.001055721867691708 
0.003038387729475779 
0 
0.006627011631345636 
0.001055721867691708 
0.003038387729475779 
0.0007805666977046437 
4.039926400813815e-05 
4.530807615202998e-05 
-9.037908977897972e-05 
0.0001875404993226271 
-0.0001389600250950861 
-0.0001282346763611425 
-0.0009358220952214792 
-0.002130638004173371 
-0.0008297373942595287 
0 
0.006292337613943245 
0.002130638004173371 
-0.0008297373942595287 
0.0001282346763611425 
-0.0009358220952214792 
-0.0001875404993226271 
-0.0001389600250950861 
0.0002142518818532621 
-0.0001131046018058907 
0.0003546183337756919 
-0.0007592730005784305 
0.0006568390933064691 
-0.005111756112089958 
0 
-0.007818187970064533 
-0.0006568390933064691 
-0.005111756112089958 
-0.0003546183337756919 
-0.0007592730005784305 
-0.0002142518818532621 
-0.0001131046018058907 
2.799665566487886e-05 
-3.233207212145071e-05 
9.985601432051971e-05 
0.000259672941545961 
0.003015066312559978 
-0.0006951758058080397 
0 
-0.006924846272483218 
-0.003015066312559978 
-0.0006951758058080397 
-9.985601432051971e-05 
0.000259672941545961 
-2.799665566487886e-05 
-3.233207212145071e-05 
0.0001649647715050627 
-0.0002075021020848346 
0.0003127673696332923 
-0.0009375149665834941 
0.001415091232188692 
-0.005421488360150135 
0 
-0.01579110473873196 
-0.001415091232188692 
-0.005421488360150135 
-0.0003127673696332923 
-0.0009375149665834941 
-0.0001649647715050627 
-0.0002075021020848346 
-0.0001231911408818713 
4.522439482706287e-05 
-0.00046266866374611 
0.0003322961359877406 
-9.669669740438356e-05 
0.001901337475321321 
0 
0.006857631881590219 
9.669669740438356e-05 
0.001901337475321321 
0.00046266866374611 
0.0003322961359877406 
0.0001231911408818713 
4.522439482706287e-05 
-7.132221645116406e-05 
-0.0001636793388364594 
-0.0003637780333573116 
0.000136132829075095 
0.0006085742457846682 
-0.0008770206429950462 
0 
-0.001899049122884527 
-0.0006085742457846682 
-0.0008770206429950462 
0.0003637780333573116 
0.000136132829075095 
7.132221645116406e-05 
-0.0001636793388364594 
-1.394927057379962e-05 
-1.570269031892392e-05 
0.0003262628531396004 
-0.0002197992960985357 
0.001167597652350323 
-0.002280264767592676 
0 
-0.004566377291635 
-0.001167597652350323 
-0.002280264767592676 
-0.0003262628531396004 
-0.0002197992960985357 
1.394927057379962e-05 
-1.570269031892392e-05 
-9.990016033118197e-05 
6.000697020048106e-05 
-0.0005206557893862636 
0.0009048367860973758 
0.0005905728927327508 
0.00473640752037116 
0 
0.006720803464609252 
-0.0005905728927327508 
0.00473640752037116 
0.0005206557893862636 
0.0009048367860973758 
9.990016033118197e-05 
6.000697020048106e-05 
-7.0815845280419e-05 
3.438141596996544e-05 
-0.0001268218755084836 
0.0003341703920713179 
0.001129272309304101 
-0.0003357883260599146 
0 
-0.0007482119832508744 
-0.001129272309304101 
-0.0003357883260599146 
0.0001268218755084836 
0.0003341703920713179 
7.0815845280419e-05 
3.438141596996544e-05 
8.768825505616777e-05 
-6.65710086400102e-05 
0.0004209960554445465 
-0.0005406714725316665 
-0.0002296592918896179 
-0.003846743434390934 
0 
-0.006800183020193334 
0.0002296592918896179 
-0.003846743434390934 
-0.0004209960554445465 
-0.0005406714725316665 
-8.768825505616777e-05 
-6.65710086400102e-05 
5.046687308045472e-05 
-6.769774544280564e-06 
-7.844382030409685e-05 
-9.111614067412635e-05 
-0.0006140246702209374 
0.001119141168693716 
0 
0.001143251147968053 
0.0006140246702209374 
0.001119141168693716 
7.844382030409685e-05 
-9.111614067412635e-05 
-5.046687308045472e-05 
-6.769774544280564e-06 
9.437225491071439e-05 
-5.555893588653186e-05 
0.0003948413579237799 
-0.0004016932861958114 
0.000617212113842126 
-0.003551185147526203 
0 
-0.006673234620715847 
-0.000617212113842126 
-0.003551185147526203 
-0.0003948413579237799 
-0.0004016932861958114 
-9.437225491071439e-05 
-5.555893588653186e-05 
3.560932011762946e-05 
-8.337116127652028e-05 
0.0002153917203453496 
-0.0002312045710858952 
0.001155542292677239 
-0.002788644275885102 
0 
-0.007465899419678273 
-0.001155542292677239 
-0.002788644275885102 
-0.0002153917203453496 
-0.0002312045710858952 
-3.560932011762946e-05 
-8.337116127652028e-05 
-0.0001373429225731528 
-2.778486431404509e-05 
-0.0001239614491528354 
0.0006692092611785767 
0.0009164621391368017 
0.0004386950802601817 
0 
0.004721107444001578 
-0.0009164621391368017 
0.0004386950802601817 
0.0001239614491528354 
0.0006692092611785767 
0.0001373429225731528 
-2.778486431404509e-05 
8.16243647971322e-06 
-0.0001168343631621289 
-0.0004347902197993453 
-0.0004805821635496667 
0.001075725534930566 
-0.001927952248080086 
0 
-0.01227635735179125 
-0.001075725534930566 
-0.001927952248080086 
0.0004347902197993453 
-0.0004805821635496667 
-8.16243647971322e-06 
-0.0001168343631621289 
-5.529657985970093e-06 
-6.279590018332481e-05 
0.0002992473325265309 
-0.0001117577166316473 
0.002076735274593483 
-0.002899242594928164 
0 
-0.01004407880821835 
-0.002076735274593483 
-0.002899242594928164 
-0.0002992473325265309 
-0.0001117577166316473 
5.529657985970093e-06 
-6.279590018332481e-05 
-0.0001088570594946237 
9.044126039272742e-05 
-0.0001403428307269542 
0.0004108041572143573 
-0.0002339528865006255 
0.001825953773917797 
0 
0.005231313545561311 
0.0002339528865006255 
0.001825953773917797 
0.0001403428307269542 
0.0004108041572143573 
0.0001088570594946237 
9.044126039272742e-05 
0.0001863465081711457 
-4.535472225505856e-05 
0.0003051606815661821 
-0.0009289802263045072 
-0.0008550502550234418 
-0.003375773363340239 
0 
-0.002612315780166239 
0.0008550502550234418 
-0.003375773363340239 
-0.0003051606815661821 
-0.0009289802263045072 
-0.0001863465081711457 
-4.535472225505856e-05 
-2.547111396553268e-05 
-7.849633256330284e-05 
2.803998157774686e-06 
-0.0004277251411144969 
-9.941238050038756e-05 
-0.003430846989596082 
0 
0.0008846801051337732 
9.941238050038756e-05 
-0.003430846989596082 
-2.803998157774686e-06 
-0.0004277251411144969 
2.547111396553268e-05 
-7.849633256330284e-05 
2.644376245976519e-05 
0.0001485019847132786 
0.0002701581085009862 
0.000420276794958352 
0.001721091332667871 
0.001053049194717321 
0 
0.0004185039013868927 
-0.001721091332667871 
0.001053049194717321 
-0.0002701581085009862 
0.000420276794958352 
-2.644376245976519e-05 
0.0001485019847132786 
-1.157216848840023e-05 
-2.675251453188857e-05 
0.0002026788450650597 
5.027473721530527e-05 
-0.0002854464845038889 
-0.001175001839756736 
0 
0.002338258146312468 
0.0002854464845038889 
-0.001175001839756736 
-0.0002026788450650597 
5.027473721530527e-05 
1.157216848840023e-05 
-2.675251453188857e-05 
0.0001184692700115864 
-4.268143963269065e-05 
0.0006086652420010054 
-5.12223688043142e-05 
0.002076218828839066 
-0.003735566592110857 
0 
-0.008412036151847132 
-0.002076218828839066 
-0.003735566592110857 
-0.0006086652420010054 
-5.12223688043142e-05 
-0.0001184692700115864 
-4.268143963269065e-05 
-2.360426806028643e-05 
-2.758881865425025e-05 
-0.0002479051543498184 
0.0004074031953316467 
0.001319297038782107 
0.0001747636936127894 
0 
0.001196292944785712 
-0.001319297038782107 
0.0001747636936127894 
0.0002479051543498184 
0.0004074031953316467 
2.360426806028643e-05 
-2.758881865425025e-05 
-0.0001571348217700921 
-2.014671941439518e-05 
-0.0005411232068684701 
0.0008402481303045928 
0.002443571132568574 
0.00249265262240645 
0 
-0.002821993373543303 
-0.002443571132568574 
0.00249265262240645 
0.0005411232068684701 
0.0008402481303045928 
0.0001571348217700921 
-2.014671941439518e-05 
0.0001279875143881759 
-2.210026709572873e-05 
0.0005321105553258672 
-0.0007341213126182195 
-0.001320690984831842 
-0.004257436819787921 
0 
0.001124380549723716 
0.001320690984831842 
-0.004257436819787921 
-0.0005321105553258672 
-0.0007341213126182195 
-0.0001279875143881759 
-2.210026709572873e-05 
-8.195718941111817e-05 
0.0001472862445470359 
-4.740685121635106e-05 
0.001178120108556022 
0.002025245149692985 
0.002834626860667375 
0 
0.003572293938424408 
-0.002025245149692985 
0.002834626860667375 
4.740685121635106e-05 
0.001178120108556022 
8.195718941111817e-05 
0.0001472862445470359 
-1.635004182340413e-05 
0.0002048720606993587 
7.444033464212494e-06 
0.0009254891650104602 
0.002476945999896255 
0.001703659877959387 
0 
0.003671844825914834 
-0.002476945999896255 
0.001703659877959387 
-7.444033464212494e-06 
0.0009254891650104602 
1.635004182340413e-05 
0.0002048720606993587 
-7.950298807129058e-05 
4.462251605762744e-05 
0.0005746810436165727 
0.0002474816055928936 
-0.000226580181765762 
-0.003344333160850506 
0 
0.003313717067912987 
0.000226580181765762 
-0.003344333160850506 
-0.0005746810436165727 
0.0002474816055928936 
7.950298807129058e-05 
4.462251605762744e-05 
-3.557329690181579e-05 
4.22139074439369e-05 
0.0001973243367417291 
0.0003010293516223509 
0.001686337146313087 
-0.001265465406701564 
0 
-0.00155610075199117 
-0.001686337146313087 
-0.001265465406701564 
-0.0001973243367417291 
0.0003010293516223509 
3.557329690181579e-05 
4.22139074439369e-05 
5.237388912090595e-05 
9.449090682212488e-05 
0.000530165024204847 
0.0002613091364591056 
0.004183060426016265 
-0.003379725793085785 
0 
-0.009390614021211252 
-0.004183060426016265 
-0.003379725793085785 
-0.000530165024204847 
0.0002613091364591056 
-5.237388912090595e-05 
9.449090682212488e-05 
1.120658340670386e-05 
0.0001933477142410662 
0.001046744787975516 
0.000509467628871993 
0.003292102352032434 
-0.003088526563181613 
0 
-0.009569365134587822 
-0.003292102352032434 
-0.003088526563181613 
-0.001046744787975516 
0.000509467628871993 
-1.120658340670386e-05 
0.0001933477142410662 
-4.168634420383661e-05 
4.55786862017554e-06 
0.0001098414052009974 
0.0002235874861501414 
-0.001488038495687101 
-0.001506755204565528 
0 
0.0111092182442569 
0.001488038495687101 
-0.001506755204565528 
-0.0001098414052009974 
0.0002235874861501414 
4.168634420383661e-05 
4.55786862017554e-06 
-4.521679336155122e-06 
0.0001044921523300183 
0.0004394640283855485 
0.000133702822699489 
-0.0006592032841602561 
-0.0007321171204232553 
0 
0.00736500873368325 
0.0006592032841602561 
-0.0007321171204232553 
-0.0004394640283855485 
0.000133702822699489 
4.521679336155122e-06 
0.0001044921523300183 
-6.380251862331534e-05 
-5.317258804401989e-05 
-7.523254395137381e-05 
-0.0002457311438759272 
-0.0008967771273867423 
-0.0007538224533129836 
0 
0.00800758161714841 
0.0008967771273867423 
-0.0007538224533129836 
7.523254395137381e-05 
-0.0002457311438759272 
6.380251862331534e-05 
-5.317258804401989e-05 
0.0001432457974514016 
-0.0002789629264564552 
9.680936109710952e-06 
-0.001512214669247013 
-0.002172731126577299 
-0.005040420648228827 
0 
-0.004921872751194831 
0.002172731126577299 
-0.005040420648228827 
-9.680936109710952e-06 
-0.001512214669247013 
-0.0001432457974514016 
-0.0002789629264564552 
0.0001726081858159987 
3.030818004216095e-05 
0.0007237774024069934 
-0.0001791560518803203 
0.002029899285854491 
-0.003634388555054756 
0 
-0.009066022347470868 
-0.002029899285854491 
-0.003634388555054756 
-0.0007237774024069934 
-0.0001791560518803203 
-0.0001726081858159987 
3.030818004216095e-05 
1.919416802861235e-05 
0.0001569639316812581 
0.0006334389901159246 
8.934739416475921e-05 
-0.0005910748392846064 
-0.001873878674703714 
0 
0.009208443075719448 
0.0005910748392846064 
-0.001873878674703714 
-0.0006334389901159246 
8.934739416475921e-05 
-1.919416802861235e-05 
0.0001569639316812581 
-0.0001468048788423032 
-0.0001164660053187378 
-0.0009042711958721088 
0.0002352380744077154 
-0.004741710194153211 
0.00321313731814251 
0 
0.0264120994605878 
0.004741710194153211 
0.00321313731814251 
0.0009042711958721088 
0.0002352380744077154 
0.0001468048788423032 
-0.0001164660053187378 
-0.0001561666805131367 
-8.098017859701997e-05 
-0.001229298631273774 
0.000657263909074565 
-0.001709842917690871 
0.005499771276116747 
0 
0.01898619192761016 
0.001709842917690871 
0.005499771276116747 
0.001229298631273774 
0.000657263909074565 
0.0001561666805131367 
-8.098017859701997e-05 
0.0001339580108236714 
-0.0002263458952726551 
0.0003254090354651196 
-0.001398391053055871 
-0.001295758564080993 
-0.00700535739468715 
0 
-0.01076366098812244 
0.001295758564080993 
-0.00700535739468715 
-0.0003254090354651196 
-0.001398391053055871 
-0.0001339580108236714 
-0.0002263458952726551 
3.540915660047477e-05 
2.303759967586891e-05 
0.0004693184024998425 
-0.0001465945630837134 
-0.0003452038429091565 
-0.001641966379577155 
0 
0.007443915340060041 
0.0003452038429091565 
-0.001641966379577155 
-0.0004693184024998425 
-0.0001465945630837134 
-3.540915660047477e-05 
2.303759967586891e-05 
0.0001064696338883155 
-0.0001306171266863965 
0.0003028924013282978 
-0.001272610089658309 
-0.004541044490529714 
-0.004089241648884147 
0 
0.01118074213918882 
0.004541044490529714 
-0.004089241648884147 
-0.0003028924013282978 
-0.001272610089658309 
-0.0001064696338883155 
-0.0001306171266863965 
8.867532259557978e-05 
3.789583154847718e-06 
-0.0001963873078752791 
-0.0005224076070190483 
-0.003381922052296629 
-1.074211037647887e-05 
0 
0.01633742573884612 
0.003381922052296629 
-1.074211037647887e-05 
0.0001963873078752791 
-0.0005224076070190483 
-8.867532259557978e-05 
3.789583154847718e-06 
0.0002021745302022288 
-4.53308875461884e-05 
0.001106452722528624 
-0.0009761777752689321 
-0.0001796660267062307 
-0.006823288299705128 
0 
-0.009990166351847275 
0.0001796660267062307 
-0.006823288299705128 
-0.001106452722528624 
-0.0009761777752689321 
-0.0002021745302022288 
-4.53308875461884e-05 
0.0001119045006289374 
0.0002112874848635867 
0.001209446696518176 
2.659337667318438e-05 
0.002122467955329187 
-0.00457814969025622 
0 
-0.006298857948656409 
-0.002122467955329187 
-0.00457814969025622 
-0.001209446696518176 
2.659337667318438e-05 
-0.0001119045006289374 
0.0002112874848635867 
1.559199439627032e-05 
-6.050037679357236e-05 
0.0002274154972437276 
-3.54925809397804e-05 
0.003101005198846011 
-0.002693078137138745 
0 
-0.0118382286126925 
-0.003101005198846011 
-0.002693078137138745 
-0.0002274154972437276 
-3.54925809397804e-05 
-1.559199439627032e-05 
-6.050037679357236e-05 
9.695424444030934e-05 
-8.913222055158017e-05 
0.000543258532014412 
-0.0003785378624632812 
-0.0007621445886539632 
-0.004047474241004632 
0 
0.0008401976063084138 
0.0007621445886539632 
-0.004047474241004632 
-0.000543258532014412 
-0.0003785378624632812 
-9.695424444030934e-05 
-8.913222055158017e-05 
-0.0001117077599857615 
8.553937541681841e-05 
-0.0005274782033009666 
0.0007498146468872661 
-0.0008350108252859908 
0.004540840446181516 
0 
0.0206237053514607 
0.0008350108252859908 
0.004540840446181516 
0.0005274782033009666 
0.0007498146468872661 
0.0001117077599857615 
8.553937541681841e-05 
7.173860944545374e-05 
-1.632124001030696e-05 
0.00107342614460384 
-0.0007720667235999243 
0.001749350275171456 
-0.00828418195058581 
0 
-0.01414193901686039 
-0.001749350275171456 
-0.00828418195058581 
-0.00107342614460384 
-0.0007720667235999243 
-7.173860944545374e-05 
-1.632124001030696e-05 
0.0002554887751336661 
-7.088930103827527e-05 
0.001003846400517135 
-0.0009129797283526774 
0.0005893510076958796 
-0.006327618081062121 
0 
-0.006793815502454831 
-0.0005893510076958796 
-0.006327618081062121 
-0.001003846400517135 
-0.0009129797283526774 
-0.0002554887751336661 
-7.088930103827527e-05 
0.000129566657375512 
-1.705520785627256e-05 
0.0009145315669188611 
-0.0009793035686523259 
-0.0006807423587761853 
-0.006615601282471675 
0 
-0.004569495127773621 
0.0006807423587761853 
-0.006615601282471675 
-0.0009145315669188611 
-0.0009793035686523259 
-0.000129566657375512 
-1.705520785627256e-05 
-0.0003167676708468629 
0.0001604016374760857 
-0.001261865891773523 
0.001670060299318934 
-0.004437006035725387 
0.01107630331307338 
0 
0.04261350725864468 
0.004437006035725387 
0.01107630331307338 
0.001261865891773523 
0.001670060299318934 
0.0003167676708468629 
0.0001604016374760857 
5.394673120092717e-05 
5.03019991488943e-05 
0.0007943011838401975 
-0.0001207572026202472 
0.001715898705491336 
-0.004198174690866602 
0 
-0.007930774706167525 
-0.001715898705491336 
-0.004198174690866602 
-0.0007943011838401975 
-0.0001207572026202472 
-5.394673120092717e-05 
5.03019991488943e-05 
6.260074644184451e-05 
9.783844030353222e-05 
0.0004450554988851886 
0.0003074194060148917 
0.00139987119441972 
-0.0007737782899526861 
0 
-0.0001161072897171985 
-0.00139987119441972 
-0.0007737782899526861 
-0.0004450554988851886 
0.0003074194060148917 
-6.260074644184451e-05 
9.783844030353222e-05 
5.568088880139807e-06 
8.847300949940431e-05 
0.0006663251083776778 
-5.464246422142686e-05 
0.002074960551343701 
-0.002961147591184501 
0 
-0.006548596953890423 
-0.002074960551343701 
-0.002961147591184501 
-0.0006663251083776778 
-5.464246422142686e-05 
-5.568088880139807e-06 
8.847300949940431e-05 
0.0001273407772679229 
-9.205199358168922e-05 
0.0002182401637426167 
-0.0005057377843590362 
2.298758218539338e-05 
-0.003599642327918763 
0 
-0.004033317420595112 
-2.298758218539338e-05 
-0.003599642327918763 
-0.0002182401637426167 
-0.0005057377843590362 
-0.0001273407772679229 
-9.205199358168922e-05 
-0.0001465276940174528 
0.0001451126035965512 
-0.0004660140733701549 
0.0009713196713910525 
6.332435427156394e-05 
0.004217917190333924 
0 
0.0183502845851849 
-6.332435427156394e-05 
0.004217917190333924 
0.0004660140733701549 
0.0009713196713910525 
0.0001465276940174528 
0.0001451126035965512 
-2.049532570117618e-06 
9.086627546393676e-05 
0.0002439364949941478 
0.000242581888367258 
0.0005579753351953987 
0.00100904124317343 
0 
0.004998331558902007 
-0.0005579753351953987 
0.00100904124317343 
-0.0002439364949941478 
0.000242581888367258 
2.049532570117618e-06 
9.086627546393676e-05 
0.0001123395183025303 
-5.496777158926954e-05 
0.0007190521290154829 
-0.0005213000802631753 
0.001681041633661329 
-0.005550753040948835 
0 
-0.008134038132656752 
-0.001681041633661329 
-0.005550753040948835 
-0.0007190521290154829 
-0.0005213000802631753 
-0.0001123395183025303 
-5.496777158926954e-05 
2.329060715428307e-05 
-0.0002218980911711568 
0.0002805422854507418 
-0.0005028912808210473 
0.0016293759830722 
-0.005988203327449136 
0 
-0.009216029735020019 
-0.0016293759830722 
-0.005988203327449136 
-0.0002805422854507418 
-0.0005028912808210473 
-2.329060715428307e-05 
-0.0002218980911711568 
-5.958150236983362e-05 
-3.483113459399288e-05 
-0.0006068880079882678 
0.0002042077613131975 
-0.0004540510895476455 
0.002423519288235273 
0 
0.01123102642591938 
0.0004540510895476455 
0.002423519288235273 
0.0006068880079882678 
0.0002042077613131975 
5.958150236983362e-05 
-3.483113459399288e-05 
0.000244993987017737 
9.515936314943479e-05 
0.0009886682912509995 
-0.000520832454516861 
0.0002606698002691574 
-0.004376018872748214 
0 
-0.001399124956672966 
-0.0002606698002691574 
-0.004376018872748214 
-0.0009886682912509995 
-0.000520832454516861 
-0.000244993987017737 
9.515936314943479e-05 
-5.668116658372465e-05 
0.0004107330694070245 
0.0004354364073666264 
0.001151956305579536 
0.002058992257316517 
0.002637847370713957 
0 
0.01071599409704027 
-0.002058992257316517 
0.002637847370713957 
-0.0004354364073666264 
0.001151956305579536 
5.668116658372465e-05 
0.0004107330694070245 
-5.444424470552327e-05 
0.0001187903837171366 
0.0002775823330466339 
0.0008227755253638285 
0.003698563047921135 
-0.001840010268690779 
0 
-0.004170142735699524 
-0.003698563047921135 
-0.001840010268690779 
-0.0002775823330466339 
0.0008227755253638285 
5.444424470552327e-05 
0.0001187903837171366 
7.364778723629595e-05 
2.142553443856794e-05 
0.0008243404755025618 
-0.0005033248983255478 
0.0009025949241605873 
-0.006150843645566745 
0 
-0.008078995704566112 
-0.0009025949241605873 
-0.006150843645566745 
-0.0008243404755025618 
-0.0005033248983255478 
-7.364778723629595e-05 
2.142553443856794e-05 
0.0001444226462701791 
-4.719197777036202e-05 
0.0007785336620576861 
-0.0004900783590844037 
0.001324276174010556 
-0.005313170179054191 
0 
-0.008289922249774664 
-0.001324276174010556 
-0.005313170179054191 
-0.0007785336620576861 
-0.0004900783590844037 
-0.0001444226462701791 
-4.719197777036202e-05 
-7.200144849072632e-05 
0.000353753770538568 
0.0007521168452567743 
0.001570278326540117 
0.002652313863915277 
0.002109516089540994 
0 
0.006385013359566691 
-0.002652313863915277 
0.002109516089540994 
-0.0007521168452567743 
0.001570278326540117 
7.200144849072632e-05 
0.000353753770538568 
-9.000965815334457e-06 
-0.0001089857939750725 
-0.0003175350117548787 
-0.0002942752603764697 
-3.618135936585432e-05 
-0.0007197128967409485 
0 
0.0005879524651592222 
3.618135936585432e-05 
-0.0007197128967409485 
0.0003175350117548787 
-0.0002942752603764697 
9.000965815334457e-06 
-0.0001089857939750725 
6.971489488784649e-05 
-4.408818074650856e-05 
0.0001501765352094822 
-0.0004807425353688425 
0.002878463703917309 
-0.002526736513365677 
0 
-0.01732021859477007 
-0.002878463703917309 
-0.002526736513365677 
-0.0001501765352094822 
-0.0004807425353688425 
-6.971489488784649e-05 
-4.408818074650856e-05 
8.745288519222452e-05 
-2.391037161492535e-05 
-0.000144966012547738 
6.379375231925326e-05 
0.003171211680558548 
0.0001791625251017461 
0 
-0.008630763693401029 
-0.003171211680558548 
0.0001791625251017461 
0.000144966012547738 
6.379375231925326e-05 
-8.745288519222452e-05 
-2.391037161492535e-05 
0.0001786566988967814 
4.223915910634643e-05 
0.0006876009990579889 
-0.0005188372143626504 
-0.0008502020050116718 
-0.003010313414331465 
0 
0.0007402836700947454 
0.0008502020050116718 
-0.003010313414331465 
-0.0006876009990579889 
-0.0005188372143626504 
-0.0001786566988967814 
4.223915910634643e-05 
-2.729140617363814e-05 
0.0002710480316172819 
0.000332829266638278 
0.001023941244760008 
0.001320348195104534 
0.002849429879515706 
0 
0.008591530872633859 
-0.001320348195104534 
0.002849429879515706 
-0.000332829266638278 
0.001023941244760008 
2.729140617363814e-05 
0.0002710480316172819 
-2.505254910885554e-06 
-0.0001607748111148839 
-0.0004636728235506346 
-4.184299617545814e-05 
0.0009158307266818621 
-0.0008885187286606671 
0 
-0.001972043215728718 
-0.0009158307266818621 
-0.0008885187286606671 
0.0004636728235506346 
-4.184299617545814e-05 
2.505254910885554e-06 
-0.0001607748111148839 
-3.256190479683484e-05 
-6.319909328912586e-05 
0.0004037659455218136 
-0.0003417069894950382 
0.00105459521004321 
-0.002770342318940049 
0 
-0.01011620176564859 
-0.00105459521004321 
-0.002770342318940049 
-0.0004037659455218136 
-0.0003417069894950382 
3.256190479683484e-05 
-6.319909328912586e-05 
-3.968243611390913e-05 
8.070839869376305e-05 
0.0002271216764754166 
0.001011947119992316 
0.004460565470762652 
-0.0009966150581129361 
0 
-0.007593093039821346 
-0.004460565470762652 
-0.0009966150581129361 
-0.0002271216764754166 
0.001011947119992316 
3.968243611390913e-05 
8.070839869376305e-05 
0.0001081330649768265 
0.0002126652514184579 
0.00101818276571513 
0.0006698690789465891 
0.002936207095152197 
-0.001676369466929292 
0 
-0.004492876628650086 
-0.002936207095152197 
-0.001676369466929292 
-0.00101818276571513 
0.0006698690789465891 
-0.0001081330649768265 
0.0002126652514184579 
-9.700846497326566e-05 
-1.639228367192813e-05 
0.0001105164548750137 
0.0002810665895237084 
0.0003882965226426739 
0.0001230330315975576 
0 
0.001601495619165351 
-0.0003882965226426739 
0.0001230330315975576 
-0.0001105164548750137 
0.0002810665895237084 
9.700846497326566e-05 
-1.639228367192813e-05 
9.02124315322924e-05 
-5.889925190168912e-07 
0.001139991794135888 
-0.0002670012930710048 
0.003390019917134734 
-0.006090677162910234 
0 
-0.02111937256482919 
-0.003390019917134734 
-0.006090677162910234 
-0.001139991794135888 
-0.0002670012930710048 
-9.02124315322924e-05 
-5.889925190168912e-07 
0.0001787704335055335 
-9.686691768612054e-06 
0.0003705882836246938 
-0.0006094167814817636 
0.001080240873731595 
-0.00456159197161764 
0 
-0.004298246050441569 
-0.001080240873731595 
-0.00456159197161764 
-0.0003705882836246938 
-0.0006094167814817636 
-0.0001787704335055335 
-9.686691768612054e-06 
6.0180971566012e-05 
-7.421169140600759e-05 
-0.0001477586830055235 
-7.047698153255053e-05 
0.0006333524003969772 
0.0001208283788449934 
0 
-0.002907264620657367 
-0.0006333524003969772 
0.0001208283788449934 
0.0001477586830055235 
-7.047698153255053e-05 
-6.0180971566012e-05 
-7.421169140600759e-05 
4.143021242532249e-05 
-7.811157325978121e-05 
0.0003862547145194238 
-0.0006577935984644549 
-0.000908864390193927 
-0.002107523064316602 
0 
-0.002787039101169862 
0.000908864390193927 
-0.002107523064316602 
-0.0003862547145194238 
-0.0006577935984644549 
-4.143021242532249e-05 
-7.811157325978121e-05 
8.930335570565573e-05 
-8.31276763078694e-05 
0.0001265660019334946 
-0.0004204958400536322 
0.0001317112835280061 
-0.001593874801462902 
0 
-0.006060976933604466 
-0.0001317112835280061 
-0.001593874801462902 
-0.0001265660019334946 
-0.0004204958400536322 
-8.930335570565573e-05 
-8.31276763078694e-05 
9.989303018332595e-05 
-3.915086480917558e-05 
0.0001287753515560035 
-0.0004270065543970396 
-0.001013589255360783 
-0.0008429494954545811 
0 
0.0004512608358941183 
0.001013589255360783 
-0.0008429494954545811 
-0.0001287753515560035 
-0.0004270065543970396 
-9.989303018332595e-05 
-3.915086480917558e-05 
-1.283780751100865e-06 
-6.263770373586616e-05 
6.440548253142694e-05 
-0.0001228580795441036 
0.0003355085629994816 
-0.001740728103829575 
0 
-0.0008062838116920409 
-0.0003355085629994816 
-0.001740728103829575 
-6.440548253142694e-05 
-0.0001228580795441036 
1.283780751100865e-06 
-6.263770373586616e-05 
-0.0001718719809271562 
-9.399995220116397e-05 
-0.0004586425611842823 
-0.0002283581538252206 
-0.0009849354414073782 
-0.001201726905575887 
0 
0.0002028893709334287 
0.0009849354414073782 
-0.001201726905575887 
0.0004586425611842823 
-0.0002283581538252206 
0.0001718719809271562 
-9.399995220116397e-05 
-4.742697599901588e-05 
5.053645866159818e-05 
0.0001817625132018752 
0.0002347263120574875 
-4.029914961106715e-06 
-5.402309309615841e-05 
0 
0.005525960986666618 
4.029914961106715e-06 
-5.402309309615841e-05 
-0.0001817625132018752 
0.0002347263120574875 
4.742697599901588e-05 
5.053645866159818e-05 
2.554504760856593e-06 
4.817561953087478e-06 
0.0001467820689794834 
-0.0003615118520589924 
-2.974064225015944e-05 
-0.001746607410185692 
0 
-0.0054701738086829 
2.974064225015944e-05 
-0.001746607410185692 
-0.0001467820689794834 
-0.0003615118520589924 
-2.554504760856593e-06 
4.817561953087478e-06 
8.138813676183878e-05 
-0.0001605863101130865 
0.0002045676073839817 
-0.0009973344687665764 
-0.001544146673729234 
-0.003627765232538443 
0 
-0.003390771868002382 
0.001544146673729234 
-0.003627765232538443 
-0.0002045676073839817 
-0.0009973344687665764 
-8.138813676183878e-05 
-0.0001605863101130865 
-6.715168015676218e-05 
0.0001294422536453731 
-0.0002231190321445635 
0.000592606904037293 
-7.365359624655695e-05 
0.002753564289793651 
0 
0.01072331460454608 
7.365359624655695e-05 
0.002753564289793651 
0.0002231190321445635 
0.000592606904037293 
6.715168015676218e-05 
0.0001294422536453731 
8.383649310661246e-05 
-0.0001266827005343403 
-9.149671425174396e-05 
-0.0001742366716690028 
0.0006551791694133372 
-0.002073372991083273 
0 
-0.001715299216887492 
-0.0006551791694133372 
-0.002073372991083273 
9.149671425174396e-05 
-0.0001742366716690028 
-8.383649310661246e-05 
-0.0001266827005343403 
1.528940308325395e-05 
5.166714935388971e-05 
0.001035067994137828 
-0.0005598937556394917 
-0.001254376204891532 
-0.004129172847577274 
0 
-0.001101468595318584 
0.001254376204891532 
-0.004129172847577274 
-0.001035067994137828 
-0.0005598937556394917 
-1.528940308325395e-05 
5.166714935388971e-05 
-5.447643618027992e-05 
0.0001541614342732366 
-0.0001150055742018909 
0.0006707784888407416 
0.000517872642646539 
0.00352225021783513 
0 
0.006471299461581119 
-0.000517872642646539 
0.00352225021783513 
0.0001150055742018909 
0.0006707784888407416 
5.447643618027992e-05 
0.0001541614342732366 
6.569920827086236e-05 
4.485161172460368e-08 
0.0003944442472902043 
9.298944133552649e-05 
0.0003668015068400958 
-0.002703107985322654 
0 
0.001515532010395857 
-0.0003668015068400958 
-0.002703107985322654 
-0.0003944442472902043 
9.298944133552649e-05 
-6.569920827086236e-05 
4.485161172460368e-08 
0.0002452142574050714 
-4.126392407229592e-05 
0.0008567063728798748 
-0.001055923798307796 
-0.001593720352741184 
-0.00566679875821227 
0 
-0.000969051959579899 
0.001593720352741184 
-0.00566679875821227 
-0.0008567063728798748 
-0.001055923798307796 
-0.0002452142574050714 
-4.126392407229592e-05 
0.0001916956375622584 
9.046568924877989e-06 
0.0005427386353631467 
-0.0004359103179959108 
0.0004900970440820828 
-0.0037603707336511 
0 
-0.002913359163804465 
-0.0004900970440820828 
-0.0037603707336511 
-0.0005427386353631467 
-0.0004359103179959108 
-0.0001916956375622584 
9.046568924877989e-06 
2.745163451030604e-05 
-4.40262978977642e-05 
-0.0004378021998021392 
-9.878771144254282e-05 
-0.0006573109386131055 
0.002050216108541225 
0 
0.006118629770430747 
0.0006573109386131055 
0.002050216108541225 
0.0004378021998021392 
-9.878771144254282e-05 
-2.745163451030604e-05 
-4.40262978977642e-05 
0.0001139057357460664 
5.648793937204243e-05 
8.387906156599387e-05 
-0.0009986067163620445 
-0.00190568670494188 
-0.001247476357525416 
0 
-0.001509817837426718 
0.00190568670494188 
-0.001247476357525416 
-8.387906156599387e-05 
-0.0009986067163620445 
-0.0001139057357460664 
5.648793937204243e-05 
-1.99026545702226e-05 
0.000214696562275188 
0.000161798671915971 
0.00022574586748465 
0.0004856909705527251 
0.001867555921657836 
0 
0.00310619305881158 
-0.0004856909705527251 
0.001867555921657836 
-0.000161798671915971 
0.00022574586748465 
1.99026545702226e-05 
0.000214696562275188 
-2.390226428017851e-05 
0.0001409712821420797 
-0.0002162166998643144 
0.0008700469988077207 
0.002485387124339105 
0.002134148588039675 
0 
0.002417324363372319 
-0.002485387124339105 
0.002134148588039675 
0.0002162166998643144 
0.0008700469988077207 
2.390226428017851e-05 
0.0001409712821420797 
5.570095066782193e-05 
4.788847961036633e-05 
8.681196145918872e-05 
0.0002959316843900084 
0.001379384274302253 
-0.001056565236816425 
0 
0.003421794492342174 
-0.001379384274302253 
-0.001056565236816425 
-8.681196145918872e-05 
0.0002959316843900084 
-5.570095066782193e-05 
4.788847961036633e-05 
3.478432948825775e-05 
-8.340215525755819e-05 
-0.0004886747600318551 
-0.0003358622471315566 
8.955895776229093e-05 
-0.0002919886504343991 
0 
-0.001580718492055611 
-8.955895776229093e-05 
-0.0002919886504343991 
0.0004886747600318551 
-0.0003358622471315566 
-3.478432948825775e-05 
-8.340215525755819e-05 
-1.46554763394826e-05 
-4.033086535597713e-05 
0.0003954214074733511 
-0.0003525898778521483 
0.001358105106389783 
-0.002814699699888918 
0 
-0.005790477325770134 
-0.001358105106389783 
-0.002814699699888918 
-0.0003954214074733511 
-0.0003525898778521483 
1.46554763394826e-05 
-4.033086535597713e-05 
0.0001516953789490581 
-5.343980005082209e-05 
0.0007688457476668991 
-0.0006228807295017257 
0.001325166065294713 
-0.00614014896416587 
0 
-0.007495610264211023 
-0.001325166065294713 
-0.00614014896416587 
-0.0007688457476668991 
-0.0006228807295017257 
-0.0001516953789490581 
-5.343980005082209e-05 
-7.265313139432418e-05 
-1.475188143598875e-05 
-4.381567868020484e-05 
0.0001219603233155801 
-0.001842549216790853 
-0.0007702369056062948 
0 
0.0126275485787193 
0.001842549216790853 
-0.0007702369056062948 
4.381567868020484e-05 
0.0001219603233155801 
7.265313139432418e-05 
-1.475188143598875e-05 
-4.776614281002795e-05 
0.0002163185426873095 
0.0002921716025536546 
0.001291364211129827 
0.003158549878892159 
0.0004534638540175229 
0 
0.004210769940081428 
-0.003158549878892159 
0.0004534638540175229 
-0.0002921716025536546 
0.001291364211129827 
4.776614281002795e-05 
0.0002163185426873095 
2.481384637989581e-05 
-9.909725725116909e-05 
0.0001917132018898828 
-7.501755575664596e-06 
0.0007698075577298766 
-0.003593993229012982 
0 
-0.001071739956507533 
-0.0007698075577298766 
-0.003593993229012982 
-0.0001917132018898828 
-7.501755575664596e-06 
-2.481384637989581e-05 
-9.909725725116909e-05 
3.935603858788472e-05 
5.61004514530196e-05 
0.0004991835404475122 
-0.0003072417863593612 
0.001310853769990418 
-0.003854519457341739 
0 
-0.006826269236443094 
-0.001310853769990418 
-0.003854519457341739 
-0.0004991835404475122 
-0.0003072417863593612 
-3.935603858788472e-05 
5.61004514530196e-05 
4.418507800023586e-05 
4.535506685186885e-05 
0.0006563332505160967 
-0.0001305181360501638 
0.0004663077066064681 
-0.003588980179140012 
0 
-7.050715929025307e-06 
-0.0004663077066064681 
-0.003588980179140012 
-0.0006563332505160967 
-0.0001305181360501638 
-4.418507800023586e-05 
4.535506685186885e-05 
-0.000105620119880584 
-5.756768710889798e-05 
1.37781029868558e-05 
0.0001132174079427674 
0.0002180710056145927 
-0.0006610181337740494 
0 
0.001830129227585781 
-0.0002180710056145927 
-0.0006610181337740494 
-1.37781029868558e-05 
0.0001132174079427674 
0.000105620119880584 
-5.756768710889798e-05 
-0.0001646359585858378 
-0.0001701557316131577 
-0.001247977020569547 
0.0003835978833794606 
-0.003168025714361136 
0.003693954994964753 
0 
0.01988236918940439 
0.003168025714361136 
0.003693954994964753 
0.001247977020569547 
0.0003835978833794606 
0.0001646359585858378 
-0.0001701557316131577 
-0.0001583155108628707 
0.0001739802742537868 
-0.0001781806513355411 
0.0008915691228707556 
0.0003741001564202275 
0.00261589433458572 
0 
0.01437993091473312 
-0.0003741001564202275 
0.00261589433458572 
0.0001781806513355411 
0.0008915691228707556 
0.0001583155108628707 
0.0001739802742537868 
0.0001189280561930402 
-8.195080585383994e-05 
0.0006454208722139007 
-0.001452404956361596 
-0.001872490443627078 
-0.006740589675609276 
0 
-0.004814011861156251 
0.001872490443627078 
-0.006740589675609276 
-0.0006454208722139007 
-0.001452404956361596 
-0.0001189280561930402 
-8.195080585383994e-05 
-0.0001010480282970119 
-3.612621128427345e-05 
-0.0002519225178517991 
0.000260192596872767 
0.0009273059731868793 
0.0006234541767784855 
0 
0.004473806215182701 
-0.0009273059731868793 
0.0006234541767784855 
0.0002519225178517991 
0.000260192596872767 
0.0001010480282970119 
-3.612621128427345e-05 
8.975227346346474e-05 
-0.0001939242342995173 
0.0005401833357534413 
-0.001216639702928691 
5.62729038592173e-05 
-0.006416575171293203 
0 
-0.01186622704732139 
-5.62729038592173e-05 
-0.006416575171293203 
-0.0005401833357534413 
-0.001216639702928691 
-8.975227346346474e-05 
-0.0001939242342995173 
3.270190132195919e-05 
-4.329498890747527e-06 
-0.0001609706749408883 
0.0001609127159758994 
-0.001090476440729932 
0.0001393394713111589 
0 
0.01394106246212292 
0.001090476440729932 
0.0001393394713111589 
0.0001609706749408883 
0.0001609127159758994 
-3.270190132195919e-05 
-4.329498890747527e-06 
-1.513920326034204e-05 
0.0001608516385473111 
0.0006801715522187043 
0.0003059848367095579 
0.001231433025768056 
-0.002179581632381794 
0 
0.0001295744480522877 
-0.001231433025768056 
-0.002179581632381794 
-0.0006801715522187043 
0.0003059848367095579 
1.513920326034204e-05 
0.0001608516385473111 
5.317549309161467e-05 
8.320047708443285e-05 
0.0005691572283303178 
-1.396799762411182e-06 
0.001581937931916065 
-0.001877551912751463 
0 
-0.003994886378824863 
-0.001581937931916065 
-0.001877551912751463 
-0.0005691572283303178 
-1.396799762411182e-06 
-5.317549309161467e-05 
8.320047708443285e-05 
1.842374320837619e-05 
1.627265755013744e-05 
0.0006788486310015114 
-0.0003803109263982535 
0.001715786407476793 
-0.005250709354473216 
0 
-0.008173528212035363 
-0.001715786407476793 
-0.005250709354473216 
-0.0006788486310015114 
-0.0003803109263982535 
-1.842374320837619e-05 
1.627265755013744e-05 
2.130268212209987e-05 
-2.700226070799591e-05 
0.00027688289592479 
-0.0007011660406423284 
-0.0008551989343207003 
-0.003295133045688292 
0 
-0.003602254880486153 
0.0008551989343207003 
-0.003295133045688292 
-0.00027688289592479 
-0.0007011660406423284 
-2.130268212209987e-05 
-2.700226070799591e-05 
-0.0001381365432829069 
0.0002421177211734409 
-0.0001708979229618667 
0.001274755109733903 
0.0008819195154572035 
0.004778547288286422 
0 
0.01159563813383854 
-0.0008819195154572035 
0.004778547288286422 
0.0001708979229618667 
0.001274755109733903 
0.0001381365432829069 
0.0002421177211734409 
-0.0001054842547034254 
1.771918240863049e-05 
0.0003822549429753445 
-0.0004180546909212566 
-0.001039801227066345 
-0.003525047272627993 
0 
-0.0008935552887216935 
0.001039801227066345 
-0.003525047272627993 
-0.0003822549429753445 
-0.0004180546909212566 
0.0001054842547034254 
1.771918240863049e-05 
-3.769871416543851e-05 
-6.341931996706036e-05 
-0.0004346388235213054 
7.63154185924775e-05 
-0.0006637574135781678 
0.0002124188249914223 
0 
0.006613161864580432 
0.0006637574135781678 
0.0002124188249914223 
0.0004346388235213054 
7.63154185924775e-05 
3.769871416543851e-05 
-6.341931996706036e-05 
0.0001564257550845066 
-2.098146792011235e-05 
0.0009806039055228223 
-0.001342949569416963 
-0.00241326301365872 
-0.005784325110144678 
0 
-0.00344970372800531 
0.00241326301365872 
-0.005784325110144678 
-0.0009806039055228223 
-0.001342949569416963 
-0.0001564257550845066 
-2.098146792011235e-05 
-0.000194968824335277 
0.0001310532255271287 
-0.0005344823230461205 
0.001016963241385441 
-0.002074347575103626 
0.004725764375386889 
0 
0.02613746352891574 
0.002074347575103626 
0.004725764375386889 
0.0005344823230461205 
0.001016963241385441 
0.000194968824335277 
0.0001310532255271287 
2.714755079381917e-05 
8.886148820045148e-05 
0.001080356089025193 
-0.0002163764982723247 
0.0009429944084955108 
-0.004604077667899122 
0 
-0.006469039568960245 
-0.0009429944084955108 
-0.004604077667899122 
-0.001080356089025193 
-0.0002163764982723247 
-2.714755079381917e-05 
8.886148820045148e-05 
0.0002276901803102749 
-1.84386597415866e-05 
0.0005550475837852273 
-0.0005414295400793161 
0.0007373843548390686 
-0.002948228118163213 
0 
-0.004180268399372181 
-0.0007373843548390686 
-0.002948228118163213 
-0.0005550475837852273 
-0.0005414295400793161 
-0.0002276901803102749 
-1.84386597415866e-05 
-2.341043440997781e-05 
-4.274238709716856e-05 
0.0002794210568599682 
0.0001321674521514801 
0.002030308329608994 
-0.003010501193606047 
0 
-0.003779104473876152 
-0.002030308329608994 
-0.003010501193606047 
-0.0002794210568599682 
0.0001321674521514801 
2.341043440997781e-05 
-4.274238709716856e-05 
6.466296765190585e-05 
-3.367800950795642e-05 
0.000417720461079021 
-0.0004156261715831662 
0.001172365385353684 
-0.002404412643270098 
0 
-0.006932201481041884 
-0.001172365385353684 
-0.002404412643270098 
-0.000417720461079021 
-0.0004156261715831662 
-6.466296765190585e-05 
-3.367800950795642e-05 
-8.614268404658151e-05 
-6.384270872799434e-06 
-0.000693921277370139 
0.0002614556558547973 
-0.0007020669160288607 
0.002036869000012392 
0 
0.00912943542546313 
0.0007020669160288607 
0.002036869000012392 
0.000693921277370139 
0.0002614556558547973 
8.614268404658151e-05 
-6.384270872799434e-06 
6.500149271701873e-06 
3.469025618214619e-05 
-0.0005061646034473917 
1.809722279350431e-05 
-0.001327600176458332 
0.003660798262820162 
0 
0.008376398285089438 
0.001327600176458332 
0.003660798262820162 
0.0005061646034473917 
1.809722279350431e-05 
-6.500149271701873e-06 
3.469025618214619e-05 
8.601670995389084e-05 
1.898705449239951e-05 
0.0004237449244311507 
-0.0003205160693849571 
0.001229549819507401 
-0.002853327383656143 
0 
-0.005532914303167455 
-0.001229549819507401 
-0.002853327383656143 
-0.0004237449244311507 
-0.0003205160693849571 
-8.601670995389084e-05 
1.898705449239951e-05 
2.804633098706902e-05 
4.490334382327399e-05 
0.0004615697097019878 
-5.759472661718877e-05 
0.002462298316563619 
-0.004295045954749756 
0 
-0.007054899621488018 
-0.002462298316563619 
-0.004295045954749756 
-0.0004615697097019878 
-5.759472661718877e-05 
-2.804633098706902e-05 
4.490334382327399e-05 
-3.454292828886152e-05 
-8.603550009407378e-05 
-0.0003731654480000209 
3.0788973342141e-05 
-0.001251803553345687 
0.0005617971936014944 
0 
0.008473692232824249 
0.001251803553345687 
0.0005617971936014944 
0.0003731654480000209 
3.0788973342141e-05 
3.454292828886152e-05 
-8.603550009407378e-05 
0.0001829512649216692 
0.00013802565261635 
0.000857334366759026 
0.0003440384066409047 
0.001865673472349996 
-0.001886256443575192 
0 
0.001416329664814813 
-0.001865673472349996 
-0.001886256443575192 
-0.000857334366759026 
0.0003440384066409047 
-0.0001829512649216692 
0.00013802565261635 
7.627354551592677e-06 
5.461671764116446e-05 
0.0001526942800085194 
0.0004242214897093998 
-0.002034796118500053 
0.001070152768710175 
0 
0.0145320274129009 
0.002034796118500053 
0.001070152768710175 
-0.0001526942800085194 
0.0004242214897093998 
-7.627354551592677e-06 
5.461671764116446e-05 
9.155712549576332e-05 
-3.529492906814325e-05 
0.0006539982509869333 
-0.0008962308296280794 
-0.0009684813974342054 
-0.003898522076540159 
0 
-0.002275747218483119 
0.0009684813974342054 
-0.003898522076540159 
-0.0006539982509869333 
-0.0008962308296280794 
-9.155712549576332e-05 
-3.529492906814325e-05 
-5.268032365687598e-05 
-0.0001041853215971691 
-0.0003970730266113641 
2.502260870002923e-05 
0.002338478587276975 
-0.0003996923891730526 
0 
-0.006286653428577597 
-0.002338478587276975 
-0.0003996923891730526 
0.0003970730266113641 
2.502260870002923e-05 
5.268032365687598e-05 
-0.0001041853215971691 
-6.466742449967599e-05 
-0.0001604090142245616 
-0.0006963284169957647 
-0.0001812626349645758 
-0.001484966300075936 
0.001202135906097255 
0 
0.009066312808912824 
0.001484966300075936 
0.001202135906097255 
0.0006963284169957647 
-0.0001812626349645758 
6.466742449967599e-05 
-0.0001604090142245616 
0.0001916235871472993 
5.762368128038227e-05 
0.0005112741997170579 
0.0002563605862534244 
0.001377408161672857 
-6.481797420603378e-05 
0 
0.00281235873459148 
-0.001377408161672857 
-6.481797420603378e-05 
-0.0005112741997170579 
0.0002563605862534244 
-0.0001916235871472993 
5.762368128038227e-05 
0.0001008007521424196 
5.277163418708703e-05 
0.0007939568784811121 
-0.0002887227827365501 
0.004376107359199376 
-0.004615340699901406 
0 
-0.01767158836332889 
-0.004376107359199376 
-0.004615340699901406 
-0.0007939568784811121 
-0.0002887227827365501 
-0.0001008007521424196 
5.277163418708703e-05 
0.0001035178485912399 
2.454124639536842e-05 
0.001051175825741433 
-0.0002204315068334942 
0.001764881355222737 
-0.005944358659422735 
0 
-0.01037624428852482 
-0.001764881355222737 
-0.005944358659422735 
-0.001051175825741433 
-0.0002204315068334942 
-0.0001035178485912399 
2.454124639536842e-05 
0.0001063044683519126 
-9.841350122594528e-05 
-6.191054522264574e-06 
-0.0003650525017424072 
-0.001358432598309396 
-0.001383929102210998 
0 
0.006705179768671025 
0.001358432598309396 
-0.001383929102210998 
6.191054522264574e-06 
-0.0003650525017424072 
-0.0001063044683519126 
-9.841350122594528e-05 
8.354081414812032e-05 
-8.458764084710061e-05 
-0.0002493897124700366 
-8.239478909100189e-05 
-8.047658835665115e-05 
0.001041746039824408 
0 
0.003600289689103272 
8.047658835665115e-05 
0.001041746039824408 
0.0002493897124700366 
-8.239478909100189e-05 
-8.354081414812032e-05 
-8.458764084710061e-05 
5.442833676134479e-05 
0.0002581601746791209 
0.0005118148459700758 
0.0006017113851513231 
0.001057079111721724 
0.00127008361806865 
0 
0.0066226891514064 
-0.001057079111721724 
0.00127008361806865 
-0.0005118148459700758 
0.0006017113851513231 
-5.442833676134479e-05 
0.0002581601746791209 
8.677395512496183e-05 
-6.386343731353129e-05 
-1.478047760986938e-05 
-0.0001335486959177123 
0.002853289885987731 
-0.002039123833900943 
0 
-0.01023615073234744 
-0.002853289885987731 
-0.002039123833900943 
1.478047760986938e-05 
-0.0001335486959177123 
-8.677395512496183e-05 
-6.386343731353129e-05 
9.99811328369237e-05 
-2.341273792402373e-05 
0.0009442890871651404 
-0.0004786496682508423 
0.002779277117098492 
-0.005639125574655768 
0 
-0.01567346666509909 
-0.002779277117098492 
-0.005639125574655768 
-0.0009442890871651404 
-0.0004786496682508423 
-9.99811328369237e-05 
-2.341273792402373e-05 
-1.733423543446438e-05 
6.371061469093338e-05 
0.0002383376036047682 
0.0008062564446176847 
0.00411850603044179 
-9.059345517050817e-05 
0 
-0.009093913133109775 
-0.00411850603044179 
-9.059345517050817e-05 
-0.0002383376036047682 
0.0008062564446176847 
1.733423543446438e-05 
6.371061469093338e-05 
-3.653551832092798e-05 
-8.672105107305288e-05 
-0.0007563518143038055 
8.912750883037828e-05 
-0.0002509790570333788 
0.003812338039616975 
0 
0.00427225446071507 
0.0002509790570333788 
0.003812338039616975 
0.0007563518143038055 
8.912750883037828e-05 
3.653551832092798e-05 
-8.672105107305288e-05 
1.6637722906752e-05 
-7.881761756679169e-05 
-0.0002533575773260626 
0.0005210838558703084 
0.0038713122001737 
-0.0002903956019110557 
0 
-0.008657601219558685 
-0.0038713122001737 
-0.0002903956019110557 
0.0002533575773260626 
0.0005210838558703084 
-1.6637722906752e-05 
-7.881761756679169e-05 
2.844005517761066e-05 
0.0001562206659798264 
0.0006402977061676813 
2.813161583374993e-05 
0.004525542163538998 
-0.002797744267638048 
0 
-0.0170700304825286 
-0.004525542163538998 
-0.002797744267638048 
-0.0006402977061676813 
2.813161583374993e-05 
-2.844005517761066e-05 
0.0001562206659798264 
4.005821170605553e-05 
-0.0001271760716364556 
0.0003052801502567261 
-0.0002140363494505343 
0.001990467698293187 
-0.003654957707055573 
0 
-0.007454016029005664 
-0.001990467698293187 
-0.003654957707055573 
-0.0003052801502567261 
-0.0002140363494505343 
-4.005821170605553e-05 
-0.0001271760716364556 
5.047744127182073e-05 
7.585049699906777e-05 
0.0005728163320928284 
0.0001913257206062694 
0.0007832557443377437 
-0.002195421769989812 
0 
5.801330350846736e-05 
-0.0007832557443377437 
-0.002195421769989812 
-0.0005728163320928284 
0.0001913257206062694 
-5.047744127182073e-05 
7.585049699906777e-05 
9.867643145708286e-05 
0.0002406069059458454 
0.0009736162354273517 
0.0002627365146266156 
0.00122771817439275 
-0.001789892668650714 
0 
0.0005681014725729914 
-0.00122771817439275 
-0.001789892668650714 
-0.0009736162354273517 
0.0002627365146266156 
-9.867643145708286e-05 
0.0002406069059458454 
0.0001650513383734707 
-5.125932167935731e-05 
0.0005970199069956286 
-0.001272595218408529 
-0.002066499800187516 
-0.004219906336501844 
0 
0.0009664343069854724 
0.002066499800187516 
-0.004219906336501844 
-0.0005970199069956286 
-0.001272595218408529 
-0.0001650513383734707 
-5.125932167935731e-05 
2.952353789265109e-05 
-0.000170565814890898 
-0.001077357113210155 
-0.0008919534321326072 
-0.004460094640228454 
0.001739434720575908 
0 
0.01638020609427169 
0.004460094640228454 
0.001739434720575908 
0.001077357113210155 
-0.0008919534321326072 
-2.952353789265109e-05 
-0.000170565814890898 
-6.390576159120401e-05 
3.686200227841087e-05 
-0.0001758760720846627 
0.000577322586336402 
0.0002355316130075242 
0.0005898663740849485 
0 
0.007953892906394191 
-0.0002355316130075242 
0.0005898663740849485 
0.0001758760720846627 
0.000577322586336402 
6.390576159120401e-05 
3.686200227841087e-05 
-0.0001368695333444368 
-0.0001910864104141991 
-0.0006453770539288713 
-0.0001132951782496921 
-0.00237734806210582 
-0.000276647813479063 
0 
0.009116963706761811 
0.00237734806210582 
-0.000276647813479063 
0.0006453770539288713 
-0.0001132951782496921 
0.0001368695333444368 
-0.0001910864104141991 
-0.0001086523628402208 
-0.0001133334496414333 
-0.0003397617725732125 
0.0001567715121278877 
4.801591239724066e-05 
0.0001845544361815133 
0 
0.002634207037240335 
-4.801591239724066e-05 
0.0001845544361815133 
0.0003397617725732125 
0.0001567715121278877 
0.0001086523628402208 
-0.0001133334496414333 
0.0001089476940869497 
-8.602632477164379e-05 
-0.0001570972948909271 
-0.0008307258296539211 
-0.004211778430042611 
-0.000919397871032136 
0 
0.01482888614867284 
0.004211778430042611 
-0.000919397871032136 
0.0001570972948909271 
-0.0008307258296539211 
-0.0001089476940869497 
-8.602632477164379e-05 
-1.085312498144951e-05 
-3.347495364274433e-05 
0.0001159628715226766 
-0.0005933853421154136 
-0.005174405901303429 
0.0005100349607190058 
0 
0.01954436698172484 
0.005174405901303429 
0.0005100349607190058 
-0.0001159628715226766 
-0.0005933853421154136 
1.085312498144951e-05 
-3.347495364274433e-05 
-0.0001802781311088088 
-5.068382030787161e-05 
-0.0004337730619341653 
8.329020651316647e-05 
-0.002623875331936407 
0.0009080427188275436 
0 
0.01196401597794253 
0.002623875331936407 
0.0009080427188275436 
0.0004337730619341653 
8.329020651316647e-05 
0.0001802781311088088 
-5.068382030787161e-05 
9.339488364216087e-05 
-7.808105427123872e-05 
0.0003862296479176747 
-0.0007960968385276693 
-0.001160410726238595 
-0.004111747844724857 
0 
-0.003604179799838425 
0.001160410726238595 
-0.004111747844724857 
-0.0003862296479176747 
-0.0007960968385276693 
-9.339488364216087e-05 
-7.808105427123872e-05 
9.256498056850148e-05 
4.476523903954017e-05 
0.0004779140490792154 
-0.0006483384105141615 
-0.002794684852417069 
-0.001538174645350319 
0 
0.009911936874288608 
0.002794684852417069 
-0.001538174645350319 
-0.0004779140490792154 
-0.0006483384105141615 
-9.256498056850148e-05 
4.476523903954017e-05 
-9.277473479911964e-05 
-0.0001743839267877545 
-0.001139636200090814 
-0.0004583448836236268 
-0.00348953278677628 
0.003216471274698405 
0 
0.01172389753330792 
0.00348953278677628 
0.003216471274698405 
0.001139636200090814 
-0.0004583448836236268 
9.277473479911964e-05 
-0.0001743839267877545 
-6.33398239459e-05 
-0.000100342204913867 
-0.0001516679351480868 
-0.0001017474134076072 
-0.001106517536522389 
-0.0009296735745909529 
0 
0.005557559107661298 
0.001106517536522389 
-0.0009296735745909529 
0.0001516679351480868 
-0.0001017474134076072 
6.33398239459e-05 
-0.000100342204913867 
-6.656214297374393e-05 
1.278895852293096e-05 
-1.058270772114372e-06 
-9.562049762284652e-05 
-0.002143408935476974 
-0.001179704535924728 
0 
0.007189082108555608 
0.002143408935476974 
-0.001179704535924728 
1.058270772114372e-06 
-9.562049762284652e-05 
6.656214297374393e-05 
1.278895852293096e-05 
6.337681937490282e-05 
0.0001243357827250697 
0.0006575841241403199 
-0.0003503434973710954 
0.001489702004500924 
-0.003971196390406113 
0 
-0.008429388969776578 
-0.001489702004500924 
-0.003971196390406113 
-0.0006575841241403199 
-0.0003503434973710954 
-6.337681937490282e-05 
0.0001243357827250697 
2.196124324945605e-05 
2.15055374320524e-05 
-0.0001302701282377563 
-0.0003137678213982699 
-0.00374037684475273 
0.000674155873189778 
0 
0.01959484345505438 
0.00374037684475273 
0.000674155873189778 
0.0001302701282377563 
-0.0003137678213982699 
-2.196124324945605e-05 
2.15055374320524e-05 
1.5975249750346e-05 
-8.884328762454033e-05 
-0.0004790230640719568 
-0.0003389512659748169 
-0.004211600554388696 
0.001862915034447073 
0 
0.02009564970289434 
0.004211600554388696 
0.001862915034447073 
0.0004790230640719568 
-0.0003389512659748169 
-1.5975249750346e-05 
-8.884328762454033e-05 
-7.544013866986615e-05 
4.221106253612432e-05 
-0.000390246018330027 
0.0004289026693360618 
-0.001207114140106624 
0.002544909828914743 
0 
0.01221616345603115 
0.001207114140106624 
0.002544909828914743 
0.000390246018330027 
0.0004289026693360618 
7.544013866986615e-05 
4.221106253612432e-05 
5.384621175262628e-05 
0.0001037023498584526 
0.0007918353003461001 
-4.430196252588638e-05 
-0.0004338660579921559 
-0.002583555224684337 
0 
0.001505706881475121 
0.0004338660579921559 
-0.002583555224684337 
-0.0007918353003461001 
-4.430196252588638e-05 
-5.384621175262628e-05 
0.0001037023498584526 
3.236330622097055e-05 
-9.105079040488408e-05 
-0.0002122033935604368 
-0.0005317328958138799 
-0.002938114687304327 
0.0005893779359789626 
0 
0.009051373527655745 
0.002938114687304327 
0.0005893779359789626 
0.0002122033935604368 
-0.0005317328958138799 
-3.236330622097055e-05 
-9.105079040488408e-05 
-0.000171743899593644 
-6.817088009390806e-05 
-0.0004381013408821857 
-0.0001190891117755338 
-0.004505194265001312 
0.00126089854589571 
0 
0.01824717675595885 
0.004505194265001312 
0.00126089854589571 
0.0004381013408821857 
-0.0001190891117755338 
0.000171743899593644 
-6.817088009390806e-05 
-3.28009100714028e-05 
-0.0001855139707341827 
-0.0006755507790825147 
-0.0002590732289101455 
-0.001386712800202626 
0.001383089664080583 
0 
0.003881860613469683 
0.001386712800202626 
0.001383089664080583 
0.0006755507790825147 
-0.0002590732289101455 
3.28009100714028e-05 
-0.0001855139707341827 
7.301306175580902e-05 
-0.0002006699054266145 
-0.0008998049841813684 
-0.001185888102147322 
-0.004487125572072791 
0.0004809198707205729 
0 
0.008063429324877009 
0.004487125572072791 
0.0004809198707205729 
0.0008998049841813684 
-0.001185888102147322 
-7.301306175580902e-05 
-0.0002006699054266145 
8.791943674960572e-05 
-3.377365698013541e-05 
0.0002751016425827485 
-0.0007464262529687816 
-0.002705102781490768 
-0.001380907611679894 
0 
0.007645747479099027 
0.002705102781490768 
-0.001380907611679894 
-0.0002751016425827485 
-0.0007464262529687816 
-8.791943674960572e-05 
-3.377365698013541e-05 
0.000151293311201683 
4.884109187246476e-05 
9.316922357197483e-05 
-0.0004519732443268339 
-0.003654805876389304 
-2.103170644017485e-05 
0 
0.02160076248024476 
0.003654805876389304 
-2.103170644017485e-05 
-9.316922357197483e-05 
-0.0004519732443268339 
-0.000151293311201683 
4.884109187246476e-05 
3.727800938010409e-06 
-9.750095155602354e-05 
-0.0001982009338940359 
4.514813455982583e-05 
-0.002683383613762146 
-0.0002543162102288777 
0 
0.01380618573299605 
0.002683383613762146 
-0.0002543162102288777 
0.0001982009338940359 
4.514813455982583e-05 
-3.727800938010409e-06 
-9.750095155602354e-05 
9.566966935432697e-05 
-0.0001559301263435477 
-4.429969280677586e-05 
-0.0008514866867525308 
-0.002630784043140311 
-0.002702020838259429 
0 
0.0009610972032679713 
0.002630784043140311 
-0.002702020838259429 
4.429969280677586e-05 
-0.0008514866867525308 
-9.566966935432697e-05 
-0.0001559301263435477 
8.64027772353437e-05 
-0.0001811162006257129 
-0.0004185825195286498 
-0.0006630673655142376 
-0.002012596629846169 
-0.0007558420801370149 
0 
0.002535198390544992 
0.002012596629846169 
-0.0007558420801370149 
0.0004185825195286498 
-0.0006630673655142376 
-8.64027772353437e-05 
-0.0001811162006257129 
-5.294623276022024e-06 
-7.344546154222815e-05 
3.02526201502989e-05 
-0.0006072593430754856 
-0.003774887580130281 
-0.001228925418070087 
0 
0.01290241489747363 
0.003774887580130281 
-0.001228925418070087 
-3.02526201502989e-05 
-0.0006072593430754856 
5.294623276022024e-06 
-7.344546154222815e-05 
-0.0002783888202314048 
-4.72412317979146e-05 
-0.0009642009696929341 
0.0006800747043959462 
-0.003078885244319255 
0.005417582620340759 
0 
0.02476235727665004 
0.003078885244319255 
0.005417582620340759 
0.0009642009696929341 
0.0006800747043959462 
0.0002783888202314048 
-4.72412317979146e-05 
-6.078617460644711e-05 
-0.0001650952108606183 
-0.0004785875943083498 
-0.0006356049616174393 
-0.002701712878399687 
-0.0004564316999052232 
0 
0.005719873865215085 
0.002701712878399687 
-0.0004564316999052232 
0.0004785875943083498 
-0.0006356049616174393 
6.078617460644711e-05 
-0.0001650952108606183 
-0.0001778825517713385 
-0.0001220507228590357 
-0.0006854277565030405 
-0.000348547101028842 
-0.002660991904686597 
-0.0007891744200082716 
0 
0.00519414332556445 
0.002660991904686597 
-0.0007891744200082716 
0.0006854277565030405 
-0.000348547101028842 
0.0001778825517713385 
-0.0001220507228590357 
5.00190514649965e-05 
-7.146330249658213e-05 
0.000222950002493947 
-0.0002252429626569703 
-0.001938204865808944 
-0.002288165592633158 
0 
0.008313815776874664 
0.001938204865808944 
-0.002288165592633158 
-0.000222950002493947 
-0.0002252429626569703 
-5.00190514649965e-05 
-7.146330249658213e-05 
-4.051228444169303e-05 
-0.0001878181446390717 
-0.0006656778944088958 
-0.0008693193869719072 
-0.005493145113203281 
-0.000255982510484847 
0 
0.01814276233198395 
0.005493145113203281 
-0.000255982510484847 
0.0006656778944088958 
-0.0008693193869719072 
4.051228444169303e-05 
-0.0001878181446390717 
9.686544663933015e-06 
4.679829770896705e-05 
0.0001538803802513457 
-0.0002660811638278992 
-0.003116259578852699 
-0.0009379169306338208 
0 
0.01616356639356413 
0.003116259578852699 
-0.0009379169306338208 
-0.0001538803802513457 
-0.0002660811638278992 
-9.686544663933015e-06 
4.679829770896705e-05 
-0.0001726292616405922 
-9.318938737165682e-05 
-0.0008150995175583466 
-0.0001071095374312709 
-0.003984973447597864 
0.001896945472250607 
0 
0.01445220148032365 
0.003984973447597864 
0.001896945472250607 
0.0008150995175583466 
-0.0001071095374312709 
0.0001726292616405922 
-9.318938737165682e-05 
0.0001621076965103475 
-2.579802592032901e-05 
0.0007680365782257097 
-0.0005544538977006687 
-0.001330940184115894 
-0.002979534483929124 
0 
0.003191359074004152 
0.001330940184115894 
-0.002979534483929124 
-0.0007680365782257097 
-0.0005544538977006687 
-0.0001621076965103475 
-2.579802592032901e-05 
5.457110701207745e-05 
-9.065548818319717e-05 
-0.0002227383707767575 
-0.000394057697721042 
-0.001995242944417472 
-0.0001029910822522706 
0 
0.01040049833789095 
0.001995242944417472 
-0.0001029910822522706 
0.0002227383707767575 
-0.000394057697721042 
-5.457110701207745e-05 
-9.065548818319717e-05 
4.110260813938527e-05 
7.862913508583841e-05 
-0.0002928337633476669 
-1.073554259837147e-05 
-0.002332844694507754 
0.00483753058318817 
0 
0.01640409599363921 
0.002332844694507754 
0.00483753058318817 
0.0002928337633476669 
-1.073554259837147e-05 
-4.110260813938527e-05 
7.862913508583841e-05 
-7.472487464491401e-06 
-3.697879744202434e-05 
0.000623083849355012 
4.591549790964689e-06 
0.000746900870366533 
-0.00485122600007016 
0 
-0.001591100742773549 
-0.000746900870366533 
-0.00485122600007016 
-0.000623083849355012 
4.591549790964689e-06 
7.472487464491401e-06 
-3.697879744202434e-05 
7.163815801874199e-05 
-1.805854020671708e-05 
0.000284900649505464 
-0.0004625039399633257 
0.0001523823706078994 
-0.004259489298414516 
0 
-0.002346797641760357 
-0.0001523823706078994 
-0.004259489298414516 
-0.000284900649505464 
-0.0004625039399633257 
-7.163815801874199e-05 
-1.805854020671708e-05 
0.000122099487795956 
1.367878945652731e-06 
0.0008364017756980926 
-0.0006874217763844559 
-0.00155024713271101 
-0.005114670158189842 
0 
0.00121237212123522 
0.00155024713271101 
-0.005114670158189842 
-0.0008364017756980926 
-0.0006874217763844559 
-0.000122099487795956 
1.367878945652731e-06 
5.629657891507796e-05 
2.444616149704435e-05 
0.0002359644675409195 
-0.0004697500730730213 
-0.003118004214120683 
-0.001197829950510644 
0 
0.01039521722503768 
0.003118004214120683 
-0.001197829950510644 
-0.0002359644675409195 
-0.0004697500730730213 
-5.629657891507796e-05 
2.444616149704435e-05 
-4.117919886009093e-05 
2.941890445313772e-05 
-5.746076227096129e-05 
0.0002663471400480818 
-0.001187609742891637 
-0.0006402303131733753 
0 
0.01055724116443025 
0.001187609742891637 
-0.0006402303131733753 
5.746076227096129e-05 
0.0002663471400480818 
4.117919886009093e-05 
2.941890445313772e-05 
0.0002114202239074748 
8.71630933017659e-06 
0.0004659058001030843 
-0.000523866163139283 
-0.002478503448044787 
-0.001185992928134656 
0 
0.008099004731092044 
0.002478503448044787 
-0.001185992928134656 
-0.0004659058001030843 
-0.000523866163139283 
-0.0002114202239074748 
8.71630933017659e-06 
0.000106155773247907 
3.737478176618447e-05 
0.0001551815040187145 
-0.0002459794250089326 
-0.001977353167086353 
0.0009791973527313589 
0 
0.009871317482890593 
0.001977353167086353 
0.0009791973527313589 
-0.0001551815040187145 
-0.0002459794250089326 
-0.000106155773247907 
3.737478176618447e-05 
-1.970062630961564e-05 
5.589406765230295e-05 
0.0003250439461150313 
6.037591634664194e-05 
-0.0006682836328378714 
-0.001551545660864837 
0 
0.003849363672211888 
0.0006682836328378714 
-0.001551545660864837 
-0.0003250439461150313 
6.037591634664194e-05 
1.970062630961564e-05 
5.589406765230295e-05 
-0.0001179013358486906 
-5.940997805093331e-05 
-0.0007314195827470191 
0.00030781713617681 
-0.001644160695471436 
0.004479553291930294 
0 
0.01308646791967223 
0.001644160695471436 
0.004479553291930294 
0.0007314195827470191 
0.00030781713617681 
0.0001179013358486906 
-5.940997805093331e-05 
5.15329985728247e-05 
-0.0001272077556044425 
7.014003585133315e-05 
-0.0007797838735098964 
-0.001669452610332027 
-0.002546594318601695 
0 
0.00175349028762774 
0.001669452610332027 
-0.002546594318601695 
-7.014003585133315e-05 
-0.0007797838735098964 
-5.15329985728247e-05 
-0.0001272077556044425 
-2.509445978376001e-05 
-0.0001499600806122097 
-0.0003205055729567518 
-0.0006558001636231606 
-0.00264850725888776 
-0.001779363244889185 
0 
0.00599187700135688 
0.00264850725888776 
-0.001779363244889185 
0.0003205055729567518 
-0.0006558001636231606 
2.509445978376001e-05 
-0.0001499600806122097 
-3.009123323309992e-05 
-1.919149691152867e-05 
9.69169586987277e-05 
-0.0001525768864268907 
-0.002553279851659542 
-0.0014725267277252 
0 
0.01409516433255204 
0.002553279851659542 
-0.0014725267277252 
-9.69169586987277e-05 
-0.0001525768864268907 
3.009123323309992e-05 
-1.919149691152867e-05 
-1.047648907479979e-05 
-2.599720354219178e-06 
-0.0005093275852237022 
-2.140493288463761e-05 
-0.002553576466803432 
0.001987311777847057 
0 
0.01877260937271873 
0.002553576466803432 
0.001987311777847057 
0.0005093275852237022 
-2.140493288463761e-05 
1.047648907479979e-05 
-2.599720354219178e-06 
-1.628929543506536e-05 
4.210135967698723e-05 
0.0003947692877374686 
7.950370922941847e-05 
1.530125835938087e-05 
-0.002652802878084815 
0 
0.002587505952895841 
-1.530125835938087e-05 
-0.002652802878084815 
-0.0003947692877374686 
7.950370922941847e-05 
1.628929543506536e-05 
4.210135967698723e-05 
8.999679426502842e-05 
-0.0001214993641624634 
0.0005184201156077943 
-0.001304859424300343 
-0.003453905977341842 
-0.004702991475318019 
0 
0.001281391559814729 
0.003453905977341842 
-0.004702991475318019 
-0.0005184201156077943 
-0.001304859424300343 
-8.999679426502842e-05 
-0.0001214993641624634 
8.408390804116619e-06 
-0.0001060174900673049 
-0.0002784810407572831 
-0.0003399034148948228 
-0.002611275816119758 
0.0002119555237229774 
0 
0.009784000780774044 
0.002611275816119758 
0.0002119555237229774 
0.0002784810407572831 
-0.0003399034148948228 
-8.408390804116619e-06 
-0.0001060174900673049 
-1.541808267165004e-05 
-2.160128159181981e-05 
-0.0001774685347901483 
-0.000164423936102437 
-0.002619875650924774 
0.0001753918843459694 
0 
0.01435378348065186 
0.002619875650924774 
0.0001753918843459694 
0.0001774685347901483 
-0.000164423936102437 
1.541808267165004e-05 
-2.160128159181981e-05 
-4.782598863712722e-05 
-1.400769686507767e-05 
-0.0003737382239865884 
4.86591016808122e-05 
-0.001627497707252505 
0.002241766987987769 
0 
0.01487563477919549 
0.001627497707252505 
0.002241766987987769 
0.0003737382239865884 
4.86591016808122e-05 
4.782598863712722e-05 
-1.400769686507767e-05 
8.43355693688676e-05 
-9.512720632940561e-05 
-8.399332953562651e-05 
-0.0007539934217477272 
-0.001693134602543172 
-0.002272467202851912 
0 
0.004232414247281327 
0.001693134602543172 
-0.002272467202851912 
8.399332953562651e-05 
-0.0007539934217477272 
-8.43355693688676e-05 
-9.512720632940561e-05 
-0.0001144255778845079 
-1.166579725983721e-05 
2.899197971128498e-05 
-0.0002325292255267763 
-0.001006299948373105 
-0.001872148143083337 
0 
0.001399078536083172 
0.001006299948373105 
-0.001872148143083337 
-2.899197971128498e-05 
-0.0002325292255267763 
0.0001144255778845079 
-1.166579725983721e-05 
4.093775462375937e-05 
-2.988012563657588e-06 
0.0001125105922631874 
-0.0001156169753389501 
0.0005327167653519385 
-0.001297505397806926 
0 
-0.001760561193993786 
-0.0005327167653519385 
-0.001297505397806926 
-0.0001125105922631874 
-0.0001156169753389501 
-4.093775462375937e-05 
-2.988012563657588e-06 
-3.814192483196264e-06 
7.940934037224638e-05 
-9.064458410104552e-05 
-0.0002997977560253041 
-0.00308806614407529 
0.001777223001746853 
0 
0.01843013881084329 
0.00308806614407529 
0.001777223001746853 
9.064458410104552e-05 
-0.0002997977560253041 
3.814192483196264e-06 
7.940934037224638e-05 
0.0001377742072545095 
-1.915643075228787e-05 
0.0003854812816560346 
-0.000947051323418123 
-0.003755583197772121 
-0.002569882477808303 
0 
0.01182712723070753 
0.003755583197772121 
-0.002569882477808303 
-0.0003854812816560346 
-0.000947051323418123 
-0.0001377742072545095 
-1.915643075228787e-05 
0.0002064328212329801 
-9.248424253516169e-05 
-0.0001602316987693924 
-0.00104494071516003 
-0.003296281204850583 
0.0001033957797761614 
0 
0.01181793136256448 
0.003296281204850583 
0.0001033957797761614 
0.0001602316987693924 
-0.00104494071516003 
-0.0002064328212329801 
-9.248424253516169e-05 
-1.434660265897199e-05 
1.529123528662427e-06 
0.0004587768780878463 
0.0001887025682699839 
0.001447398098007887 
-0.002805668283734881 
0 
-0.004115038808469412 
-0.001447398098007887 
-0.002805668283734881 
-0.0004587768780878463 
0.0001887025682699839 
1.434660265897199e-05 
1.529123528662427e-06 
0.0001014446686350684 
9.689923701465837e-07 
0.0005291551095276875 
-0.0005263862257679139 
-0.002235862876014389 
-0.002177378682587737 
0 
0.003228269538757201 
0.002235862876014389 
-0.002177378682587737 
-0.0005291551095276875 
-0.0005263862257679139 
-0.0001014446686350684 
9.689923701465837e-07 
-1.010521593927815e-05 
0.0001999477012814405 
0.0003892959527236039 
0.0003499022314448076 
0.000786196512304595 
0.0006337092066437244 
0 
-0.000476038114030068 
-0.000786196512304595 
0.0006337092066437244 
-0.0003892959527236039 
0.0003499022314448076 
1.010521593927815e-05 
0.0001999477012814405 
-0.0001290695398902059 
-2.628920913949308e-05 
0.0003146610406659444 
0.0004031324382397623 
0.001832405126090927 
-0.0028413275680297 
0 
-0.005067946834112932 
-0.001832405126090927 
-0.0028413275680297 
-0.0003146610406659444 
0.0004031324382397623 
0.0001290695398902059 
-2.628920913949308e-05 
1.272206226874781e-05 
-3.96344554360244e-05 
0.0004429130401342654 
-0.0003769004936863394 
0.0005713210111938342 
-0.003945126437001509 
0 
-0.009943056050013896 
-0.0005713210111938342 
-0.003945126437001509 
-0.0004429130401342654 
-0.0003769004936863394 
-1.272206226874781e-05 
-3.96344554360244e-05 
2.855907444960725e-05 
-3.352046119888501e-05 
0.0003059898072568568 
-0.0003403581514881631 
-0.002075902743732031 
-0.003097732011836711 
0 
0.002365686449488119 
0.002075902743732031 
-0.003097732011836711 
-0.0003059898072568568 
-0.0003403581514881631 
-2.855907444960725e-05 
-3.352046119888501e-05 
0.0001590027464739595 
0.0003635378994289765 
0.0005687875202727425 
0.001170438035125831 
0.001459396087580112 
0.00344828531133613 
0 
0.01906150481483541 
-0.001459396087580112 
0.00344828531133613 
-0.0005687875202727425 
0.001170438035125831 
-0.0001590027464739595 
0.0003635378994289765 
5.146292299830425e-05 
-2.808267450315252e-05 
0.0002606758488606639 
-0.0002660834581324663 
0.002059026284159216 
-0.002421316619753136 
0 
-0.01253926782142093 
-0.002059026284159216 
-0.002421316619753136 
-0.0002606758488606639 
-0.0002660834581324663 
-5.146292299830425e-05 
-2.808267450315252e-05 
0.0001663117093598297 
1.658148436660503e-06 
0.000174478489982772 
-0.0002512260265155973 
0.001187907237339434 
-0.001670051196262187 
0 
-0.004712344234869933 
-0.001187907237339434 
-0.001670051196262187 
-0.000174478489982772 
-0.0002512260265155973 
-0.0001663117093598297 
1.658148436660503e-06 
1.338098232511942e-05 
7.619024999217217e-07 
1.383131730648337e-05 
-0.0003904818546706838 
-0.002533795039854318 
-0.0001226360746179428 
0 
0.005215784734144246 
0.002533795039854318 
-0.0001226360746179428 
-1.383131730648337e-05 
-0.0003904818546706838 
-1.338098232511942e-05 
7.619024999217217e-07 
5.599131486538242e-05 
4.900041137081109e-05 
0.0006269333757840666 
-0.0004811703261012706 
-0.003342100100761424 
-0.002640415325754944 
0 
0.01148459530676801 
0.003342100100761424 
-0.002640415325754944 
-0.0006269333757840666 
-0.0004811703261012706 
-5.599131486538242e-05 
4.900041137081109e-05 
-1.056338735395035e-05 
0.0001761306116804426 
-0.0001518110780768169 
6.233571181589109e-05 
-0.002045952679074423 
0.002825593988117562 
0 
0.01218079880570421 
0.002045952679074423 
0.002825593988117562 
0.0001518110780768169 
6.233571181589109e-05 
1.056338735395035e-05 
0.0001761306116804426 
0.0001647644775436486 
-0.0001246019921201876 
0.0002432207395919452 
-0.0005765739070849012 
0.0005675611616213711 
-0.004356861649383019 
0 
-0.004645131616781759 
-0.0005675611616213711 
-0.004356861649383019 
-0.0002432207395919452 
-0.0005765739070849012 
-0.0001647644775436486 
-0.0001246019921201876 
6.231062274938136e-05 
-0.0001847824275076234 
-1.703303779937218e-05 
-0.0006891525727888962 
-0.0005502482796577111 
-0.00207349523687167 
0 
-0.006776544695072801 
0.0005502482796577111 
-0.00207349523687167 
1.703303779937218e-05 
-0.0006891525727888962 
-6.231062274938136e-05 
-0.0001847824275076234 
1.522029859661159e-06 
-5.483677447835741e-05 
-1.552968528366772e-05 
-0.0006908083628236354 
-0.003001218171808091 
-0.001190709102153129 
0 
0.006002913661320552 
0.003001218171808091 
-0.001190709102153129 
1.552968528366772e-05 
-0.0006908083628236354 
-1.522029859661159e-06 
-5.483677447835741e-05 
0.0001015782890679759 
-0.0001595779506792878 
0.0001870977717841017 
-0.0008125643713509226 
-0.001995704847015686 
-0.003429990366970201 
0 
0.001189559883219938 
0.001995704847015686 
-0.003429990366970201 
-0.0001870977717841017 
-0.0008125643713509226 
-0.0001015782890679759 
-0.0001595779506792878 
0.0001277063810671837 
-3.283395951891858e-05 
0.000627797523976615 
-0.0005587820432839049 
-0.002502984875143633 
-0.003678486643758337 
0 
0.005447048702741947 
0.002502984875143633 
-0.003678486643758337 
-0.000627797523976615 
-0.0005587820432839049 
-0.0001277063810671837 
-3.283395951891858e-05 
-2.944456710377471e-05 
8.821714279611534e-05 
-0.0005875760061662644 
0.0002623572771268024 
-0.002458255842080831 
0.004230945917694479 
0 
0.01496187170083474 
0.002458255842080831 
0.004230945917694479 
0.0005875760061662644 
0.0002623572771268024 
2.944456710377471e-05 
8.821714279611534e-05 
-9.845650837701832e-05 
-0.0001434531252025715 
-0.0005657312233265899 
-0.0005737928581578866 
-0.00314212074308365 
-0.0005424467841033875 
0 
0.007713382281684818 
0.00314212074308365 
-0.0005424467841033875 
0.0005657312233265899 
-0.0005737928581578866 
9.845650837701832e-05 
-0.0001434531252025715 
2.532139710546411e-05 
-0.0001623114864922016 
5.968185615111193e-05 
-0.0002094666128428731 
-0.001977559529016782 
-0.002277736498684114 
0 
0.007695255990423635 
0.001977559529016782 
-0.002277736498684114 
-5.968185615111193e-05 
-0.0002094666128428731 
-2.532139710546411e-05 
-0.0001623114864922016 
5.461588124479491e-05 
-0.0003090478326428168 
-9.243215209748447e-06 
-0.0009718512004663972 
-0.002114996554212062 
-0.004159629221118704 
0 
-0.004897918448577447 
0.002114996554212062 
-0.004159629221118704 
9.243215209748447e-06 
-0.0009718512004663972 
-5.461588124479491e-05 
-0.0003090478326428168 
-5.456219278465411e-05 
-0.0001432357698065696 
-0.0006569302374591555 
-0.0004796322176407844 
-0.003341321803810578 
0.0005617330795898564 
0 
0.008912778763049724 
0.003341321803810578 
0.0005617330795898564 
0.0006569302374591555 
-0.0004796322176407844 
5.456219278465411e-05 
-0.0001432357698065696 
-0.0001196177010695873 
-0.0002552099219023487 
-0.000741913568139 
-0.0003012445564737893 
-0.001955391689762434 
0.0003572703200192334 
0 
0.000459713854507021 
0.001955391689762434 
0.0003572703200192334 
0.000741913568139 
-0.0003012445564737893 
0.0001196177010695873 
-0.0002552099219023487 
-7.029467757111695e-05 
-0.0001639589445201573 
-0.0006033320388410822 
-0.0003074306096289026 
-0.001369595431782671 
0.0001771825317761472 
0 
0.003185451296547383 
0.001369595431782671 
0.0001771825317761472 
0.0006033320388410822 
-0.0003074306096289026 
7.029467757111695e-05 
-0.0001639589445201573 
9.23675242551491e-05 
-0.0001101462258800969 
3.354744391072835e-06 
-0.0001908635231678939 
-0.000308354732932134 
-0.001835636945030519 
0 
0.002731109400387294 
0.000308354732932134 
-0.001835636945030519 
-3.354744391072835e-06 
-0.0001908635231678939 
-9.23675242551491e-05 
-0.0001101462258800969 
9.396416001067445e-05 
-0.000141740310959722 
-0.0003818826555930072 
-0.0005352452814507112 
-0.001835850171163586 
-0.0003387568510013749 
0 
0.006242108381609929 
0.001835850171163586 
-0.0003387568510013749 
0.0003818826555930072 
-0.0005352452814507112 
-9.396416001067445e-05 
-0.000141740310959722 
-0.0001712637751755708 
0.0001437962067068932 
-0.0005014624665359553 
0.000586595911784198 
-0.002276097804080115 
0.004989504001975964 
0 
0.01524562112151381 
0.002276097804080115 
0.004989504001975964 
0.0005014624665359553 
0.000586595911784198 
0.0001712637751755708 
0.0001437962067068932 
5.284860888608118e-05 
4.618581150337831e-06 
7.772726650440846e-05 
-0.0004220550070568053 
-0.00185766766266073 
0.0001386877332133264 
0 
0.005033179157136138 
0.00185766766266073 
0.0001386877332133264 
-7.772726650440846e-05 
-0.0004220550070568053 
-5.284860888608118e-05 
4.618581150337831e-06 
5.586302050090116e-05 
-7.023403870049279e-05 
-0.0002562286548565361 
-0.0006359231308905516 
-0.001638084348106048 
-5.057818202246532e-06 
0 
0.004202713089082092 
0.001638084348106048 
-5.057818202246532e-06 
0.0002562286548565361 
-0.0006359231308905516 
-5.586302050090116e-05 
-7.023403870049279e-05 
0.0001109323673019297 
-3.578656662739649e-05 
-2.236823429556092e-05 
-0.0005340094141280119 
-0.001863636072033054 
-0.0007021028623252741 
0 
0.00767758675620197 
0.001863636072033054 
-0.0007021028623252741 
2.236823429556092e-05 
-0.0005340094141280119 
-0.0001109323673019297 
-3.578656662739649e-05 
1.899787204199768e-05 
-2.897545806372035e-05 
-9.81053924677912e-05 
-0.0001404554758467193 
-0.001345229301305816 
-9.577994140443903e-05 
0 
0.007231293157949971 
0.001345229301305816 
-9.577994140443903e-05 
9.81053924677912e-05 
-0.0001404554758467193 
-1.899787204199768e-05 
-2.897545806372035e-05 
9.341383789531834e-05 
-0.0002879375761729334 
-0.0003637901189035043 
-0.001392829655639162 
-0.002459410727693777 
-0.001978370272162919 
0 
-0.003610260064380006 
0.002459410727693777 
-0.001978370272162919 
0.0003637901189035043 
-0.001392829655639162 
-9.341383789531834e-05 
-0.0002879375761729334 
-0.0001269006029684541 
-1.768780379486503e-05 
-0.0001024900703117725 
0.0003835180685657077 
0.0003813883696066351 
-0.0004078699447345489 
0 
0.004549776533806831 
-0.0003813883696066351 
-0.0004078699447345489 
0.0001024900703117725 
0.0003835180685657077 
0.0001269006029684541 
-1.768780379486503e-05 
1.944119144161795e-05 
3.059336946553758e-05 
0.0002166903886581238 
-0.000538189096389326 
-0.003455227049922346 
-0.001793220978160119 
0 
0.01157314131423248 
0.003455227049922346 
-0.001793220978160119 
-0.0002166903886581238 
-0.000538189096389326 
-1.944119144161795e-05 
3.059336946553758e-05 
8.626508359061012e-05 
6.962680551487934e-05 
0.0005266689700835666 
-0.0007323967151429331 
-0.002794739087181586 
-0.002123516292657401 
0 
0.009953165972207457 
0.002794739087181586 
-0.002123516292657401 
-0.0005266689700835666 
-0.0007323967151429331 
-8.626508359061012e-05 
6.962680551487934e-05 
-0.0001984798771923419 
-0.0002053133121977499 
-0.0008491931812732912 
-5.681909752194423e-05 
-0.001786628546088041 
0.001237769845822534 
0 
0.006395143771600152 
0.001786628546088041 
0.001237769845822534 
0.0008491931812732912 
-5.681909752194423e-05 
0.0001984798771923419 
-0.0002053133121977499 
4.416140899536463e-05 
1.438978054462859e-05 
-0.0005657977006571371 
-0.0002541653367218563 
-0.002588728190575879 
0.003450663654329169 
0 
0.01179413350409431 
0.002588728190575879 
0.003450663654329169 
0.0005657977006571371 
-0.0002541653367218563 
-4.416140899536463e-05 
1.438978054462859e-05 
5.369239659349244e-05 
-0.0001007765389648475 
0.000102495515288467 
-0.0004220141997051227 
-0.002231983817045978 
-0.001821925481105352 
0 
0.007341410543054959 
0.002231983817045978 
-0.001821925481105352 
-0.000102495515288467 
-0.0004220141997051227 
-5.369239659349244e-05 
-0.0001007765389648475 
7.888251939274971e-05 
-8.043528777138381e-05 
0.0001542595311285597 
-0.0004907856723591679 
-0.001064910968301633 
-0.002760739979835192 
0 
0.002176202166450905 
0.001064910968301633 
-0.002760739979835192 
-0.0001542595311285597 
-0.0004907856723591679 
-7.888251939274971e-05 
-8.043528777138381e-05 
-0.0001796280438393999 
-9.570550197677846e-05 
-0.0005844026156904635 
0.0002733747433200412 
-0.001625049297929741 
0.00177882770167357 
0 
0.009890117521000974 
0.001625049297929741 
0.00177882770167357 
0.0005844026156904635 
0.0002733747433200412 
0.0001796280438393999 
-9.570550197677846e-05 
5.153859039099571e-05 
-4.779705420250551e-05 
-0.0001686735740261399 
-0.0005139149953171958 
-0.003233908051164076 
-0.0003640850562431968 
0 
0.008279194538611943 
0.003233908051164076 
-0.0003640850562431968 
0.0001686735740261399 
-0.0005139149953171958 
-5.153859039099571e-05 
-4.779705420250551e-05 
8.11870320461249e-05 
-1.224363397832142e-05 
0.0006828107016303897 
-0.0005830680992054544 
-0.0007537028834047387 
-0.005003563581209645 
0 
-0.000553900094892785 
0.0007537028834047387 
-0.005003563581209645 
-0.0006828107016303897 
-0.0005830680992054544 
-8.11870320461249e-05 
-1.224363397832142e-05 
9.511715367669713e-05 
-8.289983669752837e-05 
0.0001934991850325026 
-0.0007200918202589638 
-0.00130452482578627 
-0.00351943255603391 
0 
0.003760461568927718 
0.00130452482578627 
-0.00351943255603391 
-0.0001934991850325026 
-0.0007200918202589638 
-9.511715367669713e-05 
-8.289983669752837e-05 
-5.484598747805887e-05 
2.923647210673601e-05 
2.243809727604345e-05 
-1.732069698366107e-05 
-0.0006015274542865844 
-0.0008174631538795295 
0 
0.004983418412939757 
0.0006015274542865844 
-0.0008174631538795295 
-2.243809727604345e-05 
-1.732069698366107e-05 
5.484598747805887e-05 
2.923647210673601e-05 
-1.39948001147131e-05 
-0.0001648696732285779 
-0.000649116384947872 
-0.0007482780797087538 
-0.003682487052133695 
0.001100013976000291 
0 
0.008030510955537185 
0.003682487052133695 
0.001100013976000291 
0.000649116384947872 
-0.0007482780797087538 
1.39948001147131e-05 
-0.0001648696732285779 
-4.08767347911393e-05 
2.841967960162017e-06 
0.0001654293604953968 
0.0002337136103506763 
0.0007797941598425449 
-0.0008697470294828991 
0 
-0.000942497799512162 
-0.0007797941598425449 
-0.0008697470294828991 
-0.0001654293604953968 
0.0002337136103506763 
4.08767347911393e-05 
2.841967960162017e-06 
1.413484048246902e-05 
-0.0001169301812973908 
-0.0003606329835258104 
-0.000655518983209168 
-0.001933132700475623 
-0.0002399853653550923 
0 
0.005735146133498402 
0.001933132700475623 
-0.0002399853653550923 
0.0003606329835258104 
-0.000655518983209168 
-1.413484048246902e-05 
-0.0001169301812973908 
-4.386498815601269e-05 
-3.137355333370259e-05 
-0.0002980191545104524 
1.828233310045079e-05 
-0.001770509043209276 
0.002285507461318298 
0 
0.01040972059814945 
0.001770509043209276 
0.002285507461318298 
0.0002980191545104524 
1.828233310045079e-05 
4.386498815601269e-05 
-3.137355333370259e-05 
9.050118313163397e-05 
-0.0002366806860761266 
-0.0003866955901235647 
-0.001111052594384738 
-0.003501037863376083 
-0.001099058051600463 
0 
0.007354081642747611 
0.003501037863376083 
-0.001099058051600463 
0.0003866955901235647 
-0.001111052594384738 
-9.050118313163397e-05 
-0.0002366806860761266 
2.311364353078817e-05 
-0.0001580483162164317 
-0.0007650276323031479 
-0.000535832576745064 
-0.002733380674239655 
0.002064254148863374 
0 
0.008007810905744168 
0.002733380674239655 
0.002064254148863374 
0.0007650276323031479 
-0.000535832576745064 
-2.311364353078817e-05 
-0.0001580483162164317 
-3.506161345992898e-05 
9.498053050594064e-05 
0.0001665347673642265 
-3.6432437078935e-05 
-0.001469395378444638 
0.0002544102861180118 
0 
0.005028604320541314 
0.001469395378444638 
0.0002544102861180118 
-0.0001665347673642265 
-3.6432437078935e-05 
3.506161345992898e-05 
9.498053050594064e-05 
0.0001289551917853018 
-0.0001631164876884209 
-0.0001968844062935628 
-0.0003712681120849621 
0.0004689603761569873 
-0.001356501112184362 
0 
-0.004563465557330009 
-0.0004689603761569873 
-0.001356501112184362 
0.0001968844062935628 
-0.0003712681120849621 
-0.0001289551917853018 
-0.0001631164876884209 
9.323642530609209e-05 
-2.873417121110666e-05 
0.000423193877563312 
-0.0007344410234866941 
-0.00107232670397452 
-0.00279829424625758 
0 
-0.003706979233496701 
0.00107232670397452 
-0.00279829424625758 
-0.000423193877563312 
-0.0007344410234866941 
-9.323642530609209e-05 
-2.873417121110666e-05 
-9.664712524709058e-05 
-0.0002136962984517493 
-0.0007096118617442218 
-1.994674910963626e-05 
0.0003209123736440177 
-0.0001687367011447836 
0 
-0.003565205308454486 
-0.0003209123736440177 
-0.0001687367011447836 
0.0007096118617442218 
-1.994674910963626e-05 
9.664712524709058e-05 
-0.0002136962984517493 
-4.240757025049551e-05 
-3.991634331315419e-05 
5.290701748747649e-05 
1.500156107187128e-05 
-0.0003833048668846306 
-0.002369382828094995 
0 
0.002433084768770398 
0.0003833048668846306 
-0.002369382828094995 
-5.290701748747649e-05 
1.500156107187128e-05 
4.240757025049551e-05 
-3.991634331315419e-05 
8.0442432280671e-05 
-0.0001440488852315802 
-0.000522624913160186 
-0.0007729883822413974 
-0.004105029546136919 
0.001145628313280112 
0 
0.01454838755770295 
0.004105029546136919 
0.001145628313280112 
0.000522624913160186 
-0.0007729883822413974 
-8.0442432280671e-05 
-0.0001440488852315802 
1.136630826760043e-05 
2.663132383561397e-05 
2.734963991814112e-05 
-5.608876078665418e-05 
-0.0001667000305530374 
-0.0007759212774676749 
0 
0.00434020339313553 
0.0001667000305530374 
-0.0007759212774676749 
-2.734963991814112e-05 
-5.608876078665418e-05 
-1.136630826760043e-05 
2.663132383561397e-05 
0.0002462888786869785 
-0.0001731337763866432 
-8.702058438567297e-05 
-0.001524079226284838 
-0.004523826687645846 
-0.002857784730160655 
0 
0.007156497800071037 
0.004523826687645846 
-0.002857784730160655 
8.702058438567297e-05 
-0.001524079226284838 
-0.0002462888786869785 
-0.0001731337763866432 
2.786447752096366e-05 
0.0001356247648048749 
0.0005914593294958279 
0.0003645600290471623 
0.001291869862922028 
-0.0006855490075034519 
0 
0.0001655312202662061 
-0.001291869862922028 
-0.0006855490075034519 
-0.0005914593294958279 
0.0003645600290471623 
-2.786447752096366e-05 
0.0001356247648048749 
0.0001043145725258857 
-0.0001642058629552582 
-5.927863295941646e-05 
-0.0006119478064704023 
0.0004507963897149884 
-0.003081858976546603 
0 
-0.005798986468797402 
-0.0004507963897149884 
-0.003081858976546603 
5.927863295941646e-05 
-0.0006119478064704023 
-0.0001043145725258857 
-0.0001642058629552582 
5.11217916255358e-05 
-9.90289080124993e-05 
-1.057797646407672e-05 
-0.000167044961929944 
0.001230706584450736 
-0.001939296444993344 
0 
-0.007151511244343382 
-0.001230706584450736 
-0.001939296444993344 
1.057797646407672e-05 
-0.000167044961929944 
-5.11217916255358e-05 
-9.90289080124993e-05 
2.036262045204511e-05 
9.830438666852323e-07 
-0.0001371663870159546 
0.000251669225458499 
0.001904561151965005 
0.0004576500170824912 
0 
-0.003434781146755867 
-0.001904561151965005 
0.0004576500170824912 
0.0001371663870159546 
0.000251669225458499 
-2.036262045204511e-05 
9.830438666852323e-07 
-0.0001710875743217427 
9.779245932545991e-05 
-0.000383618016563764 
0.0005973096672787499 
0.001665315380595988 
0.001815613075178743 
0 
-0.0005544374271159306 
-0.001665315380595988 
0.001815613075178743 
0.000383618016563764 
0.0005973096672787499 
0.0001710875743217427 
9.779245932545991e-05 
-0.000109295388853427 
-4.267476869396829e-05 
-0.0008660166242856462 
0.0003749363529884591 
-0.0009086214363878989 
0.003644068482618896 
0 
0.01083489868379036 
0.0009086214363878989 
0.003644068482618896 
0.0008660166242856462 
0.0003749363529884591 
0.000109295388853427 
-4.267476869396829e-05 
-5.322413416504163e-05 
-0.0001080928575563325 
-4.37999784993831e-05 
-0.0002794648792305081 
-0.001856707670625193 
-0.002004040773340615 
0 
0.006835208664513269 
0.001856707670625193 
-0.002004040773340615 
4.37999784993831e-05 
-0.0002794648792305081 
5.322413416504163e-05 
-0.0001080928575563325 
-0.0001322945553771617 
1.946324531014951e-06 
-0.0005180596118490048 
0.0003581492124864494 
-0.001266947073606836 
0.00223287574049894 
0 
0.008988253417962484 
0.001266947073606836 
0.00223287574049894 
0.0005180596118490048 
0.0003581492124864494 
0.0001322945553771617 
1.946324531014951e-06 
-1.067195159566354e-05 
-4.811339127697023e-05 
-3.015131954917984e-07 
-0.0009319817820117073 
-0.003619336167321302 
-0.001122068158044078 
0 
0.008992711180404393 
0.003619336167321302 
-0.001122068158044078 
3.015131954917984e-07 
-0.0009319817820117073 
1.067195159566354e-05 
-4.811339127697023e-05 
0.0001200964096267614 
-0.00010167169803045 
0.0001785041745827092 
-0.00143930426088172 
-0.003134469783479155 
-0.003346967047545794 
0 
0.00171525752416954 
0.003134469783479155 
-0.003346967047545794 
-0.0001785041745827092 
-0.00143930426088172 
-0.0001200964096267614 
-0.00010167169803045 
8.543655049452112e-05 
2.535909408209081e-05 
0.0001572201353128427 
-0.0008910261693126759 
-0.003075508996675926 
-0.0001610228540247472 
0 
0.008046925210294023 
0.003075508996675926 
-0.0001610228540247472 
-0.0001572201353128427 
-0.0008910261693126759 
-8.543655049452112e-05 
2.535909408209081e-05 
-2.352602405353506e-05 
3.686159580683429e-05 
3.34109003448864e-05 
0.0002125881598003554 
-0.002218371749097514 
0.0004483845751179778 
0 
0.01731504495452739 
0.002218371749097514 
0.0004483845751179778 
-3.34109003448864e-05 
0.0002125881598003554 
2.352602405353506e-05 
3.686159580683429e-05 
6.741654928365774e-05 
-0.0001164797665673445 
-0.0002621257395463565 
-0.0008070796523030265 
-0.003376570490447326 
-0.0006596205344438806 
0 
0.008436563490510545 
0.003376570490447326 
-0.0006596205344438806 
0.0002621257395463565 
-0.0008070796523030265 
-6.741654928365774e-05 
-0.0001164797665673445 
-0.0001766880287456123 
-4.927262725460835e-05 
-0.0004719252704998554 
0.0004649614883308504 
0.0003301575127367449 
-0.000210715496436152 
0 
0.00272142193885214 
-0.0003301575127367449 
-0.000210715496436152 
0.0004719252704998554 
0.0004649614883308504 
0.0001766880287456123 
-4.927262725460835e-05 
6.609029277999914e-05 
-4.622435906557177e-05 
0.000286595770355561 
-0.0003168565126114793 
-0.001093292823027686 
-0.003062525257350966 
0 
0.002669668528727778 
0.001093292823027686 
-0.003062525257350966 
-0.000286595770355561 
-0.0003168565126114793 
-6.609029277999914e-05 
-4.622435906557177e-05 
0.000109612095260874 
-0.0001089548287149729 
-0.0001793077739230731 
-0.0006156905761938358 
-0.001822391763758304 
-0.0008556573554670203 
0 
0.004186604759115397 
0.001822391763758304 
-0.0008556573554670203 
0.0001793077739230731 
-0.0006156905761938358 
-0.000109612095260874 
-0.0001089548287149729 
-4.017421063006527e-05 
-1.211392050071601e-05 
-4.428558059816052e-05 
0.0002419170786025625 
0.0009645985128259656 
-0.001503431677244806 
0 
-0.003486360820748495 
-0.0009645985128259656 
-0.001503431677244806 
4.428558059816052e-05 
0.0002419170786025625 
4.017421063006527e-05 
-1.211392050071601e-05 
-0.0001049311078771508 
-0.0001162938965588434 
-0.0007582018312607206 
1.33095196537247e-05 
-0.001126479168801233 
0.002818754130213333 
0 
0.008384185706345136 
0.001126479168801233 
0.002818754130213333 
0.0007582018312607206 
1.33095196537247e-05 
0.0001049311078771508 
-0.0001162938965588434 
0.0001687518134478767 
-5.10134025240377e-05 
0.0005555546733846001 
-0.001078838202149163 
-0.001264446799120726 
-0.004147467091989031 
0 
-0.007870375914876625 
0.001264446799120726 
-0.004147467091989031 
-0.0005555546733846001 
-0.001078838202149163 
-0.0001687518134478767 
-5.10134025240377e-05 
9.574315264240363e-06 
-1.393837535664626e-05 
0.0001960354362190967 
-0.0001255235867932035 
-0.0001353859455718369 
-0.001737111440037601 
0 
0.001259160953372692 
0.0001353859455718369 
-0.001737111440037601 
-0.0001960354362190967 
-0.0001255235867932035 
-9.574315264240363e-06 
-1.393837535664626e-05 
7.362729127728225e-05 
0.0001808695285884998 
0.0003118030841292998 
0.0002397765519655445 
6.550857034817927e-05 
0.002193535013100532 
0 
0.007221370088947251 
-6.550857034817927e-05 
0.002193535013100532 
-0.0003118030841292998 
0.0002397765519655445 
-7.362729127728225e-05 
0.0001808695285884998 
8.307565458029883e-05 
1.444519431892228e-05 
0.0001567520870968352 
-0.0004618744366062802 
-0.0003414904406969387 
-0.001232118156702779 
0 
0.001493808582908829 
0.0003414904406969387 
-0.001232118156702779 
-0.0001567520870968352 
-0.0004618744366062802 
-8.307565458029883e-05 
1.444519431892228e-05 
-0.0001444418891626818 
8.968034963011103e-05 
-0.000170636981968263 
0.000819473474817722 
0.0006433742087202681 
0.001613610260351232 
0 
0.007937092352863181 
-0.0006433742087202681 
0.001613610260351232 
0.000170636981968263 
0.000819473474817722 
0.0001444418891626818 
8.968034963011103e-05 
6.183885270045102e-05 
-2.266948165399605e-05 
-0.0002238062607015471 
3.360410857947809e-05 
0.0002410735986760921 
0.002392782871324503 
0 
-0.000881035436910795 
-0.0002410735986760921 
0.002392782871324503 
0.0002238062607015471 
3.360410857947809e-05 
-6.183885270045102e-05 
-2.266948165399605e-05 
7.900152801442786e-05 
-0.000115501038992048 
0.0001369445294634027 
-0.000979533842750978 
-0.002882899186463732 
-0.001842749669526214 
0 
0.002717575707446668 
0.002882899186463732 
-0.001842749669526214 
-0.0001369445294634027 
-0.000979533842750978 
-7.900152801442786e-05 
-0.000115501038992048 
-0.0001285487773983936 
-0.0001950738112588676 
-0.0008895339984398741 
0.0001418786130688446 
-0.0007600554126979388 
0.001658724063859113 
0 
0.006045998037167617 
0.0007600554126979388 
0.001658724063859113 
0.0008895339984398741 
0.0001418786130688446 
0.0001285487773983936 
-0.0001950738112588676 
6.669579628106033e-05 
-4.766871303987673e-05 
1.344052427186479e-05 
-0.0001240496833111141 
-0.0007959909851130095 
-0.001240442086243428 
0 
0.002185863014095735 
0.0007959909851130095 
-0.001240442086243428 
-1.344052427186479e-05 
-0.0001240496833111141 
-6.669579628106033e-05 
-4.766871303987673e-05 
-0.0002748449531110408 
-0.0003293818930514716 
-0.001007606222704417 
-0.0001763885189424593 
-0.001715366546552092 
-0.001221914853044103 
0 
-0.0007632226667651758 
0.001715366546552092 
-0.001221914853044103 
0.001007606222704417 
-0.0001763885189424593 
0.0002748449531110408 
-0.0003293818930514716 
1.943615424192254e-05 
1.611636962365345e-05 
0.0002834272055931271 
-0.0002895367511525861 
-0.001279384481107873 
-0.001767268713932412 
0 
0.006132312130200307 
0.001279384481107873 
-0.001767268713932412 
-0.0002834272055931271 
-0.0002895367511525861 
-1.943615424192254e-05 
1.611636962365345e-05 
0.0001503211742685376 
-0.000206330985081856 
0.0002599214986100306 
-0.001489113316858101 
-0.002491000997782558 
-0.003841813098312958 
0 
-0.003784124993720075 
0.002491000997782558 
-0.003841813098312958 
-0.0002599214986100306 
-0.001489113316858101 
-0.0001503211742685376 
-0.000206330985081856 
-3.121860725994799e-05 
-0.0001174152224260091 
-0.0002358878838990075 
9.564291546013412e-05 
0.001486791603725333 
-0.0008101748135162123 
0 
-0.00363974248439573 
-0.001486791603725333 
-0.0008101748135162123 
0.0002358878838990075 
9.564291546013412e-05 
3.121860725994799e-05 
-0.0001174152224260091 
-1.615399132536604e-05 
-6.60222740048583e-05 
-0.0006379971338065346 
-0.0003969264690631132 
-0.00137411342288086 
0.001830662159520719 
0 
0.006030196521709604 
0.00137411342288086 
0.001830662159520719 
0.0006379971338065346 
-0.0003969264690631132 
1.615399132536604e-05 
-6.60222740048583e-05 
0.0001207987811059624 
3.889665051005321e-05 
0.0002023033718925362 
-0.0003293470957922711 
-0.001092307154006491 
-0.0005217395189050833 
0 
-0.001884581302068247 
0.001092307154006491 
-0.0005217395189050833 
-0.0002023033718925362 
-0.0003293470957922711 
-0.0001207987811059624 
3.889665051005321e-05 
3.549904084905272e-05 
-5.154011647908371e-05 
0.0002712574650912203 
-0.0002879127762565159 
-0.001204704022427045 
-0.002733720535124499 
0 
0.005161639795955028 
0.001204704022427045 
-0.002733720535124499 
-0.0002712574650912203 
-0.0002879127762565159 
-3.549904084905272e-05 
-5.154011647908371e-05 
-6.612205064006734e-05 
-0.000127064740232713 
-0.0003271820119291213 
-0.0001522707541500832 
-0.000627444592719058 
-0.001327483767355793 
0 
0.002414248477329213 
0.000627444592719058 
-0.001327483767355793 
0.0003271820119291213 
-0.0001522707541500832 
6.612205064006734e-05 
-0.000127064740232713 
-2.411990325460568e-05 
-0.0001831058397011453 
6.786461242925214e-05 
-0.0006745988280751877 
-0.001326145452579873 
-0.00292946603328982 
0 
-0.003689511177812847 
0.001326145452579873 
-0.00292946603328982 
-6.786461242925214e-05 
-0.0006745988280751877 
2.411990325460568e-05 
-0.0001831058397011453 
-0.0001102592524787715 
-0.0001144953523983385 
-0.000401917270747569 
-0.0003412609153481065 
-0.001593808030689359 
0.0009685826270962257 
0 
0.0007210241229256125 
0.001593808030689359 
0.0009685826270962257 
0.000401917270747569 
-0.0003412609153481065 
0.0001102592524787715 
-0.0001144953523983385 
8.680290851678436e-05 
-4.751459362653225e-05 
0.0006288840910012166 
-0.0007318016003274324 
-0.002336699915427763 
-0.003780344270836376 
0 
0.001520515397097859 
0.002336699915427763 
-0.003780344270836376 
-0.0006288840910012166 
-0.0007318016003274324 
-8.680290851678436e-05 
-4.751459362653225e-05 
2.972886389606387e-05 
1.755060273434378e-05 
0.0005386704030204053 
-0.0005168227920840151 
-0.002082896471983045 
-0.003075823270863616 
0 
0.005264125615462394 
0.002082896471983045 
-0.003075823270863616 
-0.0005386704030204053 
-0.0005168227920840151 
-2.972886389606387e-05 
1.755060273434378e-05 
1.31216944073965e-05 
-6.308012513675544e-05 
0.0001558525109217462 
-0.000229031118564244 
-0.001091220946520588 
-0.001628729663850857 
0 
0.002591524384843536 
0.001091220946520588 
-0.001628729663850857 
-0.0001558525109217462 
-0.000229031118564244 
-1.31216944073965e-05 
-6.308012513675544e-05 
-6.091829648140622e-05 
9.475511131463177e-06 
-0.0004583528931047658 
-2.350102195699259e-05 
-0.001742045162501293 
0.001265803185158302 
0 
0.007677914080236775 
0.001742045162501293 
0.001265803185158302 
0.0004583528931047658 
-2.350102195699259e-05 
6.091829648140622e-05 
9.475511131463177e-06 
-0.0001212367003161839 
0.0001950037119384531 
0.0003086963928824277 
0.001053485873093478 
0.003843363323108924 
0.001277198761808293 
0 
-0.006212629346917615 
-0.003843363323108924 
0.001277198761808293 
-0.0003086963928824277 
0.001053485873093478 
0.0001212367003161839 
0.0001950037119384531 
-7.07967194445593e-06 
-1.545303766576373e-05 
0.0002020261821720777 
-4.738682965445754e-05 
-0.0006365533856578896 
-0.001155614926705667 
0 
0.000845573970752107 
0.0006365533856578896 
-0.001155614926705667 
-0.0002020261821720777 
-4.738682965445754e-05 
7.07967194445593e-06 
-1.545303766576373e-05 
-3.359260565756532e-05 
-0.0002597419691323018 
-0.0004101907864293483 
-0.0002304522557634887 
-0.0001232100564047386 
-0.001654368457956996 
0 
-0.002578888305237891 
0.0001232100564047386 
-0.001654368457956996 
0.0004101907864293483 
-0.0002304522557634887 
3.359260565756532e-05 
-0.0002597419691323018 
0.0001241097912046662 
2.578831241459768e-05 
0.0006260559215741915 
-0.0008997903260562723 
-0.00138648066016708 
-0.003100166813818608 
0 
-0.004838024162468719 
0.00138648066016708 
-0.003100166813818608 
-0.0006260559215741915 
-0.0008997903260562723 
-0.0001241097912046662 
2.578831241459768e-05 
-8.112559847638568e-05 
-8.506426215304252e-05 
-7.026818873895404e-05 
-9.434560615264737e-05 
-0.0004733215149830029 
-0.00129442289626606 
0 
0.001315785564284666 
0.0004733215149830029 
-0.00129442289626606 
7.026818873895404e-05 
-9.434560615264737e-05 
8.112559847638568e-05 
-8.506426215304252e-05 
-3.261011665906512e-05 
-6.858961993074528e-05 
7.36154965014006e-05 
-1.913017945770449e-05 
0.001494068412816907 
-0.00164786203658317 
0 
-0.008840803500933817 
-0.001494068412816907 
-0.00164786203658317 
-7.36154965014006e-05 
-1.913017945770449e-05 
3.261011665906512e-05 
-6.858961993074528e-05 
8.168831356549766e-06 
-0.0002290188125824083 
-0.0005957024289999616 
-0.000547355737037776 
-0.001635897276635365 
-0.0008206305168812318 
0 
0.002751744464179661 
0.001635897276635365 
-0.0008206305168812318 
0.0005957024289999616 
-0.000547355737037776 
-8.168831356549766e-06 
-0.0002290188125824083 
0.0001066857617664413 
1.521975846888899e-05 
0.0004832397781905246 
-0.000228134018811253 
0.0006368107733477738 
-0.003012409355069468 
0 
-0.002100654671433902 
-0.0006368107733477738 
-0.003012409355069468 
-0.0004832397781905246 
-0.000228134018811253 
-0.0001066857617664413 
1.521975846888899e-05 
-8.843236682512839e-05 
4.148536721696793e-09 
4.83890044366779e-05 
0.0001123636064930463 
-0.0007343863445034254 
-0.000342587565790747 
0 
0.006031089105010621 
0.0007343863445034254 
-0.000342587565790747 
-4.83890044366779e-05 
0.0001123636064930463 
8.843236682512839e-05 
4.148536721696793e-09 
-0.0001718775377795443 
-4.975895772117544e-05 
-0.000608263846289624 
0.0002259968073279453 
0.0001516178381395071 
0.001933078775524504 
0 
0.0004037517350630456 
-0.0001516178381395071 
0.001933078775524504 
0.000608263846289624 
0.0002259968073279453 
0.0001718775377795443 
-4.975895772117544e-05 
0.0001346186097047681 
-1.852732508913346e-05 
0.000181265301195863 
-0.0007892259699563316 
-0.002075358427245733 
-0.002309728304321834 
0 
0.006492681012106515 
0.002075358427245733 
-0.002309728304321834 
-0.000181265301195863 
-0.0007892259699563316 
-0.0001346186097047681 
-1.852732508913346e-05 
0.0001083924243609123 
4.614543424482686e-05 
0.000132555298864427 
-0.0003202294425838292 
-0.001336064263270322 
-0.001200276558396082 
0 
0.008309194273092417 
0.001336064263270322 
-0.001200276558396082 
-0.000132555298864427 
-0.0003202294425838292 
-0.0001083924243609123 
4.614543424482686e-05 
-2.030434733922023e-05 
-0.0001314560321239295 
-0.0005193395475204133 
-0.0002407827857907775 
-0.002805103668626095 
0.001312104941321375 
0 
0.01270432752044639 
0.002805103668626095 
0.001312104941321375 
0.0005193395475204133 
-0.0002407827857907775 
2.030434733922023e-05 
-0.0001314560321239295 
1.789497041931255e-05 
-0.0002840111139980128 
-0.0003787071888434871 
-0.001160452736632617 
-0.001127525518064927 
-0.004097275937105534 
0 
-0.01060290749817944 
0.001127525518064927 
-0.004097275937105534 
0.0003787071888434871 
-0.001160452736632617 
-1.789497041931255e-05 
-0.0002840111139980128 
-7.999849614455991e-05 
4.843342489104219e-05 
0.0002807097916405539 
7.953361553974413e-05 
-0.0001869366486643704 
-0.0006799003301499526 
0 
-0.0009785646488394851 
0.0001869366486643704 
-0.0006799003301499526 
-0.0002807097916405539 
7.953361553974413e-05 
7.999849614455991e-05 
4.843342489104219e-05 
7.507845008021073e-05 
5.753832082707185e-05 
0.000662412118875838 
-6.799309824276928e-05 
0.001094881778921341 
-0.00368277647291933 
0 
-0.002760295356192361 
-0.001094881778921341 
-0.00368277647291933 
-0.000662412118875838 
-6.799309824276928e-05 
-7.507845008021073e-05 
5.753832082707185e-05 
0.0002114286939900098 
3.896621861792223e-05 
0.0004045090642800864 
-0.0008380182720894172 
-0.0009765902626376461 
-0.002308680988223052 
0 
0.0006330900907408146 
0.0009765902626376461 
-0.002308680988223052 
-0.0004045090642800864 
-0.0008380182720894172 
-0.0002114286939900098 
3.896621861792223e-05 
4.812064832794612e-05 
3.234176736912816e-05 
2.894681260920233e-05 
3.145824539634408e-05 
0.0004147562812307296 
-0.000739765550128756 
0 
0.0004338819352802748 
-0.0004147562812307296 
-0.000739765550128756 
-2.894681260920233e-05 
3.145824539634408e-05 
-4.812064832794612e-05 
3.234176736912816e-05 
-6.398742803435489e-06 
-9.731797862876661e-05 
-1.263071821707927e-05 
-0.0003231844002925209 
-0.001569896167445832 
-0.002074431160128766 
0 
-0.0004114919046604681 
0.001569896167445832 
-0.002074431160128766 
1.263071821707927e-05 
-0.0003231844002925209 
6.398742803435489e-06 
-9.731797862876661e-05 
-9.467450352413617e-05 
-7.424340344100623e-05 
-0.0007661361215345988 
-0.0002308977094464186 
-0.003942812426164088 
0.002883900207130394 
0 
0.01710361906802173 
0.003942812426164088 
0.002883900207130394 
0.0007661361215345988 
-0.0002308977094464186 
9.467450352413617e-05 
-7.424340344100623e-05 
0.0003245349247104603 
-5.728214629905352e-05 
0.0004242761953198615 
-0.001195147367587439 
-0.00141188203247476 
-0.00274239025645376 
0 
-0.0009995287097863792 
0.00141188203247476 
-0.00274239025645376 
-0.0004242761953198615 
-0.001195147367587439 
-0.0003245349247104603 
-5.728214629905352e-05 
-0.0001699223717635246 
-1.520970792899132e-05 
-0.0005397932144818535 
0.0003860615888303843 
-0.00069455373368597 
0.000885714374751535 
0 
0.005297747140979745 
0.00069455373368597 
0.000885714374751535 
0.0005397932144818535 
0.0003860615888303843 
0.0001699223717635246 
-1.520970792899132e-05 
1.808115838894009e-06 
-9.849447843060821e-05 
5.330497956442867e-05 
-0.0005143348129380101 
-0.000879074357923374 
-0.003232272617793785 
0 
-0.007664754811895452 
0.000879074357923374 
-0.003232272617793785 
-5.330497956442867e-05 
-0.0005143348129380101 
-1.808115838894009e-06 
-9.849447843060821e-05 
6.140453912179161e-05 
7.517888217875991e-05 
0.000397301325304668 
-0.000293910822986222 
-0.0003059503384228446 
-0.002589257792704248 
0 
0.004278401321028405 
0.0003059503384228446 
-0.002589257792704248 
-0.000397301325304668 
-0.000293910822986222 
-6.140453912179161e-05 
7.517888217875991e-05 
7.521509818064478e-05 
6.99426304274549e-05 
0.0007170565579015764 
-0.0004364815191750776 
-0.002183880319682793 
-0.004001584564479201 
0 
0.006851471216273041 
0.002183880319682793 
-0.004001584564479201 
-0.0007170565579015764 
-0.0004364815191750776 
-7.521509818064478e-05 
6.99426304274549e-05 
-1.787040740426346e-06 
-8.338633060130082e-05 
0.0001851042851250886 
-0.0005092456848166799 
-0.001367955395057585 
-0.003002406217981561 
0 
0.002869505357306788 
0.001367955395057585 
-0.003002406217981561 
-0.0001851042851250886 
-0.0005092456848166799 
1.787040740426346e-06 
-8.338633060130082e-05 
-2.584100481235713e-05 
0.0002651860694012874 
0.0006759766451423351 
0.0004276111384874342 
-0.0001902454277547046 
-0.0007599865779500707 
0 
0.007307345938865113 
0.0001902454277547046 
-0.0007599865779500707 
-0.0006759766451423351 
0.0004276111384874342 
2.584100481235713e-05 
0.0002651860694012874 
-4.455761497057404e-05 
-5.450190134543968e-05 
-0.0005088919813787037 
4.70478957620623e-05 
-0.002412697408918499 
0.001802961694708016 
0 
0.01207863850842288 
0.002412697408918499 
0.001802961694708016 
0.0005088919813787037 
4.70478957620623e-05 
4.455761497057404e-05 
-5.450190134543968e-05 
-4.424882838895677e-05 
-0.0002064907847700771 
-0.0008006480308023917 
-0.0004138122193273386 
-0.002948395154307489 
0.0007167250141741754 
0 
0.01133102486656198 
0.002948395154307489 
0.0007167250141741754 
0.0008006480308023917 
-0.0004138122193273386 
4.424882838895677e-05 
-0.0002064907847700771 
-1.158616386564827e-05 
-7.067892719049406e-05 
-0.000203031407897457 
-0.0006788379714108421 
-0.002387168432958654 
-0.001025722606852903 
0 
0.004888103652875898 
0.002387168432958654 
-0.001025722606852903 
0.000203031407897457 
-0.0006788379714108421 
1.158616386564827e-05 
-7.067892719049406e-05 
-1.799047335196634e-05 
-2.559329850634268e-05 
-0.0002304850770414289 
-0.0002728137477102549 
-0.003245998908458936 
-6.651441977534826e-05 
0 
0.01476054681878868 
0.003245998908458936 
-6.651441977534826e-05 
0.0002304850770414289 
-0.0002728137477102549 
1.799047335196634e-05 
-2.559329850634268e-05 
8.238385344981992e-05 
-0.0001637569292813896 
-0.0005097106235971586 
-0.0009377797629452544 
-0.002875061032466376 
-0.0008156519663082255 
0 
0.005316444087376322 
0.002875061032466376 
-0.0008156519663082255 
0.0005097106235971586 
-0.0009377797629452544 
-8.238385344981992e-05 
-0.0001637569292813896 
2.406055188377331e-05 
8.230485166418797e-07 
-0.0001993938378395664 
-0.0002395905148511272 
-0.001226478980684472 
0.001141233386229779 
0 
0.005090970545294736 
0.001226478980684472 
0.001141233386229779 
0.0001993938378395664 
-0.0002395905148511272 
-2.406055188377331e-05 
8.230485166418797e-07 
0.0002152003713798374 
6.665264923007621e-05 
0.001079213862330859 
-0.0006035851419496322 
0.002032795021809217 
-0.005981568238328034 
0 
-0.009618716561050216 
-0.002032795021809217 
-0.005981568238328034 
-0.001079213862330859 
-0.0006035851419496322 
-0.0002152003713798374 
6.665264923007621e-05 
4.511406549227705e-05 
-0.0001607946448132679 
-0.0001745806019954139 
-0.0004725204406942301 
-0.001087060614713546 
-0.0008684752107189142 
0 
0.0003750089969656849 
0.001087060614713546 
-0.0008684752107189142 
0.0001745806019954139 
-0.0004725204406942301 
-4.511406549227705e-05 
-0.0001607946448132679 
5.297564219280052e-05 
-8.212255080441367e-05 
0.0002098614405595746 
-0.0004548424453690059 
-0.001152897316590586 
-0.002191120492607759 
0 
-0.002602085670936837 
0.001152897316590586 
-0.002191120492607759 
-0.0002098614405595746 
-0.0004548424453690059 
-5.297564219280052e-05 
-8.212255080441367e-05 
-6.074210222754348e-05 
-5.114825721260912e-05 
-0.0007661009864944801 
-0.0002001662163978969 
-0.001859693276370468 
0.002145610721330493 
0 
0.007868862337134663 
0.001859693276370468 
0.002145610721330493 
0.0007661009864944801 
-0.0002001662163978969 
6.074210222754348e-05 
-5.114825721260912e-05 
0.0001365978572769038 
-0.0001163578111859918 
7.879925548656665e-05 
-0.0007419726041290307 
0.0005872798515177845 
-0.003409514792442958 
0 
-0.009618617906121825 
-0.0005872798515177845 
-0.003409514792442958 
-7.879925548656665e-05 
-0.0007419726041290307 
-0.0001365978572769038 
-0.0001163578111859918 
-0.0001381374022080469 
-0.0002244677559578007 
-0.001258392651111149 
-0.0001091038424695788 
-0.0006274416839156774 
0.002623624237364015 
0 
0.001560376269506102 
0.0006274416839156774 
0.002623624237364015 
0.001258392651111149 
-0.0001091038424695788 
0.0001381374022080469 
-0.0002244677559578007 
-0.0001383645250611215 
-8.700371971456687e-07 
-4.257696494150273e-05 
6.30163802095885e-06 
-0.0003770981825495741 
-0.001080699453425292 
0 
0.0009940971544008515 
0.0003770981825495741 
-0.001080699453425292 
4.257696494150273e-05 
6.30163802095885e-06 
0.0001383645250611215 
-8.700371971456687e-07 
-7.229737239349275e-05 
-4.837702746768366e-05 
-0.0001895141286653671 
-0.0002032811263080605 
-0.001484847489444344 
0.000926421139008017 
0 
0.002015377113280039 
0.001484847489444344 
0.000926421139008017 
0.0001895141286653671 
-0.0002032811263080605 
7.229737239349275e-05 
-4.837702746768366e-05 
7.414290482056237e-05 
2.498314328714716e-05 
0.000272755923291473 
-4.962150147002915e-05 
0.002231759747107503 
-0.001275671941016096 
0 
-0.005830565234058302 
-0.002231759747107503 
-0.001275671941016096 
-0.000272755923291473 
-4.962150147002915e-05 
-7.414290482056237e-05 
2.498314328714716e-05 
0.0001704359459400487 
0.0001319914856881229 
0.000852859000524136 
-0.0002033599605064415 
0.0004433751246166068 
-0.002024520197939968 
0 
0.00500129407312258 
-0.0004433751246166068 
-0.002024520197939968 
-0.000852859000524136 
-0.0002033599605064415 
-0.0001704359459400487 
0.0001319914856881229 
9.531698779386654e-05 
8.561366387499469e-05 
0.0006996250065262285 
-0.0005434884304643403 
0.0002059559442434574 
-0.004366773795111485 
0 
-0.004858755232959359 
-0.0002059559442434574 
-0.004366773795111485 
-0.0006996250065262285 
-0.0005434884304643403 
-9.531698779386654e-05 
8.561366387499469e-05 
-0.0001299279448526905 
-3.959064137597568e-06 
-0.0008415641481037693 
0.0007457820372124785 
0.0003656923101253391 
0.002986990371690721 
0 
0.007946173552066216 
-0.0003656923101253391 
0.002986990371690721 
0.0008415641481037693 
0.0007457820372124785 
0.0001299279448526905 
-3.959064137597568e-06 
4.45463246108641e-06 
-7.873940202109615e-05 
-0.0001264009067846453 
-0.0003121128899287869 
-0.001310747081399644 
-0.001112495456488043 
0 
-0.004066778312764023 
0.001310747081399644 
-0.001112495456488043 
0.0001264009067846453 
-0.0003121128899287869 
-4.45463246108641e-06 
-7.873940202109615e-05 
0.0001868249577956987 
-7.852390469461105e-05 
0.0006277096097018783 
-0.0006707015706177099 
-0.0003979000486706111 
-0.004527678193039448 
0 
-0.003134585407721543 
0.0003979000486706111 
-0.004527678193039448 
-0.0006277096097018783 
-0.0006707015706177099 
-0.0001868249577956987 
-7.852390469461105e-05 
-0.0001173225941982624 
-0.0001050821128358636 
-0.0003030867086948688 
-0.0005034320156337116 
-0.0004187304646638202 
-0.0003835037015459369 
0 
-0.003175745399910851 
0.0004187304646638202 
-0.0003835037015459369 
0.0003030867086948688 
-0.0005034320156337116 
0.0001173225941982624 
-0.0001050821128358636 
-4.174763681110012e-05 
4.083597021116766e-05 
0.0001669177539742582 
-7.434680217516052e-05 
0.0006076350866077527 
-0.002010475113379902 
0 
0.0007846290519088668 
-0.0006076350866077527 
-0.002010475113379902 
-0.0001669177539742582 
-7.434680217516052e-05 
4.174763681110012e-05 
4.083597021116766e-05 
-3.238267832215565e-05 
-3.364623326128886e-05 
0.00012402954402556 
-8.173812921639167e-07 
-0.0007274282878451789 
-0.0002510810974415484 
0 
0.001983676541539695 
0.0007274282878451789 
-0.0002510810974415484 
-0.00012402954402556 
-8.173812921639167e-07 
3.238267832215565e-05 
-3.364623326128886e-05 
0.0001398915059861752 
-0.0001091144511889369 
0.0001986485197902372 
-0.0006585616914919631 
-0.00152411562996521 
-0.003658589252197602 
0 
0.001080288027350947 
0.00152411562996521 
-0.003658589252197602 
-0.0001986485197902372 
-0.0006585616914919631 
-0.0001398915059861752 
-0.0001091144511889369 
3.103777972112175e-05 
0.0001219068387566116 
3.341084626567792e-05 
0.0001802698384783647 
-0.0003581414429830757 
0.002283151784622781 
0 
0.006873987637887115 
0.0003581414429830757 
0.002283151784622781 
-3.341084626567792e-05 
0.0001802698384783647 
-3.103777972112175e-05 
0.0001219068387566116 
-3.804409994448981e-05 
-4.874525397968626e-05 
-0.0004573704698695384 
0.0002165357266653427 
-0.000376456022827237 
0.002631758296974934 
0 
0.003398998912316268 
0.000376456022827237 
0.002631758296974934 
0.0004573704698695384 
0.0002165357266653427 
3.804409994448981e-05 
-4.874525397968626e-05 
-9.000451146486917e-05 
-0.0001043056061796495 
-0.0008655547162124133 
0.0001434950246267191 
-0.002344298357063864 
0.003529632604534019 
0 
0.009603022872868234 
0.002344298357063864 
0.003529632604534019 
0.0008655547162124133 
0.0001434950246267191 
9.000451146486917e-05 
-0.0001043056061796495 
-1.442616409346516e-05 
-9.011652364118226e-06 
-0.0001644298166239935 
-0.0001791484534389271 
-0.001426662523608248 
0.0007326038113611798 
0 
0.001628264539689465 
0.001426662523608248 
0.0007326038113611798 
0.0001644298166239935 
-0.0001791484534389271 
1.442616409346516e-05 
-9.011652364118226e-06 
-4.55946616804487e-05 
-0.0002390995307171527 
-0.0008300507541821447 
-0.0002497983220322214 
-0.002964431771026958 
0.001039927112020106 
0 
0.01157869078333447 
0.002964431771026958 
0.001039927112020106 
0.0008300507541821447 
-0.0002497983220322214 
4.55946616804487e-05 
-0.0002390995307171527 
-6.386011835698651e-05 
-6.098899682951758e-05 
-0.0001110075250521658 
-0.0001928259444110957 
-0.003580245198256925 
-0.001083938696057407 
0 
0.01271609348450245 
0.003580245198256925 
-0.001083938696057407 
0.0001110075250521658 
-0.0001928259444110957 
6.386011835698651e-05 
-6.098899682951758e-05 
8.142885552185478e-05 
-0.0002648652901843248 
-0.0006408846675781521 
-0.00140040816591757 
-0.003511511856514976 
-4.915548009467597e-05 
0 
0.003535755334084574 
0.003511511856514976 
-4.915548009467597e-05 
0.0006408846675781521 
-0.00140040816591757 
-8.142885552185478e-05 
-0.0002648652901843248 
-8.034747635160593e-05 
-0.0001806231199816501 
-0.0002440131733785734 
-0.0006585564890166551 
-0.001882887717576556 
-0.0007872811619846183 
0 
-0.002867147450050906 
0.001882887717576556 
-0.0007872811619846183 
0.0002440131733785734 
-0.0006585564890166551 
8.034747635160593e-05 
-0.0001806231199816501 
7.505055431196751e-05 
-0.0002357806347612224 
-0.0005171647379544232 
-0.0005765175685225097 
-0.002110081935284921 
0.0005619269162995835 
0 
0.002872929210370238 
0.002110081935284921 
0.0005619269162995835 
0.0005171647379544232 
-0.0005765175685225097 
-7.505055431196751e-05 
-0.0002357806347612224 
4.597569193332992e-05 
-0.0002016324041749608 
-0.0003675527058873861 
-0.0009788238664384193 
-0.002556372292266473 
-0.001431751153816426 
0 
7.568461035592881e-05 
0.002556372292266473 
-0.001431751153816426 
0.0003675527058873861 
-0.0009788238664384193 
-4.597569193332992e-05 
-0.0002016324041749608 
-8.790690086312441e-05 
-0.0001633061508874449 
-0.0006762595248780277 
-0.0003086897840439252 
-0.002285264921956492 
0.001017977876905481 
0 
0.01016532354580496 
0.002285264921956492 
0.001017977876905481 
0.0006762595248780277 
-0.0003086897840439252 
8.790690086312441e-05 
-0.0001633061508874449 
1.116735172436687e-05 
-0.0003421139635778811 
-0.00152402255464597 
-0.001100924315538997 
-0.006231233124162411 
0.003373650001522399 
0 
0.01720514853643241 
0.006231233124162411 
0.003373650001522399 
0.00152402255464597 
-0.001100924315538997 
-1.116735172436687e-05 
-0.0003421139635778811 
4.706787189265766e-05 
5.125976908673683e-05 
0.0004462732368949153 
-0.0004607877203317236 
-0.0006584375948521671 
-0.001434578366951124 
0 
-0.004621038682187034 
0.0006584375948521671 
-0.001434578366951124 
-0.0004462732368949153 
-0.0004607877203317236 
-4.706787189265766e-05 
5.125976908673683e-05 
-2.641927369470918e-06 
-8.845595535331586e-05 
-0.0007259567159955591 
-6.864630425920494e-05 
-0.00172641623055865 
0.002971867804476578 
0 
0.01004441030366483 
0.00172641623055865 
0.002971867804476578 
0.0007259567159955591 
-6.864630425920494e-05 
2.641927369470918e-06 
-8.845595535331586e-05 
6.826688984865826e-05 
-0.0001164925485860789 
0.0001493792800451388 
-0.0006231143743680302 
0.0003882151624899613 
-0.003463555789112278 
0 
-0.006066470836488163 
-0.0003882151624899613 
-0.003463555789112278 
-0.0001493792800451388 
-0.0006231143743680302 
-6.826688984865826e-05 
-0.0001164925485860789 
6.109631701824005e-05 
1.26504808049577e-05 
0.0005758881771454296 
-0.0008702224686505842 
-0.001338973632493636 
-0.003309077778972078 
0 
-0.00218299188268947 
0.001338973632493636 
-0.003309077778972078 
-0.0005758881771454296 
-0.0008702224686505842 
-6.109631701824005e-05 
1.26504808049577e-05 
-6.14474732762296e-05 
-0.0001512454014910758 
-0.0005574473745061343 
-0.0006636780876661343 
-0.001490566676218934 
-0.001394721063509568 
0 
-0.006335765429125436 
0.001490566676218934 
-0.001394721063509568 
0.0005574473745061343 
-0.0006636780876661343 
6.14474732762296e-05 
-0.0001512454014910758 
1.362701926402805e-05 
-0.000101851369760062 
-0.0002425418845054671 
-0.0004526132343924878 
-0.00208062923570047 
3.003595204257948e-05 
0 
0.004866828107887755 
0.00208062923570047 
3.003595204257948e-05 
0.0002425418845054671 
-0.0004526132343924878 
-1.362701926402805e-05 
-0.000101851369760062 
0.0001594581036041602 
-0.0001310453596076431 
0.0001351860299846656 
-0.001110741965770887 
-0.00395204883765275 
-0.001004730306329259 
0 
0.005792769894064244 
0.00395204883765275 
-0.001004730306329259 
-0.0001351860299846656 
-0.001110741965770887 
-0.0001594581036041602 
-0.0001310453596076431 
2.128643243548965e-05 
-5.600820215658144e-05 
-0.0003008956163611172 
-0.0001832921070795692 
-0.002571854879893377 
0.001037211769834982 
0 
0.01156662768937983 
0.002571854879893377 
0.001037211769834982 
0.0003008956163611172 
-0.0001832921070795692 
-2.128643243548965e-05 
-5.600820215658144e-05 
1.718848929847711e-06 
-8.808983973738228e-05 
-0.0005567550276717934 
-0.0002395956230906105 
-0.0009458241414764429 
0.001369063584443699 
0 
0.00240617248159272 
0.0009458241414764429 
0.001369063584443699 
0.0005567550276717934 
-0.0002395956230906105 
-1.718848929847711e-06 
-8.808983973738228e-05 
-8.04052321991417e-05 
0.0001270313926900751 
-0.0002665502512889778 
0.001041114581104376 
0.001441116932979025 
0.002754308452387908 
0 
0.003475674492303348 
-0.001441116932979025 
0.002754308452387908 
0.0002665502512889778 
0.001041114581104376 
8.04052321991417e-05 
0.0001270313926900751 
0.0001180783219453338 
1.187543043906983e-05 
0.0002589623740875355 
-0.0001983756803917959 
0.001192291325296061 
-0.002190803013442178 
0 
-0.00293267467448952 
-0.001192291325296061 
-0.002190803013442178 
-0.0002589623740875355 
-0.0001983756803917959 
-0.0001180783219453338 
1.187543043906983e-05 
-2.624391454820234e-05 
-0.0001506295284988534 
-0.0003848881925101027 
-0.000428516346993009 
-0.001446517392959522 
-0.001385304721893403 
0 
0.001951459779583712 
0.001446517392959522 
-0.001385304721893403 
0.0003848881925101027 
-0.000428516346993009 
2.624391454820234e-05 
-0.0001506295284988534 
8.912760751852324e-06 
-0.0001714889781600357 
0.0001862615809628615 
-0.0004057641021632462 
-0.002083732732215993 
-0.00347463961293414 
0 
0.0006489257744435523 
0.002083732732215993 
-0.00347463961293414 
-0.0001862615809628615 
-0.0004057641021632462 
-8.912760751852324e-06 
-0.0001714889781600357 
-0.0001139778476274229 
-0.0002774514005754659 
-0.001155911405406818 
-0.0007400908225320033 
-0.002873510038333634 
0.001381491687136884 
0 
0.001603731397641719 
0.002873510038333634 
0.001381491687136884 
0.001155911405406818 
-0.0007400908225320033 
0.0001139778476274229 
-0.0002774514005754659 
-0.0002498962591751526 
4.955075276936391e-06 
-0.0001439292719827025 
0.0009007833384573997 
0.001826832600308416 
-0.0002755810050276558 
0 
-0.002342349480285577 
-0.001826832600308416 
-0.0002755810050276558 
0.0001439292719827025 
0.0009007833384573997 
0.0002498962591751526 
4.955075276936391e-06 
3.541468205048102e-05 
-7.835571328954722e-05 
0.0004484762369253901 
-0.0006828429380456482 
-0.0002420287554945476 
-0.004500881552744862 
0 
-0.00800582168145476 
0.0002420287554945476 
-0.004500881552744862 
-0.0004484762369253901 
-0.0006828429380456482 
-3.541468205048102e-05 
-7.835571328954722e-05 
2.865591574466698e-05 
1.172674392563109e-05 
0.0001893470655956624 
0.0002043330430147692 
0.001584759394416545 
-0.001800028453782204 
0 
-0.001825535320611061 
-0.001584759394416545 
-0.001800028453782204 
-0.0001893470655956624 
0.0002043330430147692 
-2.865591574466698e-05 
1.172674392563109e-05 
-7.956898907538055e-05 
-0.0001120385033338266 
-0.0006730410548534465 
-0.0002504737086389713 
-0.002659632529860979 
0.001674832235009844 
0 
0.008847437865968619 
0.002659632529860979 
0.001674832235009844 
0.0006730410548534465 
-0.0002504737086389713 
7.956898907538055e-05 
-0.0001120385033338266 
-2.734470973803493e-05 
-7.877231896849636e-05 
-0.000323835067979992 
-0.000763946057291696 
-0.003149668188533779 
9.883416342367128e-05 
0 
0.002855460813989874 
0.003149668188533779 
9.883416342367128e-05 
0.000323835067979992 
-0.000763946057291696 
2.734470973803493e-05 
-7.877231896849636e-05 
0.0001486542033802859 
-2.746564778703665e-05 
-4.650055571992675e-05 
-0.0007378806848649304 
-0.001732115873141009 
-0.0006792407240787048 
0 
0.006758619592553201 
0.001732115873141009 
-0.0006792407240787048 
4.650055571992675e-05 
-0.0007378806848649304 
-0.0001486542033802859 
-2.746564778703665e-05 
-0.0001712148679075558 
-0.0001099553520544139 
0.0002911050721864824 
7.728731047871479e-05 
0.0008608017911465841 
-0.002755743514932055 
0 
-0.0090090284647247 
-0.0008608017911465841 
-0.002755743514932055 
-0.0002911050721864824 
7.728731047871479e-05 
0.0001712148679075558 
-0.0001099553520544139 
-8.008754729172261e-05 
0.0001229854985493327 
0.0005769631135355025 
0.0006167866513984788 
0.002895102884347394 
-0.00206859905926699 
0 
-0.007916910235411957 
-0.002895102884347394 
-0.00206859905926699 
-0.0005769631135355025 
0.0006167866513984788 
8.008754729172261e-05 
0.0001229854985493327 
-8.62672632680117e-05 
-0.0001979991351062345 
-0.0006425362475980312 
-0.0005361895615761076 
-0.001593777053163712 
-0.000228023471702095 
0 
-0.0003052664938894156 
0.001593777053163712 
-0.000228023471702095 
0.0006425362475980312 
-0.0005361895615761076 
8.62672632680117e-05 
-0.0001979991351062345 
8.397139969350354e-05 
-6.26910090347053e-05 
-1.313731494735281e-05 
-5.917325818239439e-05 
0.0003174654435463094 
-0.001858092383581237 
0 
0.0003053326252412811 
-0.0003174654435463094 
-0.001858092383581237 
1.313731494735281e-05 
-5.917325818239439e-05 
-8.397139969350354e-05 
-6.26910090347053e-05 
0.000137925766337787 
3.788652207027406e-05 
-0.0001868190171930408 
-0.0003612833317079567 
-0.001138886757353374 
0.001681674383806027 
0 
0.003548420456997749 
0.001138886757353374 
0.001681674383806027 
0.0001868190171930408 
-0.0003612833317079567 
-0.000137925766337787 
3.788652207027406e-05 
-9.005759876080762e-06 
-4.970020790633097e-05 
-0.000345805710228784 
0.000193561339568981 
-0.0001049381942561556 
0.00096583930291056 
0 
0.004923277043749086 
0.0001049381942561556 
0.00096583930291056 
0.000345805710228784 
0.000193561339568981 
9.005759876080762e-06 
-4.970020790633097e-05 
0.0001555576873146285 
-0.0001538235637911611 
-0.0003780557530760298 
-0.001061999659680406 
-0.003570923221513961 
-0.0001052438345551165 
0 
0.00541938169135866 
0.003570923221513961 
-0.0001052438345551165 
0.0003780557530760298 
-0.001061999659680406 
-0.0001555576873146285 
-0.0001538235637911611 
-0.0001234806798207257 
1.647944853573351e-05 
-0.0003545254102229515 
0.0004196896467236121 
-0.001660878878215447 
0.002673596642156341 
0 
0.0106222065526268 
0.001660878878215447 
0.002673596642156341 
0.0003545254102229515 
0.0004196896467236121 
0.0001234806798207257 
1.647944853573351e-05 
-2.161212872530997e-05 
-4.005360504341291e-05 
0.0004132632785964546 
2.998876967203894e-05 
0.000792178767879278 
-0.003722740601067598 
0 
-0.003214994281225659 
-0.000792178767879278 
-0.003722740601067598 
-0.0004132632785964546 
2.998876967203894e-05 
2.161212872530997e-05 
-4.005360504341291e-05 
-0.0001597976635382977 
-5.456637648056046e-05 
-0.0007407060738781225 
0.0006364106625927764 
-0.0005889244853217828 
0.003075066760661824 
0 
0.007234404010331105 
0.0005889244853217828 
0.003075066760661824 
0.0007407060738781225 
0.0006364106625927764 
0.0001597976635382977 
-5.456637648056046e-05 
0.000183355460673551 
-0.0001604600385752398 
0.0003311728581095838 
-0.001645214835238969 
-0.004381313450998595 
-0.003487834215823188 
0 
0.002201016989307793 
0.004381313450998595 
-0.003487834215823188 
-0.0003311728581095838 
-0.001645214835238969 
-0.000183355460673551 
-0.0001604600385752398 
0.0001277967595714542 
-4.858885079530286e-05 
0.0001831059659981807 
-0.0008143721121726994 
-0.002277770515114251 
-0.00218954706750888 
0 
0.001473195059341979 
0.002277770515114251 
-0.00218954706750888 
-0.0001831059659981807 
-0.0008143721121726994 
-0.0001277967595714542 
-4.858885079530286e-05 
3.771681071415135e-05 
5.817861582813962e-05 
0.0006613323288521048 
-0.0004155054818610555 
-0.002660450314238514 
-0.001500186654814643 
0 
0.006058862417544052 
0.002660450314238514 
-0.001500186654814643 
-0.0006613323288521048 
-0.0004155054818610555 
-3.771681071415135e-05 
5.817861582813962e-05 
8.89182294770917e-05 
-8.44704479815059e-05 
0.0002001616268460079 
-0.0005714366211660684 
-0.002196997463108835 
-0.002384993296671805 
0 
0.00440783741313248 
0.002196997463108835 
-0.002384993296671805 
-0.0002001616268460079 
-0.0005714366211660684 
-8.89182294770917e-05 
-8.44704479815059e-05 
4.009836483136262e-06 
-6.837876153389064e-05 
-1.599014176330714e-05 
-0.0003821707587451284 
-0.001396456510307559 
-0.001529314483494994 
0 
0.002920442210180783 
0.001396456510307559 
-0.001529314483494994 
1.599014176330714e-05 
-0.0003821707587451284 
-4.009836483136262e-06 
-6.837876153389064e-05 
-5.614293192703097e-05 
-6.021132283401352e-05 
-0.0002164905203307657 
-0.0004025196936645353 
-0.001525968935189129 
0.0001368673980748088 
0 
0.001053054598520068 
0.001525968935189129 
0.0001368673980748088 
0.0002164905203307657 
-0.0004025196936645353 
5.614293192703097e-05 
-6.021132283401352e-05 
3.944602951454318e-05 
8.000966605231867e-05 
0.0002318258704434783 
0.0004946864846976073 
0.002964914725065374 
-0.00173398996660605 
0 
-0.006757775240284588 
-0.002964914725065374 
-0.00173398996660605 
-0.0002318258704434783 
0.0004946864846976073 
-3.944602951454318e-05 
8.000966605231867e-05 
9.664937254700262e-05 
-0.0001199735835089871 
-9.99812948601742e-05 
-0.0009061819413152697 
-0.003190651427432305 
-0.001796983988615954 
0 
0.007419998321302208 
0.003190651427432305 
-0.001796983988615954 
9.99812948601742e-05 
-0.0009061819413152697 
-9.664937254700262e-05 
-0.0001199735835089871 
-0.0001081632614963649 
-0.0001707622893346408 
-0.001052042079407694 
-0.0001993325389459419 
-0.001716682553330559 
0.002866052798798119 
0 
0.007766141610900198 
0.001716682553330559 
0.002866052798798119 
0.001052042079407694 
-0.0001993325389459419 
0.0001081632614963649 
-0.0001707622893346408 
7.099098874952435e-05 
-0.0001561424898631427 
-0.0003864671817259509 
-0.0009581882493929342 
-0.003985079417408426 
-0.0002728041275718998 
0 
0.007838579540416991 
0.003985079417408426 
-0.0002728041275718998 
0.0003864671817259509 
-0.0009581882493929342 
-7.099098874952435e-05 
-0.0001561424898631427 
-0.0002947482232727007 
-4.622873095438154e-05 
-0.0007918572608674696 
0.0003904884251909359 
-0.001512828638924921 
0.002585154683035662 
0 
0.002465727361342969 
0.001512828638924921 
0.002585154683035662 
0.0007918572608674696 
0.0003904884251909359 
0.0002947482232727007 
-4.622873095438154e-05 
0.0001081840978222364 
-0.0002046085874989048 
-0.0003552295673685873 
-0.0007587186207461456 
-0.003679724386807607 
-0.0006721560945824364 
0 
0.008962285780019681 
0.003679724386807607 
-0.0006721560945824364 
0.0003552295673685873 
-0.0007587186207461456 
-0.0001081840978222364 
-0.0002046085874989048 
1.804571727880897e-05 
1.688265395740392e-05 
0.0002984277713305242 
-0.0004269630802820455 
-0.0009226163210918271 
-0.001947349834886829 
0 
-0.0008322324962734553 
0.0009226163210918271 
-0.001947349834886829 
-0.0002984277713305242 
-0.0004269630802820455 
-1.804571727880897e-05 
1.688265395740392e-05 
2.599895982299808e-05 
3.301843377697492e-05 
0.0003842476204984374 
-0.0003731590369492946 
-0.001139087383411722 
-0.002843619985485192 
0 
-0.0007774501345553622 
0.001139087383411722 
-0.002843619985485192 
-0.0003842476204984374 
-0.0003731590369492946 
-2.599895982299808e-05 
3.301843377697492e-05 
-0.0001043107000478676 
2.539494669137181e-05 
-1.241741051378729e-05 
-3.735016072416399e-05 
-0.00272151313598388 
0.0007291183875281583 
0 
0.01055138284247674 
0.00272151313598388 
0.0007291183875281583 
1.241741051378729e-05 
-3.735016072416399e-05 
0.0001043107000478676 
2.539494669137181e-05 
-0.0001200348838090161 
3.339517613782632e-05 
-0.0002528953620196394 
0.0003498511009417328 
-0.001209221709813967 
0.00193683981765785 
0 
0.008614865030805567 
0.001209221709813967 
0.00193683981765785 
0.0002528953620196394 
0.0003498511009417328 
0.0001200348838090161 
3.339517613782632e-05 
0.0001560071367095945 
-0.0001492948172549346 
0.0007995231385571471 
-0.001330763283878481 
-0.001877947905826174 
-0.00654235657956554 
0 
-0.005838750101997081 
0.001877947905826174 
-0.00654235657956554 
-0.0007995231385571471 
-0.001330763283878481 
-0.0001560071367095945 
-0.0001492948172549346 
8.327320195026265e-05 
2.772889423529072e-05 
-0.0001304485703019486 
0.0002506886903475705 
0.001774200418455865 
2.727956904725028e-05 
0 
-0.001181597185099092 
-0.001774200418455865 
2.727956904725028e-05 
0.0001304485703019486 
0.0002506886903475705 
-8.327320195026265e-05 
2.772889423529072e-05 
-7.381709402749685e-05 
-0.0001554324857169787 
-0.0007520433121672188 
-0.0003186708156745978 
-0.0002598802408159089 
3.051676114086274e-05 
0 
-0.002493721816698268 
0.0002598802408159089 
3.051676114086274e-05 
0.0007520433121672188 
-0.0003186708156745978 
7.381709402749685e-05 
-0.0001554324857169787 
-0.0002039591676088366 
-0.0001676523238191849 
-0.000677667301370326 
-4.451273763191921e-05 
-0.001620554508492725 
0.0004952530026722604 
0 
0.003028186854933373 
0.001620554508492725 
0.0004952530026722604 
0.000677667301370326 
-4.451273763191921e-05 
0.0002039591676088366 
-0.0001676523238191849 
2.732907956181305e-05 
-6.550230490238445e-05 
-0.0001809874867518251 
-0.0001834283898054711 
0.0001469378917774332 
-0.0002572155534026849 
0 
-0.001644326667051924 
-0.0001469378917774332 
-0.0002572155534026849 
0.0001809874867518251 
-0.0001834283898054711 
-2.732907956181305e-05 
-6.550230490238445e-05 
0.0001071082685206624 
9.356765583920687e-05 
0.000165058883657124 
0.0003792721800606411 
0.0003075353043536545 
-0.0001157822086695019 
0 
0.009919502698909545 
-0.0003075353043536545 
-0.0001157822086695019 
-0.000165058883657124 
0.0003792721800606411 
-0.0001071082685206624 
9.356765583920687e-05 
0.0001388128310960882 
-3.18031860822602e-05 
-7.044075911142519e-05 
-0.0006397450400567674 
-0.0008123072285796603 
-0.001159854137036157 
0 
0.001622637599951135 
0.0008123072285796603 
-0.001159854137036157 
7.044075911142519e-05 
-0.0006397450400567674 
-0.0001388128310960882 
-3.18031860822602e-05 
-1.758570619846987e-05 
-0.0001643899402923471 
-0.0006030961230866208 
-0.0004986712052688556 
-0.003459271892017543 
0.001792899693452683 
0 
0.01338437643481577 
0.003459271892017543 
0.001792899693452683 
0.0006030961230866208 
-0.0004986712052688556 
1.758570619846987e-05 
-0.0001643899402923471 
-8.465407189051838e-06 
0.0001072238331950405 
0.0002600954791039673 
0.0003181157057717485 
0.0007197672431926551 
-0.0005259954989009577 
0 
0.002477988644181992 
-0.0007197672431926551 
-0.0005259954989009577 
-0.0002600954791039673 
0.0003181157057717485 
8.465407189051838e-06 
0.0001072238331950405 
0.0001811052912005621 
-5.814172545981071e-05 
0.000510268930537854 
-0.0009424261841281089 
-0.0009925083025786752 
-0.004693445711021652 
0 
-0.002894060750284892 
0.0009925083025786752 
-0.004693445711021652 
-0.000510268930537854 
-0.0009424261841281089 
-0.0001811052912005621 
-5.814172545981071e-05 
-0.0001460889436504065 
-0.0001071177243886683 
-0.0001577156009454478 
0.0006826290615617713 
0.00280430755790969 
9.376359560195361e-05 
0 
-0.0133879088576507 
-0.00280430755790969 
9.376359560195361e-05 
0.0001577156009454478 
0.0006826290615617713 
0.0001460889436504065 
-0.0001071177243886683 
-2.887365678793753e-05 
-3.004404387978633e-05 
0.0001841765250015617 
-0.0002321333934872816 
0.0001272771399548154 
-0.001321139655281319 
0 
-0.003837583936434395 
-0.0001272771399548154 
-0.001321139655281319 
-0.0001841765250015617 
-0.0002321333934872816 
2.887365678793753e-05 
-3.004404387978633e-05 
0.0002242351244526247 
-0.0002298899903225005 
-0.0001004666952395184 
-0.001495495406936003 
-0.002543551765200353 
-0.002921670513364589 
0 
-0.002024730539008054 
0.002543551765200353 
-0.002921670513364589 
0.0001004666952395184 
-0.001495495406936003 
-0.0002242351244526247 
-0.0002298899903225005 
-4.812078460845355e-05 
-6.035269090248672e-05 
0.0002198314158074352 
0.0001529390066036042 
0.001410250874927329 
-0.001961861496093628 
0 
-0.004377102213714363 
-0.001410250874927329 
-0.001961861496093628 
-0.0002198314158074352 
0.0001529390066036042 
4.812078460845355e-05 
-6.035269090248672e-05 
-1.071403728800183e-05 
0.0002001713095369282 
-0.0001098817904136181 
0.00080139532782361 
0.000251255750164714 
0.003915215409562109 
0 
0.01217723579361037 
-0.000251255750164714 
0.003915215409562109 
0.0001098817904136181 
0.00080139532782361 
1.071403728800183e-05 
0.0002001713095369282 
5.032246921673549e-05 
-5.192653582373857e-05 
-0.0004087994183774395 
-0.0004891376836124675 
-0.001316648785342615 
0.0001247853573299871 
0 
0.003514686095885641 
0.001316648785342615 
0.0001247853573299871 
0.0004087994183774395 
-0.0004891376836124675 
-5.032246921673549e-05 
-5.192653582373857e-05 
4.781933420844478e-06 
-0.0001532582173216721 
-0.00116411373395265 
-0.0002955433737629749 
-0.002638134502426507 
0.003402551428015039 
0 
0.01224927666423404 
0.002638134502426507 
0.003402551428015039 
0.00116411373395265 
-0.0002955433737629749 
-4.781933420844478e-06 
-0.0001532582173216721 
0.0001958352339217977 
5.419623561047005e-05 
0.0008176781811885312 
-0.001122540878712238 
-0.0006342804224517315 
-0.004826752674071303 
0 
-0.007228759080567563 
0.0006342804224517315 
-0.004826752674071303 
-0.0008176781811885312 
-0.001122540878712238 
-0.0001958352339217977 
5.419623561047005e-05 
1.600358984027081e-05 
3.212921047146639e-05 
6.527599452619241e-05 
-0.0001786864157785849 
-0.0002597302934510031 
-0.0005917310123311261 
0 
0.002723688157529225 
0.0002597302934510031 
-0.0005917310123311261 
-6.527599452619241e-05 
-0.0001786864157785849 
-1.600358984027081e-05 
3.212921047146639e-05 
-0.0001941726631960998 
-0.0001563149259804047 
-0.0005770791110555239 
0.0004182639943656698 
-0.0005002195653110138 
0.001073398182284918 
0 
0.004234815084310096 
0.0005002195653110138 
0.001073398182284918 
0.0005770791110555239 
0.0004182639943656698 
0.0001941726631960998 
-0.0001563149259804047 
4.30300955251707e-06 
-0.0001399004551649392 
-0.0005501267874134999 
-0.0005142677014886118 
-0.003194209725352066 
0.001731917341737603 
0 
0.0122205404471391 
0.003194209725352066 
0.001731917341737603 
0.0005501267874134999 
-0.0005142677014886118 
-4.30300955251707e-06 
-0.0001399004551649392 
1.678058814877746e-05 
-0.0001504409958874699 
-1.372847814157752e-05 
-0.0008399306929724576 
-0.0014197513228001 
-0.003545942077967119 
0 
-0.00571764426553949 
0.0014197513228001 
-0.003545942077967119 
1.372847814157752e-05 
-0.0008399306929724576 
-1.678058814877746e-05 
-0.0001504409958874699 
9.033170245364052e-05 
2.494351514259229e-05 
0.0003044247536579223 
-0.0001139319129073941 
-0.0002448066386285049 
-0.002631063790053877 
0 
0.003989879450097145 
0.0002448066386285049 
-0.002631063790053877 
-0.0003044247536579223 
-0.0001139319129073941 
-9.033170245364052e-05 
2.494351514259229e-05 
0.000116969346667085 
-1.979625981339192e-05 
0.0003348741309389435 
-0.0008877176404155347 
-0.002558969788039977 
-0.002421712467134365 
0 
0.004020786614638848 
0.002558969788039977 
-0.002421712467134365 
-0.0003348741309389435 
-0.0008877176404155347 
-0.000116969346667085 
-1.979625981339192e-05 
0.0001263405057676967 
-0.0001546599457112529 
-0.0001972397650885845 
-0.0004559681209288069 
-0.001233608300447324 
-0.002097162303065653 
0 
0.006621555193257549 
0.001233608300447324 
-0.002097162303065653 
0.0001972397650885845 
-0.0004559681209288069 
-0.0001263405057676967 
-0.0001546599457112529 
-0.0001096673506216175 
-5.688992450094607e-05 
-0.0009406283800695942 
0.0002999775027654103 
-0.001747512517288553 
0.005313249689077337 
0 
0.01273240468251284 
0.001747512517288553 
0.005313249689077337 
0.0009406283800695942 
0.0002999775027654103 
0.0001096673506216175 
-5.688992450094607e-05 
-0.0001673734181540514 
-7.244091758948459e-06 
-0.0006505994751902816 
0.00109475085362977 
0.002593787603486337 
0.003873916667679305 
0 
-0.0002511564516248485 
-0.002593787603486337 
0.003873916667679305 
0.0006505994751902816 
0.00109475085362977 
0.0001673734181540514 
-7.244091758948459e-06 
-0.0001360429702127525 
-0.0002104344563885631 
-0.0005816643162659477 
5.682834798280225e-05 
0.0001026483709825023 
0.0002095799041494514 
0 
-0.0009454779052435666 
-0.0001026483709825023 
0.0002095799041494514 
0.0005816643162659477 
5.682834798280225e-05 
0.0001360429702127525 
-0.0002104344563885631 
6.141059002764763e-05 
2.269375940545906e-05 
0.0007316004128391453 
-0.000433663538664565 
0.002310442611071372 
-0.006038952365827533 
0 
-0.0131001523684319 
-0.002310442611071372 
-0.006038952365827533 
-0.0007316004128391453 
-0.000433663538664565 
-6.141059002764763e-05 
2.269375940545906e-05 
7.425195402047052e-05 
0.0001461049644766007 
0.001051085911076292 
-0.0001753898554275878 
0.0006706318176635494 
-0.004073112555058791 
0 
-0.004237263903086232 
-0.0006706318176635494 
-0.004073112555058791 
-0.001051085911076292 
-0.0001753898554275878 
-7.425195402047052e-05 
0.0001461049644766007 
0.0001278458608145899 
-0.0002522513198522489 
0.0004715056505867323 
-0.001484410238040576 
-0.001240892381461697 
-0.007261027662478784 
0 
-0.01357418502971873 
0.001240892381461697 
-0.007261027662478784 
-0.0004715056505867323 
-0.001484410238040576 
-0.0001278458608145899 
-0.0002522513198522489 
-0.0001148146095440223 
-0.0001445321115062323 
-0.0007964425800049818 
0.0004325019652475625 
-0.0007530685497373448 
0.002274228958564804 
0 
0.006776196622599866 
0.0007530685497373448 
0.002274228958564804 
0.0007964425800049818 
0.0004325019652475625 
0.0001148146095440223 
-0.0001445321115062323 
-4.766744015700603e-05 
-6.979223102199511e-05 
-0.0001439380340900662 
-0.0001040375428715965 
-0.001107898613665973 
-1.773879430488728e-05 
0 
0.007584845763099591 
0.001107898613665973 
-1.773879430488728e-05 
0.0001439380340900662 
-0.0001040375428715965 
4.766744015700603e-05 
-6.979223102199511e-05 
0.000138013839222761 
4.277845074071726e-05 
0.0006908759903379294 
-0.0003976294858960098 
-0.0007454987303936975 
-0.004588144864863805 
0 
0.003575370139476766 
0.0007454987303936975 
-0.004588144864863805 
-0.0006908759903379294 
-0.0003976294858960098 
-0.000138013839222761 
4.277845074071726e-05 
0.0001553076640150944 
0.0003347698316071089 
0.001278924908639966 
0.0004463283328442527 
0.001847898279990135 
-8.083614153599904e-05 
0 
0.0002661008981898932 
-0.001847898279990135 
-8.083614153599904e-05 
-0.001278924908639966 
0.0004463283328442527 
-0.0001553076640150944 
0.0003347698316071089 
0.0001934239424102776 
0.0003432396300111116 
0.001103307610950186 
0.0004310803900586464 
0.002995253126791047 
-0.0009017389600746483 
0 
-0.0043964538115992 
-0.002995253126791047 
-0.0009017389600746483 
-0.001103307610950186 
0.0004310803900586464 
-0.0001934239424102776 
0.0003432396300111116 
0.0002609650078829434 
-0.0002003675016814824 
8.778898502524324e-07 
-0.001677389296890776 
-0.003770275202718117 
-0.002567524365090131 
0 
0.001055347669548407 
0.003770275202718117 
-0.002567524365090131 
-8.778898502524324e-07 
-0.001677389296890776 
-0.0002609650078829434 
-0.0002003675016814824 
3.959774080734943e-05 
-0.0001478684528781249 
0.0003353215900086008 
-0.0002333246903590094 
0.0007129885997591632 
-0.004452103969039792 
0 
-0.005879976836105447 
-0.0007129885997591632 
-0.004452103969039792 
-0.0003353215900086008 
-0.0002333246903590094 
-3.959774080734943e-05 
-0.0001478684528781249 
-0.0002194784130483188 
3.267569800266015e-05 
-9.965654493007185e-06 
0.0008623717243951342 
0.003030779475251566 
-0.0004464581599826828 
0 
-0.006434153576166424 
-0.003030779475251566 
-0.0004464581599826828 
9.965654493007185e-06 
0.0008623717243951342 
0.0002194784130483188 
3.267569800266015e-05 
-0.0002275097930247453 
8.660298313721782e-05 
-0.0002659527489038976 
0.0007754493252046733 
0.002271489448966752 
0.0004036252023730844 
0 
-0.002456402533528511 
-0.002271489448966752 
0.0004036252023730844 
0.0002659527489038976 
0.0007754493252046733 
0.0002275097930247453 
8.660298313721782e-05 
0.0002185947413795219 
-0.0001107401985292911 
-0.0004502065914394251 
-0.001127578687561756 
-0.001745279041079696 
-0.0004890274762514091 
0 
0.003406664876537006 
0.001745279041079696 
-0.0004890274762514091 
0.0004502065914394251 
-0.001127578687561756 
-0.0002185947413795219 
-0.0001107401985292911 
0.0001695412966372834 
2.759809797322797e-06 
0.0008496016045346926 
-0.0006754643686078852 
-0.0006343821162413313 
-0.00571983753301303 
0 
-0.001265726005484298 
0.0006343821162413313 
-0.00571983753301303 
-0.0008496016045346926 
-0.0006754643686078852 
-0.0001695412966372834 
2.759809797322797e-06 
-0.0001062776984528506 
-6.134102823582487e-05 
-0.0009422170134506361 
0.0004101223064236385 
0.0002200884347164984 
0.003513434643807949 
0 
0.007908313350640475 
-0.0002200884347164984 
0.003513434643807949 
0.0009422170134506361 
0.0004101223064236385 
0.0001062776984528506 
-6.134102823582487e-05 
-6.912943531395727e-05 
-0.0001108884121399612 
4.112462287942943e-05 
0.0003518429560403356 
0.001727676427026594 
-0.001762353219862829 
0 
-0.009447652246546954 
-0.001727676427026594 
-0.001762353219862829 
-4.112462287942943e-05 
0.0003518429560403356 
6.912943531395727e-05 
-0.0001108884121399612 
-8.256787073943841e-05 
0.0001695303690333278 
0.0002175720553425541 
0.00075991403056691 
0.001353808777286079 
0.001329382576635968 
0 
0.006192973816607231 
-0.001353808777286079 
0.001329382576635968 
-0.0002175720553425541 
0.00075991403056691 
8.256787073943841e-05 
0.0001695303690333278 
5.860963673804855e-05 
-0.0001187701657872551 
-0.0002660577110234948 
-0.0006218419347576777 
-0.002065532544692736 
-0.001357043650513171 
0 
0.005970517254827312 
0.002065532544692736 
-0.001357043650513171 
0.0002660577110234948 
-0.0006218419347576777 
-5.860963673804855e-05 
-0.0001187701657872551 
0.0002530797035380044 
-0.0001385659898932731 
0.0005081459354295097 
-0.001553329685031245 
-0.0008966601416255253 
-0.005904176497108887 
0 
-0.01123402597483096 
0.0008966601416255253 
-0.005904176497108887 
-0.0005081459354295097 
-0.001553329685031245 
-0.0002530797035380044 
-0.0001385659898932731 
-2.620507880722392e-05 
-0.0001865405083822945 
-0.0005801672288649552 
-0.0002289432387456393 
-0.001799141396589621 
0.001048821730101086 
0 
0.007935824185756045 
0.001799141396589621 
0.001048821730101086 
0.0005801672288649552 
-0.0002289432387456393 
2.620507880722392e-05 
-0.0001865405083822945 
-0.0001175880275186917 
-4.059469913197144e-05 
-0.0003384388677430479 
-4.160857980049863e-05 
-0.00138092581307143 
0.0003017295524032048 
0 
0.003600319661442032 
0.00138092581307143 
0.0003017295524032048 
0.0003384388677430479 
-4.160857980049863e-05 
0.0001175880275186917 
-4.059469913197144e-05 
-1.972982948957093e-05 
-3.386065513220052e-05 
-0.0003079923327359946 
-0.0001592885227685714 
-0.0009268227353096255 
0.0002813267685881526 
0 
0.002253244474667694 
0.0009268227353096255 
0.0002813267685881526 
0.0003079923327359946 
-0.0001592885227685714 
1.972982948957093e-05 
-3.386065513220052e-05 
4.454205991544381e-05 
-4.46421338712286e-05 
-2.066372650156333e-05 
-0.0004899846140268767 
7.650575874105623e-05 
-0.0008432348096266386 
0 
-0.005056976604455425 
-7.650575874105623e-05 
-0.0008432348096266386 
2.066372650156333e-05 
-0.0004899846140268767 
-4.454205991544381e-05 
-4.46421338712286e-05 
-2.55834827822287e-06 
-0.0002060523150748297 
-0.0007088559242884918 
-0.000201545422585324 
-0.0008164921740124912 
0.0006826061176145506 
0 
0.003334211113598358 
0.0008164921740124912 
0.0006826061176145506 
0.0007088559242884918 
-0.000201545422585324 
2.55834827822287e-06 
-0.0002060523150748297 
-7.246945807420376e-05 
-7.040090920403567e-05 
-0.0002649863883075233 
-0.0004210751810587109 
-0.001840342794413491 
-0.0002981903623107686 
0 
0.0006768189281289522 
0.001840342794413491 
-0.0002981903623107686 
0.0002649863883075233 
-0.0004210751810587109 
7.246945807420376e-05 
-7.040090920403567e-05 
-3.491239255574576e-05 
2.05458377337504e-05 
-0.0005688148895436681 
0.0001181483216509921 
-0.001708966658693339 
0.004257461699516334 
0 
0.009005024096291487 
0.001708966658693339 
0.004257461699516334 
0.0005688148895436681 
0.0001181483216509921 
3.491239255574576e-05 
2.05458377337504e-05 
-2.470738262678046e-05 
-7.277970731926646e-05 
6.979634609953311e-05 
-0.0002800756929288638 
-0.001011185674293893 
-0.0007838113150247086 
0 
-0.0006202173858196384 
0.001011185674293893 
-0.0007838113150247086 
-6.979634609953311e-05 
-0.0002800756929288638 
2.470738262678046e-05 
-7.277970731926646e-05 
0.0001352431300566656 
-0.0001405253405873394 
-0.0001587260557953152 
-0.001098719121657548 
-0.002337329486139988 
-0.0008123299551695573 
0 
0.00271184798936549 
0.002337329486139988 
-0.0008123299551695573 
0.0001587260557953152 
-0.001098719121657548 
-0.0001352431300566656 
-0.0001405253405873394 
-2.523681094193936e-06 
3.018206047521352e-05 
0.0001993303501940821 
-0.0002775883460993707 
0.001301960301712275 
-0.002070916968167007 
0 
-0.00843140069629688 
-0.001301960301712275 
-0.002070916968167007 
-0.0001993303501940821 
-0.0002775883460993707 
2.523681094193936e-06 
3.018206047521352e-05 
0.000103009472494961 
-0.0002043680756246063 
0.0002309235278963561 
-0.00137524085407633 
-0.001503859376314512 
-0.005886267162294186 
0 
-0.009126952956349889 
0.001503859376314512 
-0.005886267162294186 
-0.0002309235278963561 
-0.00137524085407633 
-0.000103009472494961 
-0.0002043680756246063 
8.913331037331734e-05 
6.649494562686876e-05 
0.0003608461245801263 
-0.0003690073827710271 
-0.001642198142433524 
-0.001117602520045916 
0 
0.003215626128369391 
0.001642198142433524 
-0.001117602520045916 
-0.0003608461245801263 
-0.0003690073827710271 
-8.913331037331734e-05 
6.649494562686876e-05 
-1.314469114656151e-06 
-9.842976634747271e-06 
-9.865200878307978e-05 
-0.0004714091997403408 
-0.002496173074101166 
0.001261355130366331 
0 
0.008334007377736262 
0.002496173074101166 
0.001261355130366331 
9.865200878307978e-05 
-0.0004714091997403408 
1.314469114656151e-06 
-9.842976634747271e-06 
2.833805477430241e-05 
3.912828017641123e-05 
0.0001690372952222131 
7.997680978300425e-05 
0.0007011424492187172 
-0.001740310871881333 
0 
0.00483959056746766 
-0.0007011424492187172 
-0.001740310871881333 
-0.0001690372952222131 
7.997680978300425e-05 
-2.833805477430241e-05 
3.912828017641123e-05 
-0.0002022616294463213 
0.000101532331788697 
0.0001331252186110792 
0.0008905593628066723 
0.000583554036825101 
0.0003409317088689104 
0 
0.005238636438827106 
-0.000583554036825101 
0.0003409317088689104 
-0.0001331252186110792 
0.0008905593628066723 
0.0002022616294463213 
0.000101532331788697 
-0.0001025936538425387 
0.0002111362434405272 
0.000164879240095011 
0.0005010015771700048 
-0.002188966288638267 
0.002734685595982395 
0 
0.01394779421018186 
0.002188966288638267 
0.002734685595982395 
-0.000164879240095011 
0.0005010015771700048 
0.0001025936538425387 
0.0002111362434405272 
0.0001373360263036626 
-0.0001220514959586456 
0.0002725517304977412 
-0.00106534446573678 
-0.001492253218863574 
-0.004561749089257285 
0 
-0.003221585549185761 
0.001492253218863574 
-0.004561749089257285 
-0.0002725517304977412 
-0.00106534446573678 
-0.0001373360263036626 
-0.0001220514959586456 
-7.0333947901795e-06 
-4.384640768976403e-05 
-0.0004953199325382107 
-0.000122665522395548 
-0.0006509787371901993 
0.001158018711681805 
0 
0.002197401647399995 
0.0006509787371901993 
0.001158018711681805 
0.0004953199325382107 
-0.000122665522395548 
7.0333947901795e-06 
-4.384640768976403e-05 
-3.710781031420865e-05 
-0.0001828352939225085 
-0.0003414410601811438 
-0.0004714112822468919 
-0.0007658175207951303 
-0.001439360139174803 
0 
-0.003733412173894596 
0.0007658175207951303 
-0.001439360139174803 
0.0003414410601811438 
-0.0004714112822468919 
3.710781031420865e-05 
-0.0001828352939225085 
0.000128481950633751 
1.158610759725298e-05 
0.000158065822902236 
-0.0006019238690395583 
-0.002927383456541534 
0.0006022592418902691 
0 
0.008635041175582522 
0.002927383456541534 
0.0006022592418902691 
-0.000158065822902236 
-0.0006019238690395583 
-0.000128481950633751 
1.158610759725298e-05 
0.0001067736408145653 
3.948674434334898e-05 
0.0003100407151451255 
-0.000388894016687045 
-0.0004687224593249232 
-0.0009973790231467845 
0 
0.0009266738676632948 
0.0004687224593249232 
-0.0009973790231467845 
-0.0003100407151451255 
-0.000388894016687045 
-0.0001067736408145653 
3.948674434334898e-05 
7.932364810214363e-05 
-0.0001749962366763111 
-0.0002497576223051063 
-0.0004469717463517905 
-0.0009111160576503963 
-0.001428564094328725 
0 
0.002583587044866883 
0.0009111160576503963 
-0.001428564094328725 
0.0002497576223051063 
-0.0004469717463517905 
-7.932364810214363e-05 
-0.0001749962366763111 
-2.475435466196083e-05 
-5.999953506525908e-05 
0.0003758795186380445 
-0.0004481138600631526 
-0.001418771386250311 
-0.002888185917159532 
0 
0.004964983713202464 
0.001418771386250311 
-0.002888185917159532 
-0.0003758795186380445 
-0.0004481138600631526 
2.475435466196083e-05 
-5.999953506525908e-05 
-9.962462197141465e-05 
4.057797957909248e-05 
4.935023575182471e-05 
0.0001935429839090437 
-0.0001585552938793029 
-0.001714151485188083 
0 
0.003060109191772058 
0.0001585552938793029 
-0.001714151485188083 
-4.935023575182471e-05 
0.0001935429839090437 
9.962462197141465e-05 
4.057797957909248e-05 
8.825259424707868e-05 
0.0001395298162038603 
0.000724123001918561 
-4.47076840346591e-05 
0.001747221650009747 
-0.003177547532061703 
0 
-0.00670853038306589 
-0.001747221650009747 
-0.003177547532061703 
-0.000724123001918561 
-4.47076840346591e-05 
-8.825259424707868e-05 
0.0001395298162038603 
0.0001622635277924673 
-5.230502546012731e-05 
0.0005004875713908613 
-0.0009860694773111071 
0.0005232198397596239 
-0.004525227924599933 
0 
-0.009322768953446544 
-0.0005232198397596239 
-0.004525227924599933 
-0.0005004875713908613 
-0.0009860694773111071 
-0.0001622635277924673 
-5.230502546012731e-05 
7.322972743575553e-05 
-5.688074875219792e-05 
-0.0001400514173701647 
-0.0005940794284257185 
4.350457448433025e-05 
-0.001343869621643029 
0 
-0.003389486613544149 
-4.350457448433025e-05 
-0.001343869621643029 
0.0001400514173701647 
-0.0005940794284257185 
-7.322972743575553e-05 
-5.688074875219792e-05 
-0.0001145505361895389 
0.00010209778183763 
0.000114294147938186 
0.0002669086751308733 
0.0002590729637462274 
-0.000618663904804743 
0 
0.004032970174780898 
-0.0002590729637462274 
-0.000618663904804743 
-0.000114294147938186 
0.0002669086751308733 
0.0001145505361895389 
0.00010209778183763 
-0.0001024686724926995 
-3.112368994408508e-05 
-0.000418828672343527 
0.0005757396374504556 
-0.0003386743844176255 
0.001651994451523637 
0 
0.006064655838657535 
0.0003386743844176255 
0.001651994451523637 
0.000418828672343527 
0.0005757396374504556 
0.0001024686724926995 
-3.112368994408508e-05 
8.20685291382356e-05 
2.125689380288327e-05 
0.0007860711684371753 
-0.0002713517063515367 
-0.0008157285821059161 
-0.003893134062788016 
0 
0.002249418185452462 
0.0008157285821059161 
-0.003893134062788016 
-0.0007860711684371753 
-0.0002713517063515367 
-8.20685291382356e-05 
2.125689380288327e-05 
-5.540002643069827e-05 
-3.842169131253332e-05 
-2.594241714557535e-06 
-9.011971065082525e-05 
-0.002716054699582564 
-0.0009710741835086647 
0 
0.01346441100627163 
0.002716054699582564 
-0.0009710741835086647 
2.594241714557535e-06 
-9.011971065082525e-05 
5.540002643069827e-05 
-3.842169131253332e-05 
1.17675243364717e-05 
-0.0001343343394632228 
-0.000424209115568123 
-0.0001277155694438946 
-0.001359802490551118 
-3.244253473422371e-06 
0 
0.008115589330329489 
0.001359802490551118 
-3.244253473422371e-06 
0.000424209115568123 
-0.0001277155694438946 
-1.17675243364717e-05 
-0.0001343343394632228 
0.0001444335191738703 
-2.503747259255574e-05 
-0.0004407506244287866 
7.168642126894348e-05 
-0.0006506742605673179 
0.001983969217263445 
0 
0.01251336014919213 
0.0006506742605673179 
0.001983969217263445 
0.0004407506244287866 
7.168642126894348e-05 
-0.0001444335191738703 
-2.503747259255574e-05 
0.0001410989282601758 
-8.129024647742669e-05 
0.0004679687171527567 
-0.0003818581484727864 
-0.001060295120624667 
-0.003842887094611468 
0 
0.0001377354386240784 
0.001060295120624667 
-0.003842887094611468 
-0.0004679687171527567 
-0.0003818581484727864 
-0.0001410989282601758 
-8.129024647742669e-05 
-0.0001206685237268563 
-5.438380095548913e-05 
3.244134570410064e-05 
0.000442256834371547 
0.0002600541137080647 
-0.001090129006702395 
0 
-0.001065829045579171 
-0.0002600541137080647 
-0.001090129006702395 
-3.244134570410064e-05 
0.000442256834371547 
0.0001206685237268563 
-5.438380095548913e-05 
7.923435224219054e-05 
-0.000163020754736693 
-2.274971625657096e-05 
-0.0007137559661945886 
-0.0005198168526913664 
-0.002962932469755857 
0 
-0.007767059571791741 
0.0005198168526913664 
-0.002962932469755857 
2.274971625657096e-05 
-0.0007137559661945886 
-7.923435224219054e-05 
-0.000163020754736693 
4.044652711718925e-06 
-0.0001228536204754091 
-0.0002452813334190837 
0.0001550538543593733 
0.0007274386406109449 
-0.0005580353430427416 
0 
0.0007853517729010296 
-0.0007274386406109449 
-0.0005580353430427416 
0.0002452813334190837 
0.0001550538543593733 
-4.044652711718925e-06 
-0.0001228536204754091 
0.0002482581247705011 
-8.892419186071112e-05 
0.000449800343219982 
-0.001661736924586086 
-0.004422049357434867 
-0.00397402198113672 
0 
0.005808160105085403 
0.004422049357434867 
-0.00397402198113672 
-0.000449800343219982 
-0.001661736924586086 
-0.0002482581247705011 
-8.892419186071112e-05 
5.64462968754391e-05 
-0.0001377973386871296 
0.000141334278442438 
-9.447325809574355e-05 
0.0005459462029957044 
-0.003391762073877862 
0 
-0.002552620031919716 
-0.0005459462029957044 
-0.003391762073877862 
-0.000141334278442438 
-9.447325809574355e-05 
-5.64462968754391e-05 
-0.0001377973386871296 
-9.490782061064285e-05 
0.0001253121285816268 
9.846713078028121e-05 
0.001012119254649757 
0.0002300296216303265 
0.002451221448769256 
0 
0.0108497127848548 
-0.0002300296216303265 
0.002451221448769256 
-9.846713078028121e-05 
0.001012119254649757 
9.490782061064285e-05 
0.0001253121285816268 
-5.940028056972156e-05 
6.742773777058894e-06 
0.0003045123251236884 
-1.356058358818016e-06 
-0.001786205221114643 
-0.001978778969945408 
0 
0.006145106399936209 
0.001786205221114643 
-0.001978778969945408 
-0.0003045123251236884 
-1.356058358818016e-06 
5.940028056972156e-05 
6.742773777058894e-06 
-6.296140700734351e-05 
7.253728849938271e-05 
-0.0002667102482258501 
0.0003433359518776153 
-0.0014551930566778 
0.00250744096099922 
0 
0.01582009701891219 
0.0014551930566778 
0.00250744096099922 
0.0002667102482258501 
0.0003433359518776153 
6.296140700734351e-05 
7.253728849938271e-05 
-0.00015770802179349 
5.818584248302472e-05 
-0.0009014254049852028 
0.0006243518317061797 
-0.001376142283350778 
0.00584486096693851 
0 
0.01514844213135753 
0.001376142283350778 
0.00584486096693851 
0.0009014254049852028 
0.0006243518317061797 
0.00015770802179349 
5.818584248302472e-05 
-8.932136831313176e-05 
-2.979753045602568e-05 
1.530660021781105e-05 
0.0001851658790260394 
-0.00172437494905146 
-0.001315152178210535 
0 
0.01449461706529235 
0.00172437494905146 
-0.001315152178210535 
-1.530660021781105e-05 
0.0001851658790260394 
8.932136831313176e-05 
-2.979753045602568e-05 
0.0002133948046185888 
-0.0001071051669722671 
0.0002666951187652139 
-0.00108713050947616 
-0.002354306023701804 
-0.002789452112044906 
0 
0.001656537355834421 
0.002354306023701804 
-0.002789452112044906 
-0.0002666951187652139 
-0.00108713050947616 
-0.0002133948046185888 
-0.0001071051669722671 
4.992782486761444e-05 
1.851181725548904e-05 
0.0006200449304689866 
-0.0002168929502978398 
0.000797005360112691 
-0.002661583297411744 
0 
-0.004532446507213857 
-0.000797005360112691 
-0.002661583297411744 
-0.0006200449304689866 
-0.0002168929502978398 
-4.992782486761444e-05 
1.851181725548904e-05 
0.0001926075072036515 
-0.0001530339881491412 
0.0004999617026498247 
-0.001238410625253925 
-0.001072951128804562 
-0.005942149708764976 
0 
-0.009233074486309178 
0.001072951128804562 
-0.005942149708764976 
-0.0004999617026498247 
-0.001238410625253925 
-0.0001926075072036515 
-0.0001530339881491412 
9.206484512605841e-05 
-8.273691985749756e-05 
0.0003133452950618847 
-0.0006655602802225813 
-0.002729574487394256 
-0.003122679037333509 
0 
0.006114283167007293 
0.002729574487394256 
-0.003122679037333509 
-0.0003133452950618847 
-0.0006655602802225813 
-9.206484512605841e-05 
-8.273691985749756e-05 
-4.455512067768252e-05 
-6.124193311985593e-05 
-0.000308922801391191 
0.0002952834973366102 
-0.0007433721024253722 
0.0005760929812229127 
0 
0.00724240163167704 
0.0007433721024253722 
0.0005760929812229127 
0.000308922801391191 
0.0002952834973366102 
4.455512067768252e-05 
-6.124193311985593e-05 
7.289507573252764e-05 
-0.0001722839055604299 
-0.0006743216844890409 
-0.0004625568801098871 
-0.004223671805478557 
0.001910454536006656 
0 
0.02026093948339346 
0.004223671805478557 
0.001910454536006656 
0.0006743216844890409 
-0.0004625568801098871 
-7.289507573252764e-05 
-0.0001722839055604299 
4.065825968983978e-05 
-5.583546564114121e-05 
0.000635059885346897 
-0.0007008967657865684 
-0.001460929078382863 
-0.004694516276479135 
0 
-0.001337419638913164 
0.001460929078382863 
-0.004694516276479135 
-0.000635059885346897 
-0.0007008967657865684 
-4.065825968983978e-05 
-5.583546564114121e-05 
8.423159769501422e-05 
-4.644022914610516e-05 
0.0008030929653209815 
-0.0007249372484664844 
-0.00136914351593038 
-0.00408527588753283 
0 
-0.004066823468376527 
0.00136914351593038 
-0.00408527588753283 
-0.0008030929653209815 
-0.0007249372484664844 
-8.423159769501422e-05 
-4.644022914610516e-05 
7.678265221958777e-05 
-0.0001168472379710717 
0.0002731164738718438 
-0.0009195425379164149 
-0.003150996917833342 
-0.002989191212016106 
0 
0.006879062541456558 
0.003150996917833342 
-0.002989191212016106 
-0.0002731164738718438 
-0.0009195425379164149 
-7.678265221958777e-05 
-0.0001168472379710717 
0.000116232034842009 
-6.170405263651624e-05 
0.000178141484072777 
-0.0007592113807103622 
-0.0005673319308674168 
-0.002182496337258347 
0 
-0.006090890452056986 
0.0005673319308674168 
-0.002182496337258347 
-0.000178141484072777 
-0.0007592113807103622 
-0.000116232034842009 
-6.170405263651624e-05 
-0.0001098483791889749 
2.976037610158572e-05 
0.000232284096823585 
0.0001488949884766413 
0.001865347792609777 
-0.001465893068680106 
0 
-0.005233693163994252 
-0.001865347792609777 
-0.001465893068680106 
-0.000232284096823585 
0.0001488949884766413 
0.0001098483791889749 
2.976037610158572e-05 
3.511750508076246e-05 
0.0001330289059940119 
8.681617418252417e-05 
0.0009962100747509237 
0.002075461720809553 
0.003247288114534302 
0 
0.005476860976040052 
-0.002075461720809553 
0.003247288114534302 
-8.681617418252417e-05 
0.0009962100747509237 
-3.511750508076246e-05 
0.0001330289059940119 
0.0002102986357607395 
-2.295716093287722e-05 
0.0003996256928163262 
-0.001112250350247233 
-0.002719898542246175 
-0.004927262914293775 
0 
0.0058655282924894 
0.002719898542246175 
-0.004927262914293775 
-0.0003996256928163262 
-0.001112250350247233 
-0.0002102986357607395 
-2.295716093287722e-05 
-2.470913898051924e-05 
-9.215209961963335e-07 
-0.0001874755352865146 
-0.0001996539369342318 
-0.002628922986548494 
0.00031838664676535 
0 
0.01276571711760249 
0.002628922986548494 
0.00031838664676535 
0.0001874755352865146 
-0.0001996539369342318 
2.470913898051924e-05 
-9.215209961963335e-07 
0.0001035631127787605 
-2.845079211003935e-05 
0.0002387048072838873 
-0.0008360104940919661 
-0.0040641162747463 
-0.001856848071716276 
0 
0.01240303604206157 
0.0040641162747463 
-0.001856848071716276 
-0.0002387048072838873 
-0.0008360104940919661 
-0.0001035631127787605 
-2.845079211003935e-05 
1.345682403312614e-05 
7.154175767111728e-05 
0.0004575549707749471 
0.0001428794168613281 
0.0003835541126323181 
-0.0006917313274801208 
0 
0.002471928270183554 
-0.0003835541126323181 
-0.0006917313274801208 
-0.0004575549707749471 
0.0001428794168613281 
-1.345682403312614e-05 
7.154175767111728e-05 
7.444710108017083e-05 
0.0001578495134854684 
0.0005713913185980044 
0.000497983043235176 
0.00259348760937827 
0.0009751750097903896 
0 
-0.003981701332251734 
-0.00259348760937827 
0.0009751750097903896 
-0.0005713913185980044 
0.000497983043235176 
-7.444710108017083e-05 
0.0001578495134854684 
0.0001096022499453053 
-9.23792726477365e-05 
0.0005118964083800496 
-0.0005638836360686362 
-0.0007720510642976085 
-0.004917336329117901 
0 
-0.001217006311106592 
0.0007720510642976085 
-0.004917336329117901 
-0.0005118964083800496 
-0.0005638836360686362 
-0.0001096022499453053 
-9.23792726477365e-05 
-0.0002127324560442286 
-9.791815078536978e-05 
-0.001048970788874262 
0.0004170276771900467 
-0.001572241676895838 
0.003687420362055502 
0 
0.01290562356650876 
0.001572241676895838 
0.003687420362055502 
0.001048970788874262 
0.0004170276771900467 
0.0002127324560442286 
-9.791815078536978e-05 
0.0001102278158967254 
-0.0001969937551380409 
-0.0003292975713486756 
-0.0009546108132280975 
-0.001793433506144269 
-0.0007799899289813995 
0 
-0.001371213647789298 
0.001793433506144269 
-0.0007799899289813995 
0.0003292975713486756 
-0.0009546108132280975 
-0.0001102278158967254 
-0.0001969937551380409 
-0.0001544237145554893 
0.0001181757049932328 
-0.000334441727853493 
0.001127365532504553 
-0.0001413580152793715 
0.00383365080133287 
0 
0.01619840058472285 
0.0001413580152793715 
0.00383365080133287 
0.000334441727853493 
0.001127365532504553 
0.0001544237145554893 
0.0001181757049932328 
0.0001184347267557725 
-0.0002047256832778874 
0.0004905572556129025 
-0.001231352389974351 
-0.002370360979810245 
-0.006625223031452742 
0 
-0.004858526636434422 
0.002370360979810245 
-0.006625223031452742 
-0.0004905572556129025 
-0.001231352389974351 
-0.0001184347267557725 
-0.0002047256832778874 
0.000134336903767836 
-0.0001209140891123318 
-7.883707035131211e-05 
-0.0008088163223197912 
-0.001858786306743005 
-0.001689897477091976 
0 
0.002287819314498744 
0.001858786306743005 
-0.001689897477091976 
7.883707035131211e-05 
-0.0008088163223197912 
-0.000134336903767836 
-0.0001209140891123318 
-7.827075690089689e-06 
-0.000140688768707727 
-0.0002919775423332562 
-0.0001943031910510638 
-0.001558245807865519 
-2.838397470668975e-05 
0 
0.003981606686390268 
0.001558245807865519 
-2.838397470668975e-05 
0.0002919775423332562 
-0.0001943031910510638 
7.827075690089689e-06 
-0.000140688768707727 
0.0001561437153320204 
-0.0001390619875511991 
0.0004293660605181197 
-0.001093603468737791 
-0.000369743165295209 
-0.004051675713719979 
0 
-0.006702069675275745 
0.000369743165295209 
-0.004051675713719979 
-0.0004293660605181197 
-0.001093603468737791 
-0.0001561437153320204 
-0.0001390619875511991 
-3.186092634029697e-05 
0.0002289348356407879 
0.0007545017180869277 
0.000998298056033639 
0.003877952730313026 
-0.001320119033455681 
0 
-0.006329250257538771 
-0.003877952730313026 
-0.001320119033455681 
-0.0007545017180869277 
0.000998298056033639 
3.186092634029697e-05 
0.0002289348356407879 
4.298190544009935e-05 
-0.0001805194658303473 
0.0004512164067024141 
-0.00102272151520147 
-0.002643274771911707 
-0.006283069952481281 
0 
-0.0004656110406314828 
0.002643274771911707 
-0.006283069952481281 
-0.0004512164067024141 
-0.00102272151520147 
-4.298190544009935e-05 
-0.0001805194658303473 
9.717838225933331e-05 
-3.659581284969678e-05 
-0.0001865978974420641 
-0.0006088679747527025 
-0.00116255299900047 
4.266992656501926e-05 
0 
0.0001393268838824296 
0.00116255299900047 
4.266992656501926e-05 
0.0001865978974420641 
-0.0006088679747527025 
-9.717838225933331e-05 
-3.659581284969678e-05 
-7.181158923344764e-06 
-0.0001296737915186581 
-6.413208969662864e-05 
-0.0005565584090128193 
-0.001808003410874924 
-0.002086858732301847 
0 
-0.0006440912154277244 
0.001808003410874924 
-0.002086858732301847 
6.413208969662864e-05 
-0.0005565584090128193 
7.181158923344764e-06 
-0.0001296737915186581 
0.0001999559570635523 
0.0001916211393750011 
0.0004988272194410847 
8.487704320033187e-05 
-0.0001192054818430119 
0.00187029600822788 
0 
0.008108298104559122 
0.0001192054818430119 
0.00187029600822788 
-0.0004988272194410847 
8.487704320033187e-05 
-0.0001999559570635523 
0.0001916211393750011 
0.0001389988515647888 
0.0001520617979117811 
0.0005749378588105428 
-9.941775426443262e-05 
0.0006124834312519061 
-0.00103792750472832 
0 
-3.567399141849226e-05 
-0.0006124834312519061 
-0.00103792750472832 
-0.0005749378588105428 
-9.941775426443262e-05 
-0.0001389988515647888 
0.0001520617979117811 
-6.245898741581349e-06 
9.684866388999822e-05 
0.0004062665717431006 
-0.0003344250342928956 
-0.0008969795147914279 
-0.001777081011609256 
0 
0.001422300519333815 
0.0008969795147914279 
-0.001777081011609256 
-0.0004062665717431006 
-0.0003344250342928956 
6.245898741581349e-06 
9.684866388999822e-05 
-5.867333303929423e-05 
-3.972142936467619e-05 
0.0003208415070279043 
-0.000489044170884382 
-0.0008510026758100763 
-0.003286988513666714 
0 
-0.002009185014937577 
0.0008510026758100763 
-0.003286988513666714 
-0.0003208415070279043 
-0.000489044170884382 
5.867333303929423e-05 
-3.972142936467619e-05 
0.0001257822083027831 
9.955801732474718e-05 
0.0008901376109442043 
-0.0006736549696588363 
-0.00156621028669394 
-0.002477279337460046 
0 
0.006269423178370671 
0.00156621028669394 
-0.002477279337460046 
-0.0008901376109442043 
-0.0006736549696588363 
-0.0001257822083027831 
9.955801732474718e-05 
8.083689798142789e-05 
0.0001830037347485983 
0.0006711489008120367 
0.0007398649380350757 
0.004450996346565658 
-9.214586209072946e-05 
0 
-0.008387392843124748 
-0.004450996346565658 
-9.214586209072946e-05 
-0.0006711489008120367 
0.0007398649380350757 
-8.083689798142789e-05 
0.0001830037347485983 
-1.25168945864579e-05 
4.313585783806548e-05 
0.0008047973243337071 
0.0001213398204547089 
0.002304498538388463 
-0.005178654903334375 
0 
-0.00687457674584785 
-0.002304498538388463 
-0.005178654903334375 
-0.0008047973243337071 
0.0001213398204547089 
1.25168945864579e-05 
4.313585783806548e-05 
-3.56234105217391e-05 
-9.200732936687891e-06 
-0.0006631741748196996 
0.0002202914801933877 
-0.001026913364913353 
0.002829454693200469 
0 
0.01091938763576696 
0.001026913364913353 
0.002829454693200469 
0.0006631741748196996 
0.0002202914801933877 
3.56234105217391e-05 
-9.200732936687891e-06 
-0.0001199504860429181 
-5.977598642401672e-05 
-0.0003332975786024085 
4.313872655780207e-05 
-0.0009157287444060854 
-0.001326100267225258 
0 
0.00422596690242471 
0.0009157287444060854 
-0.001326100267225258 
0.0003332975786024085 
4.313872655780207e-05 
0.0001199504860429181 
-5.977598642401672e-05 
6.14543567398804e-05 
1.923065218416897e-05 
-0.0001222386401934929 
-9.122409431052771e-05 
-0.001977731206373278 
0.0004890940689629315 
0 
0.009808974222328005 
0.001977731206373278 
0.0004890940689629315 
0.0001222386401934929 
-9.122409431052771e-05 
-6.14543567398804e-05 
1.923065218416897e-05 
7.397825938271697e-05 
3.83139075294122e-05 
0.0004979784875614023 
-0.0002356633008505465 
0.001013860227076697 
-0.002523583747359498 
0 
-0.001984374986678725 
-0.001013860227076697 
-0.002523583747359498 
-0.0004979784875614023 
-0.0002356633008505465 
-7.397825938271697e-05 
3.83139075294122e-05 
-1.641546763833217e-05 
-5.295829179946369e-05 
0.0002476850739094579 
-0.0002296739770636428 
0.0007866598721991177 
-0.002738080928041107 
0 
-0.004124581340028403 
-0.0007866598721991177 
-0.002738080928041107 
-0.0002476850739094579 
-0.0002296739770636428 
1.641546763833217e-05 
-5.295829179946369e-05 
0.000100083676998893 
7.956594148485815e-05 
0.0006047792328683441 
-0.0001767152002918851 
7.934645728287421e-05 
-0.003944397466491337 
0 
0.000677164467794715 
-7.934645728287421e-05 
-0.003944397466491337 
-0.0006047792328683441 
-0.0001767152002918851 
-0.000100083676998893 
7.956594148485815e-05 
0.0001128785729000775 
-2.251817740864351e-05 
0.0006067618681915937 
-0.0004682498623219735 
0.0004518895098776565 
-0.00441942623861327 
0 
-0.005282914510854204 
-0.0004518895098776565 
-0.00441942623861327 
-0.0006067618681915937 
-0.0004682498623219735 
-0.0001128785729000775 
-2.251817740864351e-05 
-8.170825287894464e-05 
-0.0001070188560927508 
0.0003446912915495586 
6.847307783970535e-05 
0.0001524200782356539 
-0.003952468914755535 
0 
-0.002663430577296818 
-0.0001524200782356539 
-0.003952468914755535 
-0.0003446912915495586 
6.847307783970535e-05 
8.170825287894464e-05 
-0.0001070188560927508 
7.447856869598504e-05 
-0.0001567799928661419 
-0.0001578642618498692 
-0.0009448457247276176 
-0.005095631559617069 
-0.002108522587713083 
0 
0.01450733867886274 
0.005095631559617069 
-0.002108522587713083 
0.0001578642618498692 
-0.0009448457247276176 
-7.447856869598504e-05 
-0.0001567799928661419 
-0.0001243996640521534 
-4.104762095333914e-05 
-0.0007328123522806029 
7.439125605381753e-05 
-0.003772730467107726 
0.003098327414431992 
0 
0.02034129446963938 
0.003772730467107726 
0.003098327414431992 
0.0007328123522806029 
7.439125605381753e-05 
0.0001243996640521534 
-4.104762095333914e-05 
-4.477497046455141e-05 
-0.0001931595753197685 
-0.000429708518988054 
-0.0001905924799898892 
-0.001601563744346614 
-0.0009301979666664335 
0 
0.007185793887141812 
0.001601563744346614 
-0.0009301979666664335 
0.000429708518988054 
-0.0001905924799898892 
4.477497046455141e-05 
-0.0001931595753197685 
4.438082412508702e-05 
-3.74991599381753e-05 
0.0004333074844704962 
-0.0007217372718522806 
-0.0001607461775481996 
-0.003722686481874513 
0 
-0.01036362086814026 
0.0001607461775481996 
-0.003722686481874513 
-0.0004333074844704962 
-0.0007217372718522806 
-4.438082412508702e-05 
-3.74991599381753e-05 
2.799242423958954e-05 
-1.560491354862776e-05 
0.0006156167013272888 
-0.0004747378784745463 
-0.002189618152569003 
-0.003543765879320196 
0 
0.007322265404971098 
0.002189618152569003 
-0.003543765879320196 
-0.0006156167013272888 
-0.0004747378784745463 
-2.799242423958954e-05 
-1.560491354862776e-05 
-4.586309980883341e-05 
-0.0002369290354521007 
-0.0005057169232332513 
-0.0005895932723078991 
-0.002591748258549195 
-0.001071237166102372 
0 
0.003580822077089647 
0.002591748258549195 
-0.001071237166102372 
0.0005057169232332513 
-0.0005895932723078991 
4.586309980883341e-05 
-0.0002369290354521007 
5.660486405927091e-07 
-0.0002171293901028451 
-0.0006789281997583627 
-0.0008858388485301029 
-0.003965465534998267 
0.000923454864719117 
0 
0.01154997980851678 
0.003965465534998267 
0.000923454864719117 
0.0006789281997583627 
-0.0008858388485301029 
-5.660486405927091e-07 
-0.0002171293901028451 
-9.80145177330307e-05 
0.0001665727198246117 
0.0001652965233016183 
0.0007954261936827564 
-0.0006494806939426794 
0.002363976534864723 
0 
0.01222043684371378 
0.0006494806939426794 
0.002363976534864723 
-0.0001652965233016183 
0.0007954261936827564 
9.80145177330307e-05 
0.0001665727198246117 
4.129223831820368e-06 
0.0001479926182073463 
0.0008857949074291744 
0.0005432865963776143 
0.001414440713124113 
-0.003319837119769861 
0 
0.00142459135307443 
-0.001414440713124113 
-0.003319837119769861 
-0.0008857949074291744 
0.0005432865963776143 
-4.129223831820368e-06 
0.0001479926182073463 
0.0001905559806458192 
-0.0002309890774037062 
5.386971764749482e-06 
-0.001518191540986934 
-0.003255558007456483 
-0.003486380294654115 
0 
0.00253004895549379 
0.003255558007456483 
-0.003486380294654115 
-5.386971764749482e-06 
-0.001518191540986934 
-0.0001905559806458192 
-0.0002309890774037062 
-0.0001531350174794557 
-6.906307175141664e-06 
-0.0003023432435961637 
0.0008384114224069576 
0.0009236828430270516 
0.0003804546621928129 
0 
0.004647320209437956 
-0.0009236828430270516 
0.0003804546621928129 
0.0003023432435961637 
0.0008384114224069576 
0.0001531350174794557 
-6.906307175141664e-06 
-3.20926340028888e-06 
-0.0001831334865684043 
-0.0006336858099743534 
-0.0006096106644945431 
-0.00319515663810281 
0.0005868719532768462 
0 
0.01022858282733448 
0.00319515663810281 
0.0005868719532768462 
0.0006336858099743534 
-0.0006096106644945431 
3.20926340028888e-06 
-0.0001831334865684043 
-7.455572123076545e-05 
-0.0002258098225628038 
-0.0005395811691600826 
-0.0008987623565055885 
-0.003723527924311531 
-0.001712387043799841 
0 
0.004208683609035487 
0.003723527924311531 
-0.001712387043799841 
0.0005395811691600826 
-0.0008987623565055885 
7.455572123076545e-05 
-0.0002258098225628038 
2.387793177953852e-05 
-5.050681239570194e-05 
3.225359128916863e-06 
-0.0003999394696571758 
-0.002453164348150959 
-0.0004401549551386703 
0 
0.007910449168096237 
0.002453164348150959 
-0.0004401549551386703 
-3.225359128916863e-06 
-0.0003999394696571758 
-2.387793177953852e-05 
-5.050681239570194e-05 
-9.868228220206085e-05 
9.838953323085374e-05 
0.0002537841902694922 
0.0006770550448272059 
0.001797249563561074 
-0.001205647718543887 
0 
-0.001804824844815044 
-0.001797249563561074 
-0.001205647718543887 
-0.0002537841902694922 
0.0006770550448272059 
9.868228220206085e-05 
9.838953323085374e-05 
1.217684864129382e-05 
-9.275622096919421e-05 
0.0002193814647140851 
-0.0002925673448478686 
-0.001595501711648969 
-0.001839304920731311 
0 
0.003673442915939726 
0.001595501711648969 
-0.001839304920731311 
-0.0002193814647140851 
-0.0002925673448478686 
-1.217684864129382e-05 
-9.275622096919421e-05 
-7.041522774083748e-05 
-3.815254087328723e-05 
-0.0009943731601279307 
0.000595644943831974 
-0.002183827390162369 
0.00375365740384603 
0 
0.0195127347836599 
0.002183827390162369 
0.00375365740384603 
0.0009943731601279307 
0.000595644943831974 
7.041522774083748e-05 
-3.815254087328723e-05 
-5.954741766007427e-05 
-0.0001154915570739628 
0.0001424878218520204 
-0.0001768272444023094 
-0.0007288614063541808 
-0.003932122529879446 
0 
0.0008927170763720689 
0.0007288614063541808 
-0.003932122529879446 
-0.0001424878218520204 
-0.0001768272444023094 
5.954741766007427e-05 
-0.0001154915570739628 
-5.569117406194892e-05 
-0.0001030892231565047 
-0.0002487561731072607 
-3.997471230172872e-05 
-0.0022105095835595 
-0.0006221945041366721 
0 
0.01089123026965394 
0.0022105095835595 
-0.0006221945041366721 
0.0002487561731072607 
-3.997471230172872e-05 
5.569117406194892e-05 
-0.0001030892231565047 
-3.442461643320521e-06 
-3.70940920412585e-05 
-6.659480484734182e-05 
-0.0004417621939146372 
-0.0003931294355490992 
-0.001518068752741652 
0 
-0.00290434677532841 
0.0003931294355490992 
-0.001518068752741652 
6.659480484734182e-05 
-0.0004417621939146372 
3.442461643320521e-06 
-3.70940920412585e-05 
2.163977948944796e-05 
6.490215690781966e-05 
0.0004904754458416415 
-0.0002096468678719429 
-0.0005994558634350854 
-0.001409055668543097 
0 
-0.001372767196068287 
0.0005994558634350854 
-0.001409055668543097 
-0.0004904754458416415 
-0.0002096468678719429 
-2.163977948944796e-05 
6.490215690781966e-05 
3.233496388730509e-05 
-9.850420348432691e-05 
0.0002820013593776521 
-0.0007692811520834556 
-0.002802455156836418 
-0.00311265734788651 
0 
-0.0008723986123557185 
0.002802455156836418 
-0.00311265734788651 
-0.0002820013593776521 
-0.0007692811520834556 
-3.233496388730509e-05 
-9.850420348432691e-05 
1.509755407056436e-05 
-0.0001135836251079208 
-5.644624809364993e-05 
-0.0003118683412988239 
-0.0009473289162087649 
-0.001144613881856583 
0 
0.00219287889433785 
0.0009473289162087649 
-0.001144613881856583 
5.644624809364993e-05 
-0.0003118683412988239 
-1.509755407056436e-05 
-0.0001135836251079208 
-0.0001319912714068363 
8.44932099738751e-05 
-0.0002600393354607239 
0.0006544651265369674 
-0.001385160223796653 
0.003186001950252933 
0 
0.0142208362847294 
0.001385160223796653 
0.003186001950252933 
0.0002600393354607239 
0.0006544651265369674 
0.0001319912714068363 
8.44932099738751e-05 
-0.0001711205410536464 
-8.455148745540843e-05 
-0.000582812336252026 
0.000398305457807758 
-0.0007999593636243183 
0.002250840149909851 
0 
0.006191350616357615 
0.0007999593636243183 
0.002250840149909851 
0.000582812336252026 
0.000398305457807758 
0.0001711205410536464 
-8.455148745540843e-05 
-9.520948249419152e-05 
6.270870539881515e-06 
-0.0002374788511776416 
0.0003582080331265584 
-0.0005435947834822833 
0.0004745008234973187 
0 
0.009106442625093473 
0.0005435947834822833 
0.0004745008234973187 
0.0002374788511776416 
0.0003582080331265584 
9.520948249419152e-05 
6.270870539881515e-06 
7.504278276738222e-05 
0.0001940511296770928 
0.0008281587771681286 
0.0003561736151770559 
0.002987686063087921 
-0.001548290408416787 
0 
-0.007873147104735974 
-0.002987686063087921 
-0.001548290408416787 
-0.0008281587771681286 
0.0003561736151770559 
-7.504278276738222e-05 
0.0001940511296770928 
-0.0001085118776566485 
8.592815151789451e-06 
-2.944788878555025e-05 
3.291912680971277e-05 
0.00035126711009642 
0.0008122811813073386 
0 
-0.001018978080706171 
-0.00035126711009642 
0.0008122811813073386 
2.944788878555025e-05 
3.291912680971277e-05 
0.0001085118776566485 
8.592815151789451e-06 
-4.969332337167023e-06 
9.466740993048017e-05 
0.0005523103792279712 
-0.0005303230833826593 
-0.002380976201987294 
-0.001564820128662073 
0 
0.005969597679281537 
0.002380976201987294 
-0.001564820128662073 
-0.0005523103792279712 
-0.0005303230833826593 
4.969332337167023e-06 
9.466740993048017e-05 
0.0001465113140909006 
-0.00010633531759443 
4.563377887496513e-05 
-0.0008542723194781696 
-0.0009022891455939349 
-0.002711338117330637 
0 
0.001333478651834774 
0.0009022891455939349 
-0.002711338117330637 
-4.563377887496513e-05 
-0.0008542723194781696 
-0.0001465113140909006 
-0.00010633531759443 
0.0001109433153414401 
-9.67542999206014e-05 
-0.0002504216232944319 
-9.04842321163047e-05 
0.0007770040660705222 
0.0007204314649387848 
0 
0.001990812116767625 
-0.0007770040660705222 
0.0007204314649387848 
0.0002504216232944319 
-9.04842321163047e-05 
-0.0001109433153414401 
-9.67542999206014e-05 
-4.250916277374749e-05 
-8.610705778199851e-05 
-0.0004856840181572163 
-1.621847288716015e-05 
0.0008123634970338802 
-4.794094863635215e-05 
0 
0.001179721502376961 
-0.0008123634970338802 
-4.794094863635215e-05 
0.0004856840181572163 
-1.621847288716015e-05 
4.250916277374749e-05 
-8.610705778199851e-05 
-4.11516781600305e-05 
-7.112019153298139e-05 
0.0001195599341041419 
-0.000310912922701494 
-1.06729927164354e-05 
-0.002264412044801541 
0 
-0.002435584525882327 
1.06729927164354e-05 
-0.002264412044801541 
-0.0001195599341041419 
-0.000310912922701494 
4.11516781600305e-05 
-7.112019153298139e-05 
9.714657161674147e-06 
-5.790586319493524e-05 
0.00022357611353605 
-1.039660721139048e-05 
0.001295065845839492 
-0.001412894308629674 
0 
-0.005293333737077069 
-0.001295065845839492 
-0.001412894308629674 
-0.00022357611353605 
-1.039660721139048e-05 
-9.714657161674147e-06 
-5.790586319493524e-05 
3.790681480859024e-05 
0.0001123829011065577 
0.0008511760564381737 
0.0004131608330620261 
0.001862922898509046 
-0.003433743169863363 
0 
0.0001349577700736926 
-0.001862922898509046 
-0.003433743169863363 
-0.0008511760564381737 
0.0004131608330620261 
-3.790681480859024e-05 
0.0001123829011065577 
-4.859911713244293e-05 
4.565577502296736e-05 
-0.0002257252164159244 
0.0004215063221531132 
-0.0004323422983116428 
0.00236384894605993 
0 
0.007686735971153649 
0.0004323422983116428 
0.00236384894605993 
0.0002257252164159244 
0.0004215063221531132 
4.859911713244293e-05 
4.565577502296736e-05 
0.0001121976446340341 
5.510067738984436e-05 
0.001004616560276845 
-0.0004418912971433626 
-0.0002027817108465783 
-0.00531501333828277 
0 
0.002217568146964849 
0.0002027817108465783 
-0.00531501333828277 
-0.001004616560276845 
-0.0004418912971433626 
-0.0001121976446340341 
5.510067738984436e-05 
3.349208454392925e-06 
-0.0001427597048292462 
9.962223821631809e-05 
-0.0005786126601926676 
-0.001464652405943485 
-0.002836688671157032 
0 
0.001765489792408318 
0.001464652405943485 
-0.002836688671157032 
-9.962223821631809e-05 
-0.0005786126601926676 
-3.349208454392925e-06 
-0.0001427597048292462 
0.0001200012350467892 
7.368586040844022e-05 
0.0008783151431671488 
-1.723944090664212e-05 
0.001276058670446773 
-0.004528794906569851 
0 
-0.004033775269961621 
-0.001276058670446773 
-0.004528794906569851 
-0.0008783151431671488 
-1.723944090664212e-05 
-0.0001200012350467892 
7.368586040844022e-05 
0.0001890582728292572 
-2.55967779162692e-05 
0.0004038996905266781 
-0.0004191976320137639 
0.001698784636413957 
-0.002109504109958205 
0 
-0.009438396178085411 
-0.001698784636413957 
-0.002109504109958205 
-0.0004038996905266781 
-0.0004191976320137639 
-0.0001890582728292572 
-2.55967779162692e-05 
2.78934824641693e-06 
0.0001599286716540937 
0.0008048045017310471 
0.0001188110662661122 
0.002006527757007812 
-0.004421978800105186 
0 
-0.003230241579792937 
-0.002006527757007812 
-0.004421978800105186 
-0.0008048045017310471 
0.0001188110662661122 
-2.78934824641693e-06 
0.0001599286716540937 
-1.858052276621212e-05 
-7.169355896997268e-05 
-0.0003030848142766389 
-0.0001589368480985086 
0.000450285803524076 
0.0005187565068698729 
0 
0.00516784486871588 
-0.000450285803524076 
0.0005187565068698729 
0.0003030848142766389 
-0.0001589368480985086 
1.858052276621212e-05 
-7.169355896997268e-05 
6.73482611100941e-05 
-7.791239271836574e-05 
-0.0004846486550686007 
-0.0005359552461218106 
-0.001212090267106424 
0.001233731366520521 
0 
0.005831330014447926 
0.001212090267106424 
0.001233731366520521 
0.0004846486550686007 
-0.0005359552461218106 
-6.73482611100941e-05 
-7.791239271836574e-05 
0.0001764834323616513 
0.0001117424734700727 
0.0002242019704248337 
5.511699741859875e-05 
0.001227007369466277 
0.0004496608073379018 
0 
0.001037421182708044 
-0.001227007369466277 
0.0004496608073379018 
-0.0002242019704248337 
5.511699741859875e-05 
-0.0001764834323616513 
0.0001117424734700727 
-0.0001050144568577275 
0.000151480507194253 
7.025562396965314e-05 
0.0008100183499907434 
0.0003601892943391377 
0.003525084846571083 
0 
0.01104402437143423 
-0.0003601892943391377 
0.003525084846571083 
-7.025562396965314e-05 
0.0008100183499907434 
0.0001050144568577275 
0.000151480507194253 
5.982853572847975e-05 
-0.0001410986078119472 
0.0004057748432101974 
-0.0005155567643582958 
0.0005950613264402371 
-0.005909114401799039 
0 
-0.005296033872326722 
-0.0005950613264402371 
-0.005909114401799039 
-0.0004057748432101974 
-0.0005155567643582958 
-5.982853572847975e-05 
-0.0001410986078119472 
0.0001165527309234995 
1.010378636366005e-05 
0.0006641341413837165 
-0.0005991500483876005 
0.002088539145478129 
-0.005036802048737242 
0 
-0.011893812633809 
-0.002088539145478129 
-0.005036802048737242 
-0.0006641341413837165 
-0.0005991500483876005 
-0.0001165527309234995 
1.010378636366005e-05 
-0.0001267402014314035 
1.891239350998755e-05 
0.0005245329288750492 
0.000714979100491058 
0.003821783158423953 
-0.004768284152620149 
0 
-0.0104085274586783 
-0.003821783158423953 
-0.004768284152620149 
-0.0005245329288750492 
0.000714979100491058 
0.0001267402014314035 
1.891239350998755e-05 
-7.766844246117214e-05 
0.0001651689103406629 
0.0002241915848268606 
0.000957803442200598 
0.002342342841630465 
0.002055434629875698 
0 
0.00438788656934336 
-0.002342342841630465 
0.002055434629875698 
-0.0002241915848268606 
0.000957803442200598 
7.766844246117214e-05 
0.0001651689103406629 
0.0001059503429330668 
4.376702324309132e-05 
0.0009943435586027721 
-0.0001699045041496193 
0.003197235126279917 
-0.006355194453350511 
0 
-0.01103441786923184 
-0.003197235126279917 
-0.006355194453350511 
-0.0009943435586027721 
-0.0001699045041496193 
-0.0001059503429330668 
4.376702324309132e-05 
6.825533148588445e-05 
1.919288007095461e-05 
0.0003550957738188959 
-0.0004192263957785963 
0.0004752385545499467 
-0.002261780819967208 
0 
-0.006761023238512217 
-0.0004752385545499467 
-0.002261780819967208 
-0.0003550957738188959 
-0.0004192263957785963 
-6.825533148588445e-05 
1.919288007095461e-05 
0.0002031539187161512 
-7.930064844087909e-05 
0.00042613941128402 
-0.0006385433835968913 
0.001130185533246968 
-0.003468546085517393 
0 
-0.004969980264667585 
-0.001130185533246968 
-0.003468546085517393 
-0.00042613941128402 
-0.0006385433835968913 
-0.0002031539187161512 
-7.930064844087909e-05 
-0.0001372214678501898 
0.0003624620255906534 
0.000442857578834148 
0.001031653877297891 
0.0008401334192495335 
0.001698830159270314 
0 
0.01204795079240501 
-0.0008401334192495335 
0.001698830159270314 
-0.000442857578834148 
0.001031653877297891 
0.0001372214678501898 
0.0003624620255906534 
3.486206174314589e-05 
-3.463171657850321e-05 
-4.852743490405522e-05 
0.0005485150257438068 
0.0003912027523775591 
0.0012662301059299 
0 
0.006695124874356294 
-0.0003912027523775591 
0.0012662301059299 
4.852743490405522e-05 
0.0005485150257438068 
-3.486206174314589e-05 
-3.463171657850321e-05 
7.346993443255289e-07 
-6.107562028390967e-05 
1.870035015475e-05 
0.000119676426521528 
0.00190038407468828 
-0.003803170246753813 
0 
-0.002904985542119855 
-0.00190038407468828 
-0.003803170246753813 
-1.870035015475e-05 
0.000119676426521528 
-7.346993443255289e-07 
-6.107562028390967e-05 
5.957447509270039e-05 
-0.0001344540501209929 
0.0001786601278952432 
-0.0002077497235562717 
0.003135845133709892 
-0.003783218901940459 
0 
-0.01400112504344231 
-0.003135845133709892 
-0.003783218901940459 
-0.0001786601278952432 
-0.0002077497235562717 
-5.957447509270039e-05 
-0.0001344540501209929 
0.0001343004790932112 
2.098929238996082e-06 
0.0005537985359811275 
-0.0006544811400882093 
-0.0002247175679817849 
-0.004253357721789907 
0 
-0.004443927930337558 
0.0002247175679817849 
-0.004253357721789907 
-0.0005537985359811275 
-0.0006544811400882093 
-0.0001343004790932112 
2.098929238996082e-06 
-0.0001134483757083375 
8.249935161874819e-05 
-0.0001213424980820688 
0.001118389597706204 
0.00238986452353454 
0.002099739931927802 
0 
0.003673298241265082 
-0.00238986452353454 
0.002099739931927802 
0.0001213424980820688 
0.001118389597706204 
0.0001134483757083375 
8.249935161874819e-05 
2.237578021796331e-05 
5.156547122603732e-07 
0.0002773983226490092 
4.984828444401491e-05 
-0.0002453558541780265 
-0.001800614746800454 
0 
0.005742698424587992 
0.0002453558541780265 
-0.001800614746800454 
-0.0002773983226490092 
4.984828444401491e-05 
-2.237578021796331e-05 
5.156547122603732e-07 
1.754493457552478e-05 
-6.218956075499727e-05 
0.0001569668795127884 
-0.0005953196721997803 
0.0009468243335735622 
-0.002431047801649077 
0 
-0.008924804772888303 
-0.0009468243335735622 
-0.002431047801649077 
-0.0001569668795127884 
-0.0005953196721997803 
-1.754493457552478e-05 
-6.218956075499727e-05 
0.000128579280667666 
-3.65966829552442e-05 
0.0004352330404815821 
-0.0005985313037668267 
-0.0003968139793017857 
-0.004425012573445667 
0 
0.0005209370443760616 
0.0003968139793017857 
-0.004425012573445667 
-0.0004352330404815821 
-0.0005985313037668267 
-0.000128579280667666 
-3.65966829552442e-05 
3.466851211059687e-05 
5.599504688492625e-06 
-0.0001416478125090774 
-6.487324288845826e-05 
-0.002299263666657787 
0.0019558010930792 
0 
0.01285773992371198 
0.002299263666657787 
0.0019558010930792 
0.0001416478125090774 
-6.487324288845826e-05 
-3.466851211059687e-05 
5.599504688492625e-06 
-0.0001591118199649024 
0.0002051123654411222 
5.801179821201778e-05 
0.001344047262516014 
0.001207475485574237 
0.003714153092149075 
0 
0.01222284297447454 
-0.001207475485574237 
0.003714153092149075 
-5.801179821201778e-05 
0.001344047262516014 
0.0001591118199649024 
0.0002051123654411222 
0.0002352656714944584 
-0.000193031481462901 
0.0002393740050196323 
-0.001085446663588226 
0.0003373418579814522 
-0.005638251456338913 
0 
-0.01086864929903777 
-0.0003373418579814522 
-0.005638251456338913 
-0.0002393740050196323 
-0.001085446663588226 
-0.0002352656714944584 
-0.000193031481462901 
-1.588912160772525e-05 
-6.8665018251937e-05 
7.965410418673005e-05 
-0.000197041609422627 
0.001038843552254792 
-0.00302618013940603 
0 
-0.006436697843746934 
-0.001038843552254792 
-0.00302618013940603 
-7.965410418673005e-05 
-0.000197041609422627 
1.588912160772525e-05 
-6.8665018251937e-05 
0.000171203860618101 
-1.33886220328787e-05 
-0.0002492169258263237 
-0.0006292328581329963 
0.0002836800040945049 
-0.0005795321640069407 
0 
-0.002305293187078007 
-0.0002836800040945049 
-0.0005795321640069407 
0.0002492169258263237 
-0.0006292328581329963 
-0.000171203860618101 
-1.33886220328787e-05 
-0.0002147836471250701 
1.776858161675411e-05 
-0.0005311154546304945 
0.0008454170501017057 
0.001035000000785187 
0.002666383394126092 
0 
0.005765106993140024 
-0.001035000000785187 
0.002666383394126092 
0.0005311154546304945 
0.0008454170501017057 
0.0002147836471250701 
1.776858161675411e-05 
-1.126594885054398e-05 
1.405842658987675e-05 
9.825632160543615e-05 
3.537181819058641e-05 
0.001958823509916439 
-0.001565151653904446 
0 
-8.769291822772031e-05 
-0.001958823509916439 
-0.001565151653904446 
-9.825632160543615e-05 
3.537181819058641e-05 
1.126594885054398e-05 
1.405842658987675e-05 
6.059296807303324e-06 
-1.350640590433483e-06 
0.0001335920215719804 
0.0002612254816018057 
0.00456747004014747 
-0.002166099644041472 
0 
-0.01320094801627242 
-0.00456747004014747 
-0.002166099644041472 
-0.0001335920215719804 
0.0002612254816018057 
-6.059296807303324e-06 
-1.350640590433483e-06 
-4.703532212890306e-05 
0.0001033348418992591 
0.00105216966728486 
0.000270876967494293 
0.003550645570569209 
-0.005710318277685845 
0 
-0.01191069228749805 
-0.003550645570569209 
-0.005710318277685845 
-0.00105216966728486 
0.000270876967494293 
4.703532212890306e-05 
0.0001033348418992591 
-1.937508888812578e-05 
9.312236026269876e-05 
0.0002727536091578075 
-0.0003739309318421791 
-0.003741289565552663 
0.0004794586310443573 
0 
0.01416029084538121 
0.003741289565552663 
0.0004794586310443573 
-0.0002727536091578075 
-0.0003739309318421791 
1.937508888812578e-05 
9.312236026269876e-05 
2.723771707898339e-05 
-0.0001791441527940219 
-0.0004307840236512581 
-0.0004686981746539944 
-0.003009620123888027 
0.0007041830499059963 
0 
0.009019484030344235 
0.003009620123888027 
0.0007041830499059963 
0.0004307840236512581 
-0.0004686981746539944 
-2.723771707898339e-05 
-0.0001791441527940219 
-0.0001947023834933358 
-0.0001577307974149146 
-0.001154560383449431 
0.0003970072630633624 
-0.0008311475922863978 
0.003074952753974243 
0 
0.01103211392130133 
0.0008311475922863978 
0.003074952753974243 
0.001154560383449431 
0.0003970072630633624 
0.0001947023834933358 
-0.0001577307974149146 
-0.000113120775161727 
-6.840585381576078e-05 
-0.0003948107885610565 
0.00022214278500229 
-0.002320163358399289 
0.001474199223026935 
0 
0.01547865354387779 
0.002320163358399289 
0.001474199223026935 
0.0003948107885610565 
0.00022214278500229 
0.000113120775161727 
-6.840585381576078e-05 
9.726996804100319e-06 
-3.911277201903917e-05 
3.819587961557279e-05 
-0.0002672780635630333 
-0.0006838844015074269 
-0.001778900586955211 
0 
0.004063460327600204 
0.0006838844015074269 
-0.001778900586955211 
-3.819587961557279e-05 
-0.0002672780635630333 
-9.726996804100319e-06 
-3.911277201903917e-05 
0.0001109262777314379 
-0.0001248901823555661 
0.0001406634027591689 
-0.0008489029055130675 
0.001061111204604967 
-0.004960598477484254 
0 
-0.01393155997021196 
-0.001061111204604967 
-0.004960598477484254 
-0.0001406634027591689 
-0.0008489029055130675 
-0.0001109262777314379 
-0.0001248901823555661 
-1.191050590003072e-05 
-8.937470076174816e-06 
0.0002060942686235085 
-0.0004329654650970176 
-0.001949922933000257 
-0.002851048968325067 
0 
0.003007476860816782 
0.001949922933000257 
-0.002851048968325067 
-0.0002060942686235085 
-0.0004329654650970176 
1.191050590003072e-05 
-8.937470076174816e-06 
7.858954683719363e-05 
-0.0001161134400455869 
-2.968115954515031e-05 
-0.0005404812328969901 
0.0004942798265789095 
-0.002474322810090386 
0 
-0.005996518164489112 
-0.0004942798265789095 
-0.002474322810090386 
2.968115954515031e-05 
-0.0005404812328969901 
-7.858954683719363e-05 
-0.0001161134400455869 
5.791186800237422e-05 
-0.0001067460967114116 
-5.453087453926214e-05 
-0.000581365957171076 
-0.001187196606367688 
-0.001452653669454317 
0 
0.0008367714369420324 
0.001187196606367688 
-0.001452653669454317 
5.453087453926214e-05 
-0.000581365957171076 
-5.791186800237422e-05 
-0.0001067460967114116 
-2.348094754184369e-05 
0.0001227712492472255 
-1.996024897914862e-05 
3.656813649820922e-05 
-0.001597167684198519 
0.001551833262543789 
0 
0.01123725368176754 
0.001597167684198519 
0.001551833262543789 
1.996024897914862e-05 
3.656813649820922e-05 
2.348094754184369e-05 
0.0001227712492472255 
-4.152407970443004e-05 
-0.0001054521446368556 
-0.0004065183635014515 
-2.635860394367011e-06 
-0.001631759631337397 
0.001943163632462486 
0 
0.008515773515361041 
0.001631759631337397 
0.001943163632462486 
0.0004065183635014515 
-2.635860394367011e-06 
4.152407970443004e-05 
-0.0001054521446368556 
0.0001851780383132705 
3.589276033944936e-05 
0.0006679426610588167 
-0.001026814512932588 
-0.0009166017259109624 
-0.003719271429809165 
0 
-0.002995431536645779 
0.0009166017259109624 
-0.003719271429809165 
-0.0006679426610588167 
-0.001026814512932588 
-0.0001851780383132705 
3.589276033944936e-05 
6.998373449243484e-06 
-1.211862847087965e-05 
0.0001009595000481574 
-0.0002818862423886352 
0.001245739079516049 
-0.0007215376281948065 
0 
-0.007047809680673392 
-0.001245739079516049 
-0.0007215376281948065 
-0.0001009595000481574 
-0.0002818862423886352 
-6.998373449243484e-06 
-1.211862847087965e-05 
0.0001700524022241817 
-5.927401299334684e-05 
0.0002038548311485052 
-0.0008771432901352315 
-0.002604802933290729 
-0.00129523079691529 
0 
0.004942457056247808 
0.002604802933290729 
-0.00129523079691529 
-0.0002038548311485052 
-0.0008771432901352315 
-0.0001700524022241817 
-5.927401299334684e-05 
0.0001077756656667014 
-0.0003298131317718614 
-0.0007818189469962076 
-0.001309560669202889 
-0.002706879581572099 
-0.001402123732369636 
0 
-0.002443611441996443 
0.002706879581572099 
-0.001402123732369636 
0.0007818189469962076 
-0.001309560669202889 
-0.0001077756656667014 
-0.0003298131317718614 
-1.706772348409038e-05 
-0.0001032777523966367 
-0.0001826797081419548 
-0.0002394932668849062 
-0.0002052597736700018 
-0.0004487821278563539 
0 
-0.00211444653218765 
0.0002052597736700018 
-0.0004487821278563539 
0.0001826797081419548 
-0.0002394932668849062 
1.706772348409038e-05 
-0.0001032777523966367 
-1.956462986569823e-05 
7.07986701958908e-05 
0.0001999506429012827 
0.0004727740055356068 
0.0003108003755973076 
0.0003601187250527599 
0 
0.00348727297896888 
-0.0003108003755973076 
0.0003601187250527599 
-0.0001999506429012827 
0.0004727740055356068 
1.956462986569823e-05 
7.07986701958908e-05 
-5.107275690010993e-05 
1.597931152821305e-05 
0.0002713949452221686 
-0.0002625248833609287 
-0.001177272881778405 
-0.002712190839296935 
0 
0.005148868390256181 
0.001177272881778405 
-0.002712190839296935 
-0.0002713949452221686 
-0.0002625248833609287 
5.107275690010993e-05 
1.597931152821305e-05 
-3.044848185756261e-05 
1.238354109901872e-05 
-0.0007425923925270088 
0.0001308991519457842 
-0.002365240505640922 
0.004976192808581767 
0 
0.01576378513765529 
0.002365240505640922 
0.004976192808581767 
0.0007425923925270088 
0.0001308991519457842 
3.044848185756261e-05 
1.238354109901872e-05 
7.460954965811329e-05 
7.952319975790838e-05 
0.0002600453090384481 
-1.408497421238298e-05 
-0.0005589426360264984 
0.001112729077835416 
0 
0.004336235890659426 
0.0005589426360264984 
0.001112729077835416 
-0.0002600453090384481 
-1.408497421238298e-05 
-7.460954965811329e-05 
7.952319975790838e-05 
-5.372308996108276e-05 
-0.0001135358181091167 
9.948822450731485e-05 
6.428829402133373e-05 
0.0006652522329835673 
-0.001908904452817804 
0 
-0.004908845665021929 
-0.0006652522329835673 
-0.001908904452817804 
-9.948822450731485e-05 
6.428829402133373e-05 
5.372308996108276e-05 
-0.0001135358181091167 
-0.0001341278510128842 
-9.578631445694863e-05 
8.589063161652394e-05 
0.0001435987060426636 
0.001442057750231895 
-0.001171501296358494 
0 
-0.009612622545303226 
-0.001442057750231895 
-0.001171501296358494 
-8.589063161652394e-05 
0.0001435987060426636 
0.0001341278510128842 
-9.578631445694863e-05 
0.0001170300650602166 
3.202089037627196e-06 
-6.515670033906346e-05 
-0.0004562057672559553 
-0.002632670796137714 
0.001393748791254057 
0 
0.007521903078661814 
0.002632670796137714 
0.001393748791254057 
6.515670033906346e-05 
-0.0004562057672559553 
-0.0001170300650602166 
3.202089037627196e-06 
-7.519522317650495e-05 
-4.467451884343483e-05 
0.0002992511085253883 
-0.0001139171134397808 
9.781170630873378e-05 
-0.002620896147921627 
0 
-0.007375848903593699 
-9.781170630873378e-05 
-0.002620896147921627 
-0.0002992511085253883 
-0.0001139171134397808 
7.519522317650495e-05 
-4.467451884343483e-05 
2.844650469438341e-05 
-2.966490527362106e-05 
0.000100589801518546 
-0.0004077458124656875 
-0.0009869976205096951 
-0.001626690598930903 
0 
0.0004530389316935617 
0.0009869976205096951 
-0.001626690598930903 
-0.000100589801518546 
-0.0004077458124656875 
-2.844650469438341e-05 
-2.966490527362106e-05 
-4.913596607269349e-06 
1.993500185824144e-05 
-0.0002296159711434482 
0.0004037921966045887 
0.000798569007384032 
0.002254174252286269 
0 
0.001869970165260537 
-0.000798569007384032 
0.002254174252286269 
0.0002296159711434482 
0.0004037921966045887 
4.913596607269349e-06 
1.993500185824144e-05 
1.611775214670668e-06 
-6.864887754928584e-05 
-4.824889056215598e-06 
-0.0002025102513996929 
-0.0007473473158848704 
-0.002158552601192033 
0 
0.001956626908117007 
0.0007473473158848704 
-0.002158552601192033 
4.824889056215598e-06 
-0.0002025102513996929 
-1.611775214670668e-06 
-6.864887754928584e-05 
-5.660806113778733e-05 
2.955405970357751e-05 
5.584466655989056e-06 
0.0002305840257559544 
-0.0008514757639330699 
-0.0003453695941510203 
0 
0.005672706172901043 
0.0008514757639330699 
-0.0003453695941510203 
-5.584466655989056e-06 
0.0002305840257559544 
5.660806113778733e-05 
2.955405970357751e-05 
-9.7508918294673e-05 
7.923292709198725e-05 
-8.908762266598131e-05 
0.0005529838748974488 
0.0008170043478683221 
0.002315616091126587 
0 
0.004944200185868278 
-0.0008170043478683221 
0.002315616091126587 
8.908762266598131e-05 
0.0005529838748974488 
9.7508918294673e-05 
7.923292709198725e-05 
-4.352221572061906e-05 
-3.151749673184912e-05 
0.0004041331295766367 
0.001008845833593295 
0.005065788293221496 
-0.004478314127770293 
0 
-0.006200739026698853 
-0.005065788293221496 
-0.004478314127770293 
-0.0004041331295766367 
0.001008845833593295 
4.352221572061906e-05 
-3.151749673184912e-05 
0.0001093698921382915 
-4.498037175039026e-06 
0.0001728383746108489 
-0.0004101650259007237 
0.001601421789258423 
-0.002593171431093107 
0 
-0.01030840612838344 
-0.001601421789258423 
-0.002593171431093107 
-0.0001728383746108489 
-0.0004101650259007237 
-0.0001093698921382915 
-4.498037175039026e-06 
-5.229790286909378e-05 
8.198416057718751e-05 
0.0006813309586132465 
0.0001675038073776743 
0.003097124029740919 
-0.00271865571797407 
0 
-0.009017651724004695 
-0.003097124029740919 
-0.00271865571797407 
-0.0006813309586132465 
0.0001675038073776743 
5.229790286909378e-05 
8.198416057718751e-05 
-4.9360550021154e-05 
9.188691330832688e-05 
-8.282513263719778e-05 
0.0009234388875238619 
0.001682214143899788 
0.00338020289941116 
0 
0.008200189927642905 
-0.001682214143899788 
0.00338020289941116 
8.282513263719778e-05 
0.0009234388875238619 
4.9360550021154e-05 
9.188691330832688e-05 
1.182817045726453e-05 
-3.47413525556611e-05 
1.98887275681052e-05 
-9.049895634701646e-06 
0.003113093318373527 
-0.0005469353172679359 
0 
-0.01230835567786778 
-0.003113093318373527 
-0.0005469353172679359 
-1.98887275681052e-05 
-9.049895634701646e-06 
-1.182817045726453e-05 
-3.47413525556611e-05 
0.0001434168840485118 
-4.71258344692226e-05 
0.0009105300660203769 
-0.0006144024908416631 
0.002789677618333011 
-0.005839967878618956 
0 
-0.01748532684783293 
-0.002789677618333011 
-0.005839967878618956 
-0.0009105300660203769 
-0.0006144024908416631 
-0.0001434168840485118 
-4.71258344692226e-05 
-2.464902460635006e-05 
-3.435129920120879e-05 
-0.0001539433072405566 
0.0001784021885519665 
0.001664671851024061 
-0.000898472419044505 
0 
-0.001155544087148984 
-0.001664671851024061 
-0.000898472419044505 
0.0001539433072405566 
0.0001784021885519665 
2.464902460635006e-05 
-3.435129920120879e-05 
0.0001214970420932565 
-1.865372464875751e-05 
0.0005861046456103851 
-0.0001544234606516673 
0.001188088420809865 
-0.003634086359518823 
0 
-0.003057964502965402 
-0.001188088420809865 
-0.003634086359518823 
-0.0005861046456103851 
-0.0001544234606516673 
-0.0001214970420932565 
-1.865372464875751e-05 
3.406556532802988e-05 
7.12770722285634e-05 
-3.024258998738472e-05 
-0.0001773798808029747 
-6.451553615842293e-05 
0.0006144786487156195 
0 
0.004561553279959436 
6.451553615842293e-05 
0.0006144786487156195 
3.024258998738472e-05 
-0.0001773798808029747 
-3.406556532802988e-05 
7.12770722285634e-05 
0.0001465638799272237 
1.96268333136584e-05 
0.0009924242003002284 
-0.0008832655316370149 
-0.0004502997239738333 
-0.005074687148643622 
0 
-0.007097068977650499 
0.0004502997239738333 
-0.005074687148643622 
-0.0009924242003002284 
-0.0008832655316370149 
-0.0001465638799272237 
1.96268333136584e-05 
0.0002360672874620382 
3.160687055552966e-05 
0.0007226585665806239 
-0.0006711921432653465 
0.003360057812982582 
-0.005397260797968468 
0 
-0.01871107008811316 
-0.003360057812982582 
-0.005397260797968468 
-0.0007226585665806239 
-0.0006711921432653465 
-0.0002360672874620382 
3.160687055552966e-05 
1.262377272814386e-05 
8.988840045491777e-05 
0.0004183640265567324 
0.0009066400600790954 
0.005507831796918448 
-0.002376506088997693 
0 
-0.01332220707052292 
-0.005507831796918448 
-0.002376506088997693 
-0.0004183640265567324 
0.0009066400600790954 
-1.262377272814386e-05 
8.988840045491777e-05 
2.594864338922292e-05 
9.481420242617721e-05 
-0.0004244139889679296 
0.0007431761118694688 
-0.0004792478107322477 
0.006246030317693435 
0 
0.0182815045166346 
0.0004792478107322477 
0.006246030317693435 
0.0004244139889679296 
0.0007431761118694688 
-2.594864338922292e-05 
9.481420242617721e-05 
-0.0001925567394868594 
-6.894577522694699e-05 
-0.0005065209383486833 
0.000898839572094356 
0.00156111585559655 
0.00172762504101018 
0 
0.002371584314259265 
-0.00156111585559655 
0.00172762504101018 
0.0005065209383486833 
0.000898839572094356 
0.0001925567394868594 
-6.894577522694699e-05 
0.0001830053656972484 
-0.0001685479487735181 
0.0001514376116914966 
-0.001259280959376295 
0.0004505363189585962 
-0.005193854880141883 
0 
-0.01214996285629591 
-0.0004505363189585962 
-0.005193854880141883 
-0.0001514376116914966 
-0.001259280959376295 
-0.0001830053656972484 
-0.0001685479487735181 
5.428547279531734e-07 
0.00010014047450715 
0.0006023338647618729 
-0.0001762616644377593 
0.002017457687192636 
-0.003571462956045483 
0 
-0.005296995017766353 
-0.002017457687192636 
-0.003571462956045483 
-0.0006023338647618729 
-0.0001762616644377593 
-5.428547279531734e-07 
0.00010014047450715 
0.0001729912391972154 
0.0001713664398943077 
0.000432992962427704 
0.0005576848399284954 
0.003877571729345095 
-0.0002498790945567519 
0 
-0.001603440408248147 
-0.003877571729345095 
-0.0002498790945567519 
-0.000432992962427704 
0.0005576848399284954 
-0.0001729912391972154 
0.0001713664398943077 
0.0002171783951885024 
-4.345815367874296e-05 
0.0002549024084788166 
-0.0006262580903306228 
-0.0004620086776075086 
-0.001787928781484916 
0 
0.003146517479731075 
0.0004620086776075086 
-0.001787928781484916 
-0.0002549024084788166 
-0.0006262580903306228 
-0.0002171783951885024 
-4.345815367874296e-05 
8.42377012444576e-05 
9.515651706298356e-05 
0.0008719203988915177 
-0.0003697171439096943 
0.001946566519053584 
-0.0046919122593301 
0 
-0.009463551757593894 
-0.001946566519053584 
-0.0046919122593301 
-0.0008719203988915177 
-0.0003697171439096943 
-8.42377012444576e-05 
9.515651706298356e-05 
9.205443041820564e-05 
9.266586718884966e-08 
0.001068357785729999 
-0.000490042766929968 
0.002558152442060383 
-0.007675623807090456 
0 
-0.01737299592871719 
-0.002558152442060383 
-0.007675623807090456 
-0.001068357785729999 
-0.000490042766929968 
-9.205443041820564e-05 
9.266586718884966e-08 
2.341786774176418e-05 
3.759529106580439e-05 
0.0004350197117556767 
-0.0003208963911227863 
0.001302179116169489 
-0.002382114500488631 
0 
-0.007756333551502045 
-0.001302179116169489 
-0.002382114500488631 
-0.0004350197117556767 
-0.0003208963911227863 
-2.341786774176418e-05 
3.759529106580439e-05 
-0.0001234828899825737 
-4.976604227574302e-05 
-0.001184560608879637 
0.0008016204413446806 
-0.001556296285969892 
0.006567188651763666 
0 
0.02017010853528567 
0.001556296285969892 
0.006567188651763666 
0.001184560608879637 
0.0008016204413446806 
0.0001234828899825737 
-4.976604227574302e-05 
-7.365195578231487e-06 
7.915129175545778e-05 
9.40220079988158e-06 
0.0004956432160820382 
0.0007102439003333414 
0.0004839595371717435 
0 
0.002511604039948691 
-0.0007102439003333414 
0.0004839595371717435 
-9.40220079988158e-06 
0.0004956432160820382 
7.365195578231487e-06 
7.915129175545778e-05 
-1.462909531854518e-05 
-2.935131364872346e-05 
-1.014361686547762e-05 
-0.0003692661257281083 
-0.0007560100496748131 
-0.0001988843440296433 
0 
-0.002145183233989632 
0.0007560100496748131 
-0.0001988843440296433 
1.014361686547762e-05 
-0.0003692661257281083 
1.462909531854518e-05 
-2.935131364872346e-05 
-3.498166857825594e-06 
-8.228009122466589e-06 
0.0004860572542794214 
-8.553088472068349e-05 
0.001345124353632943 
-0.002674910526254898 
0 
-0.004692838449974656 
-0.001345124353632943 
-0.002674910526254898 
-0.0004860572542794214 
-8.553088472068349e-05 
3.498166857825594e-06 
-8.228009122466589e-06 
0.0001662213481628806 
1.135782315605625e-05 
0.0001899081136843809 
-0.0002784381232286739 
0.0001104156750723685 
-0.001751913314569365 
0 
0.002739318624106694 
-0.0001104156750723685 
-0.001751913314569365 
-0.0001899081136843809 
-0.0002784381232286739 
-0.0001662213481628806 
1.135782315605625e-05 
0.0002257245572475862 
-8.007634586645845e-05 
-1.074341039052595e-05 
-0.0005934551085405272 
-0.0004647497222583048 
-0.0008566743817066236 
0 
0.002659165927761061 
0.0004647497222583048 
-0.0008566743817066236 
1.074341039052595e-05 
-0.0005934551085405272 
-0.0002257245572475862 
-8.007634586645845e-05 
0.0001582332816591019 
-5.054641933960047e-05 
0.0004090845662141274 
-0.0009995478420648147 
-0.001055291425970143 
-0.003018627051469432 
0 
0.002024593168838686 
0.001055291425970143 
-0.003018627051469432 
-0.0004090845662141274 
-0.0009995478420648147 
-0.0001582332816591019 
-5.054641933960047e-05 
1.824502691839968e-05 
-5.917126699750885e-05 
-4.265327291194586e-05 
-0.0001523917551064137 
0.001999939533281032 
-0.002369434137831907 
0 
-0.01042931940236454 
-0.001999939533281032 
-0.002369434137831907 
4.265327291194586e-05 
-0.0001523917551064137 
-1.824502691839968e-05 
-5.917126699750885e-05 
7.625284380254017e-05 
1.093838589774716e-05 
-0.0001275261894995575 
-0.0002056130939387206 
0.0009964356683668104 
-0.0005564151721093268 
0 
-0.00115121994879284 
-0.0009964356683668104 
-0.0005564151721093268 
0.0001275261894995575 
-0.0002056130939387206 
-7.625284380254017e-05 
1.093838589774716e-05 
-0.0001676171068191399 
5.236406758168619e-05 
-0.0002361432001673851 
0.0009501232097014666 
-0.0006398438448061937 
0.003722927181407445 
0 
0.0164211549550018 
0.0006398438448061937 
0.003722927181407445 
0.0002361432001673851 
0.0009501232097014666 
0.0001676171068191399 
5.236406758168619e-05 
3.424708909934861e-05 
-0.0001328986709742754 
-4.626686871576964e-05 
9.092103063201784e-06 
0.001467240380531531 
-0.001566930771359842 
0 
-0.006893978186551781 
-0.001467240380531531 
-0.001566930771359842 
4.626686871576964e-05 
9.092103063201784e-06 
-3.424708909934861e-05 
-0.0001328986709742754 
3.024240025447055e-05 
-0.0001017275057873278 
-0.0004230175993872679 
9.876842908085161e-06 
0.002471152186602361 
0.0008757504673191463 
0 
-0.0113574355166111 
-0.002471152186602361 
0.0008757504673191463 
0.0004230175993872679 
9.876842908085161e-06 
-3.024240025447055e-05 
-0.0001017275057873278 
4.601851768027254e-05 
-2.407230220107575e-05 
0.0002764823012931132 
-0.000223388473870615 
0.0008528081413246059 
-0.002664730798603486 
0 
-0.007767879210058364 
-0.0008528081413246059 
-0.002664730798603486 
-0.0002764823012931132 
-0.000223388473870615 
-4.601851768027254e-05 
-2.407230220107575e-05 
0.0002679414486041254 
8.317419453945337e-05 
0.0006951934173596577 
-0.0004552520969821037 
0.002072400365088231 
-0.001542545101130991 
0 
-0.006457751281261799 
-0.002072400365088231 
-0.001542545101130991 
-0.0006951934173596577 
-0.0004552520969821037 
-0.0002679414486041254 
8.317419453945337e-05 
0.0001582946579283072 
-2.104979425080111e-05 
0.000258070459077112 
0.0001312073908924623 
0.0003236582430695322 
-0.001155517263989748 
0 
0.005564814109693658 
-0.0003236582430695322 
-0.001155517263989748 
-0.000258070459077112 
0.0001312073908924623 
-0.0001582946579283072 
-2.104979425080111e-05 
8.554006784663572e-05 
-5.680693796734934e-05 
-0.0001706074381942778 
-0.0001831094103880419 
0.000102705732739852 
-0.000491370056934335 
0 
0.001088427706691601 
-0.000102705732739852 
-0.000491370056934335 
0.0001706074381942778 
-0.0001831094103880419 
-8.554006784663572e-05 
-5.680693796734934e-05 
7.60827371851036e-05 
-0.0001021623850252404 
0.0001552727262667377 
-0.0005687766239260833 
0.0008719468676183543 
-0.003058100214031976 
0 
-0.007577457538700263 
-0.0008719468676183543 
-0.003058100214031976 
-0.0001552727262667377 
-0.0005687766239260833 
-7.60827371851036e-05 
-0.0001021623850252404 
6.029577802021858e-05 
-9.220621916852765e-05 
-0.0003416847007859227 
-0.0004427063734607618 
-0.0009085557570962361 
0.0007697437230829954 
0 
0.00212004613311499 
0.0009085557570962361 
0.0007697437230829954 
0.0003416847007859227 
-0.0004427063734607618 
-6.029577802021858e-05 
-9.220621916852765e-05 
-4.066004227580037e-05 
0.0002052595114200187 
-0.0003742701716539209 
0.001386939817631815 
0.002025940415406633 
0.006961328038525873 
0 
0.01153643305296803 
-0.002025940415406633 
0.006961328038525873 
0.0003742701716539209 
0.001386939817631815 
4.066004227580037e-05 
0.0002052595114200187 
-2.988252812216174e-05 
-7.800380928569418e-05 
0.0004447206963243568 
-1.984111075168873e-05 
0.001042515897583231 
-0.00327132053670299 
0 
-0.006510265773369726 
-0.001042515897583231 
-0.00327132053670299 
-0.0004447206963243568 
-1.984111075168873e-05 
2.988252812216174e-05 
-7.800380928569418e-05 
6.311117034542474e-05 
-8.676360712747561e-05 
0.0003442552863814139 
-0.0004974543475326792 
0.001547187070830353 
-0.003554442381368967 
0 
-0.01501636867655324 
-0.001547187070830353 
-0.003554442381368967 
-0.0003442552863814139 
-0.0004974543475326792 
-6.311117034542474e-05 
-8.676360712747561e-05 
2.565602030535695e-05 
3.192360569145255e-05 
0.0004951437609836146 
0.0002317088685892168 
0.00265260435599802 
-0.002221018590835942 
0 
-0.009930516483312505 
-0.00265260435599802 
-0.002221018590835942 
-0.0004951437609836146 
0.0002317088685892168 
-2.565602030535695e-05 
3.192360569145255e-05 
0.0003557590433021111 
-8.312650994355492e-05 
0.001134269044821216 
-0.0007152235132302301 
0.001707400842759629 
-0.006267527109689533 
0 
-0.00982315185696221 
-0.001707400842759629 
-0.006267527109689533 
-0.001134269044821216 
-0.0007152235132302301 
-0.0003557590433021111 
-8.312650994355492e-05 
2.514416670404986e-05 
1.140214910967114e-05 
0.0001901147775944297 
0.0001066352947383037 
-0.0002241405308758082 
-0.001876516354174272 
0 
0.002775212218921457 
0.0002241405308758082 
-0.001876516354174272 
-0.0001901147775944297 
0.0001066352947383037 
-2.514416670404986e-05 
1.140214910967114e-05 
7.360941118444193e-05 
-7.803393328329472e-05 
0.0003158460206949615 
-0.0003281514678079186 
0.001028775451734207 
-0.00458017830285031 
0 
-0.003430713199881218 
-0.001028775451734207 
-0.00458017830285031 
-0.0003158460206949615 
-0.0003281514678079186 
-7.360941118444193e-05 
-7.803393328329472e-05 
-1.176356770120341e-05 
-4.914946718338319e-05 
-0.0001494763255698543 
-0.0002928560508208284 
-0.001635224574123683 
-0.0006024566768424179 
0 
0.005846171879175991 
0.001635224574123683 
-0.0006024566768424179 
0.0001494763255698543 
-0.0002928560508208284 
1.176356770120341e-05 
-4.914946718338319e-05 
-7.079364459869049e-05 
9.934162546773839e-05 
0.000223232800048453 
0.0008954559337467421 
0.002409155590627692 
-0.0004717390138376797 
0 
0.004916679722676485 
-0.002409155590627692 
-0.0004717390138376797 
-0.000223232800048453 
0.0008954559337467421 
7.079364459869049e-05 
9.934162546773839e-05 
-2.077821929565097e-05 
-0.0002557277090045038 
-0.0008169205016431554 
-0.0009368527121472913 
-0.004432204367785006 
0.001629649755630776 
0 
0.01002814460128651 
0.004432204367785006 
0.001629649755630776 
0.0008169205016431554 
-0.0009368527121472913 
2.077821929565097e-05 
-0.0002557277090045038 
0.0001632640266323146 
-0.0001117346588136023 
0.000668694252954752 
-0.0007083972222310422 
0.0002384618521954764 
-0.006412454489406872 
0 
-0.006256990476387986 
-0.0002384618521954764 
-0.006412454489406872 
-0.000668694252954752 
-0.0007083972222310422 
-0.0001632640266323146 
-0.0001117346588136023 
7.903261594231629e-05 
-9.504607250334556e-06 
9.174226816975091e-05 
-0.000760494710650958 
-0.0007958962865684467 
-0.00341149385688133 
0 
-0.003073963073765548 
0.0007958962865684467 
-0.00341149385688133 
-9.174226816975091e-05 
-0.000760494710650958 
-7.903261594231629e-05 
-9.504607250334556e-06 
-8.405051274518505e-05 
-5.228632595739243e-05 
-0.0003673896273519327 
0.0002065246122596758 
0.0007365601698536686 
0.0004611094880186377 
0 
-0.0003165725728686955 
-0.0007365601698536686 
0.0004611094880186377 
0.0003673896273519327 
0.0002065246122596758 
8.405051274518505e-05 
-5.228632595739243e-05 
-0.0001631569933729547 
9.200461682496472e-05 
-0.0003049425741439715 
0.001227860128486954 
0.0002953593864039434 
0.003768256273685558 
0 
0.01368560016747559 
-0.0002953593864039434 
0.003768256273685558 
0.0003049425741439715 
0.001227860128486954 
0.0001631569933729547 
9.200461682496472e-05 
-8.093445028779951e-05 
-3.019776813982677e-05 
-0.0001629067473980512 
7.845532509710701e-05 
-0.0006277719870486189 
0.000609406480580464 
0 
0.005356424813959849 
0.0006277719870486189 
0.000609406480580464 
0.0001629067473980512 
7.845532509710701e-05 
8.093445028779951e-05 
-3.019776813982677e-05 
-1.252018028079454e-05 
-0.0003396480622713867 
-0.0008938868173777397 
-0.0007968117265293478 
-0.001741545062536951 
-0.000222278617205899 
0 
-0.003322849823781289 
0.001741545062536951 
-0.000222278617205899 
0.0008938868173777397 
-0.0007968117265293478 
1.252018028079454e-05 
-0.0003396480622713867 
-0.0001201351157354785 
7.548826536807802e-05 
-0.0003275296142743219 
0.0006382011824063638 
-0.0002016572525237211 
0.002247805867985356 
0 
0.01222567080972587 
0.0002016572525237211 
0.002247805867985356 
0.0003275296142743219 
0.0006382011824063638 
0.0001201351157354785 
7.548826536807802e-05 
0.0001366332984227191 
3.241798845560445e-05 
0.000512359258979743 
-0.0006796937097058244 
-0.0007553189947562347 
-0.003811200970034657 
0 
0.001047468018334483 
0.0007553189947562347 
-0.003811200970034657 
-0.000512359258979743 
-0.0006796937097058244 
-0.0001366332984227191 
3.241798845560445e-05 
-3.773462220025033e-05 
2.333322047033844e-05 
-0.0003587595807827379 
-2.933273048298633e-05 
-0.002565552079599671 
0.002975508652362445 
0 
0.01462906941697379 
0.002565552079599671 
0.002975508652362445 
0.0003587595807827379 
-2.933273048298633e-05 
3.773462220025033e-05 
2.333322047033844e-05 
5.987754043768573e-05 
-3.471913033339363e-05 
-0.0001936727171833444 
-0.0004533588823563811 
-0.002066011868557547 
0.0008027731702922344 
0 
0.005146913613573928 
0.002066011868557547 
0.0008027731702922344 
0.0001936727171833444 
-0.0004533588823563811 
-5.987754043768573e-05 
-3.471913033339363e-05 
-4.72207587292205e-05 
-7.774655819743414e-05 
-0.0002869054614092915 
-0.0006351205446951673 
-0.002901719817703121 
0.0006215802779442153 
0 
0.005199710926025307 
0.002901719817703121 
0.0006215802779442153 
0.0002869054614092915 
-0.0006351205446951673 
4.72207587292205e-05 
-7.774655819743414e-05 
0.0001080965660442353 
3.745730355750502e-05 
0.0006439287861286469 
-0.0006484036002481953 
-0.00144817133825074 
-0.002522505688885163 
0 
-0.001895271166638977 
0.00144817133825074 
-0.002522505688885163 
-0.0006439287861286469 
-0.0006484036002481953 
-0.0001080965660442353 
3.745730355750502e-05 
5.691658391488666e-05 
-5.188915761610812e-05 
0.000591391122585215 
-0.001165988450757255 
-0.00300564727098817 
-0.003949565061462257 
0 
0.001270993989657662 
0.00300564727098817 
-0.003949565061462257 
-0.000591391122585215 
-0.001165988450757255 
-5.691658391488666e-05 
-5.188915761610812e-05 
7.710397158062244e-05 
-0.0002580432468062606 
-0.0008999558085184942 
-0.0007543122534318774 
-0.002566346204742561 
0.0003522999836028695 
0 
0.006794099212323952 
0.002566346204742561 
0.0003522999836028695 
0.0008999558085184942 
-0.0007543122534318774 
-7.710397158062244e-05 
-0.0002580432468062606 
0.0001729535384591111 
-0.0002664148803433031 
-0.0004154204915813585 
-0.0009600080634533118 
-0.003527959810244005 
-0.0002515857170945092 
0 
0.004039563922253967 
0.003527959810244005 
-0.0002515857170945092 
0.0004154204915813585 
-0.0009600080634533118 
-0.0001729535384591111 
-0.0002664148803433031 
2.171954382834195e-05 
-8.452301834725437e-05 
7.380545909087816e-05 
-0.0004827673559323275 
0.0004709511390111773 
-0.001939581167934426 
0 
-0.007822850721035286 
-0.0004709511390111773 
-0.001939581167934426 
-7.380545909087816e-05 
-0.0004827673559323275 
-2.171954382834195e-05 
-8.452301834725437e-05 
-0.0001379280677721123 
-5.14928180388553e-05 
-0.0002979689724702088 
0.0002716485894298757 
-0.0006886460474081151 
0.001646076428389592 
0 
0.002387164705397982 
0.0006886460474081151 
0.001646076428389592 
0.0002979689724702088 
0.0002716485894298757 
0.0001379280677721123 
-5.14928180388553e-05 
-4.478174965289055e-05 
-7.216214452398697e-05 
-0.0002260436851367764 
-0.0004631932097529262 
-0.002351662132537036 
5.248291179433875e-06 
0 
0.005789871210570461 
0.002351662132537036 
5.248291179433875e-06 
0.0002260436851367764 
-0.0004631932097529262 
4.478174965289055e-05 
-7.216214452398697e-05 
4.776742516640459e-05 
-7.395801058187382e-05 
-0.0002089495774980887 
-0.0006396449698627365 
-0.003042802609743336 
0.000489917909083581 
0 
0.006118396688820518 
0.003042802609743336 
0.000489917909083581 
0.0002089495774980887 
-0.0006396449698627365 
-4.776742516640459e-05 
-7.395801058187382e-05 
5.00970007678398e-06 
5.315749707427415e-05 
-0.0001888806387681677 
-0.0001261615395337209 
-0.001039300697589655 
0.001839018789810306 
0 
0.002837207693503656 
0.001039300697589655 
0.001839018789810306 
0.0001888806387681677 
-0.0001261615395337209 
-5.00970007678398e-06 
5.315749707427415e-05 
2.944579227365925e-05 
-2.78518168744644e-05 
-6.564659189778709e-05 
-0.0003577598633571235 
0.001246694071746133 
-0.001230389526005823 
0 
-0.007345585174655105 
-0.001246694071746133 
-0.001230389526005823 
6.564659189778709e-05 
-0.0003577598633571235 
-2.944579227365925e-05 
-2.78518168744644e-05 
-5.056333608743434e-05 
-3.467507504022138e-05 
-0.0006419600679806123 
0.0001865824792384611 
-0.001111539075891256 
0.003147173736688531 
0 
0.007247620287908113 
0.001111539075891256 
0.003147173736688531 
0.0006419600679806123 
0.0001865824792384611 
5.056333608743434e-05 
-3.467507504022138e-05 
-8.734419065338514e-05 
-4.345343656373805e-05 
5.016087885980278e-06 
0.0005032940638696206 
0.001611424244321466 
-0.0002739289229801003 
0 
-0.002389191396265325 
-0.001611424244321466 
-0.0002739289229801003 
-5.016087885980278e-06 
0.0005032940638696206 
8.734419065338514e-05 
-4.345343656373805e-05 
-2.2299127498554e-05 
-0.0001246093037090021 
0.0002276440954058172 
-0.0004778406416212107 
-0.0008450247600013441 
-0.003691945989209145 
0 
-0.004122065429033683 
0.0008450247600013441 
-0.003691945989209145 
-0.0002276440954058172 
-0.0004778406416212107 
2.2299127498554e-05 
-0.0001246093037090021 
6.259919439667721e-05 
-0.0001109149197845094 
-0.0001822878204086606 
-0.0007803098470623537 
-0.0002332592930982173 
-0.003298149840080733 
0 
-0.006162756752387168 
0.0002332592930982173 
-0.003298149840080733 
0.0001822878204086606 
-0.0007803098470623537 
-6.259919439667721e-05 
-0.0001109149197845094 
-5.653972381152064e-05 
-4.240091505541793e-05 
-0.0005152431525484624 
7.683997062097585e-05 
-0.0006260274452989394 
0.001363661758703032 
0 
0.007462143875813954 
0.0006260274452989394 
0.001363661758703032 
0.0005152431525484624 
7.683997062097585e-05 
5.653972381152064e-05 
-4.240091505541793e-05 
-0.0001329907031235882 
7.903634523791149e-05 
-2.700839667978249e-05 
0.0004971608213690511 
0.0001881240631153375 
0.0006617281766896402 
0 
0.005106123448111144 
-0.0001881240631153375 
0.0006617281766896402 
2.700839667978249e-05 
0.0004971608213690511 
0.0001329907031235882 
7.903634523791149e-05 
3.338132121949263e-05 
-7.935946296890369e-05 
-0.000425307753868603 
-0.0003251269500189103 
-0.0006964476815471246 
0.0007246209145841719 
0 
0.002987446492408928 
0.0006964476815471246 
0.0007246209145841719 
0.000425307753868603 
-0.0003251269500189103 
-3.338132121949263e-05 
-7.935946296890369e-05 
0.0001403187139853899 
-5.820116049470371e-06 
0.00024596104890763 
-0.0007505380157395274 
-0.0004705687000621215 
-0.002358739037170893 
0 
-0.005401647857496064 
0.0004705687000621215 
-0.002358739037170893 
-0.00024596104890763 
-0.0007505380157395274 
-0.0001403187139853899 
-5.820116049470371e-06 
-2.519771185623364e-05 
-7.459868011329047e-05 
-9.02146076842411e-05 
-0.0002334013103530484 
0.0005905456019907164 
-0.001046064654500709 
0 
-0.003395188056361509 
-0.0005905456019907164 
-0.001046064654500709 
9.02146076842411e-05 
-0.0002334013103530484 
2.519771185623364e-05 
-7.459868011329047e-05 
-2.365228766245184e-06 
-0.0001220191134553902 
-6.269526325245144e-05 
-0.0007427084752601652 
-0.00261710211306457 
-0.00243372202801663 
0 
0.003077708833162168 
0.00261710211306457 
-0.00243372202801663 
6.269526325245144e-05 
-0.0007427084752601652 
2.365228766245184e-06 
-0.0001220191134553902 
3.58299129372176e-05 
3.870420676015511e-05 
0.0004602636970666734 
-4.914051335755774e-05 
0.001776963954028461 
-0.003673154833050803 
0 
-0.007937660909985869 
-0.001776963954028461 
-0.003673154833050803 
-0.0004602636970666734 
-4.914051335755774e-05 
-3.58299129372176e-05 
3.870420676015511e-05 
-8.335156442873209e-05 
7.564921012120763e-05 
0.0001425151467634837 
0.0002701088767671215 
0.00142665264216839 
-0.0004911235723982058 
0 
-0.001439969899774743 
-0.00142665264216839 
-0.0004911235723982058 
-0.0001425151467634837 
0.0002701088767671215 
8.335156442873209e-05 
7.564921012120763e-05 
0.0001774930846546482 
2.762361735981054e-05 
0.000482725511143784 
-0.0004712979511563767 
-0.0009547884428080407 
-0.001930019210495643 
0 
0.005332151254829979 
0.0009547884428080407 
-0.001930019210495643 
-0.000482725511143784 
-0.0004712979511563767 
-0.0001774930846546482 
2.762361735981054e-05 
8.864142635225296e-05 
-2.869901698301432e-05 
6.252297809828312e-05 
-0.0007631024662436239 
-0.003011294967811417 
-0.0007121005048366816 
0 
0.008143286835273312 
0.003011294967811417 
-0.0007121005048366816 
-6.252297809828312e-05 
-0.0007631024662436239 
-8.864142635225296e-05 
-2.869901698301432e-05 
0.0001388927220934287 
-3.106032660108499e-05 
0.0003853829810076775 
-0.0002890169767965008 
-0.0005687585456278161 
-0.002704582109860962 
0 
0.004123936249521065 
0.0005687585456278161 
-0.002704582109860962 
-0.0003853829810076775 
-0.0002890169767965008 
-0.0001388927220934287 
-3.106032660108499e-05 
-1.878168104419709e-05 
-0.0002032483255422894 
4.936564902864665e-05 
-0.0001962519351248862 
-2.917636380929809e-05 
-0.002855336874130102 
0 
-0.0008802969026869625 
2.917636380929809e-05 
-0.002855336874130102 
-4.936564902864665e-05 
-0.0001962519351248862 
1.878168104419709e-05 
-0.0002032483255422894 
9.02866056873986e-05 
2.252747940814259e-06 
-4.42522393975595e-05 
0.00014636258065934 
-6.154454758680479e-05 
-0.0002059414402564876 
0 
0.00509831807541443 
6.154454758680479e-05 
-0.0002059414402564876 
4.42522393975595e-05 
0.00014636258065934 
-9.02866056873986e-05 
2.252747940814259e-06 
1.038411090087972e-05 
-0.000211648464288536 
-0.0004788759976814025 
-0.0006502258589367474 
-0.001607546424760603 
-0.001159690577262888 
0 
0.002709218422916436 
0.001607546424760603 
-0.001159690577262888 
0.0004788759976814025 
-0.0006502258589367474 
-1.038411090087972e-05 
-0.000211648464288536 
-0.0002172948867762734 
-1.982986471080355e-06 
-0.0006853799582796038 
0.0007043279493486872 
-0.0009195688318613166 
0.003509559694669385 
0 
0.01157390933881262 
0.0009195688318613166 
0.003509559694669385 
0.0006853799582796038 
0.0007043279493486872 
0.0002172948867762734 
-1.982986471080355e-06 
-0.0001251563711721615 
0.0001082610595405256 
0.0001252014651171413 
0.0006355461791154935 
0.001158806110439937 
-0.000251442137881492 
0 
0.0009966423176643142 
-0.001158806110439937 
-0.000251442137881492 
-0.0001252014651171413 
0.0006355461791154935 
0.0001251563711721615 
0.0001082610595405256 
1.335077330798405e-05 
-7.780337021505771e-05 
0.0003925440817622465 
0.0002857673311462229 
0.0008781095043921106 
-0.003606096222550063 
0 
-0.0004481104289746217 
-0.0008781095043921106 
-0.003606096222550063 
-0.0003925440817622465 
0.0002857673311462229 
-1.335077330798405e-05 
-7.780337021505771e-05 
0.0001556039350963213 
-0.0001606412130548435 
0.0002992293225906333 
-0.001048650223972871 
7.791003117789716e-05 
-0.004523907325299195 
0 
-0.00839075595545464 
-7.791003117789716e-05 
-0.004523907325299195 
-0.0002992293225906333 
-0.001048650223972871 
-0.0001556039350963213 
-0.0001606412130548435 
-6.746736541826342e-05 
7.538714942020246e-05 
-0.0001776678148208425 
9.32910538286432e-05 
-0.001541751984679019 
0.001898514677703202 
0 
0.01071231648880943 
0.001541751984679019 
0.001898514677703202 
0.0001776678148208425 
9.32910538286432e-05 
6.746736541826342e-05 
7.538714942020246e-05 
-3.002709844663378e-05 
-2.795988378352485e-05 
-0.0006001489973295671 
-0.0001534374841721746 
-0.002652933474813463 
0.002245493040238787 
0 
0.0110770107148249 
0.002652933474813463 
0.002245493040238787 
0.0006001489973295671 
-0.0001534374841721746 
3.002709844663378e-05 
-2.795988378352485e-05 
5.298336648839039e-05 
7.321095627703671e-06 
0.0004709865136252397 
-0.0004117489769694984 
0.0005717218869529699 
-0.003748387766767049 
0 
0.0002986964046510021 
-0.0005717218869529699 
-0.003748387766767049 
-0.0004709865136252397 
-0.0004117489769694984 
-5.298336648839039e-05 
7.321095627703671e-06 
-9.691003538207758e-06 
-6.244944294885731e-05 
-0.000210889185820946 
-5.789832093193405e-06 
0.0007438511079373571 
-0.0003247724648348174 
0 
-0.0001462795076053955 
-0.0007438511079373571 
-0.0003247724648348174 
0.000210889185820946 
-5.789832093193405e-06 
9.691003538207758e-06 
-6.244944294885731e-05 
-8.49966689905103e-05 
-1.39535182465369e-05 
-0.0004756073000207967 
0.0004092630447177075 
-0.0003840237029512448 
0.002609358533769936 
0 
0.01046717787747436 
0.0003840237029512448 
0.002609358533769936 
0.0004756073000207967 
0.0004092630447177075 
8.49966689905103e-05 
-1.39535182465369e-05 
-0.0001497664545256412 
-0.0003559780776631368 
-0.0009882082417737143 
-0.0001088444431736876 
0.0001479435761483401 
-0.001341326944817279 
0 
-0.004405203589780127 
-0.0001479435761483401 
-0.001341326944817279 
0.0009882082417737143 
-0.0001088444431736876 
0.0001497664545256412 
-0.0003559780776631368 
-0.0001324043160364215 
8.973650940823017e-05 
-0.0002082133671044213 
0.0004070795968079437 
0.00209498115975719 
0.0006534980196294614 
0 
-0.003847803649257037 
-0.00209498115975719 
0.0006534980196294614 
0.0002082133671044213 
0.0004070795968079437 
0.0001324043160364215 
8.973650940823017e-05 
2.91586426142599e-05 
-8.164748009760753e-05 
-0.0003531701033596654 
-0.0001116480752619732 
0.0002296948596106836 
-0.0004573036723963644 
0 
0.004007413312853806 
-0.0002296948596106836 
-0.0004573036723963644 
0.0003531701033596654 
-0.0001116480752619732 
-2.91586426142599e-05 
-8.164748009760753e-05 
3.980231663146887e-05 
-0.0001654793054635424 
-0.0003358342103085582 
-0.0003840564860928836 
-0.00249776091624021 
-0.001169723288300902 
0 
0.008785320931247552 
0.00249776091624021 
-0.001169723288300902 
0.0003358342103085582 
-0.0003840564860928836 
-3.980231663146887e-05 
-0.0001654793054635424 
-6.179413651133931e-05 
4.613858953870929e-05 
-0.0008634437579322583 
6.648629290621256e-05 
-0.002614396810742306 
0.00515843331787303 
0 
0.01883366452723293 
0.002614396810742306 
0.00515843331787303 
0.0008634437579322583 
6.648629290621256e-05 
6.179413651133931e-05 
4.613858953870929e-05 
-5.74130455904365e-05 
-8.456516661143559e-05 
-0.0001873136706283417 
0.0002055062048244638 
-0.0002604201358904068 
-0.0003812448845087869 
0 
0.00687000974658904 
0.0002604201358904068 
-0.0003812448845087869 
0.0001873136706283417 
0.0002055062048244638 
5.74130455904365e-05 
-8.456516661143559e-05 
-3.899622764246981e-05 
-6.052848596390793e-05 
0.0001468338453313323 
-5.644595500497264e-05 
0.001320630323837055 
-0.003389295244497749 
0 
-0.0005946533388584793 
-0.001320630323837055 
-0.003389295244497749 
-0.0001468338453313323 
-5.644595500497264e-05 
3.899622764246981e-05 
-6.052848596390793e-05 
0.0001243132385493833 
-0.0001094904602012511 
0.000530709254580066 
-0.0007966052393958624 
0.001589788614217041 
-0.006811554548793129 
0 
-0.0135098028599999 
-0.001589788614217041 
-0.006811554548793129 
-0.000530709254580066 
-0.0007966052393958624 
-0.0001243132385493833 
-0.0001094904602012511 
-0.0001289080548623038 
6.791069403317368e-05 
-0.0001873362293829779 
0.0005870976239117227 
0.001650974184994398 
0.001222872940896376 
0 
-0.0007980021118508033 
-0.001650974184994398 
0.001222872940896376 
0.0001873362293829779 
0.0005870976239117227 
0.0001289080548623038 
6.791069403317368e-05 
8.417911236622777e-05 
6.152905319665001e-06 
0.0006817651843214538 
-0.0003712786113854068 
0.001400613670182799 
-0.004517217563518315 
0 
-0.009026146608057195 
-0.001400613670182799 
-0.004517217563518315 
-0.0006817651843214538 
-0.0003712786113854068 
-8.417911236622777e-05 
6.152905319665001e-06 
-8.159589533303306e-05 
2.347772839589038e-05 
-0.0002184539572334247 
0.0009528262614213093 
0.002093203012974295 
0.0007623336145952752 
0 
0.0053329546593322 
-0.002093203012974295 
0.0007623336145952752 
0.0002184539572334247 
0.0009528262614213093 
8.159589533303306e-05 
2.347772839589038e-05 
-2.517542283115843e-06 
-6.23876290436499e-05 
0.0003784626147900032 
0.0002263202508089245 
0.006664320608935577 
-0.004715180992875933 
0 
-0.02632064009647544 
-0.006664320608935577 
-0.004715180992875933 
-0.0003784626147900032 
0.0002263202508089245 
2.517542283115843e-06 
-6.23876290436499e-05 
0.0001022247871595483 
-0.0001761775045673768 
1.854664183825414e-05 
-0.0009096055316870529 
0.0008444253934254629 
-0.002821135124113389 
0 
-0.01416302189826154 
-0.0008444253934254629 
-0.002821135124113389 
-1.854664183825414e-05 
-0.0009096055316870529 
-0.0001022247871595483 
-0.0001761775045673768 
-6.798724583930427e-05 
-8.863967672309366e-05 
-0.0009382531151296567 
0.0005300315840590206 
0.000579388699841229 
0.0030231527641337 
0 
0.006080332808889962 
-0.000579388699841229 
0.0030231527641337 
0.0009382531151296567 
0.0005300315840590206 
6.798724583930427e-05 
-8.863967672309366e-05 
2.278030703015758e-05 
-0.0001033901573629698 
-0.0004895620201286812 
-0.0005023799499167592 
-0.003305886060361376 
0.002190669511630166 
0 
0.01476103457731772 
0.003305886060361376 
0.002190669511630166 
0.0004895620201286812 
-0.0005023799499167592 
-2.278030703015758e-05 
-0.0001033901573629698 
-3.040499236735901e-06 
-0.0001255692858350901 
-0.0008291197772689187 
2.015691425233114e-05 
-0.002616135315242091 
0.001426168084611015 
0 
0.01934174376723741 
0.002616135315242091 
0.001426168084611015 
0.0008291197772689187 
2.015691425233114e-05 
3.040499236735901e-06 
-0.0001255692858350901 
0.000131678082010182 
-0.0002116598429190245 
3.573314665896515e-05 
-0.001095931206281387 
-0.001003828368286143 
-0.003844563143141226 
0 
-0.004235616258012528 
0.001003828368286143 
-0.003844563143141226 
-3.573314665896515e-05 
-0.001095931206281387 
-0.000131678082010182 
-0.0002116598429190245 
3.205024941999612e-05 
7.828035447177641e-05 
0.0003019601831704771 
7.751028077058099e-05 
-0.0002337005719067315 
-0.0006883842257420806 
0 
0.00741383395972065 
0.0002337005719067315 
-0.0006883842257420806 
-0.0003019601831704771 
7.751028077058099e-05 
-3.205024941999612e-05 
7.828035447177641e-05 
6.497240230169841e-06 
6.741085818988979e-05 
0.0005511067975283076 
0.0001668856571737667 
0.0007387582675774818 
-0.002342372861398195 
0 
-0.00112474816992725 
-0.0007387582675774818 
-0.002342372861398195 
-0.0005511067975283076 
0.0001668856571737667 
-6.497240230169841e-06 
6.741085818988979e-05 
-4.435350492737525e-05 
0.0001537795227170487 
-0.0001672881009811024 
0.0007951877097524946 
-9.069017264797811e-05 
0.004205601886337146 
0 
0.01011515611735469 
9.069017264797811e-05 
0.004205601886337146 
0.0001672881009811024 
0.0007951877097524946 
4.435350492737525e-05 
0.0001537795227170487 
1.743180173004323e-05 
-6.211665976015073e-05 
0.0005564453079345142 
-0.0001012834145239335 
0.002663426917658042 
-0.00454033234723758 
0 
-0.01430285491016636 
-0.002663426917658042 
-0.00454033234723758 
-0.0005564453079345142 
-0.0001012834145239335 
-1.743180173004323e-05 
-6.211665976015073e-05 
4.664297165758028e-05 
-0.0001131386190177753 
0.0002161382537496786 
-0.000623567864353705 
0.0005824160540669513 
-0.002963320339603969 
0 
-0.01382116555343798 
-0.0005824160540669513 
-0.002963320339603969 
-0.0002161382537496786 
-0.000623567864353705 
-4.664297165758028e-05 
-0.0001131386190177753 
2.541518220031671e-05 
7.959388124248393e-05 
0.000433629190813965 
0.0001177574572563783 
0.002227131256694391 
-0.001852400249835028 
0 
-0.007708296029100282 
-0.002227131256694391 
-0.001852400249835028 
-0.000433629190813965 
0.0001177574572563783 
-2.541518220031671e-05 
7.959388124248393e-05 
-2.102699791248914e-05 
0.0002542718503218325 
0.0002885715564962776 
0.001589658304120963 
0.001633905150077632 
0.003677126777765043 
0 
0.01450001553840356 
-0.001633905150077632 
0.003677126777765043 
-0.0002885715564962776 
0.001589658304120963 
2.102699791248914e-05 
0.0002542718503218325 
0.0001698116404855061 
-2.585633396701813e-05 
0.0006641956725857159 
-0.000612043884140719 
-0.001296498458727109 
-0.003404161132019808 
0 
0.003803346299564995 
0.001296498458727109 
-0.003404161132019808 
-0.0006641956725857159 
-0.000612043884140719 
-0.0001698116404855061 
-2.585633396701813e-05 
0.0001540681128319516 
-0.0001065626012948565 
0.0004928180381605038 
-0.0006528706561247023 
7.946046780585701e-05 
-0.005119371460813077 
0 
-0.004313648566664863 
-7.946046780585701e-05 
-0.005119371460813077 
-0.0004928180381605038 
-0.0006528706561247023 
-0.0001540681128319516 
-0.0001065626012948565 
2.181041664534471e-05 
-8.291335382520606e-05 
0.0001924131847976389 
-0.0002889950748053604 
0.0006051568535878566 
-0.002222695276682944 
0 
-0.006885889417579222 
-0.0006051568535878566 
-0.002222695276682944 
-0.0001924131847976389 
-0.0002889950748053604 
-2.181041664534471e-05 
-8.291335382520606e-05 
7.297254803255425e-05 
3.303206176763547e-05 
2.469021013432519e-05 
-0.0002880958583432656 
-0.0007556310265413797 
-0.0002583814006997734 
0 
0.003558323181620534 
0.0007556310265413797 
-0.0002583814006997734 
-2.469021013432519e-05 
-0.0002880958583432656 
-7.297254803255425e-05 
3.303206176763547e-05 
-6.772624902360691e-05 
0.0001246914555762425 
-3.921723874497821e-05 
0.0007539806839853552 
0.0002134140778634079 
0.003040426016844411 
0 
0.009261102904287281 
-0.0002134140778634079 
0.003040426016844411 
3.921723874497821e-05 
0.0007539806839853552 
6.772624902360691e-05 
0.0001246914555762425 
-0.0001169988527233303 
-5.042118641472557e-05 
-8.456602218823452e-05 
1.972661045202097e-05 
0.001299787374051961 
-0.0004917556567197338 
0 
-0.008116069673498406 
-0.001299787374051961 
-0.0004917556567197338 
8.456602218823452e-05 
1.972661045202097e-05 
0.0001169988527233303 
-5.042118641472557e-05 
0.0001078209775398436 
-8.906269119135987e-05 
0.0001716445423291535 
-0.001321683105969504 
-0.001879557854754607 
-0.003099065574627865 
0 
-0.004111341595921286 
0.001879557854754607 
-0.003099065574627865 
-0.0001716445423291535 
-0.001321683105969504 
-0.0001078209775398436 
-8.906269119135987e-05 
-5.870634831285071e-05 
0.0001019332769742702 
-0.0003598948557412626 
0.000367321184490889 
0.0002304149542953454 
0.002621635315498311 
0 
0.01301067729491269 
-0.0002304149542953454 
0.002621635315498311 
0.0003598948557412626 
0.000367321184490889 
5.870634831285071e-05 
0.0001019332769742702 
-8.316672995100908e-05 
0.0001149590361641403 
-0.0003723103133776527 
0.0007442844831296711 
-0.003294365559464927 
0.006526622220978764 
0 
0.02589610988222081 
0.003294365559464927 
0.006526622220978764 
0.0003723103133776527 
0.0007442844831296711 
8.316672995100908e-05 
0.0001149590361641403 
9.90580536573808e-05 
-0.0001530666544274849 
0.0004301171785640546 
-0.0010112544336195 
-0.001419660012899502 
-0.005144555627234876 
0 
-0.004718777035825088 
0.001419660012899502 
-0.005144555627234876 
-0.0004301171785640546 
-0.0010112544336195 
-9.90580536573808e-05 
-0.0001530666544274849 
-2.56369564224302e-05 
7.032238460345247e-06 
0.0007050137062185702 
8.394068249098576e-05 
0.001614600767894161 
-0.003280093751336945 
0 
-0.007687218513155866 
-0.001614600767894161 
-0.003280093751336945 
-0.0007050137062185702 
8.394068249098576e-05 
2.56369564224302e-05 
7.032238460345247e-06 
8.457148721403551e-05 
-4.419938379251321e-05 
0.0002780140635708521 
-0.0006339183388951875 
0.0001071015275930169 
-0.002535312636754928 
0 
-0.002609971823688995 
-0.0001071015275930169 
-0.002535312636754928 
-0.0002780140635708521 
-0.0006339183388951875 
-8.457148721403551e-05 
-4.419938379251321e-05 
3.140504511403871e-05 
-3.958550801380403e-05 
0.0003482205579070065 
-0.0002686500260294757 
0.0001793958345927068 
-0.003271112134806531 
0 
-0.0001641120536189501 
-0.0001793958345927068 
-0.003271112134806531 
-0.0003482205579070065 
-0.0002686500260294757 
-3.140504511403871e-05 
-3.958550801380403e-05 
-8.945166532839743e-05 
0.000114010054417359 
0.0006949184150481889 
0.0006365070195281028 
0.0009319204530473763 
-0.002226780709071707 
0 
0.002104635963228423 
-0.0009319204530473763 
-0.002226780709071707 
-0.0006949184150481889 
0.0006365070195281028 
8.945166532839743e-05 
0.000114010054417359 
7.021395972160025e-05 
0.0001490442933355232 
0.0009194364847677762 
-0.0001492178077037832 
0.001495920807939853 
-0.002191177791825727 
0 
-0.005769335541650987 
-0.001495920807939853 
-0.002191177791825727 
-0.0009194364847677762 
-0.0001492178077037832 
-7.021395972160025e-05 
0.0001490442933355232 
2.519233076478429e-05 
2.150067569569445e-05 
0.0004394706288432307 
-0.0003589032823572561 
0.0009151290099917394 
-0.002397167107695501 
0 
-0.006371137287268008 
-0.0009151290099917394 
-0.002397167107695501 
-0.0004394706288432307 
-0.0003589032823572561 
-2.519233076478429e-05 
2.150067569569445e-05 
4.501975607361394e-05 
-8.147784454080662e-05 
-0.0002782350439479001 
3.567053564776417e-05 
0.001149001730882063 
0.0004277317866843782 
0 
-0.003452595545326368 
-0.001149001730882063 
0.0004277317866843782 
0.0002782350439479001 
3.567053564776417e-05 
-4.501975607361394e-05 
-8.147784454080662e-05 
0.0001284210892926305 
0.0001150714250092786 
1.590599754915026e-05 
0.0002484060601981164 
-0.0009769437498178858 
0.003479073775092652 
0 
0.01552037734760505 
0.0009769437498178858 
0.003479073775092652 
-1.590599754915026e-05 
0.0002484060601981164 
-0.0001284210892926305 
0.0001150714250092786 
-7.305948352000539e-05 
4.136357941098344e-05 
0.0003710599421237251 
0.0007404680397602226 
0.003081597845200791 
-0.002558196662375667 
0 
-0.005221698223937934 
-0.003081597845200791 
-0.002558196662375667 
-0.0003710599421237251 
0.0007404680397602226 
7.305948352000539e-05 
4.136357941098344e-05 
1.804667111344184e-05 
-5.17103069671519e-05 
0.000436153484320079 
-2.360093745393496e-05 
0.003715335700354772 
-0.004943076278693826 
0 
-0.01524369954349571 
-0.003715335700354772 
-0.004943076278693826 
-0.000436153484320079 
-2.360093745393496e-05 
-1.804667111344184e-05 
-5.17103069671519e-05 
-4.346561051338004e-05 
4.492623621226512e-05 
0.0003597891878125378 
0.0003843389640053824 
0.002955239781411798 
-0.001469529558939674 
0 
-0.008371491040338172 
-0.002955239781411798 
-0.001469529558939674 
-0.0003597891878125378 
0.0003843389640053824 
4.346561051338004e-05 
4.492623621226512e-05 
9.597649186530774e-05 
6.552764029690145e-05 
0.001016454238472573 
2.636965990118277e-05 
0.002002108744155595 
-0.005063066726090781 
0 
-0.008388965579348054 
-0.002002108744155595 
-0.005063066726090781 
-0.001016454238472573 
2.636965990118277e-05 
-9.597649186530774e-05 
6.552764029690145e-05 
6.491418831690899e-05 
2.510814029973143e-05 
0.0003100827872265138 
7.671762236407842e-05 
0.001325466824620954 
-0.001375290645054266 
0 
-0.005669638299244878 
-0.001325466824620954 
-0.001375290645054266 
-0.0003100827872265138 
7.671762236407842e-05 
-6.491418831690899e-05 
2.510814029973143e-05 
8.837577551554042e-05 
-0.0001057050156293722 
0.0004687921913282704 
-0.0009337774334582451 
0.0006615814401941743 
-0.003957337632557079 
0 
-0.01232651393540565 
-0.0006615814401941743 
-0.003957337632557079 
-0.0004687921913282704 
-0.0009337774334582451 
-8.837577551554042e-05 
-0.0001057050156293722 
2.671927009321534e-05 
-3.959830801267064e-06 
0.0004932273218227424 
-2.208700403034802e-05 
0.001147108198678047 
-0.003242298393968687 
0 
-0.009581548142507211 
-0.001147108198678047 
-0.003242298393968687 
-0.0004932273218227424 
-2.208700403034802e-05 
-2.671927009321534e-05 
-3.959830801267064e-06 
-2.847162006487047e-05 
-7.462100005947469e-06 
0.0002054152622556703 
0.0002374753796077671 
0.001702503913874609 
-0.002303187707872916 
0 
-0.003648487987112094 
-0.001702503913874609 
-0.002303187707872916 
-0.0002054152622556703 
0.0002374753796077671 
2.847162006487047e-05 
-7.462100005947469e-06 
1.73598843480311e-06 
-3.541825943649582e-05 
-1.158375549051023e-05 
0.0002244033516255344 
-0.0009942235150407236 
0.001600631081843629 
0 
0.005041301244314273 
0.0009942235150407236 
0.001600631081843629 
1.158375549051023e-05 
0.0002244033516255344 
-1.73598843480311e-06 
-3.541825943649582e-05 
7.435390251662378e-05 
9.840211836293469e-05 
0.0002458279513456663 
-0.0001765804923698777 
-0.002673988312304668 
-0.0004620822556790324 
0 
0.01255889927291443 
0.002673988312304668 
-0.0004620822556790324 
-0.0002458279513456663 
-0.0001765804923698777 
-7.435390251662378e-05 
9.840211836293469e-05 
0.000100990148353796 
-5.944347936950525e-05 
0.0003993341155308103 
-0.001025457554000388 
-0.0004007848698996432 
-0.004530835727817981 
0 
-0.01031970142086311 
0.0004007848698996432 
-0.004530835727817981 
-0.0003993341155308103 
-0.001025457554000388 
-0.000100990148353796 
-5.944347936950525e-05 
2.851181752477071e-05 
-0.0001065240919600093 
-1.021023518688911e-05 
-0.0003378950340976366 
0.000400877858163234 
-0.00194393612807033 
0 
-0.004923215417826777 
-0.000400877858163234 
-0.00194393612807033 
1.021023518688911e-05 
-0.0003378950340976366 
-2.851181752477071e-05 
-0.0001065240919600093 
-3.492803216659311e-05 
-4.485540456200365e-05 
-0.0004530698375922896 
0.0001699072102015676 
-0.0002566930090929157 
0.001059506340589574 
0 
0.004512989034999931 
0.0002566930090929157 
0.001059506340589574 
0.0004530698375922896 
0.0001699072102015676 
3.492803216659311e-05 
-4.485540456200365e-05 
1.168416770281783e-05 
4.831528675399506e-05 
0.0003390381393308314 
-0.0001848539347906302 
-0.0001043199596937586 
-0.001502397992175706 
0 
-0.0009059058098460996 
0.0001043199596937586 
-0.001502397992175706 
-0.0003390381393308314 
-0.0001848539347906302 
-1.168416770281783e-05 
4.831528675399506e-05 
7.234436980758528e-05 
0.0001785980581584425 
0.0005862878688030229 
-0.0003245364743787048 
-0.0009186299476748449 
-0.001681728882782706 
0 
0.005051951622553012 
0.0009186299476748449 
-0.001681728882782706 
-0.0005862878688030229 
-0.0003245364743787048 
-7.234436980758528e-05 
0.0001785980581584425 
8.696053898147075e-05 
0.0001822210060672374 
0.0008587226311765272 
0.0007337653744082286 
0.002698719495106469 
-0.001790725183050628 
0 
-0.000857568883485776 
-0.002698719495106469 
-0.001790725183050628 
-0.0008587226311765272 
0.0007337653744082286 
-8.696053898147075e-05 
0.0001822210060672374 
-1.185761452570632e-05 
6.493565145874865e-06 
-2.666565807963911e-05 
8.512972986540689e-05 
0.001048856028713016 
-0.001355894416416561 
0 
0.001618897907838948 
-0.001048856028713016 
-0.001355894416416561 
2.666565807963911e-05 
8.512972986540689e-05 
1.185761452570632e-05 
6.493565145874865e-06 
5.996201486974582e-05 
-9.440142933350043e-05 
0.0001331586384488186 
-2.702427606773054e-05 
0.0001626759770620733 
-0.002849291579081073 
0 
0.002457567777966854 
-0.0001626759770620733 
-0.002849291579081073 
-0.0001331586384488186 
-2.702427606773054e-05 
-5.996201486974582e-05 
-9.440142933350043e-05 
1.021086237159154e-05 
7.107088480974736e-07 
0.0003922164132009919 
0.0001031572036883159 
-0.0002889626359972286 
-0.00251827604642043 
0 
0.00509930478857353 
0.0002889626359972286 
-0.00251827604642043 
-0.0003922164132009919 
0.0001031572036883159 
-1.021086237159154e-05 
7.107088480974736e-07 
4.92861062074006e-05 
0.0001057990647225869 
0.0003059612530605504 
0.0002111845066151463 
0.0003043248295975688 
-0.0006283851498654088 
0 
0.00521497753035086 
-0.0003043248295975688 
-0.0006283851498654088 
-0.0003059612530605504 
0.0002111845066151463 
-4.92861062074006e-05 
0.0001057990647225869 
1.848474775740925e-05 
-0.0001817866163487111 
-0.0003231013187998123 
-0.000867968126502182 
-0.001710885695732336 
-0.002187176666266864 
0 
-0.001004857642699503 
0.001710885695732336 
-0.002187176666266864 
0.0003231013187998123 
-0.000867968126502182 
-1.848474775740925e-05 
-0.0001817866163487111 
-0.0001891130380441149 
1.03837864163078e-05 
-0.000599329185328852 
0.0003767604155448574 
0.0001463134671159345 
0.001237802991585553 
0 
0.004822962191406471 
-0.0001463134671159345 
0.001237802991585553 
0.000599329185328852 
0.0003767604155448574 
0.0001891130380441149 
1.03837864163078e-05 
0.0001348758417601831 
-6.585465796696658e-05 
-6.850997296825034e-05 
-0.0009817139614797207 
-0.003070759651245582 
-0.002381419573741004 
0 
0.009398412342630639 
0.003070759651245582 
-0.002381419573741004 
6.850997296825034e-05 
-0.0009817139614797207 
-0.0001348758417601831 
-6.585465796696658e-05 
7.090208536593801e-05 
-3.50369312350778e-05 
0.0005134645568039322 
-2.703715060954695e-05 
0.001184719245449323 
-0.004330748840797347 
0 
-0.001670108290822925 
-0.001184719245449323 
-0.004330748840797347 
-0.0005134645568039322 
-2.703715060954695e-05 
-7.090208536593801e-05 
-3.50369312350778e-05 
0.0002618127319437712 
-6.957039708367508e-05 
0.0007773258275375272 
-0.0009646096077442217 
-0.001429405757719877 
-0.005526637071199951 
0 
-0.004874400903943056 
0.001429405757719877 
-0.005526637071199951 
-0.0007773258275375272 
-0.0009646096077442217 
-0.0002618127319437712 
-6.957039708367508e-05 
-0.0002276611812693106 
2.503122433390892e-05 
0.0005325359295068981 
0.001121922105954823 
0.002857433559182699 
-0.003348430305769232 
0 
-0.004074008808539603 
-0.002857433559182699 
-0.003348430305769232 
-0.0005325359295068981 
0.001121922105954823 
0.0002276611812693106 
2.503122433390892e-05 
2.315046031523644e-05 
-0.0001228663230193942 
-0.0002516056099642791 
-0.0003416208917402842 
-0.001612947588125555 
-0.0002394272045113954 
0 
0.005590270893904746 
0.001612947588125555 
-0.0002394272045113954 
0.0002516056099642791 
-0.0003416208917402842 
-2.315046031523644e-05 
-0.0001228663230193942 
-3.274737165088109e-05 
-0.0001607913369019633 
-0.0008015244490899267 
7.039216175800234e-06 
-0.0009300007956476371 
0.0007636374226064221 
0 
0.008344436515123321 
0.0009300007956476371 
0.0007636374226064221 
0.0008015244490899267 
7.039216175800234e-06 
3.274737165088109e-05 
-0.0001607913369019633 
-0.0002049633111995839 
-5.02869245400939e-05 
-0.0007312755836039863 
0.0006331072420404908 
4.661936235187571e-06 
0.001760473433932929 
0 
0.008941690564432817 
-4.661936235187571e-06 
0.001760473433932929 
0.0007312755836039863 
0.0006331072420404908 
0.0002049633111995839 
-5.02869245400939e-05 
-9.597138018590161e-05 
-7.797649389324787e-05 
-0.0007212219930249499 
-0.0001056525564373909 
-0.003968974905727893 
0.002388157635565813 
0 
0.0163793521942352 
0.003968974905727893 
0.002388157635565813 
0.0007212219930249499 
-0.0001056525564373909 
9.597138018590161e-05 
-7.797649389324787e-05 
-2.039702740031738e-05 
-0.0002361058795483236 
-0.0007102075609682493 
-0.000262116202605078 
-0.002945019174856547 
0.0001891539878979174 
0 
0.01234272186433474 
0.002945019174856547 
0.0001891539878979174 
0.0007102075609682493 
-0.000262116202605078 
2.039702740031738e-05 
-0.0002361058795483236 
-0.0001312693085805865 
0.0001337565320387322 
0.0002566893454287992 
0.0009218836012936983 
0.0007923190893589103 
-8.677067837037194e-05 
0 
0.01014931946061596 
-0.0007923190893589103 
-8.677067837037194e-05 
-0.0002566893454287992 
0.0009218836012936983 
0.0001312693085805865 
0.0001337565320387322 
0.0002014671012553985 
-0.0001259377871735261 
0.0004089090379141505 
-0.0003809550102619557 
0.002785758365472178 
-0.005542627906444161 
0 
-0.009634239312435296 
-0.002785758365472178 
-0.005542627906444161 
-0.0004089090379141505 
-0.0003809550102619557 
-0.0002014671012553985 
-0.0001259377871735261 
-5.017516136287124e-05 
1.306830436763319e-06 
-0.0001383857607561999 
0.0001742335809887815 
-0.001041865840385889 
0.0002075798371763098 
0 
0.01059617684607164 
0.001041865840385889 
0.0002075798371763098 
0.0001383857607561999 
0.0001742335809887815 
5.017516136287124e-05 
1.306830436763319e-06 
-0.0001780657567312922 
0.0001700264736222848 
-0.0004213285831479626 
0.0009337527519843719 
-0.0006408056898233275 
0.00427941232872864 
0 
0.0161386217806517 
0.0006408056898233275 
0.00427941232872864 
0.0004213285831479626 
0.0009337527519843719 
0.0001780657567312922 
0.0001700264736222848 
-5.657289105825377e-05 
-0.0002035027621428578 
-0.0003925796888863167 
-0.0007371142077088114 
-0.002969097177726752 
-0.001981089929919201 
0 
0.008282903558577496 
0.002969097177726752 
-0.001981089929919201 
0.0003925796888863167 
-0.0007371142077088114 
5.657289105825377e-05 
-0.0002035027621428578 
-6.629365597988726e-05 
8.379998040332592e-05 
0.0002197159436821992 
0.0003603447398074119 
0.002315641320032389 
-0.002716983185443039 
0 
-0.003592682248156611 
-0.002315641320032389 
-0.002716983185443039 
-0.0002197159436821992 
0.0003603447398074119 
6.629365597988726e-05 
8.379998040332592e-05 
3.309191333015138e-05 
8.876180152059149e-05 
0.000948739705987603 
-0.0003660156616710752 
0.002650278410152871 
-0.006108961914409319 
0 
-0.0101300259181682 
-0.002650278410152871 
-0.006108961914409319 
-0.000948739705987603 
-0.0003660156616710752 
-3.309191333015138e-05 
8.876180152059149e-05 
4.382078245496681e-05 
-6.968227855620916e-05 
-1.6509496258789e-05 
0.0001121094176230372 
0.003056181538961199 
-0.002546209760278193 
0 
-0.006327807542758365 
-0.003056181538961199 
-0.002546209760278193 
1.6509496258789e-05 
0.0001121094176230372 
-4.382078245496681e-05 
-6.968227855620916e-05 
0.0001119533585870937 
9.065166690383077e-05 
0.0007250386678765088 
-0.000208716051743299 
0.001435491245202171 
-0.003675804207920188 
0 
-0.003507057331228902 
-0.001435491245202171 
-0.003675804207920188 
-0.0007250386678765088 
-0.000208716051743299 
-0.0001119533585870937 
9.065166690383077e-05 
-0.000100915344086136 
0.0001507872624625664 
0.0001279420801452956 
0.001373468629036787 
0.003761989809949085 
0.001288206025568873 
0 
-0.000563867803810523 
-0.003761989809949085 
0.001288206025568873 
-0.0001279420801452956 
0.001373468629036787 
0.000100915344086136 
0.0001507872624625664 
0.0001509616800023518 
-0.0001602136996809139 
0.0003104167006654435 
-0.0008274915597261363 
0.0008276242819203239 
-0.005228209879395571 
0 
-0.008972255097196123 
-0.0008276242819203239 
-0.005228209879395571 
-0.0003104167006654435 
-0.0008274915597261363 
-0.0001509616800023518 
-0.0001602136996809139 
0.0001744149640614048 
6.525371110887765e-06 
0.0008087761185759497 
-0.0004781769153103386 
0.002840162357119502 
-0.004825555602561813 
0 
-0.01601723191855969 
-0.002840162357119502 
-0.004825555602561813 
-0.0008087761185759497 
-0.0004781769153103386 
-0.0001744149640614048 
6.525371110887765e-06 
-8.773369327710505e-06 
9.263576257437338e-05 
-8.072301514243958e-05 
0.0001964604069490482 
0.0006600862318172472 
0.0007764678956620408 
0 
0.0008197390700573704 
-0.0006600862318172472 
0.0007764678956620408 
8.072301514243958e-05 
0.0001964604069490482 
8.773369327710505e-06 
9.263576257437338e-05 
0.0001446109255938904 
-0.0002573382235147898 
-0.0003688696104474692 
-0.001219564526124447 
-0.003788430658854547 
-0.0005076018787961145 
0 
0.008056773232711877 
0.003788430658854547 
-0.0005076018787961145 
0.0003688696104474692 
-0.001219564526124447 
-0.0001446109255938904 
-0.0002573382235147898 
-0.0001520016625284638 
4.875250423055896e-05 
-0.0001435967193607934 
0.0004174327231919905 
0.002098835750631369 
0.0002656093272230998 
0 
0.002252696890038911 
-0.002098835750631369 
0.0002656093272230998 
0.0001435967193607934 
0.0004174327231919905 
0.0001520016625284638 
4.875250423055896e-05 
-6.456633556364564e-06 
-9.730730396066744e-05 
0.0002176256368354631 
-0.0003715434643133763 
0.001440481604287955 
-0.003484052398720172 
0 
-0.01002536966851158 
-0.001440481604287955 
-0.003484052398720172 
-0.0002176256368354631 
-0.0003715434643133763 
6.456633556364564e-06 
-9.730730396066744e-05 
0.0001194982552224559 
-6.848796466508685e-05 
0.0001486545265933194 
-0.0008789176703795799 
-0.001351662582459869 
-0.0030280501993499 
0 
0.004224232043740634 
0.001351662582459869 
-0.0030280501993499 
-0.0001486545265933194 
-0.0008789176703795799 
-0.0001194982552224559 
-6.848796466508685e-05 
-0.0001495088643959368 
0.000268127754276905 
0.0002152057555860364 
0.001578646264711203 
0.002699205121436087 
0.00322133570372649 
0 
0.007832682141250349 
-0.002699205121436087 
0.00322133570372649 
-0.0002152057555860364 
0.001578646264711203 
0.0001495088643959368 
0.000268127754276905 
-1.198457235456912e-05 
0.0002978062502068471 
0.00100255753947252 
0.0004881694378644334 
0.001418680702083459 
-0.001135607378647101 
0 
-0.0002204489824870421 
-0.001418680702083459 
-0.001135607378647101 
-0.00100255753947252 
0.0004881694378644334 
1.198457235456912e-05 
0.0002978062502068471 
3.814846599864675e-05 
-3.200442942969543e-05 
0.0003321737010227344 
-0.0001443169093232756 
0.002296675424164191 
-0.004321963880400649 
0 
-0.005822735767205659 
-0.002296675424164191 
-0.004321963880400649 
-0.0003321737010227344 
-0.0001443169093232756 
-3.814846599864675e-05 
-3.200442942969543e-05 
5.389756569060254e-05 
-0.0002074641483908535 
-3.097127454380296e-05 
-0.0006509592312704618 
0.001117050704536356 
-0.004832783583071559 
0 
-0.008206850359428974 
-0.001117050704536356 
-0.004832783583071559 
3.097127454380296e-05 
-0.0006509592312704618 
-5.389756569060254e-05 
-0.0002074641483908535 
-3.601634715519949e-05 
-4.734243105815658e-05 
0.0001382560525416916 
-1.35363844977868e-05 
0.0006179818780106879 
-0.002520217205513573 
0 
-0.00335434875880218 
-0.0006179818780106879 
-0.002520217205513573 
-0.0001382560525416916 
-1.35363844977868e-05 
3.601634715519949e-05 
-4.734243105815658e-05 
0.000190932434281225 
3.716299175630242e-05 
0.000731073516954642 
-0.0003701715391399216 
0.0003617430391490044 
-0.002079434137382322 
0 
-0.001474585845785182 
-0.0003617430391490044 
-0.002079434137382322 
-0.000731073516954642 
-0.0003701715391399216 
-0.000190932434281225 
3.716299175630242e-05 
-1.183308044982851e-05 
0.0001715765500739015 
0.0002559944539556097 
0.0005179378800666449 
0.003668159775800554 
-0.0005091083938652396 
0 
-0.006037090588494277 
-0.003668159775800554 
-0.0005091083938652396 
-0.0002559944539556097 
0.0005179378800666449 
1.183308044982851e-05 
0.0001715765500739015 
8.582204762850367e-05 
-5.40836309459797e-05 
0.0003067631877469667 
-0.0005821552834024345 
0.002343971675595234 
-0.004548944423420324 
0 
-0.01389343641421095 
-0.002343971675595234 
-0.004548944423420324 
-0.0003067631877469667 
-0.0005821552834024345 
-8.582204762850367e-05 
-5.40836309459797e-05 
7.929054347782224e-05 
-9.518123194362054e-05 
-0.0001738754892782194 
-0.0003103832865690806 
0.0002486057847754085 
-0.0007022532688889042 
0 
-0.001049863734912729 
-0.0002486057847754085 
-0.0007022532688889042 
0.0001738754892782194 
-0.0003103832865690806 
-7.929054347782224e-05 
-9.518123194362054e-05 
-2.318219310467318e-05 
0.0003374617945993939 
0.000144524174244495 
0.002064639145646529 
0.003523948903367323 
0.005735535776482886 
0 
0.01168481920267919 
-0.003523948903367323 
0.005735535776482886 
-0.000144524174244495 
0.002064639145646529 
2.318219310467318e-05 
0.0003374617945993939 
-0.0002037032681516703 
0.0003567132121434699 
0.0004649615353789924 
0.001592159440026527 
0.002355217982417861 
0.002845460728031581 
0 
0.007331948142626062 
-0.002355217982417861 
0.002845460728031581 
-0.0004649615353789924 
0.001592159440026527 
0.0002037032681516703 
0.0003567132121434699 
0.0003039111623495914 
-0.0001575262802379576 
0.0004329716763571005 
-0.0009114963645058906 
0.002086052024280242 
-0.00598620624137576 
0 
-0.01304532831059808 
-0.002086052024280242 
-0.00598620624137576 
-0.0004329716763571005 
-0.0009114963645058906 
-0.0003039111623495914 
-0.0001575262802379576 
-1.504286984573365e-05 
-4.730598843800506e-05 
0.0001680624899389458 
-0.0001960684359919485 
0.001874085761639194 
-0.002282367309638877 
0 
-0.01119707755326536 
-0.001874085761639194 
-0.002282367309638877 
-0.0001680624899389458 
-0.0001960684359919485 
1.504286984573365e-05 
-4.730598843800506e-05 
-0.0001583232442731579 
3.088082835281257e-05 
0.0001674737785659489 
0.0005434381596790963 
0.00326006669316612 
-0.001542628885253496 
0 
-0.01069848045352484 
-0.00326006669316612 
-0.001542628885253496 
-0.0001674737785659489 
0.0005434381596790963 
0.0001583232442731579 
3.088082835281257e-05 
7.913953518183121e-05 
-0.0001495230214443872 
0.000155410284209072 
-0.0005311217029766315 
-0.0006848438967626558 
-0.003058918839714313 
0 
-0.002153729519841789 
0.0006848438967626558 
-0.003058918839714313 
-0.000155410284209072 
-0.0005311217029766315 
-7.913953518183121e-05 
-0.0001495230214443872 
0.0001025833001209131 
-9.06224453698299e-05 
-0.0002019063795048476 
-0.0005403494148807249 
7.49843385238525e-05 
-0.0009230426026017785 
0 
-0.003307870930359348 
-7.49843385238525e-05 
-0.0009230426026017785 
0.0002019063795048476 
-0.0005403494148807249 
-0.0001025833001209131 
-9.06224453698299e-05 
0.0001862019837764049 
-9.926099442656904e-05 
0.0004527983847729128 
-0.0008477493975722657 
-0.0002570278018239924 
-0.006121419666215647 
0 
-0.00293493789104085 
0.0002570278018239924 
-0.006121419666215647 
-0.0004527983847729128 
-0.0008477493975722657 
-0.0001862019837764049 
-9.926099442656904e-05 
0.0001713846076693455 
-9.468391796092567e-05 
-0.000210724270224129 
-0.0005683852219833226 
0.001608032542874832 
-0.001711524695781887 
0 
-0.003489683177556931 
-0.001608032542874832 
-0.001711524695781887 
0.000210724270224129 
-0.0005683852219833226 
-0.0001713846076693455 
-9.468391796092567e-05 
-0.0001112948412049055 
0.0003059965515995592 
-3.746675691553639e-05 
0.00165976337659812 
0.001096422643073402 
0.006032941945754772 
0 
0.01741723007880435 
-0.001096422643073402 
0.006032941945754772 
3.746675691553639e-05 
0.00165976337659812 
0.0001112948412049055 
0.0003059965515995592 
-0.0001549443942143008 
0.0001214004333723159 
-0.0005597047552540414 
0.001034339768114846 
0.001041818050160148 
0.005256034736522273 
0 
0.00782291809999089 
-0.001041818050160148 
0.005256034736522273 
0.0005597047552540414 
0.001034339768114846 
0.0001549443942143008 
0.0001214004333723159 
3.861816368429769e-05 
0.0001866211385227521 
0.0004363673310857888 
0.000103136951988877 
0.002350510751912987 
-0.001367992665894525 
0 
-0.002975410876873986 
-0.002350510751912987 
-0.001367992665894525 
-0.0004363673310857888 
0.000103136951988877 
-3.861816368429769e-05 
0.0001866211385227521 
0.000115474250602884 
-2.95106704486772e-05 
0.0004345965409863919 
-0.0003013064128052139 
0.001253672933052047 
-0.002781329621053074 
0 
-0.008763362349696489 
-0.001253672933052047 
-0.002781329621053074 
-0.0004345965409863919 
-0.0003013064128052139 
-0.000115474250602884 
-2.95106704486772e-05 
-4.141122333702653e-05 
-0.0001065682798666716 
-0.0004918486923069934 
0.000119080247413947 
0.0008467041253797378 
0.001205528855278381 
0 
-0.001813550267242641 
-0.0008467041253797378 
0.001205528855278381 
0.0004918486923069934 
0.000119080247413947 
4.141122333702653e-05 
-0.0001065682798666716 
9.170075889477691e-05 
5.378321696191174e-05 
0.0008165402654430525 
-0.0005095618008378561 
-0.000178372834334499 
-0.004755168793890589 
0 
-0.006249105736331168 
0.000178372834334499 
-0.004755168793890589 
-0.0008165402654430525 
-0.0005095618008378561 
-9.170075889477691e-05 
5.378321696191174e-05 
6.393432892465375e-05 
2.850807417247354e-05 
0.0003094472515307837 
-0.0001706801756553364 
0.001883970192815436 
-0.003019118819489042 
0 
-0.00194828525653253 
-0.001883970192815436 
-0.003019118819489042 
-0.0003094472515307837 
-0.0001706801756553364 
-6.393432892465375e-05 
2.850807417247354e-05 
7.857648288610552e-05 
-1.539197236950248e-05 
0.0008327108144617186 
-0.0002589505218776362 
0.003802867796329508 
-0.003932452496401691 
0 
-0.01893093052770013 
-0.003802867796329508 
-0.003932452496401691 
-0.0008327108144617186 
-0.0002589505218776362 
-7.857648288610552e-05 
-1.539197236950248e-05 
1.998379990510674e-05 
-1.781676042362475e-05 
0.0008071725399961333 
0.0001087141409438387 
0.003956363182446812 
-0.005823283727421882 
0 
-0.01612058850299024 
-0.003956363182446812 
-0.005823283727421882 
-0.0008071725399961333 
0.0001087141409438387 
-1.998379990510674e-05 
-1.781676042362475e-05 
-8.772668050976794e-05 
0.0001604894571634246 
-0.000193966082897219 
0.001024384402807681 
0.001685343535822845 
0.004237827912605985 
0 
0.008136634152873854 
-0.001685343535822845 
0.004237827912605985 
0.000193966082897219 
0.001024384402807681 
8.772668050976794e-05 
0.0001604894571634246 
-1.246181434330695e-05 
-0.0001148826697314878 
-0.0007077941168544073 
0.0003059471378164643 
0.001862784485902006 
0.00251390847482921 
0 
-0.006583229637070346 
-0.001862784485902006 
0.00251390847482921 
0.0007077941168544073 
0.0003059471378164643 
1.246181434330695e-05 
-0.0001148826697314878 
-1.173071579995533e-05 
7.553216222924095e-05 
0.0002835223580549399 
4.121805754306195e-05 
0.003147195199887187 
0.0002334143338870607 
0 
-0.01329460515776066 
-0.003147195199887187 
0.0002334143338870607 
-0.0002835223580549399 
4.121805754306195e-05 
1.173071579995533e-05 
7.553216222924095e-05 
0.0001235037387042939 
-7.076741629681684e-05 
0.0002593362261159131 
-0.0005411312552118751 
0.001865903825021736 
-0.001453430908277087 
0 
-0.01323582601904055 
-0.001865903825021736 
-0.001453430908277087 
-0.0002593362261159131 
-0.0005411312552118751 
-0.0001235037387042939 
-7.076741629681684e-05 
0.0001712020563286706 
0.0001673256015106036 
0.001527220153263576 
-0.0005462619284574755 
0.002112692710108289 
-0.007003884098078788 
0 
-0.01398639400306385 
-0.002112692710108289 
-0.007003884098078788 
-0.001527220153263576 
-0.0005462619284574755 
-0.0001712020563286706 
0.0001673256015106036 
2.254101743998729e-05 
-0.0002401336284929304 
-0.000588673188934619 
-0.0003588237278288821 
9.178252900160399e-05 
-0.002089906841995133 
0 
-0.003670215832880355 
-9.178252900160399e-05 
-0.002089906841995133 
0.000588673188934619 
-0.0003588237278288821 
-2.254101743998729e-05 
-0.0002401336284929304 
5.30495722302393e-05 
-9.188666897264758e-05 
9.661230726608771e-05 
-0.0001152393726576592 
-0.001146582900690708 
-0.001050426601686762 
0 
0.006414976410114482 
0.001146582900690708 
-0.001050426601686762 
-9.661230726608771e-05 
-0.0001152393726576592 
-5.30495722302393e-05 
-9.188666897264758e-05 
3.154749231550445e-05 
-8.610812234332667e-05 
-4.854997441169854e-05 
-0.0006972285439950811 
-0.0008988141655671998 
-0.001428864970767538 
0 
-0.001952843002399456 
0.0008988141655671998 
-0.001428864970767538 
4.854997441169854e-05 
-0.0006972285439950811 
-3.154749231550445e-05 
-8.610812234332667e-05 
-7.336078945054372e-05 
-0.0001824736350286718 
-0.0007170703873655595 
-0.0001812709140152296 
-0.0004859869869438985 
0.0004562051342713713 
0 
0.0009193001870618863 
0.0004859869869438985 
0.0004562051342713713 
0.0007170703873655595 
-0.0001812709140152296 
7.336078945054372e-05 
-0.0001824736350286718 
-0.0001683883525863065 
-0.0001673404103724748 
-0.001232755264563675 
0.0004339530920257772 
-0.001260779552700224 
0.005061858206772926 
0 
0.01191534383132534 
0.001260779552700224 
0.005061858206772926 
0.001232755264563675 
0.0004339530920257772 
0.0001683883525863065 
-0.0001673404103724748 
-8.764157669601899e-05 
-0.0001752646406113181 
1.046410212788109e-05 
-0.0003053981027548534 
-0.000630374526935846 
-0.003520205664397503 
0 
-0.002449552930440997 
0.000630374526935846 
-0.003520205664397503 
-1.046410212788109e-05 
-0.0003053981027548534 
8.764157669601899e-05 
-0.0001752646406113181 
-5.243914179065661e-05 
-7.026975929679537e-05 
-0.0001338450983833654 
-0.0001749473337852985 
-0.001411254651241258 
-0.0005730375397890495 
0 
0.00517216926603782 
0.001411254651241258 
-0.0005730375397890495 
0.0001338450983833654 
-0.0001749473337852985 
5.243914179065661e-05 
-7.026975929679537e-05 
-4.103152714238601e-06 
8.737513968756922e-05 
-0.000337289684532785 
0.0009746905373793986 
-0.0003010723911241449 
0.00368169363455325 
0 
0.01824196285261553 
0.0003010723911241449 
0.00368169363455325 
0.000337289684532785 
0.0009746905373793986 
4.103152714238601e-06 
8.737513968756922e-05 
-2.06396889916862e-05 
-0.0001465749169455464 
4.228934570158495e-05 
-0.0004219027830540632 
-0.001498151372264018 
-0.002086944848873866 
0 
0.001010452506726112 
0.001498151372264018 
-0.002086944848873866 
-4.228934570158495e-05 
-0.0004219027830540632 
2.06396889916862e-05 
-0.0001465749169455464 
0.0001257818208153758 
6.648180483186913e-06 
0.0004996516566382921 
-2.259902561574491e-05 
0.001107146789148329 
-0.001667499339482414 
0 
-0.006146703201383645 
-0.001107146789148329 
-0.001667499339482414 
-0.0004996516566382921 
-2.259902561574491e-05 
-0.0001257818208153758 
6.648180483186913e-06 
0.0001180084579603589 
-4.964609559805287e-06 
0.000638627966440881 
-0.0007268939634548263 
-0.000703793452705342 
-0.004793105464182514 
0 
-0.0036707237711964 
0.000703793452705342 
-0.004793105464182514 
-0.000638627966440881 
-0.0007268939634548263 
-0.0001180084579603589 
-4.964609559805287e-06 
1.633253050940926e-05 
-7.008653856903246e-05 
-0.0005803089424086354 
-0.0001932615742830001 
-0.000983304897676869 
0.00124091172266209 
0 
0.006375656580990363 
0.000983304897676869 
0.00124091172266209 
0.0005803089424086354 
-0.0001932615742830001 
-1.633253050940926e-05 
-7.008653856903246e-05 
-5.576274169599839e-05 
-2.905388065072087e-05 
-4.303266751848122e-05 
7.35313355906591e-05 
-0.0009150240399531166 
-0.001091385492099053 
0 
0.006395646055188505 
0.0009150240399531166 
-0.001091385492099053 
4.303266751848122e-05 
7.35313355906591e-05 
5.576274169599839e-05 
-2.905388065072087e-05 
0.00014030472050169 
7.805085218001056e-05 
0.000471904708869061 
-0.0003732400221264639 
-0.001740730796766628 
-0.001284959994189285 
0 
0.005431962585272065 
0.001740730796766628 
-0.001284959994189285 
-0.000471904708869061 
-0.0003732400221264639 
-0.00014030472050169 
7.805085218001056e-05 
-0.0001174094070322103 
-0.0002758621451507249 
-0.0006277133971742698 
-0.0003630267858097019 
-0.002168311864768697 
-0.0008264616395350571 
0 
0.002470247275830539 
0.002168311864768697 
-0.0008264616395350571 
0.0006277133971742698 
-0.0003630267858097019 
0.0001174094070322103 
-0.0002758621451507249 
-2.797705816819835e-05 
-1.438477618382334e-05 
0.0004867030885527916 
-0.0001462936617238409 
-0.001943353114554935 
-0.003303795670672394 
0 
0.008598962071165511 
0.001943353114554935 
-0.003303795670672394 
-0.0004867030885527916 
-0.0001462936617238409 
2.797705816819835e-05 
-1.438477618382334e-05 
0.0001049231308424359 
4.731741740042102e-05 
0.0007151084490923388 
-0.000484515856014054 
0.001251907185424846 
-0.005449567936112829 
0 
-0.006259004767178113 
-0.001251907185424846 
-0.005449567936112829 
-0.0007151084490923388 
-0.000484515856014054 
-0.0001049231308424359 
4.731741740042102e-05 
6.316329598951568e-05 
-0.0001205601486584297 
-0.0003976337636868825 
-0.0005794768274151376 
-0.002670930409468391 
0.000972705599662377 
0 
0.01222128076292021 
0.002670930409468391 
0.000972705599662377 
0.0003976337636868825 
-0.0005794768274151376 
-6.316329598951568e-05 
-0.0001205601486584297 
4.48188957352528e-06 
-6.131966433858039e-05 
8.867337022433507e-05 
-0.0004701309367529427 
-0.001000111123037266 
-0.001366614491393154 
0 
-0.0004745753766302689 
0.001000111123037266 
-0.001366614491393154 
-8.867337022433507e-05 
-0.0004701309367529427 
-4.48188957352528e-06 
-6.131966433858039e-05 
-9.623680045168064e-05 
-8.280572885080674e-05 
-0.0002038762752919749 
0.0001326714101390188 
-0.002047380077599008 
-0.0007724781031196789 
0 
0.01382631122326132 
0.002047380077599008 
-0.0007724781031196789 
0.0002038762752919749 
0.0001326714101390188 
9.623680045168064e-05 
-8.280572885080674e-05 
-8.558131663984883e-05 
-0.0001133948816263176 
-0.0004275015919900786 
-0.0006917790942651267 
-0.00356072010219844 
-0.0004755999370340178 
0 
0.006339659170975753 
0.00356072010219844 
-0.0004755999370340178 
0.0004275015919900786 
-0.0006917790942651267 
8.558131663984883e-05 
-0.0001133948816263176 
-0.000182298468895203 
-6.178620156637513e-05 
-0.0006816105320415683 
0.000324724211180054 
-0.0006729360393815355 
0.001408341649005586 
0 
0.01234280994438228 
0.0006729360393815355 
0.001408341649005586 
0.0006816105320415683 
0.000324724211180054 
0.000182298468895203 
-6.178620156637513e-05 
-7.091921514831037e-05 
2.819611771073909e-05 
-0.0005890909825216885 
0.0002735625218509106 
-0.002131516757389043 
0.003705185884052914 
0 
0.01466985627017305 
0.002131516757389043 
0.003705185884052914 
0.0005890909825216885 
0.0002735625218509106 
7.091921514831037e-05 
2.819611771073909e-05 
-9.581989301705201e-05 
-7.113709800326366e-05 
-0.0001783339722166197 
0.0004040211534899065 
0.001313886218775087 
-0.001317882404371255 
0 
0.001253748729965625 
-0.001313886218775087 
-0.001317882404371255 
0.0001783339722166197 
0.0004040211534899065 
9.581989301705201e-05 
-7.113709800326366e-05 
8.352562135145904e-05 
3.454444109626533e-05 
0.0002394502225402601 
-0.0001441768566887388 
-0.00032419462913381 
-0.001887854656359306 
0 
0.005459526461861682 
0.00032419462913381 
-0.001887854656359306 
-0.0002394502225402601 
-0.0001441768566887388 
-8.352562135145904e-05 
3.454444109626533e-05 
8.431769912877156e-05 
-4.637560332406463e-05 
0.0008334916784684362 
-0.0004336991796154533 
0.0002908625278105009 
-0.005219216236059637 
0 
0.001149158284860593 
-0.0002908625278105009 
-0.005219216236059637 
-0.0008334916784684362 
-0.0004336991796154533 
-8.431769912877156e-05 
-4.637560332406463e-05 
-9.060170883816443e-05 
0.0001204400701382498 
1.937519235685996e-05 
0.0002016952186242427 
-0.002001114024470775 
0.000371144833493409 
0 
0.01768516460618288 
0.002001114024470775 
0.000371144833493409 
-1.937519235685996e-05 
0.0002016952186242427 
9.060170883816443e-05 
0.0001204400701382498 
0.0001010070084706591 
-3.874921442101309e-06 
4.968312409491235e-05 
-0.0004649490009481992 
-0.002977598597005666 
0.0008812492011670904 
0 
0.01072718837882692 
0.002977598597005666 
0.0008812492011670904 
-4.968312409491235e-05 
-0.0004649490009481992 
-0.0001010070084706591 
-3.874921442101309e-06 
-2.864996391644417e-06 
-0.0001119512562487009 
-0.0002181714749896767 
-0.0002187225965334048 
-0.0005290228384943364 
-0.0007613571015931564 
0 
0.007621287269791792 
0.0005290228384943364 
-0.0007613571015931564 
0.0002181714749896767 
-0.0002187225965334048 
2.864996391644417e-06 
-0.0001119512562487009 
-0.000114067541433159 
-0.0001355057964797149 
-0.0001664416683924894 
-4.284188624538576e-05 
0.0007957291464446773 
-0.001940355312678916 
0 
-0.0004506168351835951 
-0.0007957291464446773 
-0.001940355312678916 
0.0001664416683924894 
-4.284188624538576e-05 
0.000114067541433159 
-0.0001355057964797149 
-0.0001330699786632132 
-6.94680754525162e-06 
-0.0005590438634375912 
0.0005669444227900548 
0.0008883098908634196 
0.0009418398690797544 
0 
0.01024398015521649 
-0.0008883098908634196 
0.0009418398690797544 
0.0005590438634375912 
0.0005669444227900548 
0.0001330699786632132 
-6.94680754525162e-06 
8.09964182958172e-05 
-0.0002034931447787876 
-0.0001352816655104002 
-0.0010600273875581 
-0.001110357127492223 
-0.002294970731150507 
0 
-0.005812051532148198 
0.001110357127492223 
-0.002294970731150507 
0.0001352816655104002 
-0.0010600273875581 
-8.09964182958172e-05 
-0.0002034931447787876 
0.0001722327111204852 
-0.000131576169048161 
0.0001090864166721784 
-0.0006942158109962453 
-0.0002616696790749925 
-0.003493993488868047 
0 
-0.003546999455565124 
0.0002616696790749925 
-0.003493993488868047 
-0.0001090864166721784 
-0.0006942158109962453 
-0.0001722327111204852 
-0.000131576169048161 
5.23085507804227e-05 
2.867352941207648e-06 
0.0004576035321139837 
-0.00047334202159994 
9.554272246684643e-05 
-0.001156229355594607 
0 
-0.004919820791823383 
-9.554272246684643e-05 
-0.001156229355594607 
-0.0004576035321139837 
-0.00047334202159994 
-5.23085507804227e-05 
2.867352941207648e-06 
7.40095010134331e-05 
-0.0001160610319878514 
8.841919702012777e-05 
-0.0006856548723365026 
0.001092426391045834 
-0.002824227449389612 
0 
-0.00525529525904218 
-0.001092426391045834 
-0.002824227449389612 
-8.841919702012777e-05 
-0.0006856548723365026 
-7.40095010134331e-05 
-0.0001160610319878514 
9.069335229351547e-05 
-7.184299016974517e-05 
-0.0003207783342490848 
-0.0002179296949106649 
-0.001149936006739152 
0.001351353861814215 
0 
0.005379378835976078 
0.001149936006739152 
0.001351353861814215 
0.0003207783342490848 
-0.0002179296949106649 
-9.069335229351547e-05 
-7.184299016974517e-05 
-2.844444514573201e-05 
0.0001831827078028007 
-0.000164294704722037 
0.000399241683105828 
-0.001462264635924722 
0.002916642298056977 
0 
0.01606207387896574 
0.001462264635924722 
0.002916642298056977 
0.000164294704722037 
0.000399241683105828 
2.844444514573201e-05 
0.0001831827078028007 
5.948584038543867e-05 
-0.0001053072748858088 
0.0004368993783917897 
-0.0002731797192229653 
0.002391236994840738 
-0.005730181903115007 
0 
-0.01203317622860321 
-0.002391236994840738 
-0.005730181903115007 
-0.0004368993783917897 
-0.0002731797192229653 
-5.948584038543867e-05 
-0.0001053072748858088 
-4.653375502376615e-05 
-0.0002331361624367236 
-0.0004324616224635752 
-0.0001249732654535834 
0.00053385280170095 
-0.002717692254908359 
0 
-0.0008926828799383511 
-0.00053385280170095 
-0.002717692254908359 
0.0004324616224635752 
-0.0001249732654535834 
4.653375502376615e-05 
-0.0002331361624367236 
6.281210057532973e-05 
-3.598451746765191e-05 
8.794257649658881e-05 
4.124018224892061e-05 
0.001207885649295176 
-0.0007066916785948652 
0 
0.001995105604028799 
-0.001207885649295176 
-0.0007066916785948652 
-8.794257649658881e-05 
4.124018224892061e-05 
-6.281210057532973e-05 
-3.598451746765191e-05 
0.0001781203327273294 
2.508327267002296e-05 
-0.0005185269412833685 
-0.0002827389376032885 
-0.0008041413186714332 
0.003547659377043462 
0 
0.008973200105722291 
0.0008041413186714332 
0.003547659377043462 
0.0005185269412833685 
-0.0002827389376032885 
-0.0001781203327273294 
2.508327267002296e-05 
3.138044501671325e-05 
-8.098758354789466e-07 
-7.762257135064594e-05 
0.0001161465883985226 
-0.0007937306150475389 
0.0008958841070708198 
0 
0.009820263107008424 
0.0007937306150475389 
0.0008958841070708198 
7.762257135064594e-05 
0.0001161465883985226 
-3.138044501671325e-05 
-8.098758354789466e-07 
0.0001053264564543904 
6.9967628654679e-06 
0.0006642404997043538 
-0.0003040475749059523 
0.00274111683670673 
-0.005218018246937182 
0 
-0.01234080451305209 
-0.00274111683670673 
-0.005218018246937182 
-0.0006642404997043538 
-0.0003040475749059523 
-0.0001053264564543904 
6.9967628654679e-06 
5.287128877419012e-05 
-3.791299012128802e-05 
0.0007584905545993465 
-0.0003890720368608597 
0.002225646974453905 
-0.003649598576485901 
0 
-0.01740037475900943 
-0.002225646974453905 
-0.003649598576485901 
-0.0007584905545993465 
-0.0003890720368608597 
-5.287128877419012e-05 
-3.791299012128802e-05 
6.24906899472347e-05 
-9.503268715767823e-05 
-0.0002969271338739504 
-0.0008974930236602442 
-0.002245438190462304 
-0.0008424373610903301 
0 
0.002624239148932144 
0.002245438190462304 
-0.0008424373610903301 
0.0002969271338739504 
-0.0008974930236602442 
-6.24906899472347e-05 
-9.503268715767823e-05 
-7.465462764541842e-05 
0.000173204323240841 
-4.826415702890212e-05 
0.0008918333748867996 
0.0002088801840176021 
0.003631748371629268 
0 
0.01249710256696729 
-0.0002088801840176021 
0.003631748371629268 
4.826415702890212e-05 
0.0008918333748867996 
7.465462764541842e-05 
0.000173204323240841 
-5.717110236304409e-05 
0.0001062504683664589 
0.000310454636254257 
0.0003673379327790201 
0.002438517172340737 
-0.002598655675071657 
0 
-0.005143241375996842 
-0.002438517172340737 
-0.002598655675071657 
-0.000310454636254257 
0.0003673379327790201 
5.717110236304409e-05 
0.0001062504683664589 
0.0001555589946584293 
-0.000203443032167986 
-2.905733568293256e-05 
-0.001063278427239176 
0.0007886926817066891 
-0.003454401757661793 
0 
-0.01125767374751648 
-0.0007886926817066891 
-0.003454401757661793 
2.905733568293256e-05 
-0.001063278427239176 
-0.0001555589946584293 
-0.000203443032167986 
3.061714532257651e-05 
-7.763407998479739e-05 
0.0001820220000603455 
-0.0002353292043600511 
-0.0003157693833474121 
-0.001020915410012711 
0 
0.0001132404648543079 
0.0003157693833474121 
-0.001020915410012711 
-0.0001820220000603455 
-0.0002353292043600511 
-3.061714532257651e-05 
-7.763407998479739e-05 
4.377956023529414e-05 
0.0002582494642881411 
0.0001930205299105723 
0.0005250202451603887 
0.001172997925418657 
0.00330842899696524 
0 
0.007460345614793004 
-0.001172997925418657 
0.00330842899696524 
-0.0001930205299105723 
0.0005250202451603887 
-4.377956023529414e-05 
0.0002582494642881411 
-0.0001589165982346338 
0.0002403528815344196 
-0.0004047483535051193 
0.001183484039177101 
-0.002749732944863965 
0.008019997524901205 
0 
0.03023235976336214 
0.002749732944863965 
0.008019997524901205 
0.0004047483535051193 
0.001183484039177101 
0.0001589165982346338 
0.0002403528815344196 
6.71726204643193e-05 
-4.389547833149603e-05 
0.0002227954360954958 
-0.0004945143026541444 
0.000115764826623058 
-0.001961978509448121 
0 
-0.004466168134805523 
-0.000115764826623058 
-0.001961978509448121 
-0.0002227954360954958 
-0.0004945143026541444 
-6.71726204643193e-05 
-4.389547833149603e-05 
6.464725863119916e-05 
-0.0001012557006214646 
0.000321040787838528 
-0.001105240769168061 
-0.002065776005346632 
-0.001470054035761216 
0 
-0.003213903958121929 
0.002065776005346632 
-0.001470054035761216 
-0.000321040787838528 
-0.001105240769168061 
-6.464725863119916e-05 
-0.0001012557006214646 
6.507148759529076e-05 
-0.0002111472838989493 
0.0002704859312207449 
-0.001137872029024456 
-0.0008134978742833079 
-0.005149881620026451 
0 
-0.008216965033171637 
0.0008134978742833079 
-0.005149881620026451 
-0.0002704859312207449 
-0.001137872029024456 
-6.507148759529076e-05 
-0.0002111472838989493 
8.973015870009683e-05 
0.000312735778862867 
0.0008790571209538462 
0.0008423963159239264 
0.001250433898724147 
0.00144000082273099 
0 
0.01021048699636161 
-0.001250433898724147 
0.00144000082273099 
-0.0008790571209538462 
0.0008423963159239264 
-8.973015870009683e-05 
0.000312735778862867 
3.390972099895289e-05 
0.0001766536137258147 
0.0009536897117330438 
-0.0002009169223805731 
0.002031763159932834 
-0.003152796757881587 
0 
-0.007463881818060271 
-0.002031763159932834 
-0.003152796757881587 
-0.0009536897117330438 
-0.0002009169223805731 
-3.390972099895289e-05 
0.0001766536137258147 
4.752949335037147e-05 
-0.0001053869005150798 
0.0002466394903421542 
-0.0006886370542182167 
0.003374230626171807 
-0.004262618935308446 
0 
-0.02488607727007257 
-0.003374230626171807 
-0.004262618935308446 
-0.0002466394903421542 
-0.0006886370542182167 
-4.752949335037147e-05 
-0.0001053869005150798 
-3.200109308531247e-05 
-5.764609811874396e-06 
0.0004788897603073177 
0.0003310098240715632 
0.004772480959064816 
-0.0038058972207248 
0 
-0.0142779990376069 
-0.004772480959064816 
-0.0038058972207248 
-0.0004788897603073177 
0.0003310098240715632 
3.200109308531247e-05 
-5.764609811874396e-06 
-1.620689854216069e-05 
-4.845847941230007e-07 
-0.0006658044501415472 
7.619315005138318e-05 
-0.0004306336588281247 
0.002093389594544034 
0 
0.008510081505340042 
0.0004306336588281247 
0.002093389594544034 
0.0006658044501415472 
7.619315005138318e-05 
1.620689854216069e-05 
-4.845847941230007e-07 
7.870044164301585e-05 
0.0002746451598274594 
0.0003890440659925246 
0.001114535124043797 
0.002863740000868696 
0.002205704787739272 
0 
0.008496131689735271 
-0.002863740000868696 
0.002205704787739272 
-0.0003890440659925246 
0.001114535124043797 
-7.870044164301585e-05 
0.0002746451598274594 
0.0001438072704394289 
-7.005520738200886e-05 
0.0004702514199640253 
-0.0004418166543710771 
0.00485956218416607 
-0.004562621426324716 
0 
-0.02094889466632081 
-0.00485956218416607 
-0.004562621426324716 
-0.0004702514199640253 
-0.0004418166543710771 
-0.0001438072704394289 
-7.005520738200886e-05 
0.0001361614645557066 
1.364632972564505e-05 
0.001077435518834729 
-0.0003830135323481501 
0.002896146462738313 
-0.005176795214287153 
0 
-0.01989829694667073 
-0.002896146462738313 
-0.005176795214287153 
-0.001077435518834729 
-0.0003830135323481501 
-0.0001361614645557066 
1.364632972564505e-05 
7.85168866404785e-05 
-0.000115639607494018 
-0.0001577013781890507 
3.334468702231598e-05 
0.003891704172823271 
-0.002408000713529868 
0 
-0.01476115598402813 
-0.003891704172823271 
-0.002408000713529868 
0.0001577013781890507 
3.334468702231598e-05 
-7.85168866404785e-05 
-0.000115639607494018 
-3.414644415802252e-05 
0.000314996460629863 
0.0006980039731710836 
0.001195834568744279 
0.001981543200058155 
0.003204892289870521 
0 
0.004459861812794523 
-0.001981543200058155 
0.003204892289870521 
-0.0006980039731710836 
0.001195834568744279 
3.414644415802252e-05 
0.000314996460629863 
0.0001140938293030325 
5.71109849900737e-05 
0.0004699643313364082 
-0.0001987457039993903 
0.001089483572934296 
-0.001522086506567296 
0 
-0.0001837944830367292 
-0.001089483572934296 
-0.001522086506567296 
-0.0004699643313364082 
-0.0001987457039993903 
-0.0001140938293030325 
5.71109849900737e-05 
0.0001823732289641801 
-0.0002105724429422076 
0.0003337998857536959 
-0.0006423146679809293 
0.005123418546449665 
-0.00523330766523191 
0 
-0.02832074898235972 
-0.005123418546449665 
-0.00523330766523191 
-0.0003337998857536959 
-0.0006423146679809293 
-0.0001823732289641801 
-0.0002105724429422076 
1.568357674000827e-05 
0.0001038777441339314 
0.0006926576216469525 
0.0004916586346468606 
0.004926848729615554 
-0.003276721812331294 
0 
-0.01714840395071119 
-0.004926848729615554 
-0.003276721812331294 
-0.0006926576216469525 
0.0004916586346468606 
-1.568357674000827e-05 
0.0001038777441339314 
9.085520118397606e-05 
0.0001570100517493033 
0.0002986104099367547 
0.000581407758269274 
0.002655742893737125 
0.002028729964241211 
0 
-0.001751596521205776 
-0.002655742893737125 
0.002028729964241211 
-0.0002986104099367547 
0.000581407758269274 
-9.085520118397606e-05 
0.0001570100517493033 
-9.854940451204267e-05 
0.0001693889975534193 
0.0002874146691889838 
0.000976704640073212 
0.003105095882007203 
-0.0009272525748871678 
0 
-0.00357568516397024 
-0.003105095882007203 
-0.0009272525748871678 
-0.0002874146691889838 
0.000976704640073212 
9.854940451204267e-05 
0.0001693889975534193 
1.14884615146144e-05 
-8.422422898179379e-06 
0.0002633239293623962 
0.0003339738562418276 
0.001804434801717473 
-0.001396575704834114 
0 
-0.003488260990305586 
-0.001804434801717473 
-0.001396575704834114 
-0.0002633239293623962 
0.0003339738562418276 
-1.14884615146144e-05 
-8.422422898179379e-06 
-6.760056206585658e-05 
-4.339660052848211e-05 
-5.950596624633324e-05 
0.0005438263858634503 
0.002234797021604767 
8.18420955049988e-05 
0 
-0.005284268289073391 
-0.002234797021604767 
8.18420955049988e-05 
5.950596624633324e-05 
0.0005438263858634503 
6.760056206585658e-05 
-4.339660052848211e-05 
8.697687558841051e-05 
7.163338991476231e-06 
0.0004297189172845032 
-9.026895031849883e-05 
0.002641929468736401 
-0.003005458579607254 
0 
-0.01353994513803311 
-0.002641929468736401 
-0.003005458579607254 
-0.0004297189172845032 
-9.026895031849883e-05 
-8.697687558841051e-05 
7.163338991476231e-06 
-1.781481724777359e-05 
-8.163224878450279e-05 
-0.0002399227028152187 
1.431906401540799e-05 
0.000641475495085626 
0.0003747667561197809 
0 
-0.004696115112413614 
-0.000641475495085626 
0.0003747667561197809 
0.0002399227028152187 
1.431906401540799e-05 
1.781481724777359e-05 
-8.163224878450279e-05 
0.0001544192102605359 
-1.771480146414542e-05 
0.000349635519023453 
-0.0005518906145789203 
5.521293326088743e-05 
-0.002271714357442531 
0 
-0.00450426113843042 
-5.521293326088743e-05 
-0.002271714357442531 
-0.000349635519023453 
-0.0005518906145789203 
-0.0001544192102605359 
-1.771480146414542e-05 
0.000211064522646625 
-6.63648611785549e-05 
0.0003059447835393893 
-0.001370957076689332 
0.0003501524782231014 
-0.004377839348861802 
0 
-0.0123796052884562 
-0.0003501524782231014 
-0.004377839348861802 
-0.0003059447835393893 
-0.001370957076689332 
-0.000211064522646625 
-6.63648611785549e-05 
4.725647838584258e-05 
4.388098515598024e-05 
0.0001391149176888436 
-0.000370135776604911 
0.001430632771363083 
-0.002542386950781211 
0 
-0.009383986566926119 
-0.001430632771363083 
-0.002542386950781211 
-0.0001391149176888436 
-0.000370135776604911 
-4.725647838584258e-05 
4.388098515598024e-05 
-0.0001441891597649057 
5.103096056341456e-06 
-0.0003398362487601696 
0.000671983578091443 
-0.0002787175225759067 
0.002245006757422112 
0 
0.00830868981135784 
0.0002787175225759067 
0.002245006757422112 
0.0003398362487601696 
0.000671983578091443 
0.0001441891597649057 
5.103096056341456e-06 
-0.0001717993555674519 
0.0001792495885965174 
0.0005469060737464603 
0.0009917299026380366 
0.00274361815176903 
-0.0004208822074730226 
0 
-0.005479278955549085 
-0.00274361815176903 
-0.0004208822074730226 
-0.0005469060737464603 
0.0009917299026380366 
0.0001717993555674519 
0.0001792495885965174 
0.0001831627059899163 
5.209419211945665e-05 
0.0003238327259215535 
-0.0004993552073120012 
0.001379203072947332 
-0.00186359677041127 
0 
-0.00683602325523272 
-0.001379203072947332 
-0.00186359677041127 
-0.0003238327259215535 
-0.0004993552073120012 
-0.0001831627059899163 
5.209419211945665e-05 
2.196475296957045e-06 
-5.194408236704048e-06 
-0.0003686290495039511 
0.0005764161886857931 
0.002082223708978281 
0.002408139051530435 
0 
0.00150103210620104 
-0.002082223708978281 
0.002408139051530435 
0.0003686290495039511 
0.0005764161886857931 
-2.196475296957045e-06 
-5.194408236704048e-06 
9.885559059025627e-05 
-8.946370928636622e-05 
0.000285706375051498 
-0.0007608532785115745 
0.0007731429124952373 
-0.003911692952299888 
0 
-0.0104102122617695 
-0.0007731429124952373 
-0.003911692952299888 
-0.000285706375051498 
-0.0007608532785115745 
-9.885559059025627e-05 
-8.946370928636622e-05 
7.076142835412321e-06 
-0.0001799431024917368 
-0.0004909587287732648 
-0.0003087322661189231 
0.0008845048082474875 
-0.0007591639118963366 
0 
-0.006371313346943398 
-0.0008845048082474875 
-0.0007591639118963366 
0.0004909587287732648 
-0.0003087322661189231 
-7.076142835412321e-06 
-0.0001799431024917368 
-1.252436261997597e-05 
-5.719434598684301e-05 
2.23917258331033e-05 
1.002045143546574e-05 
0.0002882272697999566 
-0.00150988488495732 
0 
-0.0006637493682666323 
-0.0002882272697999566 
-0.00150988488495732 
-2.23917258331033e-05 
1.002045143546574e-05 
1.252436261997597e-05 
-5.719434598684301e-05 
-0.0001018061377854319 
-9.582404009164964e-05 
-0.0004774477840677292 
0.0002525196248087519 
0.0006743279996037248 
0.001225427394344296 
0 
0.001678105215109958 
-0.0006743279996037248 
0.001225427394344296 
0.0004774477840677292 
0.0002525196248087519 
0.0001018061377854319 
-9.582404009164964e-05 
5.890493959004055e-05 
1.018551938549713e-05 
0.0006848132339564864 
-0.0003979555718463123 
-0.0001631282934386536 
-0.00312265811004858 
0 
-0.00111293434487747 
0.0001631282934386536 
-0.00312265811004858 
-0.0006848132339564864 
-0.0003979555718463123 
-5.890493959004055e-05 
1.018551938549713e-05 
-5.86626941802439e-05 
0.0002154713821897446 
0.0002912088539457168 
0.0008937276978433598 
0.0005329321915032789 
0.001986936054116813 
0 
0.01223884577629315 
-0.0005329321915032789 
0.001986936054116813 
-0.0002912088539457168 
0.0008937276978433598 
5.86626941802439e-05 
0.0002154713821897446 
-0.0002356285809124356 
0.0001126249768636367 
-0.0001607910200100783 
0.001525468231962023 
0.003423805550109343 
0.001058547742189763 
0 
0.004016282522181986 
-0.003423805550109343 
0.001058547742189763 
0.0001607910200100783 
0.001525468231962023 
0.0002356285809124356 
0.0001126249768636367 
8.043693888938578e-05 
-2.959218253990655e-06 
0.0006214993872992195 
4.66755452662406e-05 
0.001898651817534662 
-0.003917741584315873 
0 
-0.006273348124337031 
-0.001898651817534662 
-0.003917741584315873 
-0.0006214993872992195 
4.66755452662406e-05 
-8.043693888938578e-05 
-2.959218253990655e-06 
9.857953604791766e-05 
-0.000150420015520246 
0.0001166317181802572 
-0.0002638932157698443 
0.002931144990630082 
-0.004693867321040662 
0 
-0.01333508331755088 
-0.002931144990630082 
-0.004693867321040662 
-0.0001166317181802572 
-0.0002638932157698443 
-9.857953604791766e-05 
-0.000150420015520246 
0.000141764696103291 
-0.0002506957335730598 
-0.0004368795881501042 
-0.0007319044315878749 
0.0008517893997211738 
-0.002324094105863255 
0 
-0.005838287252746664 
-0.0008517893997211738 
-0.002324094105863255 
0.0004368795881501042 
-0.0007319044315878749 
-0.000141764696103291 
-0.0002506957335730598 
0.0001107985613723302 
-6.923057293421064e-05 
0.000368143606878971 
-0.0002587694597110934 
0.002202714924591537 
-0.00281682300211345 
0 
-0.01214410502639506 
-0.002202714924591537 
-0.00281682300211345 
-0.000368143606878971 
-0.0002587694597110934 
-0.0001107985613723302 
-6.923057293421064e-05 
-6.420559772239666e-05 
0.0001763138486937843 
0.0008286671780871714 
0.0002053136407361765 
0.0009103031950689885 
-0.001834341949895261 
0 
0.0007156040395657741 
-0.0009103031950689885 
-0.001834341949895261 
-0.0008286671780871714 
0.0002053136407361765 
6.420559772239666e-05 
0.0001763138486937843 
-9.281589359362386e-05 
-0.000190342479836984 
-0.0005674293159503399 
0.0001736732006267266 
-0.0002312754878619711 
-0.001474529733701193 
0 
0.004844394463782015 
0.0002312754878619711 
-0.001474529733701193 
0.0005674293159503399 
0.0001736732006267266 
9.281589359362386e-05 
-0.000190342479836984 
-8.103232005079632e-05 
-0.0001443133909670804 
-0.0007555204328008642 
2.234149067802395e-05 
-0.002402613161613843 
0.0006445240458023097 
0 
0.01282059480631231 
0.002402613161613843 
0.0006445240458023097 
0.0007555204328008642 
2.234149067802395e-05 
8.103232005079632e-05 
-0.0001443133909670804 
-6.076708396804863e-05 
0.0002047241258018119 
-0.0004788741981609966 
0.0007957078639134762 
-0.00151464431275678 
0.005836902491010885 
0 
0.0202553900957714 
0.00151464431275678 
0.005836902491010885 
0.0004788741981609966 
0.0007957078639134762 
6.076708396804863e-05 
0.0002047241258018119 
5.710528746152339e-05 
3.141210669756997e-05 
0.0002627731255572178 
-0.0002929194262088471 
-0.002143538055073275 
-0.001317285082179543 
0 
0.009001056381420909 
0.002143538055073275 
-0.001317285082179543 
-0.0002627731255572178 
-0.0002929194262088471 
-5.710528746152339e-05 
3.141210669756997e-05 
0.0001842132265107469 
-8.768619863229071e-05 
0.0004945932463226867 
-0.0007912977446737946 
-0.0009793910876518689 
-0.003573645361090039 
0 
0.001318198551809919 
0.0009793910876518689 
-0.003573645361090039 
-0.0004945932463226867 
-0.0007912977446737946 
-0.0001842132265107469 
-8.768619863229071e-05 
0.0001342761205289218 
-2.564779140914488e-05 
0.0002088370569200268 
-0.0004260132368764103 
-0.0003423722234158659 
-0.003425758431757058 
0 
0.004844202889978325 
0.0003423722234158659 
-0.003425758431757058 
-0.0002088370569200268 
-0.0004260132368764103 
-0.0001342761205289218 
-2.564779140914488e-05 
-8.119474027238431e-05 
0.0001658776223850151 
0.0006933440872939061 
0.0005740505242161256 
-0.0008120583205695049 
-0.0004964524180118002 
0 
0.01083892551895817 
0.0008120583205695049 
-0.0004964524180118002 
-0.0006933440872939061 
0.0005740505242161256 
8.119474027238431e-05 
0.0001658776223850151 
3.275714487437248e-05 
3.016708652415446e-05 
0.0002917667333821273 
-0.0004725327615628799 
-0.0008562703413720216 
-0.00151557637652499 
0 
-0.00414637421142903 
0.0008562703413720216 
-0.00151557637652499 
-0.0002917667333821273 
-0.0004725327615628799 
-3.275714487437248e-05 
3.016708652415446e-05 
4.510480744242373e-05 
-9.582763320721537e-05 
0.0001408693060393454 
-2.652587833544086e-05 
0.0005403057127334943 
-0.001576134272314596 
0 
0.0004326100175965105 
-0.0005403057127334943 
-0.001576134272314596 
-0.0001408693060393454 
-2.652587833544086e-05 
-4.510480744242373e-05 
-9.582763320721537e-05 
6.831636913440469e-06 
-0.0001225264232998099 
-3.234150228904908e-05 
-0.0001868951382759755 
0.001167459004821798 
-0.002293165356784535 
0 
-0.00367019789416117 
-0.001167459004821798 
-0.002293165356784535 
3.234150228904908e-05 
-0.0001868951382759755 
-6.831636913440469e-06 
-0.0001225264232998099 
6.394652575582138e-05 
-0.0001251928288852903 
-9.688548808194851e-05 
-0.0004650468036752351 
-0.001190798380034315 
-0.00206053689660992 
0 
0.002846165530306111 
0.001190798380034315 
-0.00206053689660992 
9.688548808194851e-05 
-0.0004650468036752351 
-6.394652575582138e-05 
-0.0001251928288852903 
-6.303882197953732e-05 
9.306644187219467e-05 
-0.0004025204953773407 
0.0004485918334987206 
-0.001599473219078679 
0.003460422063890481 
0 
0.01321916671830593 
0.001599473219078679 
0.003460422063890481 
0.0004025204953773407 
0.0004485918334987206 
6.303882197953732e-05 
9.306644187219467e-05 
-0.0001909928567144525 
-5.609672607481855e-05 
3.147532686823291e-05 
2.254557322013803e-05 
0.0001283082863634981 
-0.002671701275227999 
0 
-0.0007970164810875706 
-0.0001283082863634981 
-0.002671701275227999 
-3.147532686823291e-05 
2.254557322013803e-05 
0.0001909928567144525 
-5.609672607481855e-05 
-4.257476225074769e-05 
3.022537963888893e-05 
-0.0001262851133542134 
0.000565832841329923 
0.00260148763368775 
-0.0003587746495571461 
0 
-0.002725505004306683 
-0.00260148763368775 
-0.0003587746495571461 
0.0001262851133542134 
0.000565832841329923 
4.257476225074769e-05 
3.022537963888893e-05 
3.629784358450245e-05 
-0.0001365937683487905 
-3.05924323635455e-06 
-0.0006283576592471776 
-0.001163016537916245 
-0.002338749361069582 
0 
-0.002491461029015869 
0.001163016537916245 
-0.002338749361069582 
3.05924323635455e-06 
-0.0006283576592471776 
-3.629784358450245e-05 
-0.0001365937683487905 
0.0001576391158705109 
-6.339914467976718e-05 
0.0006052963852328678 
-0.000882108415623452 
-0.0004051376533784733 
-0.004731211005668605 
0 
-0.002659470414378773 
0.0004051376533784733 
-0.004731211005668605 
-0.0006052963852328678 
-0.000882108415623452 
-0.0001576391158705109 
-6.339914467976718e-05 
0.0001378257416039902 
0.0005413484560973145 
0.0004135570340539199 
0.002022129958442218 
0.002523966904732916 
0.009133352161882203 
0 
0.02195128619724019 
-0.002523966904732916 
0.009133352161882203 
-0.0004135570340539199 
0.002022129958442218 
-0.0001378257416039902 
0.0005413484560973145 
0.0002090057452526146 
6.299493589274385e-06 
0.0004501886077422879 
-0.001198680812769201 
0.0005197054125214115 
-0.005290683883525443 
0 
-0.008186521072629823 
-0.0005197054125214115 
-0.005290683883525443 
-0.0004501886077422879 
-0.001198680812769201 
-0.0002090057452526146 
6.299493589274385e-06 
-0.0001254320453908976 
-1.358463474446364e-05 
0.0001174175662475623 
0.0002739633047702531 
0.0004839692508178242 
-0.001690195781383182 
0 
0.002003754180136851 
-0.0004839692508178242 
-0.001690195781383182 
-0.0001174175662475623 
0.0002739633047702531 
0.0001254320453908976 
-1.358463474446364e-05 
9.093666935056195e-05 
0.0001518448283870841 
0.000759285761299943 
-0.0003199328729168236 
0.0008270807446167628 
-0.002331647147438821 
0 
-0.004620774468789329 
-0.0008270807446167628 
-0.002331647147438821 
-0.000759285761299943 
-0.0003199328729168236 
-9.093666935056195e-05 
0.0001518448283870841 
-6.943400945739891e-05 
-7.551052788039555e-05 
-7.926795728113324e-05 
6.900772915172482e-05 
0.0002147384793966273 
-0.002639566601889929 
0 
-0.001472302068836095 
-0.0002147384793966273 
-0.002639566601889929 
7.926795728113324e-05 
6.900772915172482e-05 
6.943400945739891e-05 
-7.551052788039555e-05 
0.0001751395747009258 
-0.0001280481716502656 
-1.279408227434766e-05 
-0.001222218634825817 
-0.0004579494897774873 
-0.003812000728403875 
0 
-0.003887762240827303 
0.0004579494897774873 
-0.003812000728403875 
1.279408227434766e-05 
-0.001222218634825817 
-0.0001751395747009258 
-0.0001280481716502656 
0.00017688680834028 
8.124803566259764e-05 
0.0008573112862343602 
-0.0003020981122633608 
0.002412062687987749 
-0.004472105545284028 
0 
-0.007310058821796207 
-0.002412062687987749 
-0.004472105545284028 
-0.0008573112862343602 
-0.0003020981122633608 
-0.00017688680834028 
8.124803566259764e-05 
-0.0002200286865558827 
2.997536408958786e-05 
0.0006130886953474483 
0.0008019184594875968 
0.003395953246420912 
-0.003068597489398397 
0 
-0.005768805213335903 
-0.003395953246420912 
-0.003068597489398397 
-0.0006130886953474483 
0.0008019184594875968 
0.0002200286865558827 
2.997536408958786e-05 
4.162803287202512e-05 
-0.0002224691223784309 
4.024324019103464e-05 
-0.0005066111725142742 
-0.0004409495090529115 
-0.003069426873013034 
0 
-0.004762314462818315 
0.0004409495090529115 
-0.003069426873013034 
-4.024324019103464e-05 
-0.0005066111725142742 
-4.162803287202512e-05 
-0.0002224691223784309 
-0.0001219716577602335 
0.0002221861510204169 
-0.00066970872652156 
0.001549772321872746 
-0.001024707174439484 
0.009805619013053286 
0 
0.03068030921566114 
0.001024707174439484 
0.009805619013053286 
0.00066970872652156 
0.001549772321872746 
0.0001219716577602335 
0.0002221861510204169 
3.435121390947785e-05 
-9.843614362502696e-05 
-0.0003189638491728558 
-0.0001531042319978719 
-0.0003537563200548561 
0.000388592149457696 
0 
0.005959332410385472 
0.0003537563200548561 
0.000388592149457696 
0.0003189638491728558 
-0.0001531042319978719 
-3.435121390947785e-05 
-9.843614362502696e-05 
5.142639905178543e-06 
-0.0001457731226695682 
-0.0001585119126962252 
-0.0005711534824682583 
-0.0005651865872394781 
-0.00105131635654985 
0 
-0.001223408978614711 
0.0005651865872394781 
-0.00105131635654985 
0.0001585119126962252 
-0.0005711534824682583 
-5.142639905178543e-06 
-0.0001457731226695682 
-0.0001437874866950078 
-1.203629355187049e-05 
-0.0004016973000051917 
0.0009488649708463963 
0.004132277299069796 
0.001176338185148749 
0 
-0.007134450051216742 
-0.004132277299069796 
0.001176338185148749 
0.0004016973000051917 
0.0009488649708463963 
0.0001437874866950078 
-1.203629355187049e-05 
7.347461445630784e-06 
-0.0001292673712141182 
-0.0002240646474981697 
-0.0003200476010600133 
0.0006551890459097691 
-0.003356411722303437 
0 
-0.00489615319965759 
-0.0006551890459097691 
-0.003356411722303437 
0.0002240646474981697 
-0.0003200476010600133 
-7.347461445630784e-06 
-0.0001292673712141182 
0.0001238269800978006 
9.639423284932663e-06 
0.0004458736101096473 
-6.524445629348082e-05 
0.0007952724104027496 
-0.002085446376474582 
0 
0.001874315948071655 
-0.0007952724104027496 
-0.002085446376474582 
-0.0004458736101096473 
-6.524445629348082e-05 
-0.0001238269800978006 
9.639423284932663e-06 
4.970492432663014e-05 
2.488821301812588e-05 
0.0007313643623987428 
-9.726952074977192e-05 
0.0009328778933001843 
-0.003990773923178315 
0 
-0.002547181081762199 
-0.0009328778933001843 
-0.003990773923178315 
-0.0007313643623987428 
-9.726952074977192e-05 
-4.970492432663014e-05 
2.488821301812588e-05 
-5.381628692521715e-06 
3.918871077612569e-05 
0.0003928099886593341 
-0.0001698019038690911 
0.0006994234232864145 
-0.002460348977899196 
0 
-0.003063703412479737 
-0.0006994234232864145 
-0.002460348977899196 
-0.0003928099886593341 
-0.0001698019038690911 
5.381628692521715e-06 
3.918871077612569e-05 
-2.047926200268309e-05 
-0.0002613183752426372 
-0.0006115295719598897 
-0.0005749785185781014 
-0.001499386423198391 
-0.001706432252707006 
0 
0.001819011400176225 
0.001499386423198391 
-0.001706432252707006 
0.0006115295719598897 
-0.0005749785185781014 
2.047926200268309e-05 
-0.0002613183752426372 
-0.0001310343652542877 
0.000381660744261353 
-0.0003134086373583453 
0.00199350588662595 
0.0006516817926759201 
0.009301657782139533 
0 
0.02562239799342692 
-0.0006516817926759201 
0.009301657782139533 
0.0003134086373583453 
0.00199350588662595 
0.0001310343652542877 
0.000381660744261353 
2.313123143658365e-05 
2.973853959918882e-05 
0.0003212198482537742 
-1.309338082384184e-06 
-0.0003919271416139232 
-0.0001407382481543515 
0 
0.003662054011682292 
0.0003919271416139232 
-0.0001407382481543515 
-0.0003212198482537742 
-1.309338082384184e-06 
-2.313123143658365e-05 
2.973853959918882e-05 
0.0001255169221028238 
-7.709663545902172e-05 
0.0006871887917093424 
-0.000896486345427707 
0.001966008676498931 
-0.006910443345317333 
0 
-0.01744843859437137 
-0.001966008676498931 
-0.006910443345317333 
-0.0006871887917093424 
-0.000896486345427707 
-0.0001255169221028238 
-7.709663545902172e-05 
3.956949638721029e-05 
-2.477664064614256e-05 
0.0004674696558070814 
-0.0001092916675448603 
0.001117055978289029 
-0.002778765806139025 
0 
-0.007007279196830392 
-0.001117055978289029 
-0.002778765806139025 
-0.0004674696558070814 
-0.0001092916675448603 
-3.956949638721029e-05 
-2.477664064614256e-05 
-4.57114913790352e-05 
0.0001715285882007693 
0.0005412872666084242 
0.0006653018088871167 
0.001644549361370561 
-0.001214708992328526 
0 
0.004324482290671305 
-0.001644549361370561 
-0.001214708992328526 
-0.0005412872666084242 
0.0006653018088871167 
4.57114913790352e-05 
0.0001715285882007693 
6.198414529581086e-05 
0.0001455005374209198 
0.0007376561995351148 
0.0002451382608875871 
0.001946047662798462 
-0.0030320933030672 
0 
-0.005485205436354926 
-0.001946047662798462 
-0.0030320933030672 
-0.0007376561995351148 
0.0002451382608875871 
-6.198414529581086e-05 
0.0001455005374209198 
2.776558181736924e-05 
-5.844597281303943e-05 
0.0001385997292928941 
8.547694349963695e-05 
0.000891218511549622 
-0.001663097672582771 
0 
-0.003542646856047512 
-0.000891218511549622 
-0.001663097672582771 
-0.0001385997292928941 
8.547694349963695e-05 
-2.776558181736924e-05 
-5.844597281303943e-05 
4.714193275213761e-05 
-0.0001208020536732427 
0.000129613577932159 
-0.0005969842653675335 
-0.0002446952966257474 
-0.002110177540507373 
0 
-0.006343587975637313 
0.0002446952966257474 
-0.002110177540507373 
-0.000129613577932159 
-0.0005969842653675335 
-4.714193275213761e-05 
-0.0001208020536732427 
-4.412780468608051e-06 
-0.0001361609091593868 
-0.0002024274003217169 
2.603327086778882e-05 
0.0004142986038136828 
-0.001889445221707831 
0 
-0.003548065163230457 
-0.0004142986038136828 
-0.001889445221707831 
0.0002024274003217169 
2.603327086778882e-05 
4.412780468608051e-06 
-0.0001361609091593868 
-0.0002372625041442742 
0.0002115435895738377 
-0.00052342090657374 
0.001490053198535958 
0.0007920244007533619 
0.005635285337228829 
0 
0.01314009840772178 
-0.0007920244007533619 
0.005635285337228829 
0.00052342090657374 
0.001490053198535958 
0.0002372625041442742 
0.0002115435895738377 
3.229512475608302e-06 
6.79245732888967e-05 
-0.0005245037984558351 
0.0005010643409785964 
-0.001891014747589666 
0.004737063840269957 
0 
0.01956854221937889 
0.001891014747589666 
0.004737063840269957 
0.0005245037984558351 
0.0005010643409785964 
-3.229512475608302e-06 
6.79245732888967e-05 
6.609122333565409e-05 
-5.410928249701927e-05 
2.255760902624138e-07 
-0.0006861398121958927 
-0.0004279681973649748 
-0.00242803371633731 
0 
-0.002718175438371018 
0.0004279681973649748 
-0.00242803371633731 
-2.255760902624138e-07 
-0.0006861398121958927 
-6.609122333565409e-05 
-5.410928249701927e-05 
0.0001054783195048338 
2.184740427555854e-05 
0.0004560246502763095 
-0.0001453830241167669 
0.00347047309647234 
-0.003447652529752825 
0 
-0.0103318750523425 
-0.00347047309647234 
-0.003447652529752825 
-0.0004560246502763095 
-0.0001453830241167669 
-0.0001054783195048338 
2.184740427555854e-05 
0.0002159665837014244 
4.804072988542771e-05 
0.0009764221316709242 
-0.000725192487326315 
0.0009872710162851552 
-0.006156778209820972 
0 
-0.01259228819664657 
-0.0009872710162851552 
-0.006156778209820972 
-0.0009764221316709242 
-0.000725192487326315 
-0.0002159665837014244 
4.804072988542771e-05 
-8.193003429751608e-05 
0.0001575540746376193 
-0.00028610041382467 
0.000902384298882901 
0.002392508223831267 
0.00323388722033582 
0 
-0.0003495395681353898 
-0.002392508223831267 
0.00323388722033582 
0.00028610041382467 
0.000902384298882901 
8.193003429751608e-05 
0.0001575540746376193 
3.854572974329683e-05 
9.393481594399435e-06 
0.0006787682260776442 
-0.0002250731306082764 
0.00164452279184611 
-0.004918242812458363 
0 
-0.006594356234071797 
-0.00164452279184611 
-0.004918242812458363 
-0.0006787682260776442 
-0.0002250731306082764 
-3.854572974329683e-05 
9.393481594399435e-06 
-1.119482692503399e-05 
0.0001169669666320801 
0.0003588915793779414 
0.0007252092543528024 
0.002633073288078662 
-0.0004415886782034474 
0 
-0.001399209788643009 
-0.002633073288078662 
-0.0004415886782034474 
-0.0003588915793779414 
0.0007252092543528024 
1.119482692503399e-05 
0.0001169669666320801 
7.638454845807107e-06 
6.887243507899497e-05 
0.0004395779835517384 
0.0001037225786935729 
-0.0008777449842119611 
-0.001400217299034127 
0 
0.00739033258072108 
0.0008777449842119611 
-0.001400217299034127 
-0.0004395779835517384 
0.0001037225786935729 
-7.638454845807107e-06 
6.887243507899497e-05 
1.22699236917393e-05 
-3.499176250682103e-05 
7.586854660331297e-05 
-0.0001792700963442698 
0.0001152153514348149 
-0.001343207069175623 
0 
-0.001623595671210257 
-0.0001152153514348149 
-0.001343207069175623 
-7.586854660331297e-05 
-0.0001792700963442698 
-1.22699236917393e-05 
-3.499176250682103e-05 
2.229979069881632e-05 
4.25727799174153e-05 
0.0005594784678405608 
6.675400283323963e-05 
0.0005169416070552432 
-0.003313576314941537 
0 
0.002227026999727847 
-0.0005169416070552432 
-0.003313576314941537 
-0.0005594784678405608 
6.675400283323963e-05 
-2.229979069881632e-05 
4.25727799174153e-05 
9.136107432463674e-05 
-0.0001214371594949739 
0.0002288487867189603 
-0.0008130540671025795 
0.002495889953793956 
-0.006133960330651644 
0 
-0.01931434637729531 
-0.002495889953793956 
-0.006133960330651644 
-0.0002288487867189603 
-0.0008130540671025795 
-9.136107432463674e-05 
-0.0001214371594949739 
4.41264209692798e-05 
-7.152529486935775e-05 
0.0004142950704574538 
-0.0003787707297814674 
0.001230439068012783 
-0.003574247461552158 
0 
-0.01061680236182897 
-0.001230439068012783 
-0.003574247461552158 
-0.0004142950704574538 
-0.0003787707297814674 
-4.41264209692798e-05 
-7.152529486935775e-05 
-3.401078136219474e-07 
1.747200953088707e-05 
-0.0002144690019835439 
3.802206821625002e-05 
0.0002082538670477564 
0.001388513792819538 
0 
0.002274322495876942 
-0.0002082538670477564 
0.001388513792819538 
0.0002144690019835439 
3.802206821625002e-05 
3.401078136219474e-07 
1.747200953088707e-05 
-4.882267200158302e-05 
0.0001215895063912915 
-0.0004608794379537168 
0.0006786482552841266 
0.0007452652842332102 
0.004374756973637476 
0 
0.006125848110483437 
-0.0007452652842332102 
0.004374756973637476 
0.0004608794379537168 
0.0006786482552841266 
4.882267200158302e-05 
0.0001215895063912915 
2.950285224904014e-05 
6.210906823044859e-05 
0.0003794318534168417 
-0.0001016548650562609 
0.0003328476035989181 
-0.002486356078470508 
0 
-0.001059175359101048 
-0.0003328476035989181 
-0.002486356078470508 
-0.0003794318534168417 
-0.0001016548650562609 
-2.950285224904014e-05 
6.210906823044859e-05 
0.0001500055217200234 
3.829535009456814e-05 
0.0002588488390920719 
0.0001540710682928359 
0.00086093266812988 
0.0009426733270959404 
0 
0.002831244053666464 
-0.00086093266812988 
0.0009426733270959404 
-0.0002588488390920719 
0.0001540710682928359 
-0.0001500055217200234 
3.829535009456814e-05 
-8.031956164399133e-05 
5.599587674169389e-05 
0.0006524301895414751 
-4.544931560834963e-05 
0.001719093815354695 
-0.002935125507322979 
0 
-0.009456453888546507 
-0.001719093815354695 
-0.002935125507322979 
-0.0006524301895414751 
-4.544931560834963e-05 
8.031956164399133e-05 
5.599587674169389e-05 
0.000196605065138671 
7.967782723350815e-05 
0.0005985426584042066 
-4.013735660635066e-05 
0.000996604085813435 
-0.00104598464495075 
0 
-0.001097456903462777 
-0.000996604085813435 
-0.00104598464495075 
-0.0005985426584042066 
-4.013735660635066e-05 
-0.000196605065138671 
7.967782723350815e-05 
0.0002361303650788682 
-9.245187109388196e-05 
0.000116853929325552 
-0.000922853325142147 
-0.00137693605549427 
-0.001672987970399322 
0 
-0.001290847155536701 
0.00137693605549427 
-0.001672987970399322 
-0.000116853929325552 
-0.000922853325142147 
-0.0002361303650788682 
-9.245187109388196e-05 
-0.0001976356031843879 
-0.0002704564959412382 
-0.0008585098485579968 
0.0003934569360316784 
0.000971531920007547 
-0.0001980876787036149 
0 
-0.003992142394903453 
-0.000971531920007547 
-0.0001980876787036149 
0.0008585098485579968 
0.0003934569360316784 
0.0001976356031843879 
-0.0002704564959412382 
1.042091683414548e-05 
0.0001071141985694283 
0.0005196731124725027 
0.0002193716611570062 
0.002912982469200038 
-0.00298019028459418 
0 
-0.008208637423399596 
-0.002912982469200038 
-0.00298019028459418 
-0.0005196731124725027 
0.0002193716611570062 
-1.042091683414548e-05 
0.0001071141985694283 
0.0001407011847045941 
-0.0001525235268128401 
-0.0005307566867613921 
-0.001395786020518972 
-0.004565666334400976 
0.0003462403549319355 
0 
0.007846136294685554 
0.004565666334400976 
0.0003462403549319355 
0.0005307566867613921 
-0.001395786020518972 
-0.0001407011847045941 
-0.0001525235268128401 
-9.923882579241753e-05 
1.280644124432285e-05 
-0.0004794405736240912 
0.000653836408089125 
0.001264723348348594 
0.001525020840695281 
0 
0.001462222421052094 
-0.001264723348348594 
0.001525020840695281 
0.0004794405736240912 
0.000653836408089125 
9.923882579241753e-05 
1.280644124432285e-05 
4.811591170639931e-05 
-1.076360549618757e-05 
0.0005131493632392735 
-0.0001007838157680535 
-0.001167162778805056 
-0.002608787431675606 
0 
0.006007848493401136 
0.001167162778805056 
-0.002608787431675606 
-0.0005131493632392735 
-0.0001007838157680535 
-4.811591170639931e-05 
-1.076360549618757e-05 
0.0001246429940512314 
-0.0001518486545641277 
6.201902274935372e-06 
-0.0008753691943425582 
-0.002160132039091882 
-0.00195222408360001 
0 
0.0006495767338874712 
0.002160132039091882 
-0.00195222408360001 
-6.201902274935372e-06 
-0.0008753691943425582 
-0.0001246429940512314 
-0.0001518486545641277 
0.0002022023092069324 
-0.0002517005625083244 
-0.0006945222339341797 
-0.0007825504858039999 
-0.001461938120908877 
0.0001381562471725564 
0 
-0.000357579596592598 
0.001461938120908877 
0.0001381562471725564 
0.0006945222339341797 
-0.0007825504858039999 
-0.0002022023092069324 
-0.0002517005625083244 
-4.650930905821762e-05 
-0.0001636830664558301 
-0.0002118863330349247 
-0.0004853429878365553 
-0.002146765384709607 
-0.00201577146886018 
0 
0.00190807090158101 
0.002146765384709607 
-0.00201577146886018 
0.0002118863330349247 
-0.0004853429878365553 
4.650930905821762e-05 
-0.0001636830664558301 
1.420098199962945e-05 
-0.0002460090234946197 
-0.0009304744138704339 
-0.0006643701769602171 
-0.00319469012198598 
0.00135214241759234 
0 
0.01135019758343868 
0.00319469012198598 
0.00135214241759234 
0.0009304744138704339 
-0.0006643701769602171 
-1.420098199962945e-05 
-0.0002460090234946197 
1.405965592168526e-05 
7.620742057855443e-05 
5.222964447288329e-05 
-9.492892099010723e-05 
0.0001000936031157747 
3.135227666345671e-05 
0 
0.0004163733143091546 
-0.0001000936031157747 
3.135227666345671e-05 
-5.222964447288329e-05 
-9.492892099010723e-05 
-1.405965592168526e-05 
7.620742057855443e-05 
5.399676239326569e-06 
-0.0001023630983587246 
0.000346964614544313 
-0.0003308667251234258 
-0.0002345112947624955 
-0.003223127158931255 
0 
-0.002130583919470754 
0.0002345112947624955 
-0.003223127158931255 
-0.000346964614544313 
-0.0003308667251234258 
-5.399676239326569e-06 
-0.0001023630983587246 
-8.962706098376584e-05 
-0.0001146647913454979 
-0.001224216035226592 
-0.0001762966362766142 
-0.004964952548756639 
0.004853694622332402 
0 
0.02400679236105357 
0.004964952548756639 
0.004853694622332402 
0.001224216035226592 
-0.0001762966362766142 
8.962706098376584e-05 
-0.0001146647913454979 
-0.000154210855456317 
5.481450373540838e-06 
-0.0002830920857021274 
0.0005323399447729478 
-0.001157693865962387 
0.0004512523160733789 
0 
0.009738020651636734 
0.001157693865962387 
0.0004512523160733789 
0.0002830920857021274 
0.0005323399447729478 
0.000154210855456317 
5.481450373540838e-06 
-0.0001047256081189334 
7.955949361779153e-05 
0.0002564089880327315 
0.0004312503712675068 
-0.0007435127550758015 
-0.001105616391369386 
0 
0.007705877730624544 
0.0007435127550758015 
-0.001105616391369386 
-0.0002564089880327315 
0.0004312503712675068 
0.0001047256081189334 
7.955949361779153e-05 
0.000182062276971887 
6.492737758170379e-05 
0.0008739138069792903 
-0.000560105903066907 
-0.000179963049968536 
-0.004963695512570672 
0 
-0.00173138476000674 
0.000179963049968536 
-0.004963695512570672 
-0.0008739138069792903 
-0.000560105903066907 
-0.000182062276971887 
6.492737758170379e-05 
0.0001690440470623168 
-3.273069181989318e-05 
0.0003932984383664087 
-0.00065642471446008 
-0.0009371636090835824 
-0.004217711263959335 
0 
0.0003226976164423335 
0.0009371636090835824 
-0.004217711263959335 
-0.0003932984383664087 
-0.00065642471446008 
-0.0001690440470623168 
-3.273069181989318e-05 
-0.0002009515748874164 
0.0002176446784070992 
0.0004283230893727294 
0.0008158059359469511 
0.001839843241016197 
-0.0008341989916340791 
0 
-0.003379231476001569 
-0.001839843241016197 
-0.0008341989916340791 
-0.0004283230893727294 
0.0008158059359469511 
0.0002009515748874164 
0.0002176446784070992 
-4.005748795472049e-05 
-0.0001200586144093527 
-0.0003636875866369334 
-0.0001567443519583658 
-0.002245018282977533 
-0.0003801743739259921 
0 
0.0101858824611877 
0.002245018282977533 
-0.0003801743739259921 
0.0003636875866369334 
-0.0001567443519583658 
4.005748795472049e-05 
-0.0001200586144093527 
-5.388698488352979e-06 
-2.278364390200384e-05 
0.000216003260342897 
0.0001002588192813045 
0.002531387476326903 
-0.002598376800892568 
0 
-0.00889849539839618 
-0.002531387476326903 
-0.002598376800892568 
-0.000216003260342897 
0.0001002588192813045 
5.388698488352979e-06 
-2.278364390200384e-05 
-0.0001552256644342159 
2.870315144731417e-05 
1.379469180480345e-05 
0.0004928825981760891 
0.001545554545905059 
-0.001560397487681165 
0 
0.0005935170402483673 
-0.001545554545905059 
-0.001560397487681165 
-1.379469180480345e-05 
0.0004928825981760891 
0.0001552256644342159 
2.870315144731417e-05 
-0.0001662731979586684 
7.851213011337425e-05 
0.0001457955998123644 
0.000655324077265829 
-0.00227599001452445 
-0.0004011488342957835 
0 
0.01470461994024697 
0.00227599001452445 
-0.0004011488342957835 
-0.0001457955998123644 
0.000655324077265829 
0.0001662731979586684 
7.851213011337425e-05 
7.499307984663193e-05 
-0.0001143571940147897 
-2.469128429822628e-05 
-0.0003446394048273132 
-0.001242116105895988 
-0.001161300856970097 
0 
0.001892021955236542 
0.001242116105895988 
-0.001161300856970097 
2.469128429822628e-05 
-0.0003446394048273132 
-7.499307984663193e-05 
-0.0001143571940147897 
2.318129564663605e-05 
4.757504279755283e-05 
0.0001800945565641506 
-0.0005846127833003424 
-0.002339989300020376 
-0.001091981857556988 
0 
0.008196748107805107 
0.002339989300020376 
-0.001091981857556988 
-0.0001800945565641506 
-0.0005846127833003424 
-2.318129564663605e-05 
4.757504279755283e-05 
5.479064263767466e-05 
-2.074368500030487e-05 
0.0001995649001320006 
-0.0004846718748466294 
-0.0005509834981041442 
-0.003436804230463335 
0 
5.298570723608521e-05 
0.0005509834981041442 
-0.003436804230463335 
-0.0001995649001320006 
-0.0004846718748466294 
-5.479064263767466e-05 
-2.074368500030487e-05 
-0.0002033689849535477 
6.299942236586613e-06 
-2.883096001160526e-05 
0.0003524288094129693 
0.0004004564490203456 
-0.0002400784401767828 
0 
-0.0004063118130291485 
-0.0004004564490203456 
-0.0002400784401767828 
2.883096001160526e-05 
0.0003524288094129693 
0.0002033689849535477 
6.299942236586613e-06 
-7.244657123649085e-05 
-0.0001663641341616562 
-0.0002415221440074696 
-0.0004872485577737257 
-0.0007563980724486354 
-0.00294040306485676 
0 
-0.003640511458815266 
0.0007563980724486354 
-0.00294040306485676 
0.0002415221440074696 
-0.0004872485577737257 
7.244657123649085e-05 
-0.0001663641341616562 
-8.57600893552141e-05 
-1.449884446721582e-05 
0.0003012172047814818 
0.0004196326093592049 
0.001537403643330543 
-0.00255630204923765 
0 
-0.003044954991274181 
-0.001537403643330543 
-0.00255630204923765 
-0.0003012172047814818 
0.0004196326093592049 
8.57600893552141e-05 
-1.449884446721582e-05 
-0.0001944497088921475 
-3.779050611970539e-05 
-0.0007770091150822832 
0.0007458634050793499 
0.0009031143865843445 
0.001713417756844955 
0 
0.003905301696982201 
-0.0009031143865843445 
0.001713417756844955 
0.0007770091150822832 
0.0007458634050793499 
0.0001944497088921475 
-3.779050611970539e-05 
-1.139656734793891e-05 
4.136323551116329e-05 
0.0002101462885378237 
6.669405911009687e-05 
1.491668095021129e-05 
-0.001783594605370781 
0 
0.001754013991759079 
-1.491668095021129e-05 
-0.001783594605370781 
-0.0002101462885378237 
6.669405911009687e-05 
1.139656734793891e-05 
4.136323551116329e-05 
-0.0002919961287959173 
-9.985768428950492e-05 
-0.001212627977686076 
0.0008294205374313953 
-0.001855229610030754 
0.004715219291560884 
0 
0.01638087210503529 
0.001855229610030754 
0.004715219291560884 
0.001212627977686076 
0.0008294205374313953 
0.0002919961287959173 
-9.985768428950492e-05 
-7.400281956972922e-05 
-2.965820381896178e-05 
-0.0001925850713921543 
0.0001435861836759901 
9.053314884747628e-05 
-0.001044309428481033 
0 
-0.0001556317908428796 
-9.053314884747628e-05 
-0.001044309428481033 
0.0001925850713921543 
0.0001435861836759901 
7.400281956972922e-05 
-2.965820381896178e-05 
-4.007579808417486e-05 
6.450456066142987e-06 
0.0003281999063615807 
8.091989199354774e-05 
0.0004401287258560972 
-0.001911112430109545 
0 
0.001507047533156672 
-0.0004401287258560972 
-0.001911112430109545 
-0.0003281999063615807 
8.091989199354774e-05 
4.007579808417486e-05 
6.450456066142987e-06 
0.000120468503963868 
7.233200503622305e-05 
0.0008149010510843368 
-0.000480310202187557 
-0.0001926151611378439 
-0.004018453364816432 
0 
-0.001063937221000468 
0.0001926151611378439 
-0.004018453364816432 
-0.0008149010510843368 
-0.000480310202187557 
-0.000120468503963868 
7.233200503622305e-05 
0.0001936930423577656 
8.626393210297259e-05 
0.001177772669628202 
-0.0003458910218913064 
0.0004640141859070219 
-0.005923726107426734 
0 
-0.003630225893228691 
-0.0004640141859070219 
-0.005923726107426734 
-0.001177772669628202 
-0.0003458910218913064 
-0.0001936930423577656 
8.626393210297259e-05 
-6.803178470326196e-05 
-0.0001183503199368475 
-3.186308293820881e-05 
-2.928849790104436e-05 
-0.0006883141897875269 
-0.001577362211833312 
0 
0.002156878024382369 
0.0006883141897875269 
-0.001577362211833312 
3.186308293820881e-05 
-2.928849790104436e-05 
6.803178470326196e-05 
-0.0001183503199368475 
9.646870336828894e-06 
0.0002026927475861125 
0.0007559897926426131 
0.0005574093456053887 
0.0007581342713226471 
-0.001862741553569645 
0 
0.00480811193410861 
-0.0007581342713226471 
-0.001862741553569645 
-0.0007559897926426131 
0.0005574093456053887 
-9.646870336828894e-06 
0.0002026927475861125 
0.0001102299816945886 
-0.0001120226461668085 
-0.000304920852683471 
-0.0007521714199243052 
-0.001397169587638956 
-0.0007594309197268641 
0 
0.001740530256983166 
0.001397169587638956 
-0.0007594309197268641 
0.000304920852683471 
-0.0007521714199243052 
-0.0001102299816945886 
-0.0001120226461668085 
-4.450678643739314e-05 
1.207149353022792e-05 
0.0001824400003042234 
4.499272446959242e-05 
-0.0001540899149658251 
-0.001432992220835222 
0 
0.001827663698520373 
0.0001540899149658251 
-0.001432992220835222 
-0.0001824400003042234 
4.499272446959242e-05 
4.450678643739314e-05 
1.207149353022792e-05 
-0.000143605062224786 
0.0003506200723852449 
0.000601863769311581 
0.001218671666991395 
0.001354252103087825 
0.001728599221505076 
0 
0.005351874894066014 
-0.001354252103087825 
0.001728599221505076 
-0.000601863769311581 
0.001218671666991395 
0.000143605062224786 
0.0003506200723852449 
2.950796150942058e-05 
-0.0001317211549113314 
-0.0003142281685531111 
-0.0006926626334178642 
-0.002933587982942912 
0.0002534921104853782 
0 
0.006562677034753265 
0.002933587982942912 
0.0002534921104853782 
0.0003142281685531111 
-0.0006926626334178642 
-2.950796150942058e-05 
-0.0001317211549113314 
3.282774749868796e-05 
-7.49894717521637e-05 
0.000189773213660888 
-0.0004835754323722205 
-0.001489738603919159 
-0.00206690351068709 
0 
0.00233039157788203 
0.001489738603919159 
-0.00206690351068709 
-0.000189773213660888 
-0.0004835754323722205 
-3.282774749868796e-05 
-7.49894717521637e-05 
4.58609060758244e-05 
4.491731225867296e-05 
0.0002432500251523539 
-0.0003323279797102353 
-0.0002734424113412917 
-0.0012465487334803 
0 
0.0006822140180639285 
0.0002734424113412917 
-0.0012465487334803 
-0.0002432500251523539 
-0.0003323279797102353 
-4.58609060758244e-05 
4.491731225867296e-05 
0.0001657218217707454 
-8.798180453226666e-05 
0.0001985822549831367 
-0.0007340935952732377 
0.000443490889406503 
-0.003130239516399987 
0 
-0.004953411996995731 
-0.000443490889406503 
-0.003130239516399987 
-0.0001985822549831367 
-0.0007340935952732377 
-0.0001657218217707454 
-8.798180453226666e-05 
-0.0001043315880393088 
7.639042049265845e-05 
-0.0006299281321975394 
0.0005343421718735567 
-0.003545628726999692 
0.006230774263758276 
0 
0.0249821061613217 
0.003545628726999692 
0.006230774263758276 
0.0006299281321975394 
0.0005343421718735567 
0.0001043315880393088 
7.639042049265845e-05 
-9.045810797900785e-05 
5.957613278330926e-06 
-0.0003582733713484665 
1.4815266712938e-05 
-0.0002556390558923467 
0.001007427212268391 
0 
0.003840162860611842 
0.0002556390558923467 
0.001007427212268391 
0.0003582733713484665 
1.4815266712938e-05 
9.045810797900785e-05 
5.957613278330926e-06 
4.323335011541073e-05 
-0.000220884557728432 
-6.49698722175224e-05 
-0.0006925632651613946 
0.001945787546026827 
-0.003862286434619479 
0 
-0.01631586685241438 
-0.001945787546026827 
-0.003862286434619479 
6.49698722175224e-05 
-0.0006925632651613946 
-4.323335011541073e-05 
-0.000220884557728432 
-7.469710472455629e-05 
4.376454798573484e-05 
0.0003511634420481219 
-2.346204456731192e-05 
0.001490656892746151 
-0.001999482056136852 
0 
-0.00443757006304142 
-0.001490656892746151 
-0.001999482056136852 
-0.0003511634420481219 
-2.346204456731192e-05 
7.469710472455629e-05 
4.376454798573484e-05 
-0.0001492518858778277 
3.307156880469112e-05 
-0.0003824782679583944 
2.437448794273546e-05 
-0.002058502186656469 
0.002546982888545021 
0 
0.009796857206793562 
0.002058502186656469 
0.002546982888545021 
0.0003824782679583944 
2.437448794273546e-05 
0.0001492518858778277 
3.307156880469112e-05 
5.336440031767111e-06 
0.0001457370627497411 
0.0003225486434039644 
0.0005664452659670298 
0.00261803312101855 
-0.0002258691812347717 
0 
-0.0008758130859127974 
-0.00261803312101855 
-0.0002258691812347717 
-0.0003225486434039644 
0.0005664452659670298 
-5.336440031767111e-06 
0.0001457370627497411 
0.0001182141268127265 
-0.0002591059321448601 
-1.054750797193489e-05 
-0.0005378052977473667 
0.0002961974706024479 
-0.004366365174185685 
0 
-0.008576281114294679 
-0.0002961974706024479 
-0.004366365174185685 
1.054750797193489e-05 
-0.0005378052977473667 
-0.0001182141268127265 
-0.0002591059321448601 
0.000100101030678351 
-1.735901080403915e-05 
0.000672700072880307 
-0.000297778037820806 
0.002197678308837995 
-0.003524473260835591 
0 
-0.01303789494600747 
-0.002197678308837995 
-0.003524473260835591 
-0.000672700072880307 
-0.000297778037820806 
-0.000100101030678351 
-1.735901080403915e-05 
-6.836170969991763e-05 
2.382307800162615e-05 
6.507032975018079e-05 
0.0006820596253728218 
0.003362896820907491 
-0.00134156163344656 
0 
-0.006965830714667889 
-0.003362896820907491 
-0.00134156163344656 
-6.507032975018079e-05 
0.0006820596253728218 
6.836170969991763e-05 
2.382307800162615e-05 
-1.263450965616324e-05 
0.0002936780063377344 
0.0001584285470745234 
0.001556578587882316 
0.001791052661650769 
0.006405322453647629 
0 
0.01343820087347051 
-0.001791052661650769 
0.006405322453647629 
-0.0001584285470745234 
0.001556578587882316 
1.263450965616324e-05 
0.0002936780063377344 
-4.349715236510487e-05 
5.552428807923602e-05 
7.03258666848366e-05 
-0.0001380108812064777 
0.0009801090596771914 
-0.001028214550677921 
0 
-0.003385836180906581 
-0.0009801090596771914 
-0.001028214550677921 
-7.03258666848366e-05 
-0.0001380108812064777 
4.349715236510487e-05 
5.552428807923602e-05 
0.000241214072621093 
-0.0001621344036667299 
-0.0005203671917663915 
-0.000837624830278466 
0.0003415484539281257 
-9.390380912773119e-05 
0 
-0.006090333687238474 
-0.0003415484539281257 
-9.390380912773119e-05 
0.0005203671917663915 
-0.000837624830278466 
-0.000241214072621093 
-0.0001621344036667299 
3.605336320031047e-05 
-5.730562674040411e-05 
0.0002842845162684194 
0.0001949575610956929 
0.002934059222674973 
-0.002517678882857483 
0 
-0.008776007167351031 
-0.002934059222674973 
-0.002517678882857483 
-0.0002842845162684194 
0.0001949575610956929 
-3.605336320031047e-05 
-5.730562674040411e-05 
8.702792791819639e-05 
-0.0001119820427092783 
0.00039305226384327 
-0.0007993270304946517 
-0.0002520371421185687 
-0.004971615874357292 
0 
-0.009677420374575814 
0.0002520371421185687 
-0.004971615874357292 
-0.00039305226384327 
-0.0007993270304946517 
-8.702792791819639e-05 
-0.0001119820427092783 
-5.52294961451486e-05 
-0.0002080259829621574 
-0.0004410169927428302 
-0.000422704041346876 
0.0003082624168511174 
-0.0009873394750165754 
0 
-0.006618494389584455 
-0.0003082624168511174 
-0.0009873394750165754 
0.0004410169927428302 
-0.000422704041346876 
5.52294961451486e-05 
-0.0002080259829621574 
-0.0001035757780787084 
-0.0001192182968219991 
-0.0003363284763354898 
0.0004623321546386276 
0.001889799287048916 
0.0001518580330712749 
0 
-0.004433842217916362 
-0.001889799287048916 
0.0001518580330712749 
0.0003363284763354898 
0.0004623321546386276 
0.0001035757780787084 
-0.0001192182968219991 
5.689934548367481e-05 
0.0001072376436254146 
0.0003283152213492535 
0.0003598930299866144 
0.001470095258603116 
-4.401284590543662e-05 
0 
0.0006432638137613021 
-0.001470095258603116 
-4.401284590543662e-05 
-0.0003283152213492535 
0.0003598930299866144 
-5.689934548367481e-05 
0.0001072376436254146 
-2.444220623521887e-05 
-8.573348632528114e-06 
0.0003147011692314019 
0.0006483415257550465 
0.004612649900277504 
-0.002107933785896389 
0 
-0.01505175648585619 
-0.004612649900277504 
-0.002107933785896389 
-0.0003147011692314019 
0.0006483415257550465 
2.444220623521887e-05 
-8.573348632528114e-06 
-3.040410641727681e-05 
-5.313189455398713e-06 
-0.0001620151774568701 
0.0001532841470439604 
0.001293410082437255 
0.000230818173582826 
0 
-0.002298282400799648 
-0.001293410082437255 
0.000230818173582826 
0.0001620151774568701 
0.0001532841470439604 
3.040410641727681e-05 
-5.313189455398713e-06 
0.0001705183726647078 
-3.487722340669313e-05 
0.0007057318204860306 
-0.0008829071403657887 
0.0003021300678004884 
-0.004385130598924656 
0 
-0.005205478750040974 
-0.0003021300678004884 
-0.004385130598924656 
-0.0007057318204860306 
-0.0008829071403657887 
-0.0001705183726647078 
-3.487722340669313e-05 
-0.0001425677690599998 
-0.0001296219012359283 
-0.0008689885144369743 
-0.0001793278572087713 
0.0008413200046123195 
-0.001053237361657889 
0 
-0.005329774541099742 
-0.0008413200046123195 
-0.001053237361657889 
0.0008689885144369743 
-0.0001793278572087713 
0.0001425677690599998 
-0.0001296219012359283 
-1.463282856320812e-05 
-2.91862455320405e-05 
-9.345359042068625e-05 
-0.0002196619580908036 
-0.0009662553004975391 
-0.001132580942932866 
0 
0.004069439505064549 
0.0009662553004975391 
-0.001132580942932866 
9.345359042068625e-05 
-0.0002196619580908036 
1.463282856320812e-05 
-2.91862455320405e-05 
5.364896774031435e-06 
1.311230939678924e-05 
-0.0001276517630609441 
0.0001327639451520454 
-0.0005878261481303818 
0.00145607705059097 
0 
0.003015308057687896 
0.0005878261481303818 
0.00145607705059097 
0.0001276517630609441 
0.0001327639451520454 
-5.364896774031435e-06 
1.311230939678924e-05 
0.0001772960247935858 
5.689515939863654e-05 
0.000620990875460623 
-0.0003888602747391458 
0.0008598503139205821 
-0.003405207288661903 
0 
-0.006968410325184354 
-0.0008598503139205821 
-0.003405207288661903 
-0.000620990875460623 
-0.0003888602747391458 
-0.0001772960247935858 
5.689515939863654e-05 
3.534393571693723e-05 
4.034295803371373e-05 
0.00101583787646392 
-0.0001401972835006816 
8.336292212230843e-05 
-0.004810459583027281 
0 
-0.005812186498568108 
-8.336292212230843e-05 
-0.004810459583027281 
-0.00101583787646392 
-0.0001401972835006816 
-3.534393571693723e-05 
4.034295803371373e-05 
0.0001177795469044665 
0.0001854435172609738 
-1.69490804608124e-05 
0.001158397317196414 
0.003088435287104993 
0.004867297703647648 
0 
0.006394394712300022 
-0.003088435287104993 
0.004867297703647648 
1.69490804608124e-05 
0.001158397317196414 
-0.0001177795469044665 
0.0001854435172609738 
0.000174232193798952 
5.3204300756572e-05 
0.001379990374743833 
-0.0007694552858927131 
0.002316534940351239 
-0.008250423109201545 
0 
-0.01685506648500601 
-0.002316534940351239 
-0.008250423109201545 
-0.001379990374743833 
-0.0007694552858927131 
-0.000174232193798952 
5.3204300756572e-05 
-0.0001553672843671212 
-0.0002057814164744247 
-0.0006057605534840455 
-0.0002030963206822044 
-0.001952666487048125 
-0.0001081958695045736 
0 
0.004212931859656056 
0.001952666487048125 
-0.0001081958695045736 
0.0006057605534840455 
-0.0002030963206822044 
0.0001553672843671212 
-0.0002057814164744247 
-0.0001286274433880533 
-1.839938856736081e-05 
1.363382550885658e-05 
0.0004046362194306743 
-0.0009184913427356501 
-0.0006379309592326504 
0 
0.009663374088666923 
0.0009184913427356501 
-0.0006379309592326504 
-1.363382550885658e-05 
0.0004046362194306743 
0.0001286274433880533 
-1.839938856736081e-05 
-8.368999704477852e-05 
-4.587540128195744e-05 
-7.299839319223511e-05 
0.0002824500291954312 
0.001509305572501499 
-0.0005815308497592299 
0 
-0.003902192360033986 
-0.001509305572501499 
-0.0005815308497592299 
7.299839319223511e-05 
0.0002824500291954312 
8.368999704477852e-05 
-4.587540128195744e-05 
-0.0001796943270491763 
4.823989742443503e-05 
0.0002030731712803428 
0.0003985922780955705 
0.0004682343602460972 
-0.0005073492088207915 
0 
-0.0001935009234944046 
-0.0004682343602460972 
-0.0005073492088207915 
-0.0002030731712803428 
0.0003985922780955705 
0.0001796943270491763 
4.823989742443503e-05 
-5.739786137617223e-05 
-0.0001372377553108767 
-0.0008919225926067695 
5.24982739704129e-05 
-0.001261982556978696 
0.004248893937625482 
0 
0.007524016590391081 
0.001261982556978696 
0.004248893937625482 
0.0008919225926067695 
5.24982739704129e-05 
5.739786137617223e-05 
-0.0001372377553108767 
0.0001111944071295994 
-4.997140796081811e-05 
-4.362692330345492e-05 
-0.0002514076184177528 
-0.001784194211518263 
-0.0002453428088664074 
0 
0.006546678569699566 
0.001784194211518263 
-0.0002453428088664074 
4.362692330345492e-05 
-0.0002514076184177528 
-0.0001111944071295994 
-4.997140796081811e-05 
4.128280294235539e-05 
-0.0001049523807471101 
-0.0002096691150095487 
-0.0003266081074615022 
0.0009667247741852141 
-0.001412933900443608 
0 
-0.004170228028977717 
-0.0009667247741852141 
-0.001412933900443608 
0.0002096691150095487 
-0.0003266081074615022 
-4.128280294235539e-05 
-0.0001049523807471101 
-4.438690116147992e-05 
-2.513309333651247e-06 
0.0003891833922548403 
0.0001504071765667426 
0.0008354701495885062 
-0.002703960972144472 
0 
-0.001574130427199443 
-0.0008354701495885062 
-0.002703960972144472 
-0.0003891833922548403 
0.0001504071765667426 
4.438690116147992e-05 
-2.513309333651247e-06 
-0.000149264686308958 
8.491745489462526e-05 
0.0001201985273364744 
0.0003241249067973056 
0.001783791866196266 
-0.001442622051188409 
0 
-0.003675983922444612 
-0.001783791866196266 
-0.001442622051188409 
-0.0001201985273364744 
0.0003241249067973056 
0.000149264686308958 
8.491745489462526e-05 
-8.53052884026618e-05 
0.0001004982215277184 
-0.0003119273833242026 
0.0007987260014897575 
-0.0006992964727653851 
0.003676882835655475 
0 
0.0156556612787161 
0.0006992964727653851 
0.003676882835655475 
0.0003119273833242026 
0.0007987260014897575 
8.53052884026618e-05 
0.0001004982215277184 
0.0002440980228755696 
-3.638618705791001e-05 
0.0006602848562850905 
-0.001082676515080935 
-0.001212642774811416 
-0.004945609473398003 
0 
-0.001126893639915525 
0.001212642774811416 
-0.004945609473398003 
-0.0006602848562850905 
-0.001082676515080935 
-0.0002440980228755696 
-3.638618705791001e-05 
-0.0002079072351237129 
-4.111889228699783e-05 
-0.0004849604556498336 
0.0006884128620347979 
0.002119222579135178 
0.0002213131783648247 
0 
-0.003601138868920131 
-0.002119222579135178 
0.0002213131783648247 
0.0004849604556498336 
0.0006884128620347979 
0.0002079072351237129 
-4.111889228699783e-05 
3.195020983893688e-05 
-3.470092041036761e-05 
0.0007253716403160747 
-0.0003171637037702766 
-0.0005043465759825529 
-0.004304372392057584 
0 
-0.0004876157763546141 
0.0005043465759825529 
-0.004304372392057584 
-0.0007253716403160747 
-0.0003171637037702766 
-3.195020983893688e-05 
-3.470092041036761e-05 
-2.689444925534171e-05 
-2.80977219013303e-05 
-0.0004095318180271991 
-0.0003386741548549353 
-0.002175413470148426 
0.002341915105920044 
0 
0.004442421046737676 
0.002175413470148426 
0.002341915105920044 
0.0004095318180271991 
-0.0003386741548549353 
2.689444925534171e-05 
-2.80977219013303e-05 
0.0001496573840885464 
-3.506150410830383e-05 
-0.0001325213502262933 
-0.0001228354625640366 
0.001187839202984092 
0.0005025268991504162 
0 
-0.002387958578912737 
-0.001187839202984092 
0.0005025268991504162 
0.0001325213502262933 
-0.0001228354625640366 
-0.0001496573840885464 
-3.506150410830383e-05 
8.397750140705396e-05 
6.268689731916459e-05 
0.001098690526025376 
-0.0004163197148474174 
-0.001054747789962115 
-0.004101080073021889 
0 
-5.038228858213612e-05 
0.001054747789962115 
-0.004101080073021889 
-0.001098690526025376 
-0.0004163197148474174 
-8.397750140705396e-05 
6.268689731916459e-05 
0.0002614003477035293 
2.798838174641866e-06 
0.0008486997286044584 
-0.0008501451974040215 
-1.794990408403162e-06 
-0.004552293256747006 
0 
-0.007669381340764937 
1.794990408403162e-06 
-0.004552293256747006 
-0.0008486997286044584 
-0.0008501451974040215 
-0.0002614003477035293 
2.798838174641866e-06 
-0.00013272291318921 
9.444741607528608e-05 
0.0002225038914450244 
0.0005469865862222519 
0.002900944511344311 
-0.001872682624756388 
0 
-0.006964066094439148 
-0.002900944511344311 
-0.001872682624756388 
-0.0002225038914450244 
0.0005469865862222519 
0.00013272291318921 
9.444741607528608e-05 
-6.334860876118975e-05 
-1.194012885467418e-05 
-0.000567471947576306 
0.0005326527914660488 
-0.0009226810750826912 
0.002710124968194645 
0 
0.01111387663426231 
0.0009226810750826912 
0.002710124968194645 
0.000567471947576306 
0.0005326527914660488 
6.334860876118975e-05 
-1.194012885467418e-05 
9.663209926156881e-05 
-4.109636545905898e-06 
0.0008250092890462649 
-0.0002976182838949956 
-0.0004648325569911101 
-0.004461717263514636 
0 
-0.001458951218873811 
0.0004648325569911101 
-0.004461717263514636 
-0.0008250092890462649 
-0.0002976182838949956 
-9.663209926156881e-05 
-4.109636545905898e-06 
-0.0001769866747004283 
9.106119592312243e-05 
-0.0003695419624779155 
0.0007118568092306444 
-0.0005004292938233973 
0.00191464806397879 
0 
0.01127589164607134 
0.0005004292938233973 
0.00191464806397879 
0.0003695419624779155 
0.0007118568092306444 
0.0001769866747004283 
9.106119592312243e-05 
-7.485546608928682e-05 
3.951175830477843e-05 
0.0001858979523711409 
-0.0001328588554807031 
-0.0002460338171411357 
-0.00235072613426653 
0 
0.0001330336747365639 
0.0002460338171411357 
-0.00235072613426653 
-0.0001858979523711409 
-0.0001328588554807031 
7.485546608928682e-05 
3.951175830477843e-05 
-0.0002797346346495882 
-0.0001321547153141691 
-0.001105531472295236 
0.0003683987819835306 
-4.243487612822948e-05 
0.003392176145900577 
0 
-0.0005256044584302735 
4.243487612822948e-05 
0.003392176145900577 
0.001105531472295236 
0.0003683987819835306 
0.0002797346346495882 
-0.0001321547153141691 
-5.477058735807742e-05 
-9.508359267792148e-05 
-9.468291333042078e-06 
-8.420383699528719e-05 
0.0008859505571718269 
-0.003013239931585561 
0 
-0.005246370318043897 
-0.0008859505571718269 
-0.003013239931585561 
9.468291333042078e-06 
-8.420383699528719e-05 
5.477058735807742e-05 
-9.508359267792148e-05 
-1.19162032047524e-05 
-6.401114905617598e-05 
0.000143860583455863 
-0.0002928039782046847 
0.0004454359844138658 
-0.001976780196320525 
0 
-0.004014261625809806 
-0.0004454359844138658 
-0.001976780196320525 
-0.000143860583455863 
-0.0002928039782046847 
1.19162032047524e-05 
-6.401114905617598e-05 
8.490360145920869e-05 
-1.474143077958214e-05 
0.000323437616274147 
-0.0009526118879345674 
-0.002438792020788256 
-0.003979450139257617 
0 
0.007168292647720852 
0.002438792020788256 
-0.003979450139257617 
-0.000323437616274147 
-0.0009526118879345674 
-8.490360145920869e-05 
-1.474143077958214e-05 
4.35536577931366e-05 
-0.0001134626700422125 
-0.0005778128248334766 
7.62857602193451e-05 
-0.002254686677870389 
0.0008339032000246435 
0 
0.0139440269358931 
0.002254686677870389 
0.0008339032000246435 
0.0005778128248334766 
7.62857602193451e-05 
-4.35536577931366e-05 
-0.0001134626700422125 
-5.972482025880234e-06 
-2.220581270361897e-05 
-0.0001556250806775764 
-0.000375855479866431 
-0.001621081161760762 
-0.0002856295635465786 
0 
0.002230376109025002 
0.001621081161760762 
-0.0002856295635465786 
0.0001556250806775764 
-0.000375855479866431 
5.972482025880234e-06 
-2.220581270361897e-05 
0.0001604250711842306 
-0.0002090685812138599 
-9.682641988521899e-05 
-0.001301236684991875 
-0.003297321105359777 
-0.002217820306625873 
0 
0.002756968762405934 
0.003297321105359777 
-0.002217820306625873 
9.682641988521899e-05 
-0.001301236684991875 
-0.0001604250711842306 
-0.0002090685812138599 
3.966423761675236e-05 
-0.0001057102555007569 
-0.0002500504629498059 
-0.0005670682524930062 
-0.001644748952928241 
-0.0004559345537297616 
0 
0.002575216907315692 
0.001644748952928241 
-0.0004559345537297616 
0.0002500504629498059 
-0.0005670682524930062 
-3.966423761675236e-05 
-0.0001057102555007569 
-4.16385291902848e-05 
-0.0002337859232091275 
-0.00085793405924061 
0.0001724603457189095 
-0.001692990499919759 
0.001317655950166095 
0 
0.01303111201157881 
0.001692990499919759 
0.001317655950166095 
0.00085793405924061 
0.0001724603457189095 
4.16385291902848e-05 
-0.0002337859232091275 
-0.0001899409670664129 
-8.83247661662507e-05 
-0.001394943062590722 
0.000246147685004521 
-0.004378649712005865 
0.00544172288831895 
0 
0.02299644383485648 
0.004378649712005865 
0.00544172288831895 
0.001394943062590722 
0.000246147685004521 
0.0001899409670664129 
-8.83247661662507e-05 
5.43052896346371e-05 
-0.0001175855701822892 
2.009457496889207e-05 
-0.0007983434088672764 
-0.0008379606636655361 
-0.003376227263204573 
0 
-0.004897367149520473 
0.0008379606636655361 
-0.003376227263204573 
-2.009457496889207e-05 
-0.0007983434088672764 
-5.43052896346371e-05 
-0.0001175855701822892 
7.269944331884521e-05 
-1.34041809444848e-06 
0.000579075401299792 
-0.0001217627782002642 
0.001088388560163605 
-0.003958694939217307 
0 
-0.003778002533277645 
-0.001088388560163605 
-0.003958694939217307 
-0.000579075401299792 
-0.0001217627782002642 
-7.269944331884521e-05 
-1.34041809444848e-06 
2.048741148364533e-05 
4.510890432003443e-05 
0.0002646082291884782 
-0.0003827648236211667 
-0.00129767141315807 
-0.002058482795132753 
0 
0.006854933559404071 
0.00129767141315807 
-0.002058482795132753 
-0.0002646082291884782 
-0.0003827648236211667 
-2.048741148364533e-05 
4.510890432003443e-05 
-1.215243354244584e-05 
-6.209369703115896e-05 
-0.0002463717553495073 
-0.0002150721273826469 
-0.0004129708760559083 
-0.001016111005179654 
0 
0.0002193210095174639 
0.0004129708760559083 
-0.001016111005179654 
0.0002463717553495073 
-0.0002150721273826469 
1.215243354244584e-05 
-6.209369703115896e-05 
3.432319785621328e-05 
9.541587691718563e-06 
0.0001467370979709391 
-7.808006357418874e-05 
-0.0006781353793782025 
3.673390137188418e-05 
0 
0.003761708866228174 
0.0006781353793782025 
3.673390137188418e-05 
-0.0001467370979709391 
-7.808006357418874e-05 
-3.432319785621328e-05 
9.541587691718563e-06 
5.084523593362343e-06 
-1.283938347200134e-05 
-3.203371428851645e-05 
-0.0002983298420474282 
-0.0006837094154205737 
-0.0007899775193054269 
0 
0.003770052984478351 
0.0006837094154205737 
-0.0007899775193054269 
3.203371428851645e-05 
-0.0002983298420474282 
-5.084523593362343e-06 
-1.283938347200134e-05 
-0.0002617635777645532 
-1.120239224634232e-05 
-0.0006574587423748226 
0.0003308822654817459 
-0.004153994118156715 
0.003022871990147348 
0 
0.0245815360521971 
0.004153994118156715 
0.003022871990147348 
0.0006574587423748226 
0.0003308822654817459 
0.0002617635777645532 
-1.120239224634232e-05 
-1.12690328528082e-05 
-4.636247007075579e-05 
0.000194952998275169 
-5.40386249978875e-05 
-0.0001946419041799048 
-0.00199720532920966 
0 
-0.001789621643673104 
0.0001946419041799048 
-0.00199720532920966 
-0.000194952998275169 
-5.40386249978875e-05 
1.12690328528082e-05 
-4.636247007075579e-05 
-9.878306450486984e-05 
-6.060561117086806e-05 
-0.0005691160913633952 
0.0004806052050843283 
-0.0007134574035387177 
0.00171795454120711 
0 
0.009003791959314647 
0.0007134574035387177 
0.00171795454120711 
0.0005691160913633952 
0.0004806052050843283 
9.878306450486984e-05 
-6.060561117086806e-05 
-0.0001098615739645093 
-4.756008684937123e-05 
9.910643649910044e-05 
6.088491898009286e-05 
-0.0009965775479335302 
-0.001677986199182385 
0 
0.0004973992364382945 
0.0009965775479335302 
-0.001677986199182385 
-9.910643649910044e-05 
6.088491898009286e-05 
0.0001098615739645093 
-4.756008684937123e-05 
0.0001622874891050534 
-1.767367038793552e-05 
0.0008984129105341082 
-0.0008182996112959862 
-0.0006296181627120139 
-0.005505854822702743 
0 
-0.007256760627758763 
0.0006296181627120139 
-0.005505854822702743 
-0.0008984129105341082 
-0.0008182996112959862 
-0.0001622874891050534 
-1.767367038793552e-05 
1.771946855652397e-05 
-0.0001549001746175222 
-0.000199656983935239 
-0.0003740857407216318 
-0.00197884304238229 
-0.001073111468041396 
0 
0.007396132763654138 
0.00197884304238229 
-0.001073111468041396 
0.000199656983935239 
-0.0003740857407216318 
-1.771946855652397e-05 
-0.0001549001746175222 
-2.868542176848056e-05 
-2.013679791471612e-05 
-0.0001881038517557153 
5.772526242913156e-05 
-0.002168465827018055 
0.001309224411315902 
0 
0.01372135909756517 
0.002168465827018055 
0.001309224411315902 
0.0001881038517557153 
5.772526242913156e-05 
2.868542176848056e-05 
-2.013679791471612e-05 
0.0001476803522468433 
0.0001996038780964782 
0.0003223092852058718 
0.0004917712841859829 
-0.0002706645587144598 
0.003677596286675658 
0 
0.01134645946683089 
0.0002706645587144598 
0.003677596286675658 
-0.0003223092852058718 
0.0004917712841859829 
-0.0001476803522468433 
0.0001996038780964782 
-5.070835004513587e-05 
-0.0001168433843034133 
-0.0003870332038377141 
-1.586229702003236e-05 
-0.001422907204472701 
0.0003962797304446624 
0 
0.007818549151329211 
0.001422907204472701 
0.0003962797304446624 
0.0003870332038377141 
-1.586229702003236e-05 
5.070835004513587e-05 
-0.0001168433843034133 
5.049139681624697e-05 
-0.0002585099303521812 
-0.000444746055280921 
-0.0009188670010656578 
-0.00177681439175496 
-0.002615497864306445 
0 
-7.837952133060118e-05 
0.00177681439175496 
-0.002615497864306445 
0.000444746055280921 
-0.0009188670010656578 
-5.049139681624697e-05 
-0.0002585099303521812 
0.0001723597805956613 
-0.000118028309798489 
0.0001423426368804771 
-0.0008845316728861393 
-0.001217227144773767 
-0.002641918916493925 
0 
-0.0005956760364657649 
0.001217227144773767 
-0.002641918916493925 
-0.0001423426368804771 
-0.0008845316728861393 
-0.0001723597805956613 
-0.000118028309798489 
-2.49682296018183e-06 
-0.0001926536427630317 
-0.000742610792790273 
-0.000453669951564114 
-0.001643981386492425 
0.0006074131835764111 
0 
0.000428150375072321 
0.001643981386492425 
0.0006074131835764111 
0.000742610792790273 
-0.000453669951564114 
2.49682296018183e-06 
-0.0001926536427630317 
9.249196097922082e-05 
-7.16160143750169e-05 
4.082602448043678e-05 
-0.0007281922324661495 
-0.0007399484273367187 
-0.00217234067284133 
0 
-0.004197834391152714 
0.0007399484273367187 
-0.00217234067284133 
-4.082602448043678e-05 
-0.0007281922324661495 
-9.249196097922082e-05 
-7.16160143750169e-05 
0.0001037496241250009 
4.103417924601735e-05 
0.0004324333666441439 
-0.0003511924401554547 
0.00234888589777519 
-0.00200242064377554 
0 
-0.01274227243293138 
-0.00234888589777519 
-0.00200242064377554 
-0.0004324333666441439 
-0.0003511924401554547 
-0.0001037496241250009 
4.103417924601735e-05 
-4.061679244094085e-05 
-0.0002267864076540638 
-0.000773846505808043 
-0.0001820891006292784 
0.0007387708242709018 
0.001223785045684246 
0 
-0.005536310291739953 
-0.0007387708242709018 
0.001223785045684246 
0.000773846505808043 
-0.0001820891006292784 
4.061679244094085e-05 
-0.0002267864076540638 
0.0002488548514860469 
3.227289609728454e-05 
0.0007170734124551533 
-0.000878178592784123 
-0.000288628950159188 
-0.004159629807488638 
0 
-0.002545313826929895 
0.000288628950159188 
-0.004159629807488638 
-0.0007170734124551533 
-0.000878178592784123 
-0.0002488548514860469 
3.227289609728454e-05 
2.620193045846462e-05 
0.0002847177830367558 
0.0004724272926078824 
0.001506432751447632 
0.002592217998025019 
0.004726294893160332 
0 
0.008215531357904326 
-0.002592217998025019 
0.004726294893160332 
-0.0004724272926078824 
0.001506432751447632 
-2.620193045846462e-05 
0.0002847177830367558 
8.012802408245852e-05 
-9.348003063064919e-05 
0.0001366078465995713 
-0.0002443340359742152 
0.0003108250595102788 
-0.0029307159560649 
0 
-0.00568988064148363 
-0.0003108250595102788 
-0.0029307159560649 
-0.0001366078465995713 
-0.0002443340359742152 
-8.012802408245852e-05 
-9.348003063064919e-05 
0.0001009668045564476 
-7.837307062245117e-05 
-0.0001184585404251015 
-0.0003997551507827262 
0.0003747858557450113 
-0.001826064368982167 
0 
-0.005718386152145233 
-0.0003747858557450113 
-0.001826064368982167 
0.0001184585404251015 
-0.0003997551507827262 
-0.0001009668045564476 
-7.837307062245117e-05 
-1.193189716737155e-05 
-0.0001288336819828195 
-0.0004487506117979599 
-2.893571073211414e-05 
-0.0002261864480869509 
0.0005286307153677268 
0 
0.003366533667019252 
0.0002261864480869509 
0.0005286307153677268 
0.0004487506117979599 
-2.893571073211414e-05 
1.193189716737155e-05 
-0.0001288336819828195 
-2.759491403095437e-05 
-6.69118469841789e-05 
-0.0003653142806514818 
-0.0003932457737947126 
-0.0001917970613944366 
0.0005934039913386302 
0 
-0.006646404701691561 
0.0001917970613944366 
0.0005934039913386302 
0.0003653142806514818 
-0.0003932457737947126 
2.759491403095437e-05 
-6.69118469841789e-05 
3.445440952640808e-05 
-0.0001724540854087785 
8.918495445837715e-05 
-0.0005135668208025146 
0.0009099910343396276 
-0.002487918720858281 
0 
-0.01048534157845509 
-0.0009099910343396276 
-0.002487918720858281 
-8.918495445837715e-05 
-0.0005135668208025146 
-3.445440952640808e-05 
-0.0001724540854087785 
9.631881839450468e-05 
-5.626119672607588e-06 
0.0006714080435850325 
-0.0001257667508633107 
0.003374763214824422 
-0.005505945670187518 
0 
-0.01626219432002541 
-0.003374763214824422 
-0.005505945670187518 
-0.0006714080435850325 
-0.0001257667508633107 
-9.631881839450468e-05 
-5.626119672607588e-06 
9.668548357314552e-05 
0.0001370583004769077 
0.0005923642077891194 
0.0009758043625286204 
0.003703135043129901 
0.0006181413577033966 
0 
0.001492108855254022 
-0.003703135043129901 
0.0006181413577033966 
-0.0005923642077891194 
0.0009758043625286204 
-9.668548357314552e-05 
0.0001370583004769077 
-0.0001161231030003851 
4.909506120490337e-05 
0.000246639961131116 
0.0004195268369145165 
0.002837336159089954 
-0.0008707699356610682 
0 
-0.01044661889624099 
-0.002837336159089954 
-0.0008707699356610682 
-0.000246639961131116 
0.0004195268369145165 
0.0001161231030003851 
4.909506120490337e-05 
-6.958186268325641e-05 
-4.731093077218791e-05 
-0.0003425259254962749 
0.0001251972418069835 
-0.0002115313720992066 
0.0005344483246913273 
0 
0.004509098791552026 
0.0002115313720992066 
0.0005344483246913273 
0.0003425259254962749 
0.0001251972418069835 
6.958186268325641e-05 
-4.731093077218791e-05 
4.512281484688723e-05 
-5.041674298433118e-05 
-7.109749890271241e-05 
-1.805062554527586e-06 
-0.0003631346761709903 
-0.0004531020427390585 
0 
0.002819127724504127 
0.0003631346761709903 
-0.0004531020427390585 
7.109749890271241e-05 
-1.805062554527586e-06 
-4.512281484688723e-05 
-5.041674298433118e-05 
-1.689386217180524e-05 
-0.0001975344389769858 
-0.0002016416373925186 
-0.00100157732228903 
0.000411296223139892 
-0.003411792016829035 
0 
-0.01478841623361653 
-0.000411296223139892 
-0.003411792016829035 
0.0002016416373925186 
-0.00100157732228903 
1.689386217180524e-05 
-0.0001975344389769858 
-6.114032688241502e-05 
-5.944545571690466e-05 
-0.0004252867643249242 
0.0001896898726898745 
-0.0004916925625307017 
0.001015131312882568 
0 
0.004133276458579784 
0.0004916925625307017 
0.001015131312882568 
0.0004252867643249242 
0.0001896898726898745 
6.114032688241502e-05 
-5.944545571690466e-05 
4.673625378686324e-05 
7.636060076807572e-05 
0.000116080296281649 
6.451419491857497e-05 
0.0001113674572163561 
0.0006543546706809545 
0 
0.004743605477672642 
-0.0001113674572163561 
0.0006543546706809545 
-0.000116080296281649 
6.451419491857497e-05 
-4.673625378686324e-05 
7.636060076807572e-05 
-5.420957419974143e-05 
5.156312748091672e-05 
0.0002736644432521211 
0.0002712038625447842 
0.002132084285900858 
-0.002325021349025264 
0 
-0.006219602217373867 
-0.002132084285900858 
-0.002325021349025264 
-0.0002736644432521211 
0.0002712038625447842 
5.420957419974143e-05 
5.156312748091672e-05 
7.612740791113994e-05 
-3.609379031604759e-05 
0.0009742231481988893 
-0.0003099857728873094 
0.000613569460251557 
-0.005672316797470348 
0 
-0.00757711102876423 
-0.000613569460251557 
-0.005672316797470348 
-0.0009742231481988893 
-0.0003099857728873094 
-7.612740791113994e-05 
-3.609379031604759e-05 
6.702498519200777e-05 
0.0002726481460409384 
0.0004325661440462498 
0.000785265862608895 
0.0005917344871236812 
0.003955081770941856 
0 
0.01357883177291941 
-0.0005917344871236812 
0.003955081770941856 
-0.0004325661440462498 
0.000785265862608895 
-6.702498519200777e-05 
0.0002726481460409384 
0.0001178386873929463 
1.794855426993885e-05 
0.0002659847280668813 
-0.0003728965352890513 
-0.0004991329384606416 
-0.001163629759487062 
0 
0.0002949985048465282 
0.0004991329384606416 
-0.001163629759487062 
-0.0002659847280668813 
-0.0003728965352890513 
-0.0001178386873929463 
1.794855426993885e-05 
2.469734642385439e-05 
-2.69138916394922e-05 
-0.0003651280561443164 
6.00930869529779e-05 
0.0007490889041245311 
0.001028604083271031 
0 
-0.004223887317284257 
-0.0007490889041245311 
0.001028604083271031 
0.0003651280561443164 
6.00930869529779e-05 
-2.469734642385439e-05 
-2.69138916394922e-05 
6.036244380493945e-06 
-0.0002020231083918686 
-0.0005444502768121687 
-0.0003759178282776003 
-0.002867254057083862 
0.0004830797440571332 
0 
0.01055687968205313 
0.002867254057083862 
0.0004830797440571332 
0.0005444502768121687 
-0.0003759178282776003 
-6.036244380493945e-06 
-0.0002020231083918686 
-3.272331888816269e-05 
2.130032049958187e-05 
0.0001700020330621673 
0.0004075536353140885 
0.002278706078967582 
-0.00178103463081993 
0 
-0.004240808114683225 
-0.002278706078967582 
-0.00178103463081993 
-0.0001700020330621673 
0.0004075536353140885 
3.272331888816269e-05 
2.130032049958187e-05 
1.732570957772969e-05 
3.581256135876888e-05 
0.0001907176085349827 
0.0005530058036467616 
0.00265876789700345 
-0.001063072164437646 
0 
-0.005117601539172784 
-0.00265876789700345 
-0.001063072164437646 
-0.0001907176085349827 
0.0005530058036467616 
-1.732570957772969e-05 
3.581256135876888e-05 
0.000170045298162607 
-0.0001947670753844934 
-0.0001275519152895466 
-0.0008486466153812113 
-0.001537165268148717 
-0.001081601587383969 
0 
-0.002104025169715746 
0.001537165268148717 
-0.001081601587383969 
0.0001275519152895466 
-0.0008486466153812113 
-0.000170045298162607 
-0.0001947670753844934 
7.347655638496513e-05 
-8.672081299960096e-05 
0.0002004746598173064 
-0.000734882150555218 
-0.001143047171177412 
-0.001854785016564263 
0 
-0.001896203503322264 
0.001143047171177412 
-0.001854785016564263 
-0.0002004746598173064 
-0.000734882150555218 
-7.347655638496513e-05 
-8.672081299960096e-05 
-2.938411587357315e-05 
6.222964857995862e-05 
0.0003649132378736283 
0.0002892835290427205 
0.002654808412315291 
-0.001993357036053902 
0 
-0.007157798513172111 
-0.002654808412315291 
-0.001993357036053902 
-0.0003649132378736283 
0.0002892835290427205 
2.938411587357315e-05 
6.222964857995862e-05 
7.951418893295786e-05 
0.0001220498572428691 
0.000818247600370637 
-0.0003227134730148193 
0.0006053938299984198 
-0.00358641508296291 
0 
-0.005427503509818855 
-0.0006053938299984198 
-0.00358641508296291 
-0.000818247600370637 
-0.0003227134730148193 
-7.951418893295786e-05 
0.0001220498572428691 
-5.441151648283793e-05 
-0.0001409446210826526 
-0.0004556121778458744 
-0.0001607652910608993 
0.000613956795192914 
-0.0006892633400486027 
0 
-0.001689433847724609 
-0.000613956795192914 
-0.0006892633400486027 
0.0004556121778458744 
-0.0001607652910608993 
5.441151648283793e-05 
-0.0001409446210826526 
8.921817794021246e-05 
8.824158950825905e-05 
0.0007499228436739604 
-3.533851244879762e-05 
0.001743394385208324 
-0.002740475734550133 
0 
-0.0105482423364138 
-0.001743394385208324 
-0.002740475734550133 
-0.0007499228436739604 
-3.533851244879762e-05 
-8.921817794021246e-05 
8.824158950825905e-05 
-3.783809322784042e-05 
-9.716189374296394e-05 
-0.0001797534903294478 
-1.897068847184897e-05 
-0.001528186348134998 
-0.00125722517738502 
0 
0.008183474418915997 
0.001528186348134998 
-0.00125722517738502 
0.0001797534903294478 
-1.897068847184897e-05 
3.783809322784042e-05 
-9.716189374296394e-05 
-3.677192789580655e-05 
-4.902837691065836e-05 
-0.0005626719243795393 
-7.422224529918573e-05 
-0.001029388733085748 
0.001603584081013812 
0 
0.006714359799388901 
0.001029388733085748 
0.001603584081013812 
0.0005626719243795393 
-7.422224529918573e-05 
3.677192789580655e-05 
-4.902837691065836e-05 
6.366611825095107e-05 
1.815039977053857e-05 
4.858549728450343e-05 
-0.0003560869586605698 
-0.001857502442574268 
-0.0004064744050379651 
0 
0.01087874300123413 
0.001857502442574268 
-0.0004064744050379651 
-4.858549728450343e-05 
-0.0003560869586605698 
-6.366611825095107e-05 
1.815039977053857e-05 
-0.0003368814943015144 
3.534477815431488e-05 
-0.0007905673201183139 
0.001176641452142497 
-0.0002438760425762298 
0.004344612010914073 
0 
0.01031545248911018 
0.0002438760425762298 
0.004344612010914073 
0.0007905673201183139 
0.001176641452142497 
0.0003368814943015144 
3.534477815431488e-05 
7.33673073535764e-05 
0.0001399373327268246 
0.001086369426720293 
-0.0001720425592436919 
0.0007470372417485292 
-0.002598105352190335 
0 
-0.004393565999752824 
-0.0007470372417485292 
-0.002598105352190335 
-0.001086369426720293 
-0.0001720425592436919 
-7.33673073535764e-05 
0.0001399373327268246 
2.347072347170774e-05 
-1.558776505047175e-05 
0.0005526081630083178 
-0.0003724332891742678 
-0.0002888379870735015 
-0.004383267217722715 
0 
-5.125674718463543e-05 
0.0002888379870735015 
-0.004383267217722715 
-0.0005526081630083178 
-0.0003724332891742678 
-2.347072347170774e-05 
-1.558776505047175e-05 
2.622402819973739e-05 
-5.470866980837685e-05 
-4.152463149533111e-05 
-0.0001404392231189204 
0.0008682362266121556 
-0.001688048091986951 
0 
-0.004329478317702976 
-0.0008682362266121556 
-0.001688048091986951 
4.152463149533111e-05 
-0.0001404392231189204 
-2.622402819973739e-05 
-5.470866980837685e-05 
5.857729303305354e-05 
3.989889721590215e-05 
4.02399838497823e-05 
0.0002830828436363132 
0.002759084604555377 
-0.001276671369964642 
0 
-0.006547580586082015 
-0.002759084604555377 
-0.001276671369964642 
-4.02399838497823e-05 
0.0002830828436363132 
-5.857729303305354e-05 
3.989889721590215e-05 
0.0001056304422375852 
0.0001421053971674421 
0.0004633948791032979 
-0.0002768441076733723 
0.001329943397346499 
-0.002260904601442295 
0 
-0.005402176537458334 
-0.001329943397346499 
-0.002260904601442295 
-0.0004633948791032979 
-0.0002768441076733723 
-0.0001056304422375852 
0.0001421053971674421 
-5.034970636689556e-05 
0.0001370973283229424 
0.000621476184144878 
0.0002843416753793537 
8.836151131954143e-05 
-0.001110450698121018 
0 
0.001445849072287743 
-8.836151131954143e-05 
-0.001110450698121018 
-0.000621476184144878 
0.0002843416753793537 
5.034970636689556e-05 
0.0001370973283229424 
4.417395978870651e-05 
-0.0002045236258300195 
-0.0006549241211465231 
-0.0004640880023662396 
-0.003158817848108524 
0.001901200470172516 
0 
0.009724224924408317 
0.003158817848108524 
0.001901200470172516 
0.0006549241211465231 
-0.0004640880023662396 
-4.417395978870651e-05 
-0.0002045236258300195 
-8.44177527835481e-05 
-0.0001308576365245945 
-0.0006768435218160856 
-0.0001378662254350065 
-0.001677871514695865 
0.001947537430546944 
0 
0.006077240950292571 
0.001677871514695865 
0.001947537430546944 
0.0006768435218160856 
-0.0001378662254350065 
8.44177527835481e-05 
-0.0001308576365245945 
7.927979981477726e-05 
-5.510973418133657e-05 
-0.0003166670465285367 
-0.0001125712195199588 
-0.001060740552582048 
0.001167578248310937 
0 
0.006723679258935622 
0.001060740552582048 
0.001167578248310937 
0.0003166670465285367 
-0.0001125712195199588 
-7.927979981477726e-05 
-5.510973418133657e-05 
-0.0001463367055385644 
-0.0001744959818115625 
-0.0005286760295397974 
-4.89659321623313e-05 
0.0004333346135381084 
1.354195410862887e-05 
0 
-0.006581784089878963 
-0.0004333346135381084 
1.354195410862887e-05 
0.0005286760295397974 
-4.89659321623313e-05 
0.0001463367055385644 
-0.0001744959818115625 
5.862384936536452e-05 
-0.0001121638022271009 
-0.0005015103882567871 
-0.0004913639738046494 
-0.001249073428797889 
0.0003222532159253102 
0 
0.004369595175459555 
0.001249073428797889 
0.0003222532159253102 
0.0005015103882567871 
-0.0004913639738046494 
-5.862384936536452e-05 
-0.0001121638022271009 
-5.295560236805342e-05 
1.275897510135671e-05 
0.0004288770591798469 
-0.0003046038072823404 
-0.001879179151315711 
-0.002816198851404249 
0 
0.004361080948967818 
0.001879179151315711 
-0.002816198851404249 
-0.0004288770591798469 
-0.0003046038072823404 
5.295560236805342e-05 
1.275897510135671e-05 
-0.0001159750038268492 
-5.917467419335372e-05 
-8.013700149349002e-05 
-4.099386277672318e-05 
-0.002626737856626208 
-0.0005287704492020533 
0 
0.01136063700800867 
0.002626737856626208 
-0.0005287704492020533 
8.013700149349002e-05 
-4.099386277672318e-05 
0.0001159750038268492 
-5.917467419335372e-05 
0.0001462437019663563 
-0.0002289864279008238 
-0.0002525233957310762 
-0.0007183851448088306 
-0.001681509467092853 
-0.001438533965469483 
0 
0.002090207151102135 
0.001681509467092853 
-0.001438533965469483 
0.0002525233957310762 
-0.0007183851448088306 
-0.0001462437019663563 
-0.0002289864279008238 
4.01650791112043e-05 
0.0001122520978525967 
0.0004862174357099182 
-0.0001106279874402056 
-0.0008862407535523503 
-0.001623666765665231 
0 
0.007518821138512342 
0.0008862407535523503 
-0.001623666765665231 
-0.0004862174357099182 
-0.0001106279874402056 
-4.01650791112043e-05 
0.0001122520978525967 
-8.409301199841333e-05 
-3.318426484711168e-05 
0.0001741676370936562 
-0.0002294119903264829 
-0.0006035686426834052 
-0.001272934718601687 
0 
-0.004364949086078681 
0.0006035686426834052 
-0.001272934718601687 
-0.0001741676370936562 
-0.0002294119903264829 
8.409301199841333e-05 
-3.318426484711168e-05 
9.17897868434648e-05 
-0.0001700705710392959 
-0.0002856557513176956 
-0.0008759260132483376 
-0.0005675384202482882 
-0.002557236197067555 
0 
-0.006910135110919489 
0.0005675384202482882 
-0.002557236197067555 
0.0002856557513176956 
-0.0008759260132483376 
-9.17897868434648e-05 
-0.0001700705710392959 
-0.00024363596210069 
0.0001239494965196066 
-0.0006108741546541738 
0.001467516388113092 
0.001463183130384597 
0.005895607640336328 
0 
0.009689805183753989 
-0.001463183130384597 
0.005895607640336328 
0.0006108741546541738 
0.001467516388113092 
0.00024363596210069 
0.0001239494965196066 
-4.849058029598735e-05 
-0.0001284258432434409 
-0.0006892543584887806 
-0.0003145449043446953 
-0.00285733557559697 
0.002260579901937182 
0 
0.008603237791828046 
0.00285733557559697 
0.002260579901937182 
0.0006892543584887806 
-0.0003145449043446953 
4.849058029598735e-05 
-0.0001284258432434409 
9.219435442324335e-05 
-6.363301304346334e-05 
0.0004549751523368718 
-0.0007069198393839248 
-0.0008508235158571633 
-0.004161917875044444 
0 
-0.003476315430746319 
0.0008508235158571633 
-0.004161917875044444 
-0.0004549751523368718 
-0.0007069198393839248 
-9.219435442324335e-05 
-6.363301304346334e-05 
-2.029694707421767e-05 
6.272413718994549e-06 
0.0003637389209467657 
0.0001297835797903534 
0.001208208855677132 
-0.003193645361744342 
0 
-0.0005448737927862903 
-0.001208208855677132 
-0.003193645361744342 
-0.0003637389209467657 
0.0001297835797903534 
2.029694707421767e-05 
6.272413718994549e-06 
5.559952010871003e-05 
3.686872631448545e-05 
0.0005056954224323233 
0.0002827876663866759 
0.001990160515137531 
-0.001775840897131555 
0 
-0.007178043238545242 
-0.001990160515137531 
-0.001775840897131555 
-0.0005056954224323233 
0.0002827876663866759 
-5.559952010871003e-05 
3.686872631448545e-05 
0.0001758865390691642 
-0.0001802174042889087 
-7.760471282258692e-07 
-0.001475375803287941 
-0.002482644322862928 
-0.004244074402897769 
0 
-0.002349268264514726 
0.002482644322862928 
-0.004244074402897769 
7.760471282258692e-07 
-0.001475375803287941 
-0.0001758865390691642 
-0.0001802174042889087 
0.0002170485416492857 
4.334435567086501e-05 
0.0006885469724685464 
-0.001147136186935596 
-0.003974612696310833 
-0.00384065183798732 
0 
0.01064220021596488 
0.003974612696310833 
-0.00384065183798732 
-0.0006885469724685464 
-0.001147136186935596 
-0.0002170485416492857 
4.334435567086501e-05 
-1.419795544576092e-05 
7.345188557715803e-05 
3.768971128692817e-05 
-0.0002097606876021714 
-0.003048639607443689 
-0.0006591052165186945 
0 
0.01619740695402359 
0.003048639607443689 
-0.0006591052165186945 
-3.768971128692817e-05 
-0.0002097606876021714 
1.419795544576092e-05 
7.345188557715803e-05 
-5.633546895129932e-05 
-0.0001245156659301168 
-0.0001728161425397433 
-0.000116425206723701 
-0.0005944351043890997 
-0.001087791686611718 
0 
0.004736848411190171 
0.0005944351043890997 
-0.001087791686611718 
0.0001728161425397433 
-0.000116425206723701 
5.633546895129932e-05 
-0.0001245156659301168 
-0.0002441452276820352 
7.460012062229026e-05 
-0.000825172359218644 
0.001390831684246439 
-0.001065711163648981 
0.006187750924439328 
0 
0.02060941631636177 
0.001065711163648981 
0.006187750924439328 
0.000825172359218644 
0.001390831684246439 
0.0002441452276820352 
7.460012062229026e-05 
-0.0001211245226295129 
-3.47646434759938e-05 
-0.0007627841428150689 
-0.0001437226598398007 
-0.002994224161940879 
0.003506858051138451 
0 
0.01189415998491429 
0.002994224161940879 
0.003506858051138451 
0.0007627841428150689 
-0.0001437226598398007 
0.0001211245226295129 
-3.47646434759938e-05 
-7.035714868027059e-05 
-1.753626166443262e-05 
-0.000261845558956182 
-0.0002406282375652707 
-0.001334772076231659 
0.0002899860889091456 
0 
0.007313897021786682 
0.001334772076231659 
0.0002899860889091456 
0.000261845558956182 
-0.0002406282375652707 
7.035714868027059e-05 
-1.753626166443262e-05 
0.000165910310096244 
-2.134802211710383e-05 
0.0008142539253633255 
-0.001007797287624555 
-0.001111442613988971 
-0.006194429961470974 
0 
-0.004376011588218318 
0.001111442613988971 
-0.006194429961470974 
-0.0008142539253633255 
-0.001007797287624555 
-0.000165910310096244 
-2.134802211710383e-05 
-2.620226083318164e-05 
0.0002167432687368907 
0.001053625390218299 
0.000480315179586181 
0.001385575523175345 
-0.003455407254169637 
0 
0.002866000851298387 
-0.001385575523175345 
-0.003455407254169637 
-0.001053625390218299 
0.000480315179586181 
2.620226083318164e-05 
0.0002167432687368907 
0.0002174834836105703 
-0.0002056249400329795 
0.0005948434118571773 
-0.001300484334525374 
-0.0009042535661986976 
-0.005855467207971847 
0 
-0.01226014536485476 
0.0009042535661986976 
-0.005855467207971847 
-0.0005948434118571773 
-0.001300484334525374 
-0.0002174834836105703 
-0.0002056249400329795 
6.498540604666229e-05 
3.599869695729284e-05 
0.000465005303255427 
-0.0002872288764929539 
0.0002843417832613383 
-0.002726638533386726 
0 
-0.004368583224538588 
-0.0002843417832613383 
-0.002726638533386726 
-0.000465005303255427 
-0.0002872288764929539 
-6.498540604666229e-05 
3.599869695729284e-05 
-0.0001899389348341809 
-2.919932509918258e-05 
-0.0001768203605857713 
6.711596382322311e-05 
-0.001168089395361469 
7.157617109200559e-05 
0 
0.005943711591252414 
0.001168089395361469 
7.157617109200559e-05 
0.0001768203605857713 
6.711596382322311e-05 
0.0001899389348341809 
-2.919932509918258e-05 
0.0001182079190906811 
-0.0001666243176759022 
-0.0003093468748895901 
-0.0007896033652619622 
-0.001258759783006942 
-0.001542860211718354 
0 
0.0004631015553911611 
0.001258759783006942 
-0.001542860211718354 
0.0003093468748895901 
-0.0007896033652619622 
-0.0001182079190906811 
-0.0001666243176759022 
-0.0003944759445105922 
8.228070744172792e-05 
-0.001532107154763388 
0.001625713984896252 
-0.0003614841027123028 
0.01028775487504303 
0 
0.01932864097977425 
0.0003614841027123028 
0.01028775487504303 
0.001532107154763388 
0.001625713984896252 
0.0003944759445105922 
8.228070744172792e-05 
2.280667495581487e-05 
7.917401063802735e-05 
0.0008158719835727063 
-4.767582302417631e-05 
-0.0006580098899497047 
-0.002925688244759029 
0 
0.001769065708449088 
0.0006580098899497047 
-0.002925688244759029 
-0.0008158719835727063 
-4.767582302417631e-05 
-2.280667495581487e-05 
7.917401063802735e-05 
4.07310607911436e-05 
-3.183553561720114e-05 
0.0002419630383541578 
-0.0004643935391188965 
-0.0001419545490341326 
-0.001477367600322491 
0 
-0.003520039694086514 
0.0001419545490341326 
-0.001477367600322491 
-0.0002419630383541578 
-0.0004643935391188965 
-4.07310607911436e-05 
-3.183553561720114e-05 
7.344538567110336e-05 
-7.894324273427618e-05 
6.131262710104249e-05 
-0.0002058747481952006 
0.0007335766374240613 
-0.003311135408950351 
0 
-0.001087105856158028 
-0.0007335766374240613 
-0.003311135408950351 
-6.131262710104249e-05 
-0.0002058747481952006 
-7.344538567110336e-05 
-7.894324273427618e-05 
3.500435992508966e-05 
-0.0001648136897808024 
-0.0004480130759088775 
-0.0002991202639253162 
0.0005894562120534969 
-0.000840072679217988 
0 
-0.003478736046440185 
-0.0005894562120534969 
-0.000840072679217988 
0.0004480130759088775 
-0.0002991202639253162 
-3.500435992508966e-05 
-0.0001648136897808024 
5.672408350495257e-05 
-2.201278375362406e-05 
0.0004519992754686658 
-0.0004178119817186942 
0.001001828313421268 
-0.003772036233047133 
0 
-0.01074580441000116 
-0.001001828313421268 
-0.003772036233047133 
-0.0004519992754686658 
-0.0004178119817186942 
-5.672408350495257e-05 
-2.201278375362406e-05 
-3.914027945253381e-05 
-6.848928051331294e-05 
-0.0003871611256385427 
0.0001667631573367205 
-0.0007887786073733198 
0.001502808493305617 
0 
0.001723247229079853 
0.0007887786073733198 
0.001502808493305617 
0.0003871611256385427 
0.0001667631573367205 
3.914027945253381e-05 
-6.848928051331294e-05 
6.86889837132607e-05 
-0.0001333103225912296 
-0.0001212766146528152 
-0.0005104721588423302 
-0.001880860768274607 
-0.0009540113458704656 
0 
0.003111968231771327 
0.001880860768274607 
-0.0009540113458704656 
0.0001212766146528152 
-0.0005104721588423302 
-6.86889837132607e-05 
-0.0001333103225912296 
-0.0001059343667298226 
-3.581408990442737e-06 
6.063723938927638e-05 
-7.035721223795023e-05 
-0.001364624319962936 
-0.0006640872242375458 
0 
0.00518985508555614 
0.001364624319962936 
-0.0006640872242375458 
-6.063723938927638e-05 
-7.035721223795023e-05 
0.0001059343667298226 
-3.581408990442737e-06 
9.148179140228393e-05 
0.0002897568641259322 
0.0004192013732193109 
0.0005817779443534378 
4.27201061086172e-05 
0.002415565726936385 
0 
0.009483216394018236 
-4.27201061086172e-05 
0.002415565726936385 
-0.0004192013732193109 
0.0005817779443534378 
-9.148179140228393e-05 
0.0002897568641259322 
3.202991359543363e-05 
-4.315685520089897e-05 
-0.0001330536987919775 
-2.224329290831488e-05 
0.001134791853582184 
-3.228687816777984e-05 
0 
-0.004380723236369047 
-0.001134791853582184 
-3.228687816777984e-05 
0.0001330536987919775 
-2.224329290831488e-05 
-3.202991359543363e-05 
-4.315685520089897e-05 
8.47364061756669e-06 
-2.211690796739833e-05 
6.606900378781003e-05 
5.573162982213556e-06 
0.0006427298259401333 
-0.0009826635698644999 
0 
-0.003396521040043173 
-0.0006427298259401333 
-0.0009826635698644999 
-6.606900378781003e-05 
5.573162982213556e-06 
-8.47364061756669e-06 
-2.211690796739833e-05 
8.701737216960156e-05 
0.0001069518052735026 
0.0001842192781628989 
0.001340628915071616 
0.004831287267818938 
0.002306320905938527 
0 
-0.001116687277415601 
-0.004831287267818938 
0.002306320905938527 
-0.0001842192781628989 
0.001340628915071616 
-8.701737216960156e-05 
0.0001069518052735026 
3.025538766669681e-05 
3.84485207007581e-05 
0.0006628190066226391 
7.658962655879757e-05 
0.00389483646440249 
-0.004678560498584069 
0 
-0.01734924970290913 
-0.00389483646440249 
-0.004678560498584069 
-0.0006628190066226391 
7.658962655879757e-05 
-3.025538766669681e-05 
3.84485207007581e-05 
5.019135476507753e-05 
-0.0002031301895941308 
-0.0006869292205064368 
-0.0002909286156398632 
0.0006904342720919146 
-0.0001395427481329539 
0 
-0.005700128371462684 
-0.0006904342720919146 
-0.0001395427481329539 
0.0006869292205064368 
-0.0002909286156398632 
-5.019135476507753e-05 
-0.0002031301895941308 
7.87110809345523e-05 
1.910272365628483e-05 
2.263030500786223e-05 
-0.0001252380553289245 
0.0008043275229050789 
-0.001177216516709355 
0 
-0.0006471530006246298 
-0.0008043275229050789 
-0.001177216516709355 
-2.263030500786223e-05 
-0.0001252380553289245 
-7.87110809345523e-05 
1.910272365628483e-05 
3.521538327667841e-05 
-0.0002303155169239956 
0.0001245965232355193 
-0.0007796049833532366 
0.002060948890930913 
-0.004102651933966531 
0 
-0.014704358698377 
-0.002060948890930913 
-0.004102651933966531 
-0.0001245965232355193 
-0.0007796049833532366 
-3.521538327667841e-05 
-0.0002303155169239956 
-6.225653651265278e-05 
1.777653882289326e-05 
-0.0002987674947650012 
0.0004601687813447409 
0.001718049946555277 
0.0007195111471297604 
0 
0.002526517300757834 
-0.001718049946555277 
0.0007195111471297604 
0.0002987674947650012 
0.0004601687813447409 
6.225653651265278e-05 
1.777653882289326e-05 
-7.113937228797678e-05 
5.340014484473984e-05 
-0.0002579005946357754 
2.158907022396002e-05 
0.0001820833820856695 
0.0009182588216848173 
0 
-0.001233073398415382 
-0.0001820833820856695 
0.0009182588216848173 
0.0002579005946357754 
2.158907022396002e-05 
7.113937228797678e-05 
5.340014484473984e-05 
-5.890258227418487e-06 
4.972144647995561e-05 
0.0005507262135850818 
0.0003020167295396134 
0.001720719664715337 
-0.003040489738286107 
0 
-0.003055441956339886 
-0.001720719664715337 
-0.003040489738286107 
-0.0005507262135850818 
0.0003020167295396134 
5.890258227418487e-06 
4.972144647995561e-05 
-0.0001164628610711992 
-8.592729893696399e-05 
-0.0004591464197638302 
0.0003974509456793608 
0.0008174564302970267 
0.0006630770581415966 
0 
0.003380929152023578 
-0.0008174564302970267 
0.0006630770581415966 
0.0004591464197638302 
0.0003974509456793608 
0.0001164628610711992 
-8.592729893696399e-05 
6.299504982685632e-05 
0.0002533364273359872 
0.000602026090341264 
0.001478045558418985 
0.002065600549621861 
0.003619248616786276 
0 
0.01611423472037605 
-0.002065600549621861 
0.003619248616786276 
-0.000602026090341264 
0.001478045558418985 
-6.299504982685632e-05 
0.0002533364273359872 
1.651019515220317e-05 
-2.353899560949026e-05 
0.0007729787509707811 
-0.0001520506266424198 
0.002446364317454589 
-0.005248590922348025 
0 
-0.01076179039087937 
-0.002446364317454589 
-0.005248590922348025 
-0.0007729787509707811 
-0.0001520506266424198 
-1.651019515220317e-05 
-2.353899560949026e-05 
0.0001906399702142063 
8.430410931981982e-07 
0.0007922639941728499 
-0.0004166494519205341 
0.002511872484695876 
-0.003749135361665309 
0 
-0.01420624009481238 
-0.002511872484695876 
-0.003749135361665309 
-0.0007922639941728499 
-0.0004166494519205341 
-0.0001906399702142063 
8.430410931981982e-07 
-7.064027372270946e-05 
1.206689416822011e-05 
-6.319927215218508e-05 
0.0006593673948795492 
0.003593292368513963 
-0.001367998416149645 
0 
-0.003364419198287183 
-0.003593292368513963 
-0.001367998416149645 
6.319927215218508e-05 
0.0006593673948795492 
7.064027372270946e-05 
1.206689416822011e-05 
-7.920597272780385e-05 
0.0001155521764000538 
0.0001697318916416151 
0.0007553730194248502 
0.00172194209989557 
0.001185948239033889 
0 
0.004655885075539839 
-0.00172194209989557 
0.001185948239033889 
-0.0001697318916416151 
0.0007553730194248502 
7.920597272780385e-05 
0.0001155521764000538 
-4.779586121363713e-05 
-7.695236128713247e-05 
-0.0005809127694145533 
0.0002505180061520625 
-2.733795108672511e-05 
0.001815847013478253 
0 
0.006967103757301959 
2.733795108672511e-05 
0.001815847013478253 
0.0005809127694145533 
0.0002505180061520625 
4.779586121363713e-05 
-7.695236128713247e-05 
-8.622137008584385e-05 
-0.0001984277147416342 
-0.0006121215714109781 
-0.0003346137282513906 
-0.002916896412240627 
0.0002064879908176756 
0 
0.00729915011146942 
0.002916896412240627 
0.0002064879908176756 
0.0006121215714109781 
-0.0003346137282513906 
8.622137008584385e-05 
-0.0001984277147416342 
5.997276595189477e-05 
3.805283628885554e-05 
0.0001895782979434868 
9.843570238618863e-05 
0.0001950888143822662 
-0.002051521793718989 
0 
0.004253804624443064 
-0.0001950888143822662 
-0.002051521793718989 
-0.0001895782979434868 
9.843570238618863e-05 
-5.997276595189477e-05 
3.805283628885554e-05 
0.0001024698139235258 
-4.174285226127638e-05 
0.0001457563312096078 
-0.000150151853545064 
-0.0005874012563890481 
-0.001625661471150075 
0 
0.006808943490456465 
0.0005874012563890481 
-0.001625661471150075 
-0.0001457563312096078 
-0.000150151853545064 
-0.0001024698139235258 
-4.174285226127638e-05 
-7.16512213628551e-05 
-0.0001972455544661937 
-0.0004069041028087729 
-0.0002328435040975879 
-0.0004205346007213718 
-0.001109492879462418 
0 
0.0006939874972856938 
0.0004205346007213718 
-0.001109492879462418 
0.0004069041028087729 
-0.0002328435040975879 
7.16512213628551e-05 
-0.0001972455544661937 
-5.945153895625751e-05 
-7.407391254320712e-05 
-1.114009395429443e-05 
-0.0002129508944431402 
-0.002359858402442533 
-0.000877269157404227 
0 
0.01363825622139729 
0.002359858402442533 
-0.000877269157404227 
1.114009395429443e-05 
-0.0002129508944431402 
5.945153895625751e-05 
-7.407391254320712e-05 
7.398629005923322e-05 
0.0001063467642410506 
0.0003258609913624531 
-0.0008457696193757131 
-0.004327621190008499 
1.181035244452964e-05 
0 
0.01345270884525991 
0.004327621190008499 
1.181035244452964e-05 
-0.0003258609913624531 
-0.0008457696193757131 
-7.398629005923322e-05 
0.0001063467642410506 
0.0001323091955300041 
-6.286701839394897e-05 
0.0005024510112877862 
-0.0002759617179996937 
-0.0003204724746499207 
-0.003816523759511868 
0 
0.001538290122761605 
0.0003204724746499207 
-0.003816523759511868 
-0.0005024510112877862 
-0.0002759617179996937 
-0.0001323091955300041 
-6.286701839394897e-05 
-0.0001701581127865499 
2.939697319569084e-05 
-0.0004734668357168908 
0.0003056716309503689 
-0.002296723109965254 
0.00228268339983348 
0 
0.01810068056820499 
0.002296723109965254 
0.00228268339983348 
0.0004734668357168908 
0.0003056716309503689 
0.0001701581127865499 
2.939697319569084e-05 
1.051420241616418e-05 
0.0001662552273204963 
-7.423557638667143e-05 
0.0002208629028939947 
-0.002306232050609452 
0.002903810853335727 
0 
0.01713131598818007 
0.002306232050609452 
0.002903810853335727 
7.423557638667143e-05 
0.0002208629028939947 
-1.051420241616418e-05 
0.0001662552273204963 
4.838971314687857e-05 
-0.0001747037015475458 
-0.0004883532657738237 
-0.0008946212890044796 
-0.004738817515711145 
-0.0006167219154312187 
0 
0.01564603225372522 
0.004738817515711145 
-0.0006167219154312187 
0.0004883532657738237 
-0.0008946212890044796 
-4.838971314687857e-05 
-0.0001747037015475458 
2.036381455484804e-05 
-0.000130438813588585 
0.000345621906620872 
-0.0005298174728174156 
-0.002292665532080353 
-0.003628716082877074 
0 
0.00276710230212064 
0.002292665532080353 
-0.003628716082877074 
-0.000345621906620872 
-0.0005298174728174156 
-2.036381455484804e-05 
-0.000130438813588585 
-0.0001012641780250562 
-9.684141183075166e-05 
0.0001016504480925168 
0.0002386882294733345 
-0.0008444586246736315 
-0.002259412291624248 
0 
0.007903874382675773 
0.0008444586246736315 
-0.002259412291624248 
-0.0001016504480925168 
0.0002386882294733345 
0.0001012641780250562 
-9.684141183075166e-05 
8.421863619227323e-05 
1.096201516403382e-05 
0.0002639287448520992 
-0.0002438840512172257 
-0.0007622010054883262 
-0.0009602476535774677 
0 
0.004129241501963968 
0.0007622010054883262 
-0.0009602476535774677 
-0.0002639287448520992 
-0.0002438840512172257 
-8.421863619227323e-05 
1.096201516403382e-05 
0.0001031171504162405 
-7.98260369024764e-05 
-9.577824980982069e-06 
-0.0004088989260980845 
-0.0005908790518559207 
-0.001879516602318054 
0 
-0.000391868599066154 
0.0005908790518559207 
-0.001879516602318054 
9.577824980982069e-06 
-0.0004088989260980845 
-0.0001031171504162405 
-7.98260369024764e-05 
-8.231582716010697e-05 
-9.282968024842947e-05 
-0.0001947525747335634 
-0.0001135582965415481 
-0.0005533702613389233 
-0.001216937800146839 
0 
-0.002260606503420928 
0.0005533702613389233 
-0.001216937800146839 
0.0001947525747335634 
-0.0001135582965415481 
8.231582716010697e-05 
-9.282968024842947e-05 
6.552636863288201e-05 
-0.0001134030826390869 
-0.0005002907156682416 
-0.0004072646545813329 
-0.002001825149293401 
0.000355996745305212 
0 
0.004939001145823148 
0.002001825149293401 
0.000355996745305212 
0.0005002907156682416 
-0.0004072646545813329 
-6.552636863288201e-05 
-0.0001134030826390869 
-9.268375643485192e-05 
-0.0001174558197579322 
-0.000568252427153031 
0.0001643027301008396 
-0.001466967850665119 
0.0005543321076955268 
0 
0.0121302214943418 
0.001466967850665119 
0.0005543321076955268 
0.000568252427153031 
0.0001643027301008396 
9.268375643485192e-05 
-0.0001174558197579322 
-0.0001209940880532869 
5.707520313347465e-05 
-0.0007730682732477773 
0.0007562272263864723 
-0.001490466899701884 
0.004779748768588068 
0 
0.01890055698200621 
0.001490466899701884 
0.004779748768588068 
0.0007730682732477773 
0.0007562272263864723 
0.0001209940880532869 
5.707520313347465e-05 
8.678613586349676e-05 
-9.46222100311088e-05 
-5.151794548668544e-06 
-0.0005337538543304104 
-0.002469461766258983 
-0.00146529496577654 
0 
0.008017654609304302 
0.002469461766258983 
-0.00146529496577654 
5.151794548668544e-06 
-0.0005337538543304104 
-8.678613586349676e-05 
-9.46222100311088e-05 
-1.339669511158619e-05 
-0.0002195230434370331 
-0.001137498406370933 
-0.0007698208157090317 
-0.00288703538427941 
0.001221501318758687 
0 
0.009538676535873548 
0.00288703538427941 
0.001221501318758687 
0.001137498406370933 
-0.0007698208157090317 
1.339669511158619e-05 
-0.0002195230434370331 
-8.517496491272049e-05 
-5.268342269820448e-05 
-0.0003125202894095941 
9.841290253731977e-05 
-0.002095271545901151 
0.001012942170689296 
0 
0.01240247344585766 
0.002095271545901151 
0.001012942170689296 
0.0003125202894095941 
9.841290253731977e-05 
8.517496491272049e-05 
-5.268342269820448e-05 
8.048265334741197e-05 
-8.568603492569282e-05 
-7.397925248312733e-05 
-0.0007134616303063232 
-0.001572621678604131 
-0.00145775542674569 
0 
0.002620002415345013 
0.001572621678604131 
-0.00145775542674569 
7.397925248312733e-05 
-0.0007134616303063232 
-8.048265334741197e-05 
-8.568603492569282e-05 
7.541799498680108e-05 
-0.0001380479536870356 
-0.0001974683657545953 
-0.0006126814994952644 
-0.001052240770173333 
-0.001556500996517916 
0 
0.002553155085727178 
0.001052240770173333 
-0.001556500996517916 
0.0001974683657545953 
-0.0006126814994952644 
-7.541799498680108e-05 
-0.0001380479536870356 
0.0001336369233557898 
-3.273740149559726e-05 
2.473097874353101e-05 
-0.0004124807241591548 
-0.001593917806400235 
-0.0007213156420357293 
0 
0.006260165227454146 
0.001593917806400235 
-0.0007213156420357293 
-2.473097874353101e-05 
-0.0004124807241591548 
-0.0001336369233557898 
-3.273740149559726e-05 
6.289070256176434e-05 
-7.779374951481173e-05 
0.0002229391623660256 
-0.0006220353656846659 
0.0002295521128144524 
-0.002939343796429945 
0 
-0.004187549341241409 
-0.0002295521128144524 
-0.002939343796429945 
-0.0002229391623660256 
-0.0006220353656846659 
-6.289070256176434e-05 
-7.779374951481173e-05 
7.263143070200995e-05 
-2.626321331563115e-05 
-2.726158846933949e-05 
-0.00039972687641301 
-0.002218191217428514 
-9.496844417223192e-05 
0 
0.009550314302771576 
0.002218191217428514 
-9.496844417223192e-05 
2.726158846933949e-05 
-0.00039972687641301 
-7.263143070200995e-05 
-2.626321331563115e-05 
0.0001591173190651771 
-5.254327306991123e-05 
-0.0004133275003646859 
-0.0008678781033622296 
-0.00314303793004149 
0.001427296274644723 
0 
0.01022161329546407 
0.00314303793004149 
0.001427296274644723 
0.0004133275003646859 
-0.0008678781033622296 
-0.0001591173190651771 
-5.254327306991123e-05 
-0.0001715559599679094 
-0.0001416209939837137 
-0.001261300233278091 
0.000411059441455293 
-0.002760021302766797 
0.004771449735884979 
0 
0.01649752007230585 
0.002760021302766797 
0.004771449735884979 
0.001261300233278091 
0.000411059441455293 
0.0001715559599679094 
-0.0001416209939837137 
0.0001029702322551838 
-2.009656655015168e-05 
0.0003229788491410055 
-0.0005125131724876397 
-0.0008785784077909477 
-0.001873608240128364 
0 
-0.0004956812499831385 
0.0008785784077909477 
-0.001873608240128364 
-0.0003229788491410055 
-0.0005125131724876397 
-0.0001029702322551838 
-2.009656655015168e-05 
5.6875152221351e-05 
-6.281158682701094e-06 
0.0002969526178874521 
-0.0002715084417222203 
-0.001633743826194373 
-0.002434091731006752 
0 
0.009705344875805084 
0.001633743826194373 
-0.002434091731006752 
-0.0002969526178874521 
-0.0002715084417222203 
-5.6875152221351e-05 
-6.281158682701094e-06 
-7.758775642112223e-05 
6.098087868105037e-05 
9.059253469282329e-05 
-4.376687334640773e-05 
-0.0008665606517625392 
-0.001512524102405551 
0 
0.007476134314113678 
0.0008665606517625392 
-0.001512524102405551 
-9.059253469282329e-05 
-4.376687334640773e-05 
7.758775642112223e-05 
6.098087868105037e-05 
3.691310480317056e-05 
-6.047051931645006e-05 
0.0001300954823821545 
-0.0003790340661226036 
-0.001301313770221989 
-0.001767797863822268 
0 
0.002603515882551103 
0.001301313770221989 
-0.001767797863822268 
-0.0001300954823821545 
-0.0003790340661226036 
-3.691310480317056e-05 
-6.047051931645006e-05 
6.814392829613595e-05 
0.0002587941296774534 
0.0008184201581309135 
0.0002135298714365717 
0.0002599107052468961 
-0.0003800870016032314 
0 
0.002172679325283413 
-0.0002599107052468961 
-0.0003800870016032314 
-0.0008184201581309135 
0.0002135298714365717 
-6.814392829613595e-05 
0.0002587941296774534 
-0.0001065372110709957 
-0.0001629627503109902 
-0.0003464237459241292 
0.0001793038222139622 
-0.001366420112911084 
-0.001105036750996937 
0 
0.006942312580422241 
0.001366420112911084 
-0.001105036750996937 
0.0003464237459241292 
0.0001793038222139622 
0.0001065372110709957 
-0.0001629627503109902 
-5.315236386875567e-05 
-3.505779127586236e-05 
-0.0007468292586437333 
0.0004086584876335098 
-0.001922927052768718 
0.003370898369672084 
0 
0.01772807490952374 
0.001922927052768718 
0.003370898369672084 
0.0007468292586437333 
0.0004086584876335098 
5.315236386875567e-05 
-3.505779127586236e-05 
0.0001117619223915464 
-0.0001470476131142106 
-0.0003090063532039664 
-0.0007308805180917521 
-0.002132105898372772 
-0.0002683289232912632 
0 
0.003467489218646277 
0.002132105898372772 
-0.0002683289232912632 
0.0003090063532039664 
-0.0007308805180917521 
-0.0001117619223915464 
-0.0001470476131142106 
-1.55902484906233e-05 
-0.0002346350049282601 
-0.0005870520251583789 
-0.0008511396528653896 
-0.002573761746473566 
-0.0002523160055847878 
0 
0.002956128227722297 
0.002573761746473566 
-0.0002523160055847878 
0.0005870520251583789 
-0.0008511396528653896 
1.55902484906233e-05 
-0.0002346350049282601 
-1.12842573697183e-05 
-0.0001047859067451919 
-0.0002556132510837334 
-0.0002847292001919611 
0.0005920522711659708 
-0.001785694349436274 
0 
-0.003818444353752953 
-0.0005920522711659708 
-0.001785694349436274 
0.0002556132510837334 
-0.0002847292001919611 
1.12842573697183e-05 
-0.0001047859067451919 
-6.382825243280335e-05 
5.353269360571446e-06 
7.685385703014288e-05 
-0.0001408233681758152 
-0.002072343291332712 
-0.001517028192822645 
0 
0.0116646599445344 
0.002072343291332712 
-0.001517028192822645 
-7.685385703014288e-05 
-0.0001408233681758152 
6.382825243280335e-05 
5.353269360571446e-06 
5.225784836224502e-05 
-0.0001299442929423673 
-0.0001870131405546924 
-0.000506872796165713 
-0.002975471993875615 
-0.00220631480160782 
0 
0.01261646477779281 
0.002975471993875615 
-0.00220631480160782 
0.0001870131405546924 
-0.000506872796165713 
-5.225784836224502e-05 
-0.0001299442929423673 
0.0001034069552120054 
-0.0001298833537371523 
1.179093806758618e-06 
-0.000406262257017856 
-0.0008406758762443277 
-0.002062077463212071 
0 
0.001667779663342949 
0.0008406758762443277 
-0.002062077463212071 
-1.179093806758618e-06 
-0.000406262257017856 
-0.0001034069552120054 
-0.0001298833537371523 
-3.531410280083498e-05 
6.658092689711959e-05 
8.318492767920024e-06 
0.0001696800911865369 
0.0002428262012559201 
0.0001831114398320414 
0 
0.001008988066542089 
-0.0002428262012559201 
0.0001831114398320414 
-8.318492767920024e-06 
0.0001696800911865369 
3.531410280083498e-05 
6.658092689711959e-05 
-9.371894332475019e-05 
-7.589830157595018e-05 
-0.0005097319449677848 
0.0002244689211076594 
-0.001722167948709418 
0.0008777673738366615 
0 
0.01240416627576272 
0.001722167948709418 
0.0008777673738366615 
0.0005097319449677848 
0.0002244689211076594 
9.371894332475019e-05 
-7.589830157595018e-05 
6.051763186091164e-06 
2.258226936625925e-05 
-0.0003351865780993977 
-0.0002095945979864279 
-0.00111792030831788 
-0.0003253512511338133 
0 
0.008695742332280055 
0.00111792030831788 
-0.0003253512511338133 
0.0003351865780993977 
-0.0002095945979864279 
-6.051763186091164e-06 
2.258226936625925e-05 
-6.675200843089962e-06 
-5.794854343862457e-05 
-0.0001067906848987645 
-0.0004576495570129633 
-0.001458544798253093 
-0.0008544468789633716 
0 
0.003256611843164252 
0.001458544798253093 
-0.0008544468789633716 
0.0001067906848987645 
-0.0004576495570129633 
6.675200843089962e-06 
-5.794854343862457e-05 
4.230907307984573e-05 
-3.333235832521794e-05 
-0.0004118351939943833 
-0.0003448391964490678 
-0.002655694452460591 
0.002861551920281112 
0 
0.01059803057802898 
0.002655694452460591 
0.002861551920281112 
0.0004118351939943833 
-0.0003448391964490678 
-4.230907307984573e-05 
-3.333235832521794e-05 
2.177209476081765e-05 
2.009704857752864e-05 
0.0003406541413876987 
-0.0003302644995764173 
-0.001053330577947492 
-0.003251319031633304 
0 
0.001375125893490802 
0.001053330577947492 
-0.003251319031633304 
-0.0003406541413876987 
-0.0003302644995764173 
-2.177209476081765e-05 
2.009704857752864e-05 
4.664340650868206e-05 
-0.0001664561694559177 
-0.000643857526797161 
-0.0003886131556816818 
-0.0007021234008035876 
0.0001455408468555269 
0 
0.001942238343152127 
0.0007021234008035876 
0.0001455408468555269 
0.000643857526797161 
-0.0003886131556816818 
-4.664340650868206e-05 
-0.0001664561694559177 
7.853632753598539e-05 
3.847939694322931e-05 
0.0004768794241491175 
-0.000497070989823484 
-0.001114031406204588 
-0.003002238711947262 
0 
0.002019730805396832 
0.001114031406204588 
-0.003002238711947262 
-0.0004768794241491175 
-0.000497070989823484 
-7.853632753598539e-05 
3.847939694322931e-05 
-7.263894199789549e-05 
0.0001193018832680972 
0.0003736308696194482 
0.0008770956105703104 
0.0019476437079523 
-0.0002812267219770948 
0 
0.002193266336192787 
-0.0019476437079523 
-0.0002812267219770948 
-0.0003736308696194482 
0.0008770956105703104 
7.263894199789549e-05 
0.0001193018832680972 
-3.202147323758262e-05 
-4.791385567927749e-05 
0.0002904483300412494 
0.0002352057691798539 
0.001655654339733697 
-0.003622245596334405 
0 
-0.006070141224552343 
-0.001655654339733697 
-0.003622245596334405 
-0.0002904483300412494 
0.0002352057691798539 
3.202147323758262e-05 
-4.791385567927749e-05 
6.715083766645221e-05 
-1.408993822389811e-05 
0.0001433971891240807 
5.557585559668096e-05 
-0.0002468363424441041 
-0.001985742725626056 
0 
0.007969813307160805 
0.0002468363424441041 
-0.001985742725626056 
-0.0001433971891240807 
5.557585559668096e-05 
-6.715083766645221e-05 
-1.408993822389811e-05 
-0.0001411131476633021 
-9.208266543230731e-05 
-0.000281702864825703 
0.0003300040758727331 
-0.001022837425531763 
-0.001018944537723533 
0 
0.01061170775789039 
0.001022837425531763 
-0.001018944537723533 
0.000281702864825703 
0.0003300040758727331 
0.0001411131476633021 
-9.208266543230731e-05 
0.0001123934351611849 
-4.11154088501948e-05 
0.0002879899114459342 
-0.000340743745372535 
-0.001030935664311121 
-0.002246596757331836 
0 
0.001712648164489809 
0.001030935664311121 
-0.002246596757331836 
-0.0002879899114459342 
-0.000340743745372535 
-0.0001123934351611849 
-4.11154088501948e-05 
1.439642999767694e-05 
-9.793087690693114e-05 
-0.0007012005003701097 
-0.0001605302684033961 
-0.002940009660858423 
0.002730969923335319 
0 
0.01252118036770918 
0.002940009660858423 
0.002730969923335319 
0.0007012005003701097 
-0.0001605302684033961 
-1.439642999767694e-05 
-9.793087690693114e-05 
7.604856592631222e-05 
-0.0001572029990921343 
0.0001166262124407696 
-0.000577885011300357 
-0.0009446569021361992 
-0.003259970943243981 
0 
-0.001160449178005295 
0.0009446569021361992 
-0.003259970943243981 
-0.0001166262124407696 
-0.000577885011300357 
-7.604856592631222e-05 
-0.0001572029990921343 
-7.025357806572558e-05 
0.000124934842419815 
0.0007440327834291598 
0.0004835969575654988 
0.004325998526985192 
-0.002943006657779434 
0 
-0.01597654607535576 
-0.004325998526985192 
-0.002943006657779434 
-0.0007440327834291598 
0.0004835969575654988 
7.025357806572558e-05 
0.000124934842419815 
-2.860447932113972e-05 
-2.577093803571568e-05 
0.000252336694840239 
0.0002178340411632523 
0.004027413631175434 
-0.002312661268013352 
0 
-0.01598109644245181 
-0.004027413631175434 
-0.002312661268013352 
-0.000252336694840239 
0.0002178340411632523 
2.860447932113972e-05 
-2.577093803571568e-05 
-1.000147070309762e-05 
9.459521603823958e-06 
0.0002569192614125861 
8.400458212598456e-05 
0.003069012739421073 
-0.002209400963170955 
0 
-0.01463133793321601 
-0.003069012739421073 
-0.002209400963170955 
-0.0002569192614125861 
8.400458212598456e-05 
1.000147070309762e-05 
9.459521603823958e-06 
5.691049164000846e-05 
2.911681288582748e-05 
0.0003519521130476005 
0.0001151135466492436 
0.0008052348453182077 
-0.0005559244856949752 
0 
-0.0005410220193229652 
-0.0008052348453182077 
-0.0005559244856949752 
-0.0003519521130476005 
0.0001151135466492436 
-5.691049164000846e-05 
2.911681288582748e-05 
-0.0001023538631191228 
-6.961654118619353e-06 
-0.0005078872282725203 
0.0003732723939498608 
-0.0004481735365574765 
0.001397873505804995 
0 
0.008734278647897768 
0.0004481735365574765 
0.001397873505804995 
0.0005078872282725203 
0.0003732723939498608 
0.0001023538631191228 
-6.961654118619353e-06 
-7.322927565857424e-05 
-2.858314334867687e-05 
-0.0001509447452118055 
9.612691971316063e-05 
0.0009058852444499745 
-0.001295573238266459 
0 
-0.001003508936779085 
-0.0009058852444499745 
-0.001295573238266459 
0.0001509447452118055 
9.612691971316063e-05 
7.322927565857424e-05 
-2.858314334867687e-05 
-6.029277251995209e-05 
2.577657724762859e-05 
-0.0001879202287045056 
0.0006060908973110027 
0.002344395814726963 
0.0002948358342426816 
0 
-0.002630898780520673 
-0.002344395814726963 
0.0002948358342426816 
0.0001879202287045056 
0.0006060908973110027 
6.029277251995209e-05 
2.577657724762859e-05 
-0.0001870649757335385 
3.513266371460346e-05 
-0.0006968062996862537 
0.0006052341755523912 
-0.0004770429297011974 
0.002502395192140017 
0 
0.00836523077269068 
0.0004770429297011974 
0.002502395192140017 
0.0006968062996862537 
0.0006052341755523912 
0.0001870649757335385 
3.513266371460346e-05 
3.969371988702496e-05 
8.018043942852206e-05 
1.988683827312549e-05 
-0.0001216496102100687 
-0.003128196969762515 
0.002604406463399424 
0 
0.01960403626430904 
0.003128196969762515 
0.002604406463399424 
-1.988683827312549e-05 
-0.0001216496102100687 
-3.969371988702496e-05 
8.018043942852206e-05 
0.0001193615037807286 
-9.516469334895479e-05 
0.000232126462499442 
-0.0001074343716860946 
0.001271892679462685 
-0.003860435565386768 
0 
-0.00359195647795421 
-0.001271892679462685 
-0.003860435565386768 
-0.000232126462499442 
-0.0001074343716860946 
-0.0001193615037807286 
-9.516469334895479e-05 
6.760024554151213e-05 
-4.510232648602949e-05 
0.0005734572601252061 
-0.0004718737394886967 
0.003322240380281026 
-0.004136722705470501 
0 
-0.02097210324759383 
-0.003322240380281026 
-0.004136722705470501 
-0.0005734572601252061 
-0.0004718737394886967 
-6.760024554151213e-05 
-4.510232648602949e-05 
2.871533514682802e-05 
4.113589201361779e-05 
0.0005829775090269943 
9.631245853751779e-05 
0.003015091247591954 
-0.003868933398220731 
0 
-0.007894205181905084 
-0.003015091247591954 
-0.003868933398220731 
-0.0005829775090269943 
9.631245853751779e-05 
-2.871533514682802e-05 
4.113589201361779e-05 
0.0001398814535996055 
0.0001527450639435334 
0.000393285216528338 
0.0002916416871970238 
-0.001083517145635446 
0.002508683072799378 
0 
0.01436290671565602 
0.001083517145635446 
0.002508683072799378 
-0.000393285216528338 
0.0002916416871970238 
-0.0001398814535996055 
0.0001527450639435334 
-7.429241238602622e-05 
0.0001041785326654514 
0.0003031609418797588 
0.0007138621311391605 
-1.741930451318418e-05 
0.0004720549184026485 
0 
0.01013294051595775 
1.741930451318418e-05 
0.0004720549184026485 
-0.0003031609418797588 
0.0007138621311391605 
7.429241238602622e-05 
0.0001041785326654514 
0.0001404645032980366 
-0.0002077944853642316 
-2.370210971932948e-05 
-0.0008741865736654462 
-0.001067554176648508 
-0.003457260003241304 
0 
-0.007046656171310291 
0.001067554176648508 
-0.003457260003241304 
2.370210971932948e-05 
-0.0008741865736654462 
-0.0001404645032980366 
-0.0002077944853642316 
-0.0002002799547256889 
-0.000187997327447107 
-0.0005118727120197012 
0.000871295438198944 
0.003473486670045362 
-0.0004450458427038826 
0 
-0.0074646420527239 
-0.003473486670045362 
-0.0004450458427038826 
0.0005118727120197012 
0.000871295438198944 
0.0002002799547256889 
-0.000187997327447107 
0.0001156876341273907 
-9.958316664894807e-05 
0.0002426518301383712 
-0.0008792668237734778 
-0.001352139457672322 
-0.003177605122871035 
0 
-0.003412289789134873 
0.001352139457672322 
-0.003177605122871035 
-0.0002426518301383712 
-0.0008792668237734778 
-0.0001156876341273907 
-9.958316664894807e-05 
5.161500453862649e-05 
0.0001499467457768322 
0.0003421539516802807 
-5.385596394499225e-06 
-0.002087285779878818 
2.041096402399104e-05 
0 
0.01263064258565071 
0.002087285779878818 
2.041096402399104e-05 
-0.0003421539516802807 
-5.385596394499225e-06 
-5.161500453862649e-05 
0.0001499467457768322 
0.0001008618911595614 
-2.577379023482204e-05 
0.0004322502734826582 
-0.0002398160538282749 
-0.0001258301224432943 
-0.003120462563708094 
0 
0.0009554432915672607 
0.0001258301224432943 
-0.003120462563708094 
-0.0004322502734826582 
-0.0002398160538282749 
-0.0001008618911595614 
-2.577379023482204e-05 
1.195403994326045e-05 
-0.0001762243461057201 
-1.308518012172979e-05 
-0.0004253067717934887 
-0.0006860508058903084 
-0.003967378749393002 
0 
-0.000291757050640473 
0.0006860508058903084 
-0.003967378749393002 
1.308518012172979e-05 
-0.0004253067717934887 
-1.195403994326045e-05 
-0.0001762243461057201 
5.951331591533667e-05 
-6.976655990473227e-05 
0.0006948399159507559 
-0.0006911650038645083 
0.0003965817673705796 
-0.0058662577501214 
0 
-0.009326071949927088 
-0.0003965817673705796 
-0.0058662577501214 
-0.0006948399159507559 
-0.0006911650038645083 
-5.951331591533667e-05 
-6.976655990473227e-05 
1.87569499873758e-05 
0.0002793275390070591 
0.0001299705944404356 
0.0009547883077036419 
-0.001558249940589573 
0.005420631504377827 
0 
0.02399197313597802 
0.001558249940589573 
0.005420631504377827 
-0.0001299705944404356 
0.0009547883077036419 
-1.87569499873758e-05 
0.0002793275390070591 
4.028373051735826e-05 
-3.421061983308821e-05 
0.0003208229851194442 
-0.0005833743332051453 
0.000430228195475516 
-0.001614203645696185 
0 
-0.007906848281424805 
-0.000430228195475516 
-0.001614203645696185 
-0.0003208229851194442 
-0.0005833743332051453 
-4.028373051735826e-05 
-3.421061983308821e-05 
1.008091526835307e-05 
4.819077295872684e-05 
0.0001430109093477274 
-0.0001265302711702165 
0.0008977958164301612 
-0.001291991316874485 
0 
-0.005002555186642288 
-0.0008977958164301612 
-0.001291991316874485 
-0.0001430109093477274 
-0.0001265302711702165 
-1.008091526835307e-05 
4.819077295872684e-05 
-7.966461045618434e-05 
-1.802354222759009e-05 
0.0002910761594946659 
0.0004179344632180324 
0.0003844009042181358 
-0.002053566166903695 
0 
0.003804526392066186 
-0.0003844009042181358 
-0.002053566166903695 
-0.0002910761594946659 
0.0004179344632180324 
7.966461045618434e-05 
-1.802354222759009e-05 
1.444006481557779e-06 
-0.0001294173017250932 
-0.0002993952841492059 
-0.0007670678495316236 
-0.002248433279534412 
-0.001382716123271263 
0 
-0.0003858486046541232 
0.002248433279534412 
-0.001382716123271263 
0.0002993952841492059 
-0.0007670678495316236 
-1.444006481557779e-06 
-0.0001294173017250932 
-5.935659032926661e-06 
6.813718783118377e-05 
-0.0003654990604074962 
0.0002749248468486589 
-0.002011786200477997 
0.003730993216960321 
0 
0.01668573893588512 
0.002011786200477997 
0.003730993216960321 
0.0003654990604074962 
0.0002749248468486589 
5.935659032926661e-06 
6.813718783118377e-05 
-9.276667939579852e-06 
0.0001150876057508435 
0.0006416567299219528 
-0.0002515756840738541 
-0.0003286705805755357 
-0.003110519025399907 
0 
0.0006456691261813915 
0.0003286705805755357 
-0.003110519025399907 
-0.0006416567299219528 
-0.0002515756840738541 
9.276667939579852e-06 
0.0001150876057508435 
0.0001730093878395423 
-0.000195822702089358 
0.0001956533420853135 
-0.00130633379310123 
0.001429545643781462 
-0.005095117036111658 
0 
-0.01874383365467612 
-0.001429545643781462 
-0.005095117036111658 
-0.0001956533420853135 
-0.00130633379310123 
-0.0001730093878395423 
-0.000195822702089358 
2.655758553971138e-05 
7.109351310704991e-05 
0.0005613546415108298 
5.447158015912864e-05 
0.002946463309078714 
-0.002936185087241264 
0 
-0.01007747604696426 
-0.002946463309078714 
-0.002936185087241264 
-0.0005613546415108298 
5.447158015912864e-05 
-2.655758553971138e-05 
7.109351310704991e-05 
1.58192860720395e-05 
0.0001700240509775948 
-9.929806319581867e-05 
0.0008851817552191954 
-0.0003556983053839483 
0.004573887025195175 
0 
0.01615885131337977 
0.0003556983053839483 
0.004573887025195175 
9.929806319581867e-05 
0.0008851817552191954 
-1.58192860720395e-05 
0.0001700240509775948 
-5.818720059721066e-05 
7.397010239289299e-05 
0.0007868235667174362 
9.04019635543589e-05 
0.002949107299898355 
-0.003814201426027308 
0 
-0.01264271691753839 
-0.002949107299898355 
-0.003814201426027308 
-0.0007868235667174362 
9.04019635543589e-05 
5.818720059721066e-05 
7.397010239289299e-05 
6.468042681865745e-05 
-4.855779526787161e-05 
-2.446563205466801e-05 
0.0001537708710369892 
0.004429793167172144 
-0.003200109873511228 
0 
-0.01319497970731016 
-0.004429793167172144 
-0.003200109873511228 
2.446563205466801e-05 
0.0001537708710369892 
-6.468042681865745e-05 
-4.855779526787161e-05 
9.663798241893973e-08 
-2.555539187102386e-07 
9.722126568513681e-05 
1.426723208694802e-05 
0.00237258134212091 
-0.002284655345029397 
0 
-0.004340144590845326 
-0.00237258134212091 
-0.002284655345029397 
-9.722126568513681e-05 
1.426723208694802e-05 
-9.663798241893973e-08 
-2.555539187102386e-07 
-0.0002308801186474717 
-3.317777031547408e-06 
-0.000250163383932736 
0.0001314997424759591 
-0.004486021322113695 
0.0008161654591593591 
0 
0.01868383404055775 
0.004486021322113695 
0.0008161654591593591 
0.000250163383932736 
0.0001314997424759591 
0.0002308801186474717 
-3.317777031547408e-06 
-7.123950122525531e-06 
-7.4458978841431e-05 
-0.0005801230061245339 
-0.0004830556978024139 
-0.003574392736849828 
0.003281444598676576 
0 
0.0142623907876752 
0.003574392736849828 
0.003281444598676576 
0.0005801230061245339 
-0.0004830556978024139 
7.123950122525531e-06 
-7.4458978841431e-05 
9.109251755360184e-05 
8.332922005490803e-06 
0.0003821964456475472 
-0.0004030731145983226 
0.0003674198532002733 
-0.002755606576864841 
0 
-0.001025996561601695 
-0.0003674198532002733 
-0.002755606576864841 
-0.0003821964456475472 
-0.0004030731145983226 
-9.109251755360184e-05 
8.332922005490803e-06 
3.644838417453629e-05 
-6.718213885239125e-05 
0.0008847765983545112 
-0.0001758686214375458 
0.002946710910252939 
-0.006209921472331857 
0 
-0.01711746073474657 
-0.002946710910252939 
-0.006209921472331857 
-0.0008847765983545112 
-0.0001758686214375458 
-3.644838417453629e-05 
-6.718213885239125e-05 
4.266431193847163e-05 
-2.152105037262314e-05 
0.0003922983274191552 
-0.0001370550071637215 
7.654380111662386e-06 
-0.003692572382383185 
0 
0.00188774713197637 
-7.654380111662386e-06 
-0.003692572382383185 
-0.0003922983274191552 
-0.0001370550071637215 
-4.266431193847163e-05 
-2.152105037262314e-05 
-0.0001667962087929748 
0.0002344477570801684 
-0.0001238594196934201 
0.00144519452110651 
-0.001946774741173324 
0.006193286871990858 
0 
0.02820156257849253 
0.001946774741173324 
0.006193286871990858 
0.0001238594196934201 
0.00144519452110651 
0.0001667962087929748 
0.0002344477570801684 
5.7831198558234e-05 
8.528058487863449e-05 
0.000955693482247626 
8.689652917280954e-05 
0.00122290429108944 
-0.003967204799695303 
0 
-0.001867504682118378 
-0.00122290429108944 
-0.003967204799695303 
-0.000955693482247626 
8.689652917280954e-05 
-5.7831198558234e-05 
8.528058487863449e-05 
0.000143847064440668 
9.154550252395435e-05 
0.001250398769914316 
-0.0002817250231298146 
0.003478348067084413 
-0.006422317399632584 
0 
-0.01963493919784023 
-0.003478348067084413 
-0.006422317399632584 
-0.001250398769914316 
-0.0002817250231298146 
-0.000143847064440668 
9.154550252395435e-05 
0.0001406371038395766 
3.830029202583821e-05 
0.0008625050741022524 
-0.0006981805228753991 
0.002001799507546025 
-0.004619554295853969 
0 
-0.01356735146720607 
-0.002001799507546025 
-0.004619554295853969 
-0.0008625050741022524 
-0.0006981805228753991 
-0.0001406371038395766 
3.830029202583821e-05 
-0.0001835551948379143 
-2.234442410106902e-05 
-0.0008849919040874062 
0.0008613627459700134 
0.0006151154437818409 
0.004296118725194198 
0 
0.01007832407992472 
-0.0006151154437818409 
0.004296118725194198 
0.0008849919040874062 
0.0008613627459700134 
0.0001835551948379143 
-2.234442410106902e-05 
4.65755422501966e-05 
1.207608634864608e-05 
0.0008832571719643059 
-0.0002697375573495071 
0.0009642314787184946 
-0.004737215107642379 
0 
-0.005936781441438331 
-0.0009642314787184946 
-0.004737215107642379 
-0.0008832571719643059 
-0.0002697375573495071 
-4.65755422501966e-05 
1.207608634864608e-05 
0.0001056732850268555 
-0.000148873032493146 
-0.0001370044577984311 
-0.0007366967054930922 
0.0005977247498868347 
-0.002354404775764806 
0 
-0.005253201920433351 
-0.0005977247498868347 
-0.002354404775764806 
0.0001370044577984311 
-0.0007366967054930922 
-0.0001056732850268555 
-0.000148873032493146 
-0.0001933121137740526 
7.801524586181235e-05 
0.0001091146240036122 
0.0007139342941894721 
-0.0005109978098795409 
0.000267106005145424 
0 
0.0104455086329434 
0.0005109978098795409 
0.000267106005145424 
-0.0001091146240036122 
0.0007139342941894721 
0.0001933121137740526 
7.801524586181235e-05 
-0.0001128718517803656 
-3.611085574892279e-05 
-0.0008270818574510259 
0.0007456100200721645 
-0.001562067405091017 
0.004280486347517272 
0 
0.02036480295685403 
0.001562067405091017 
0.004280486347517272 
0.0008270818574510259 
0.0007456100200721645 
0.0001128718517803656 
-3.611085574892279e-05 
-0.0001366018383778813 
-0.0001738544071030385 
-0.001155033634291316 
-0.0002942518005671502 
-0.004905033789581762 
0.003921521498691863 
0 
0.01869653767119672 
0.004905033789581762 
0.003921521498691863 
0.001155033634291316 
-0.0002942518005671502 
0.0001366018383778813 
-0.0001738544071030385 
7.711731641497319e-05 
-3.939469734352035e-05 
-7.780471164142388e-06 
-0.0001388810296269303 
-0.0004815999296834976 
-0.001569356199866756 
0 
0.006458889149753537 
0.0004815999296834976 
-0.001569356199866756 
7.780471164142388e-06 
-0.0001388810296269303 
-7.711731641497319e-05 
-3.939469734352035e-05 
7.185381807829475e-05 
-0.0002519972974550319 
6.580896129144161e-06 
-0.0008578471130139825 
-0.001169865640707491 
-0.004873520946251493 
0 
-0.002746728226932989 
0.001169865640707491 
-0.004873520946251493 
-6.580896129144161e-06 
-0.0008578471130139825 
-7.185381807829475e-05 
-0.0002519972974550319 
-9.151956411396443e-05 
6.884176706069076e-06 
-1.654434298426443e-06 
0.0001264524401739096 
-0.002168045926136077 
-0.0002247957830022876 
0 
0.01436072436129854 
0.002168045926136077 
-0.0002247957830022876 
1.654434298426443e-06 
0.0001264524401739096 
9.151956411396443e-05 
6.884176706069076e-06 
3.007444134819895e-05 
-0.0001479812270983165 
-2.8483700295386e-05 
-0.0008300727885676484 
-0.002630524238027752 
-0.002965577104001905 
0 
0.005070926595854826 
0.002630524238027752 
-0.002965577104001905 
2.8483700295386e-05 
-0.0008300727885676484 
-3.007444134819895e-05 
-0.0001479812270983165 
1.137650731418523e-05 
-0.0001827016410602345 
-6.767448357214694e-06 
-0.0008197252985345003 
-0.003227974573663756 
-0.003602104591918353 
0 
0.004844027497092343 
0.003227974573663756 
-0.003602104591918353 
6.767448357214694e-06 
-0.0008197252985345003 
-1.137650731418523e-05 
-0.0001827016410602345 
3.243378777615938e-05 
-1.964467012183807e-05 
-9.670170917016317e-05 
-0.0002904018002060045 
-0.001786128442826524 
0.0001827428733684393 
0 
0.0102083448813259 
0.001786128442826524 
0.0001827428733684393 
9.670170917016317e-05 
-0.0002904018002060045 
-3.243378777615938e-05 
-1.964467012183807e-05 
-5.045117270918834e-05 
-0.0001310430842840695 
-0.0004305737296277579 
2.177406889302903e-05 
0.0009046783006118211 
-0.0008670767625474764 
0 
0.0006110210470597482 
-0.0009046783006118211 
-0.0008670767625474764 
0.0004305737296277579 
2.177406889302903e-05 
5.045117270918834e-05 
-0.0001310430842840695 
-4.617520798151472e-05 
-1.559339009673651e-05 
0.0004175748743663588 
0.0001273698664926941 
-0.0004339073695320071 
-0.002580103670617009 
0 
0.005788899843993357 
0.0004339073695320071 
-0.002580103670617009 
-0.0004175748743663588 
0.0001273698664926941 
4.617520798151472e-05 
-1.559339009673651e-05 
0.0001128685259604398 
-0.0001978728674806779 
-0.0006449174385365689 
-0.000926705538814038 
-0.002984856449917359 
0.0003239340343424031 
0 
0.007142267987199748 
0.002984856449917359 
0.0003239340343424031 
0.0006449174385365689 
-0.000926705538814038 
-0.0001128685259604398 
-0.0001978728674806779 
-2.041427438142969e-05 
0.0001344358807907376 
0.0006980212427090364 
0.0002221648972790428 
0.001197743774346985 
-0.002976914271443764 
0 
-0.0002070787374708503 
-0.001197743774346985 
-0.002976914271443764 
-0.0006980212427090364 
0.0002221648972790428 
2.041427438142969e-05 
0.0001344358807907376 
0.0001780293624713309 
-8.819106159850795e-05 
-0.0001905851851614808 
-0.0002750829312063782 
-0.0007300676137051154 
-0.0003258490093498132 
0 
0.005398545876657448 
0.0007300676137051154 
-0.0003258490093498132 
0.0001905851851614808 
-0.0002750829312063782 
-0.0001780293624713309 
-8.819106159850795e-05 
0.0001448225952337342 
-1.835023057864364e-05 
7.342215016897302e-05 
-0.0003886295209795144 
-0.001614726416630401 
-0.0007078495649483139 
0 
0.008213600386912365 
0.001614726416630401 
-0.0007078495649483139 
-7.342215016897302e-05 
-0.0003886295209795144 
-0.0001448225952337342 
-1.835023057864364e-05 
-0.0001292355483113269 
6.166029537641676e-05 
-0.0005345361823601213 
0.0002075609461137833 
-0.003099249353289646 
0.003747592925654677 
0 
0.01978706083105154 
0.003099249353289646 
0.003747592925654677 
0.0005345361823601213 
0.0002075609461137833 
0.0001292355483113269 
6.166029537641676e-05 
0.0001821779701372755 
-0.0002121614191777494 
-0.0001538272517594239 
-0.001227838347704966 
-0.003589531565645218 
-0.001815092993270315 
0 
0.00384226955592771 
0.003589531565645218 
-0.001815092993270315 
0.0001538272517594239 
-0.001227838347704966 
-0.0001821779701372755 
-0.0002121614191777494 
5.799405308952181e-05 
-0.0003094395976290868 
-0.0008538302965327962 
-0.001188938510516238 
-0.004314481390358752 
0.001448307717562979 
0 
0.008511335228081464 
0.004314481390358752 
0.001448307717562979 
0.0008538302965327962 
-0.001188938510516238 
-5.799405308952181e-05 
-0.0003094395976290868 
-8.624223423971361e-05 
-5.408743076628831e-05 
-0.0003650040389844239 
-7.697196168105694e-05 
0.0007934135427889499 
-0.0003373004533559924 
0 
-0.008058101439938611 
-0.0007934135427889499 
-0.0003373004533559924 
0.0003650040389844239 
-7.697196168105694e-05 
8.624223423971361e-05 
-5.408743076628831e-05 
-4.864550308012023e-05 
-0.0002057451425120894 
-0.0005626145527451063 
-4.540975638472491e-05 
-0.001419416582090206 
0.001216594747072227 
0 
0.006077298648502674 
0.001419416582090206 
0.001216594747072227 
0.0005626145527451063 
-4.540975638472491e-05 
4.864550308012023e-05 
-0.0002057451425120894 
2.586716871969774e-07 
0.000104326956306511 
3.904562610284926e-05 
0.0001160482057088764 
-0.001989100860445953 
-0.0002641552806668758 
0 
0.01200875204532125 
0.001989100860445953 
-0.0002641552806668758 
-3.904562610284926e-05 
0.0001160482057088764 
-2.586716871969774e-07 
0.000104326956306511 
1.808203055080589e-05 
-0.0001408342326365036 
8.37742707480846e-05 
-0.0002392867189103108 
-0.001065120563538735 
-0.002291978276613582 
0 
0.001826946611139734 
0.001065120563538735 
-0.002291978276613582 
-8.37742707480846e-05 
-0.0002392867189103108 
-1.808203055080589e-05 
-0.0001408342326365036 
-8.290615315662975e-05 
9.835310806967459e-05 
-9.231169691465439e-05 
0.0007138347426872437 
0.0007229359139509074 
0.001745560067599941 
0 
0.006668198109203206 
-0.0007229359139509074 
0.001745560067599941 
9.231169691465439e-05 
0.0007138347426872437 
8.290615315662975e-05 
9.835310806967459e-05 
8.39892468524425e-05 
-5.072598963699352e-05 
0.0002307394140946753 
-0.0006767105156599307 
-0.000507526539787027 
-0.00300756987859816 
0 
-0.005080055447216329 
0.000507526539787027 
-0.00300756987859816 
-0.0002307394140946753 
-0.0006767105156599307 
-8.39892468524425e-05 
-5.072598963699352e-05 
-0.0001275928309245791 
-1.035605639601077e-05 
0.0002052339963204002 
0.0001757191692542653 
-0.001837384081060083 
-0.0006327932581038064 
0 
0.006115272356549811 
0.001837384081060083 
-0.0006327932581038064 
-0.0002052339963204002 
0.0001757191692542653 
0.0001275928309245791 
-1.035605639601077e-05 
-0.0001477643365961263 
6.918026470211657e-05 
-0.001057529741615151 
0.000966972883243657 
-0.001602959740405604 
0.008353043708214413 
0 
0.02170630153463207 
0.001602959740405604 
0.008353043708214413 
0.001057529741615151 
0.000966972883243657 
0.0001477643365961263 
6.918026470211657e-05 
4.923747876599376e-06 
8.467346560964493e-06 
0.000471890683836385 
-9.416417249772476e-05 
-9.920370976360881e-05 
-0.002660678975450535 
0 
-0.0001120347177887287 
9.920370976360881e-05 
-0.002660678975450535 
-0.000471890683836385 
-9.416417249772476e-05 
-4.923747876599376e-06 
8.467346560964493e-06 
0.0001069545939370573 
-0.000143425506557561 
0.0006384594422104904 
-0.0007353906879074661 
0.002194482459519327 
-0.007410146480660897 
0 
-0.01947542611316602 
-0.002194482459519327 
-0.007410146480660897 
-0.0006384594422104904 
-0.0007353906879074661 
-0.0001069545939370573 
-0.000143425506557561 
-4.88616980661639e-05 
9.209721178529164e-05 
0.000496652529678866 
0.0001652943977804062 
0.002773696672951618 
-0.003102738455332673 
0 
-0.009981986641970439 
-0.002773696672951618 
-0.003102738455332673 
-0.000496652529678866 
0.0001652943977804062 
4.88616980661639e-05 
9.209721178529164e-05 
9.393710246210359e-06 
-0.000117552763448976 
0.0001198763275430879 
-0.0002342223955147141 
0.001061638543296039 
-0.002545843261157984 
0 
-0.009659149307523389 
-0.001061638543296039 
-0.002545843261157984 
-0.0001198763275430879 
-0.0002342223955147141 
-9.393710246210359e-06 
-0.000117552763448976 
-6.02891119123446e-05 
0.0002635678008541661 
0.0002121419312629899 
0.001168907653241572 
0.002757152309407546 
0.003054443202049254 
0 
0.006226733064807463 
-0.002757152309407546 
0.003054443202049254 
-0.0002121419312629899 
0.001168907653241572 
6.02891119123446e-05 
0.0002635678008541661 
6.141340184113218e-05 
-0.0001404735269380703 
3.888199144596708e-05 
-0.0004879842140883195 
0.001714159902790761 
-0.002651570260734447 
0 
-0.01073997510567037 
-0.001714159902790761 
-0.002651570260734447 
-3.888199144596708e-05 
-0.0004879842140883195 
-6.141340184113218e-05 
-0.0001404735269380703 
3.638643936105601e-05 
-0.000145579287046822 
0.000115421775663396 
-0.0002946738058842855 
0.000443028215424635 
-0.004134996551797246 
0 
-0.001622713795127797 
-0.000443028215424635 
-0.004134996551797246 
-0.000115421775663396 
-0.0002946738058842855 
-3.638643936105601e-05 
-0.000145579287046822 
6.424702759276069e-05 
0.0001210743711608085 
0.0004019260891169452 
0.0002587692592142879 
0.002138465999562558 
-0.000576107608561982 
0 
-0.002801110669287879 
-0.002138465999562558 
-0.000576107608561982 
-0.0004019260891169452 
0.0002587692592142879 
-6.424702759276069e-05 
0.0001210743711608085 
-0.000259809118973538 
0.000292599742707525 
-0.0007495068856114997 
0.001894649869134835 
0.0007181734753732548 
0.008483190708013982 
0 
0.020176916470128 
-0.0007181734753732548 
0.008483190708013982 
0.0007495068856114997 
0.001894649869134835 
0.000259809118973538 
0.000292599742707525 
0.0001313257351288861 
-8.536111879584446e-05 
0.0005913224307075168 
-0.0006057608493911983 
0.003014908093500468 
-0.005787866460055312 
0 
-0.02115590072155786 
-0.003014908093500468 
-0.005787866460055312 
-0.0005913224307075168 
-0.0006057608493911983 
-0.0001313257351288861 
-8.536111879584446e-05 
8.98442171046171e-05 
6.085036907398211e-05 
0.0009417871269049173 
0.0001863773365604223 
0.00524188427851861 
-0.005624452302292081 
0 
-0.01894170323863602 
-0.00524188427851861 
-0.005624452302292081 
-0.0009417871269049173 
0.0001863773365604223 
-8.98442171046171e-05 
6.085036907398211e-05 
-1.413527598307268e-05 
-1.384663487570245e-05 
0.0003870880885322347 
0.000281520537680145 
0.003914168539623223 
-0.002269899436559522 
0 
-0.01286271831423981 
-0.003914168539623223 
-0.002269899436559522 
-0.0003870880885322347 
0.000281520537680145 
1.413527598307268e-05 
-1.384663487570245e-05 
0.0002006994975346846 
-0.0001315725455978588 
0.0006693507048223041 
-0.0009825178890905675 
0.001033636634525063 
-0.006387751334127562 
0 
-0.01516198903100753 
-0.001033636634525063 
-0.006387751334127562 
-0.0006693507048223041 
-0.0009825178890905675 
-0.0002006994975346846 
-0.0001315725455978588 
-0.0001979777728581089 
-3.848376762157102e-05 
-0.0002249194862338139 
0.000835008982800792 
0.003249644820887964 
0.0004879259944988338 
0 
-0.00711185286264756 
-0.003249644820887964 
0.0004879259944988338 
0.0002249194862338139 
0.000835008982800792 
0.0001979777728581089 
-3.848376762157102e-05 
0.0001558297960015391 
-0.0001125285236761261 
0.0004753227341705405 
-0.0007306486673850091 
0.0007949076914670856 
-0.004971041535184862 
0 
-0.009652474238061464 
-0.0007949076914670856 
-0.004971041535184862 
-0.0004753227341705405 
-0.0007306486673850091 
-0.0001558297960015391 
-0.0001125285236761261 
-1.974650619965235e-05 
-0.0001780293920591519 
-0.0009093693601331502 
-0.0003312219767527524 
0.0001854598337490717 
0.001449527968012003 
0 
-0.001018098087586798 
-0.0001854598337490717 
0.001449527968012003 
0.0009093693601331502 
-0.0003312219767527524 
1.974650619965235e-05 
-0.0001780293920591519 
-0.0001626881167024122 
0.000368453131125939 
0.0007008014382137635 
0.001512242512034226 
0.001567415847659801 
0.003197210745481292 
0 
0.009343399647145865 
-0.001567415847659801 
0.003197210745481292 
-0.0007008014382137635 
0.001512242512034226 
0.0001626881167024122 
0.000368453131125939 
-2.233502869592217e-05 
0.0001447752290491299 
-0.0004597044497111953 
0.001036652889255614 
0.0009982581108204083 
0.005212909745897818 
0 
0.01459931895090033 
-0.0009982581108204083 
0.005212909745897818 
0.0004597044497111953 
0.001036652889255614 
2.233502869592217e-05 
0.0001447752290491299 
0.0001182235840693403 
-7.165159763863638e-05 
0.0005629869234357712 
-0.0005966666784098497 
0.0005171136996574319 
-0.004511040624056909 
0 
-0.007214949201520643 
-0.0005171136996574319 
-0.004511040624056909 
-0.0005629869234357712 
-0.0005966666784098497 
-0.0001182235840693403 
-7.165159763863638e-05 
6.430483749838866e-05 
3.023752600471797e-05 
0.0002659404612057012 
-0.0003443541807847653 
0.002008025867693605 
-0.00320310611669108 
0 
-0.00987987253011492 
-0.002008025867693605 
-0.00320310611669108 
-0.0002659404612057012 
-0.0003443541807847653 
-6.430483749838866e-05 
3.023752600471797e-05 
0.0001284714685635763 
-9.385078435482453e-05 
-0.0002857467450650985 
-0.0009510517590218921 
-0.001442551518604194 
0.0001050179648124301 
0 
-0.0004824664424058685 
0.001442551518604194 
0.0001050179648124301 
0.0002857467450650985 
-0.0009510517590218921 
-0.0001284714685635763 
-9.385078435482453e-05 
0.000139933584524368 
8.413316886764582e-05 
0.0006887220892911842 
-0.0003579852560921196 
0.0006402099646055628 
-0.001181131700465674 
0 
-0.004382627223278094 
-0.0006402099646055628 
-0.001181131700465674 
-0.0006887220892911842 
-0.0003579852560921196 
-0.000139933584524368 
8.413316886764582e-05 
0.000157370420535852 
-0.0001052249224278372 
0.000437945460747283 
-0.0004688240812880369 
-0.0003983359045522051 
-0.004317573098291264 
0 
-0.001839176259745312 
0.0003983359045522051 
-0.004317573098291264 
-0.000437945460747283 
-0.0004688240812880369 
-0.000157370420535852 
-0.0001052249224278372 
-6.642432331859917e-05 
-0.0001022563868185419 
7.275298802452626e-05 
0.0002941582168014023 
0.002980718135597997 
-0.003603665317741638 
0 
-0.01443493115199378 
-0.002980718135597997 
-0.003603665317741638 
-7.275298802452626e-05 
0.0002941582168014023 
6.642432331859917e-05 
-0.0001022563868185419 
0.0001156199580485842 
-0.0001683423161476654 
-0.0005071705750537815 
-0.0004354850299344195 
0.0006793426270293043 
8.515661624185577e-05 
0 
-0.003316759430737855 
-0.0006793426270293043 
8.515661624185577e-05 
0.0005071705750537815 
-0.0004354850299344195 
-0.0001156199580485842 
-0.0001683423161476654 
-3.306064731419714e-05 
0.0001273420551012011 
-0.0002003742500137595 
0.000687542462411577 
0.00203216159594712 
0.002580072206210708 
0 
0.001395056020411817 
-0.00203216159594712 
0.002580072206210708 
0.0002003742500137595 
0.000687542462411577 
3.306064731419714e-05 
0.0001273420551012011 
-0.0001350632822018963 
-1.018256966257648e-05 
-6.560512070786249e-05 
0.0007103980847279325 
0.002720950726043886 
0.000515637081416437 
0 
-0.004680464993850094 
-0.002720950726043886 
0.000515637081416437 
6.560512070786249e-05 
0.0007103980847279325 
0.0001350632822018963 
-1.018256966257648e-05 
0.0001536640227001984 
5.013791724183459e-06 
0.0006386588362535426 
-0.0004106756101595774 
0.001982562500448117 
-0.003752530525581085 
0 
-0.01096581980842095 
-0.001982562500448117 
-0.003752530525581085 
-0.0006386588362535426 
-0.0004106756101595774 
-0.0001536640227001984 
5.013791724183459e-06 
0.0001292167731284001 
-0.0001506988119254083 
0.0002407604530717159 
-0.0007960763393397252 
0.0002731032430279038 
-0.003547885480734992 
0 
-0.01250424661726134 
-0.0002731032430279038 
-0.003547885480734992 
-0.0002407604530717159 
-0.0007960763393397252 
-0.0001292167731284001 
-0.0001506988119254083 
-0.000109933269775247 
3.774248881048406e-05 
-0.0001809095860955984 
0.001012974188287807 
0.002641280921788406 
0.001357818462177744 
0 
0.00341841197746625 
-0.002641280921788406 
0.001357818462177744 
0.0001809095860955984 
0.001012974188287807 
0.000109933269775247 
3.774248881048406e-05 
-0.0001534591911997133 
-7.023324254846451e-05 
-1.957487273891766e-05 
0.0003043982771611954 
0.0004918074783628687 
-0.0008880279808983073 
0 
0.0008940185988044315 
-0.0004918074783628687 
-0.0008880279808983073 
1.957487273891766e-05 
0.0003043982771611954 
0.0001534591911997133 
-7.023324254846451e-05 
-2.698215677076801e-05 
-2.375741260376576e-05 
-0.0001468288938498331 
-0.0001439985913377328 
-0.0004180055056945518 
3.950043012332095e-06 
0 
0.00235982627051628 
0.0004180055056945518 
3.950043012332095e-06 
0.0001468288938498331 
-0.0001439985913377328 
2.698215677076801e-05 
-2.375741260376576e-05 
0.0001375948466342528 
-0.000184608561323916 
-2.653443371704852e-05 
-0.0005429034801775475 
-0.0004158843175041885 
-0.00308501730064311 
0 
-0.002911598236714029 
0.0004158843175041885 
-0.00308501730064311 
2.653443371704852e-05 
-0.0005429034801775475 
-0.0001375948466342528 
-0.000184608561323916 
-6.347587022669773e-05 
-3.322846722094782e-05 
-0.0003477954191738543 
0.0001430893733699038 
0.0002119090953724279 
0.001811568711337424 
0 
0.0006379609860147047 
-0.0002119090953724279 
0.001811568711337424 
0.0003477954191738543 
0.0001430893733699038 
6.347587022669773e-05 
-3.322846722094782e-05 
-9.58422459660085e-05 
0.0001121922989566487 
0.00046858146722436 
0.0007156114261681202 
0.003710540471028334 
-0.001786873396091086 
0 
-0.008635249677045133 
-0.003710540471028334 
-0.001786873396091086 
-0.00046858146722436 
0.0007156114261681202 
9.58422459660085e-05 
0.0001121922989566487 
-9.871756920469607e-05 
7.12875212396622e-05 
-0.0004621310022601886 
0.0009732709999766878 
0.00145922464258952 
0.003426725095292509 
0 
0.008530851300928965 
-0.00145922464258952 
0.003426725095292509 
0.0004621310022601886 
0.0009732709999766878 
9.871756920469607e-05 
7.12875212396622e-05 
1.41575828269696e-05 
-1.38390281158834e-05 
0.0001606366055539508 
-7.753197971496788e-05 
0.003118816348196262 
-0.002841342679129555 
0 
-0.009532589233361187 
-0.003118816348196262 
-0.002841342679129555 
-0.0001606366055539508 
-7.753197971496788e-05 
-1.41575828269696e-05 
-1.38390281158834e-05 
0.0001210609632063015 
-9.513182080726729e-06 
0.0006192444445958088 
-0.0006032583908045584 
-2.917504343075937e-05 
-0.004268102434655363 
0 
-0.009351576697520255 
2.917504343075937e-05 
-0.004268102434655363 
-0.0006192444445958088 
-0.0006032583908045584 
-0.0001210609632063015 
-9.513182080726729e-06 
-9.074593679880601e-05 
-9.406106741365478e-05 
-8.653579467983764e-05 
0.0001058497337437334 
-0.001423019666227402 
0.001042618419795476 
0 
0.009683832800622785 
0.001423019666227402 
0.001042618419795476 
8.653579467983764e-05 
0.0001058497337437334 
9.074593679880601e-05 
-9.406106741365478e-05 
-8.225429853410632e-05 
-0.0001312974672239232 
-0.0002327930128206603 
-0.000368798272122485 
-0.001763467197674813 
-0.0006218650287946202 
0 
0.003021563807823985 
0.001763467197674813 
-0.0006218650287946202 
0.0002327930128206603 
-0.000368798272122485 
8.225429853410632e-05 
-0.0001312974672239232 
-9.596466071836474e-05 
-9.510984939359925e-05 
-0.0004231452784486346 
0.0003735872854293808 
0.001469601863259012 
0.002018556687445031 
0 
-0.002955901395432047 
-0.001469601863259012 
0.002018556687445031 
0.0004231452784486346 
0.0003735872854293808 
9.596466071836474e-05 
-9.510984939359925e-05 
0.0001190320685958629 
-3.847894345442637e-05 
0.0005242512355671469 
-0.000122662068029944 
0.003861706324296722 
-0.004321279831811901 
0 
-0.01921853461646013 
-0.003861706324296722 
-0.004321279831811901 
-0.0005242512355671469 
-0.000122662068029944 
-0.0001190320685958629 
-3.847894345442637e-05 
0.0001051521252341928 
-1.715848906971959e-05 
0.0004029849080479922 
-0.0004071548325258228 
-0.0004574902379330673 
-0.002725866898349021 
0 
-0.0009396383581241247 
0.0004574902379330673 
-0.002725866898349021 
-0.0004029849080479922 
-0.0004071548325258228 
-0.0001051521252341928 
-1.715848906971959e-05 
0.0001744849150876456 
7.24815801377536e-05 
0.0006387547701655432 
-0.0003708078192622253 
-0.0001359011987979129 
-0.001703157974177474 
0 
0.002742760455246292 
0.0001359011987979129 
-0.001703157974177474 
-0.0006387547701655432 
-0.0003708078192622253 
-0.0001744849150876456 
7.24815801377536e-05 
3.228859160884154e-05 
-2.056096718770236e-05 
0.0002066727721461806 
-0.0001450939854964114 
-0.0009550409384197857 
5.963966842787027e-05 
0 
0.004490319669340443 
0.0009550409384197857 
5.963966842787027e-05 
-0.0002066727721461806 
-0.0001450939854964114 
-3.228859160884154e-05 
-2.056096718770236e-05 
-5.565678805485949e-05 
-0.0001945018759054042 
-0.0001946016297326804 
-8.431082365546966e-05 
-0.0001572128244218652 
-0.001814737903943151 
0 
-1.111402635411567e-05 
0.0001572128244218652 
-0.001814737903943151 
0.0001946016297326804 
-8.431082365546966e-05 
5.565678805485949e-05 
-0.0001945018759054042 
-0.0001474666671793361 
5.396617551856077e-05 
4.633143822730515e-05 
0.000589194940737216 
0.001698827565241775 
0.0001186436818634276 
0 
-0.0007422313371680961 
-0.001698827565241775 
0.0001186436818634276 
-4.633143822730515e-05 
0.000589194940737216 
0.0001474666671793361 
5.396617551856077e-05 
-0.0002079702583814095 
-1.297920472199889e-05 
-0.001032372937406796 
0.0007845479212505369 
-5.765723403564549e-05 
0.004754681597351202 
0 
0.01457161376140679 
5.765723403564549e-05 
0.004754681597351202 
0.001032372937406796 
0.0007845479212505369 
0.0002079702583814095 
-1.297920472199889e-05 
4.642916010651087e-05 
-0.0001829994082207762 
-9.640225103061999e-05 
-0.0009858036736250075 
-0.002750533371633561 
-0.003355702995586466 
0 
0.002985194679982144 
0.002750533371633561 
-0.003355702995586466 
9.640225103061999e-05 
-0.0009858036736250075 
-4.642916010651087e-05 
-0.0001829994082207762 
-2.747093563566828e-05 
6.93873733563266e-05 
0.0001362502412484991 
5.912605325955356e-05 
-0.0007540482452873118 
0.0002356154929385125 
0 
0.01032215663537587 
0.0007540482452873118 
0.0002356154929385125 
-0.0001362502412484991 
5.912605325955356e-05 
2.747093563566828e-05 
6.93873733563266e-05 
0.0001376674404475843 
-0.0001257305603578918 
0.0007989117136294629 
-0.001115834048280712 
-0.0003363977125285195 
-0.007411220072188181 
0 
-0.009616238878667036 
0.0003363977125285195 
-0.007411220072188181 
-0.0007989117136294629 
-0.001115834048280712 
-0.0001376674404475843 
-0.0001257305603578918 
-1.800713805106944e-05 
5.060358459930958e-05 
0.0006966225088976943 
0.0003762908973676642 
0.003798278563570123 
-0.004868962914891861 
0 
-0.008892214636085123 
-0.003798278563570123 
-0.004868962914891861 
-0.0006966225088976943 
0.0003762908973676642 
1.800713805106944e-05 
5.060358459930958e-05 
-0.0001468710388002382 
4.374538245761246e-05 
-0.0004277824393901959 
8.712398258816571e-05 
-0.00104228996383854 
0.002802665546614594 
0 
0.007288983440956115 
0.00104228996383854 
0.002802665546614594 
0.0004277824393901959 
8.712398258816571e-05 
0.0001468710388002382 
4.374538245761246e-05 
3.35247802418797e-05 
-0.0001368520348508633 
0.0001415893351844852 
-0.0007932871171870847 
-0.001658084343789247 
-0.003495421030138467 
0 
-0.001108634718931783 
0.001658084343789247 
-0.003495421030138467 
-0.0001415893351844852 
-0.0007932871171870847 
-3.35247802418797e-05 
-0.0001368520348508633 
0.0002498974941044013 
0.0001159755557500609 
0.001157670204010505 
-0.0006904918841171545 
-1.135195516279674e-05 
-0.005053939530694591 
0 
-0.002652539417197301 
1.135195516279674e-05 
-0.005053939530694591 
-0.001157670204010505 
-0.0006904918841171545 
-0.0002498974941044013 
0.0001159755557500609 
7.621780557100607e-05 
4.972696835218269e-05 
0.000243469918705017 
-0.0002907385836515723 
-0.0004209820101603822 
-0.0004358426084827357 
0 
0.003754152724262819 
0.0004209820101603822 
-0.0004358426084827357 
-0.000243469918705017 
-0.0002907385836515723 
-7.621780557100607e-05 
4.972696835218269e-05 
-0.0001272258186912243 
2.419927582463483e-05 
-0.0004067636887016654 
0.0004368178542797963 
-0.0002365162928849532 
0.002493736381255425 
0 
0.00867048742077794 
0.0002365162928849532 
0.002493736381255425 
0.0004067636887016654 
0.0004368178542797963 
0.0001272258186912243 
2.419927582463483e-05 
-9.624243516732279e-05 
3.096486899508394e-05 
0.0002482913658345332 
-0.0001162829739751829 
-0.002029117843786071 
-0.001440755947799955 
0 
0.007225332385327646 
0.002029117843786071 
-0.001440755947799955 
-0.0002482913658345332 
-0.0001162829739751829 
9.624243516732279e-05 
3.096486899508394e-05 
-0.0001077699988571734 
3.435236571183477e-05 
0.0002165077477497832 
0.0002735781789761906 
-0.001643413116328657 
-0.0007967883729942272 
0 
0.008989763919246722 
0.001643413116328657 
-0.0007967883729942272 
-0.0002165077477497832 
0.0002735781789761906 
0.0001077699988571734 
3.435236571183477e-05 
-5.717375212673767e-05 
0.0001714056395884209 
0.0006286708521868455 
0.0005823594964961174 
0.001321468297070856 
-0.0009441338202294076 
0 
0.001199223345156503 
-0.001321468297070856 
-0.0009441338202294076 
-0.0006286708521868455 
0.0005823594964961174 
5.717375212673767e-05 
0.0001714056395884209 
3.835895504262959e-05 
-3.406767174427774e-05 
0.0006113125204440717 
-0.0004794719070111177 
9.102209244251408e-05 
-0.004775848180285387 
0 
-0.006678328657505539 
-9.102209244251408e-05 
-0.004775848180285387 
-0.0006113125204440717 
-0.0004794719070111177 
-3.835895504262959e-05 
-3.406767174427774e-05 
-5.250571517553237e-05 
8.296259150716031e-05 
-0.0002197413478198648 
0.0004916649385099575 
0.0003703080427142667 
0.001202502590787374 
0 
0.005391478901075913 
-0.0003703080427142667 
0.001202502590787374 
0.0002197413478198648 
0.0004916649385099575 
5.250571517553237e-05 
8.296259150716031e-05 
-3.287087321803937e-05 
0.0001483293124768872 
0.0006781664063991996 
-8.201938180622092e-05 
0.0001177482524276823 
-0.002464282836167511 
0 
-0.003332354233932848 
-0.0001177482524276823 
-0.002464282836167511 
-0.0006781664063991996 
-8.201938180622092e-05 
3.287087321803937e-05 
0.0001483293124768872 
-6.525905474829497e-05 
-0.0001358031118451107 
-0.0006699630989634315 
0.0002739486577441518 
-9.439032505738222e-05 
0.001675048734901663 
0 
0.003528717818684917 
9.439032505738222e-05 
0.001675048734901663 
0.0006699630989634315 
0.0002739486577441518 
6.525905474829497e-05 
-0.0001358031118451107 
-6.27742144726476e-06 
-3.402285015906968e-05 
0.0003539819317538552 
-0.0003852878637801579 
0.001380216466111928 
-0.003181401121056564 
0 
-0.0158899030677314 
-0.001380216466111928 
-0.003181401121056564 
-0.0003539819317538552 
-0.0003852878637801579 
6.27742144726476e-06 
-3.402285015906968e-05 
0.0001174716571135238 
-0.0001292759247290557 
6.97897665259507e-05 
-0.0005911711836297121 
-0.00168431490147541 
-0.001666777540139072 
0 
-0.0001881111892384427 
0.00168431490147541 
-0.001666777540139072 
-6.97897665259507e-05 
-0.0005911711836297121 
-0.0001174716571135238 
-0.0001292759247290557 
2.934072151115337e-05 
-0.0001844106139485821 
-0.0002195191190154401 
-0.0004963468003905062 
-0.0007994999398970179 
-0.001270604323170246 
0 
-0.003943657009207804 
0.0007994999398970179 
-0.001270604323170246 
0.0002195191190154401 
-0.0004963468003905062 
-2.934072151115337e-05 
-0.0001844106139485821 
-1.09937245344867e-05 
5.828007995330462e-05 
0.0002112647567893553 
4.332367473150457e-05 
0.0002787862052751257 
-2.596164041819601e-05 
0 
-0.001295008142125069 
-0.0002787862052751257 
-2.596164041819601e-05 
-0.0002112647567893553 
4.332367473150457e-05 
1.09937245344867e-05 
5.828007995330462e-05 
5.195795358329611e-05 
0.0001165341841337706 
0.0003116197192668757 
6.438079097021683e-05 
0.0004632152199554332 
0.000675019183897258 
0 
-0.002845088291498128 
-0.0004632152199554332 
0.000675019183897258 
-0.0003116197192668757 
6.438079097021683e-05 
-5.195795358329611e-05 
0.0001165341841337706 
4.281649018565424e-07 
-7.49648009789937e-05 
-8.514153228944787e-05 
-0.0006361038061785437 
-0.001612852494263958 
-0.0001359814450078217 
0 
-0.001688795468159569 
0.001612852494263958 
-0.0001359814450078217 
8.514153228944787e-05 
-0.0006361038061785437 
-4.281649018565424e-07 
-7.49648009789937e-05 
-2.67551125784948e-05 
2.246206477356738e-05 
-0.0003374841685138448 
-0.0001372301227969734 
-0.001082403299695922 
0.002357151574683947 
0 
0.00108501989226388 
0.001082403299695922 
0.002357151574683947 
0.0003374841685138448 
-0.0001372301227969734 
2.67551125784948e-05 
2.246206477356738e-05 
0.000162934871440639 
-5.000765926087839e-06 
0.0005009863865492605 
-0.0003551067898491597 
-0.000445003041045097 
-0.002152928520874947 
0 
0.003145054579398393 
0.000445003041045097 
-0.002152928520874947 
-0.0005009863865492605 
-0.0003551067898491597 
-0.000162934871440639 
-5.000765926087839e-06 
0.0001337973931621867 
5.445479278895051e-05 
0.001097989594522746 
-9.955928051915669e-05 
0.005350166017323589 
-0.007039371439090222 
0 
-0.02253273094679499 
-0.005350166017323589 
-0.007039371439090222 
-0.001097989594522746 
-9.955928051915669e-05 
-0.0001337973931621867 
5.445479278895051e-05 
-6.161871538228282e-05 
4.679471241983206e-05 
0.0006082703883276405 
0.0005566491016560884 
0.004589939889698869 
-0.003115241950817994 
0 
-0.01690606915503823 
-0.004589939889698869 
-0.003115241950817994 
-0.0006082703883276405 
0.0005566491016560884 
6.161871538228282e-05 
4.679471241983206e-05 
-2.981778058221465e-05 
-4.14662053522564e-07 
-0.0004579022430763489 
0.0002288991758001469 
0.0003349296880353092 
0.0008972837795303355 
0 
0.006326227834168689 
-0.0003349296880353092 
0.0008972837795303355 
0.0004579022430763489 
0.0002288991758001469 
2.981778058221465e-05 
-4.14662053522564e-07 
-3.407652287376997e-05 
0.0001616549445412844 
1.400813370209634e-05 
0.0009027793827984383 
0.001319128420530853 
0.003771890341967382 
0 
0.01007203551130255 
-0.001319128420530853 
0.003771890341967382 
-1.400813370209634e-05 
0.0009027793827984383 
3.407652287376997e-05 
0.0001616549445412844 
-0.0001831782872115157 
0.0001094491768289271 
0.000126021866892678 
0.001128593789802285 
0.0008341852742425488 
0.0002775307030783643 
0 
0.01040135248010158 
-0.0008341852742425488 
0.0002775307030783643 
-0.000126021866892678 
0.001128593789802285 
0.0001831782872115157 
0.0001094491768289271 
9.221902134096611e-05 
-0.0001126028173695805 
0.0008636345933184269 
-0.000716534023121713 
0.001556260381812226 
-0.006142190672044444 
0 
-0.01612795658746871 
-0.001556260381812226 
-0.006142190672044444 
-0.0008636345933184269 
-0.000716534023121713 
-9.221902134096611e-05 
-0.0001126028173695805 
2.371355863372458e-05 
-0.0001133712970268639 
-3.351558482355585e-05 
0.0003845539409204727 
0.002661640240535516 
-0.002014894717125713 
0 
-0.001994568044709228 
-0.002661640240535516 
-0.002014894717125713 
3.351558482355585e-05 
0.0003845539409204727 
-2.371355863372458e-05 
-0.0001133712970268639 
9.278661854891969e-05 
8.316991673811659e-05 
0.0009541152476126689 
0.0002768983208093101 
0.003858583550136722 
-0.003993655542581114 
0 
-0.008958254315343276 
-0.003858583550136722 
-0.003993655542581114 
-0.0009541152476126689 
0.0002768983208093101 
-9.278661854891969e-05 
8.316991673811659e-05 
-0.0002101908355291166 
-0.0001465749819505967 
-0.001143905860031078 
0.0004673745147249025 
-0.002347360566349164 
0.004293328215652592 
0 
0.01956767866359857 
0.002347360566349164 
0.004293328215652592 
0.001143905860031078 
0.0004673745147249025 
0.0002101908355291166 
-0.0001465749819505967 
0.0001459140839244178 
0.0001465230620909695 
0.0013795928566597 
-0.0001899285208962776 
0.003430740712282374 
-0.00613596480434412 
0 
-0.01684996272723146 
-0.003430740712282374 
-0.00613596480434412 
-0.0013795928566597 
-0.0001899285208962776 
-0.0001459140839244178 
0.0001465230620909695 
1.54896434750308e-05 
-6.674632974488518e-05 
0.0004081220423449432 
-5.667080170412636e-05 
0.003272101652751897 
-0.004973348436715571 
0 
-0.01252587075924589 
-0.003272101652751897 
-0.004973348436715571 
-0.0004081220423449432 
-5.667080170412636e-05 
-1.54896434750308e-05 
-6.674632974488518e-05 
4.787463413184333e-05 
-8.455256375407207e-05 
-0.000296502296077251 
-0.0004217472842955098 
-0.001216041342132621 
0.0002251013331855713 
0 
0.003605625380015754 
0.001216041342132621 
0.0002251013331855713 
0.000296502296077251 
-0.0004217472842955098 
-4.787463413184333e-05 
-8.455256375407207e-05 
-0.0002073616402486104 
0.000257943601834495 
-1.453678412585099e-05 
0.001615589075770987 
0.002093460668776031 
0.003642216628596286 
0 
0.009463776435742519 
-0.002093460668776031 
0.003642216628596286 
1.453678412585099e-05 
0.001615589075770987 
0.0002073616402486104 
0.000257943601834495 
-1.619577819268863e-05 
3.490609128882656e-06 
-0.0001947755145924761 
-0.000295917684886913 
-0.0003123837668905433 
0.0002579041643503335 
0 
0.003240470838669324 
0.0003123837668905433 
0.0002579041643503335 
0.0001947755145924761 
-0.000295917684886913 
1.619577819268863e-05 
3.490609128882656e-06 
2.832002668681437e-05 
-8.665176398956441e-05 
0.0003400445361137821 
-0.0006149471970840729 
0.001256786393938308 
-0.004438320589494084 
0 
-0.009621546848952282 
-0.001256786393938308 
-0.004438320589494084 
-0.0003400445361137821 
-0.0006149471970840729 
-2.832002668681437e-05 
-8.665176398956441e-05 
0.0001622318756873955 
-1.918607157072443e-05 
0.0004155033773693015 
-0.0006250324619045017 
0.001229539437147217 
-0.003371470109782871 
0 
-0.006580352294361065 
-0.001229539437147217 
-0.003371470109782871 
-0.0004155033773693015 
-0.0006250324619045017 
-0.0001622318756873955 
-1.918607157072443e-05 
-6.252318804380447e-05 
7.35338296588219e-05 
-0.0001331532249418508 
7.437651347665375e-05 
-0.0006974652358324924 
0.0008960235035513106 
0 
0.007119334132405001 
0.0006974652358324924 
0.0008960235035513106 
0.0001331532249418508 
7.437651347665375e-05 
6.252318804380447e-05 
7.35338296588219e-05 
1.203870882376037e-05 
-2.0993763766327e-05 
0.0001423498009219205 
8.565922652888482e-05 
0.0004902045560287553 
-0.001557673698780957 
0 
0.002450270571132048 
-0.0004902045560287553 
-0.001557673698780957 
-0.0001423498009219205 
8.565922652888482e-05 
-1.203870882376037e-05 
-2.0993763766327e-05 
0.0001309258329596354 
0.0001746454234448497 
0.0009077702347667036 
-0.0004818031358847154 
0.001650917837670557 
-0.003926931772781989 
0 
-0.005435117399594786 
-0.001650917837670557 
-0.003926931772781989 
-0.0009077702347667036 
-0.0004818031358847154 
-0.0001309258329596354 
0.0001746454234448497 
1.701834830625687e-05 
-0.000103140907771515 
0.0001080872673103315 
-1.20808883473155e-05 
0.001972421132494539 
-0.002499755931624402 
0 
-0.009151688373669236 
-0.001972421132494539 
-0.002499755931624402 
-0.0001080872673103315 
-1.20808883473155e-05 
-1.701834830625687e-05 
-0.000103140907771515 
-3.612651053914596e-05 
6.615245561421827e-05 
1.277125469462844e-05 
0.0005551742249552069 
0.001479902098387179 
0.0001283981344839611 
0 
0.003725474845075231 
-0.001479902098387179 
0.0001283981344839611 
-1.277125469462844e-05 
0.0005551742249552069 
3.612651053914596e-05 
6.615245561421827e-05 
0.0001116348457829297 
-5.417777723646007e-05 
0.0004087204537861474 
-0.0001866542974661048 
0.003150861555357159 
-0.003331283011858503 
0 
-0.01414038394013118 
-0.003150861555357159 
-0.003331283011858503 
-0.0004087204537861474 
-0.0001866542974661048 
-0.0001116348457829297 
-5.417777723646007e-05 
9.87684114246318e-05 
4.044038229219196e-05 
0.0005292634326675142 
-0.0006221568136710005 
0.0002975246219509811 
-0.002379663577986503 
0 
-0.006298392393111679 
-0.0002975246219509811 
-0.002379663577986503 
-0.0005292634326675142 
-0.0006221568136710005 
-9.87684114246318e-05 
4.044038229219196e-05 
0.0001103344346131113 
-5.368609590046897e-05 
0.0001480388074771572 
-0.0002260829085588398 
0.001963787932864663 
-0.002854367029017074 
0 
-0.006822638900880489 
-0.001963787932864663 
-0.002854367029017074 
-0.0001480388074771572 
-0.0002260829085588398 
-0.0001103344346131113 
-5.368609590046897e-05 
1.882358800467663e-05 
9.428470405267732e-05 
0.0005377742829153544 
0.000305057227909636 
0.002299795580997877 
-0.002294558024912552 
0 
-0.001033193861433168 
-0.002299795580997877 
-0.002294558024912552 
-0.0005377742829153544 
0.000305057227909636 
-1.882358800467663e-05 
9.428470405267732e-05 
-2.717779300855205e-05 
0.0003376617907435128 
0.0007748806759139575 
0.001031110356352546 
0.002029599555158552 
0.0005323468001225499 
0 
0.009728458739320817 
-0.002029599555158552 
0.0005323468001225499 
-0.0007748806759139575 
0.001031110356352546 
2.717779300855205e-05 
0.0003376617907435128 
-6.573504859077685e-05 
0.0001353030836005345 
0.0006554765738035844 
0.0003689648076622427 
0.000783213264740813 
-0.002313378828531673 
0 
0.001714513010084288 
-0.000783213264740813 
-0.002313378828531673 
-0.0006554765738035844 
0.0003689648076622427 
6.573504859077685e-05 
0.0001353030836005345 
4.163990722106871e-05 
-0.0001978213761018031 
-0.0001501876703278958 
-0.0003687549486229836 
0.00158943945155545 
-0.001144148809112885 
0 
-0.008289556083452561 
-0.00158943945155545 
-0.001144148809112885 
0.0001501876703278958 
-0.0003687549486229836 
-4.163990722106871e-05 
-0.0001978213761018031 
4.100650024172752e-05 
5.69627435126423e-05 
0.0003336560867937633 
-0.0002804549787560326 
-0.0008427653308437842 
-0.0004853083566855985 
0 
-0.002512255066698913 
0.0008427653308437842 
-0.0004853083566855985 
-0.0003336560867937633 
-0.0002804549787560326 
-4.100650024172752e-05 
5.69627435126423e-05 
-0.0001467752707696043 
-5.327495018869165e-05 
-0.0001981690966176872 
0.0006252061843211053 
0.0004900937690171122 
0.0002922300087677302 
0 
0.005259634750808957 
-0.0004900937690171122 
0.0002922300087677302 
0.0001981690966176872 
0.0006252061843211053 
0.0001467752707696043 
-5.327495018869165e-05 
0.0001027481228090102 
-0.0002162085324196764 
0.0002467553220074194 
-0.001174881203124626 
0.0006628452093457826 
-0.005920641254931027 
0 
-0.02036690066617535 
-0.0006628452093457826 
-0.005920641254931027 
-0.0002467553220074194 
-0.001174881203124626 
-0.0001027481228090102 
-0.0002162085324196764 
0.0001084775245057976 
4.423471299849936e-05 
0.0006833030355724895 
-0.0006736433289936468 
0.000396302877796434 
-0.00450454168772706 
0 
-0.007125853387440834 
-0.000396302877796434 
-0.00450454168772706 
-0.0006833030355724895 
-0.0006736433289936468 
-0.0001084775245057976 
4.423471299849936e-05 
-5.385484258776111e-05 
-4.786030401386571e-05 
9.364165057636108e-06 
-0.0002327569076361029 
0.001016994874872208 
-0.001139901421576049 
0 
-0.006344957551666199 
-0.001016994874872208 
-0.001139901421576049 
-9.364165057636108e-06 
-0.0002327569076361029 
5.385484258776111e-05 
-4.786030401386571e-05 
-0.0001127986147514435 
8.987543843903626e-05 
0.0002341758585965457 
0.0004104294901742723 
0.0008457825254400331 
0.0003289680595454774 
0 
0.00139340971521765 
-0.0008457825254400331 
0.0003289680595454774 
-0.0002341758585965457 
0.0004104294901742723 
0.0001127986147514435 
8.987543843903626e-05 
2.875326868367736e-05 
0.0001405698638585256 
-0.0005556858731533541 
0.0004242650666472722 
-0.001725166506903143 
0.005396481104746702 
0 
0.02062258909222112 
0.001725166506903143 
0.005396481104746702 
0.0005556858731533541 
0.0004242650666472722 
-2.875326868367736e-05 
0.0001405698638585256 
-3.105575211536106e-06 
1.684179203991443e-05 
-0.0001700117315692586 
1.636424428743771e-05 
-0.0008825533388756677 
0.001333815178739641 
0 
0.008550108008681228 
0.0008825533388756677 
0.001333815178739641 
0.0001700117315692586 
1.636424428743771e-05 
3.105575211536106e-06 
1.684179203991443e-05 
-4.245368599573021e-06 
2.370024860421024e-05 
0.0001689795263473603 
-0.0001532907588272702 
0.001400155926584209 
-0.001887092464299582 
0 
-0.006625635315635384 
-0.001400155926584209 
-0.001887092464299582 
-0.0001689795263473603 
-0.0001532907588272702 
4.245368599573021e-06 
2.370024860421024e-05 
-2.802534210210549e-05 
5.505999691689196e-05 
0.000293788794352553 
0.0001689358841247292 
0.0009863105350449313 
-0.002208967567455997 
0 
-0.002815411176145808 
-0.0009863105350449313 
-0.002208967567455997 
-0.000293788794352553 
0.0001689358841247292 
2.802534210210549e-05 
5.505999691689196e-05 
5.253981990683122e-05 
-1.219373660627233e-05 
0.0004817795568844446 
-0.0002440900165963827 
-0.001907372976013243 
-0.002132877295828323 
0 
0.008917192563785037 
0.001907372976013243 
-0.002132877295828323 
-0.0004817795568844446 
-0.0002440900165963827 
-5.253981990683122e-05 
-1.219373660627233e-05 
-9.317863160130847e-05 
-0.0001789972879393864 
-4.747153847405159e-05 
-0.0003394540732275216 
0.0006645007666998713 
-0.005670637734216402 
0 
-0.01231823944563108 
-0.0006645007666998713 
-0.005670637734216402 
4.747153847405159e-05 
-0.0003394540732275216 
9.317863160130847e-05 
-0.0001789972879393864 
4.377995257233128e-05 
4.304892276745079e-05 
-3.107866442378613e-05 
-0.0002605167280400443 
-0.000841924142167686 
-0.0001068382558038389 
0 
0.005378188880478532 
0.000841924142167686 
-0.0001068382558038389 
3.107866442378613e-05 
-0.0002605167280400443 
-4.377995257233128e-05 
4.304892276745079e-05 
5.553856627601429e-05 
-0.0001541294261628226 
0.0002354248057259308 
-0.0008066639369827893 
0.0006875037811176498 
-0.004820915258810267 
0 
-0.009731624689565838 
-0.0006875037811176498 
-0.004820915258810267 
-0.0002354248057259308 
-0.0008066639369827893 
-5.553856627601429e-05 
-0.0001541294261628226 
-9.818190131798044e-05 
7.326888815780505e-05 
2.156454117931281e-05 
0.0004165320101871211 
0.002256839576676311 
-0.0002898768064780529 
0 
-0.004473391992615555 
-0.002256839576676311 
-0.0002898768064780529 
-2.156454117931281e-05 
0.0004165320101871211 
9.818190131798044e-05 
7.326888815780505e-05 
-6.553265243432084e-05 
0.0002914383017158885 
-0.0001615718603182376 
0.001101396984517843 
-0.0009377359377520768 
0.00573695514874603 
0 
0.02121714505049328 
0.0009377359377520768 
0.00573695514874603 
0.0001615718603182376 
0.001101396984517843 
6.553265243432084e-05 
0.0002914383017158885 
-8.952995254892836e-05 
5.600877156228133e-05 
-0.0002083371705482601 
0.0009987066053395522 
0.001345982312981204 
0.002767563666117724 
0 
0.009576023664323387 
-0.001345982312981204 
0.002767563666117724 
0.0002083371705482601 
0.0009987066053395522 
8.952995254892836e-05 
5.600877156228133e-05 
6.730660509512442e-05 
-6.635675842712092e-05 
0.0006859574122674945 
-0.0002296485063850442 
0.001363033632554274 
-0.003929171041033797 
0 
-0.008020943371454523 
-0.001363033632554274 
-0.003929171041033797 
-0.0006859574122674945 
-0.0002296485063850442 
-6.730660509512442e-05 
-6.635675842712092e-05 
-7.769160001763562e-05 
-9.890092170335058e-05 
-5.376823400225521e-05 
-0.0002352387680396847 
0.00181027666094972 
-0.00175860022444435 
0 
-0.01125243165540157 
-0.00181027666094972 
-0.00175860022444435 
5.376823400225521e-05 
-0.0002352387680396847 
7.769160001763562e-05 
-9.890092170335058e-05 
2.47026682542755e-05 
8.297017290874261e-05 
0.0003362945001548208 
9.813130255280085e-05 
0.0009397415213383837 
-0.0009156287449240725 
0 
-0.0005344139832135696 
-0.0009397415213383837 
-0.0009156287449240725 
-0.0003362945001548208 
9.813130255280085e-05 
-2.47026682542755e-05 
8.297017290874261e-05 
4.429590503982864e-05 
-8.58192685847546e-05 
-9.491912092700257e-05 
-0.001378438403380197 
-0.004310999571348795 
-0.002888448176906425 
0 
0.0006408423908024767 
0.004310999571348795 
-0.002888448176906425 
9.491912092700257e-05 
-0.001378438403380197 
-4.429590503982864e-05 
-8.58192685847546e-05 
-0.000148569372561684 
8.502266674382993e-05 
-0.0005812717895793285 
0.001331505433488988 
-0.0002901757357924937 
0.003624308898011758 
0 
0.01870770538760336 
0.0002901757357924937 
0.003624308898011758 
0.0005812717895793285 
0.001331505433488988 
0.000148569372561684 
8.502266674382993e-05 
8.868612728383073e-05 
-6.33586580435603e-05 
1.018517440281178e-05 
-0.0006541589219445403 
0.0001042445050448801 
-0.002599505078215061 
0 
-0.003761776341383698 
-0.0001042445050448801 
-0.002599505078215061 
-1.018517440281178e-05 
-0.0006541589219445403 
-8.868612728383073e-05 
-6.33586580435603e-05 
5.281067492368049e-06 
-0.000159184483929887 
0.0001427979245958861 
-0.0001401086590935621 
0.003833841231092055 
-0.004441672470345671 
0 
-0.01465375122238285 
-0.003833841231092055 
-0.004441672470345671 
-0.0001427979245958861 
-0.0001401086590935621 
-5.281067492368049e-06 
-0.000159184483929887 
1.940505482699369e-05 
0.0001592336836418697 
0.0004606237591139518 
0.0001527687908665213 
-0.0008295174148155014 
0.0003838974134997145 
0 
0.009106791044207497 
0.0008295174148155014 
0.0003838974134997145 
-0.0004606237591139518 
0.0001527687908665213 
-1.940505482699369e-05 
0.0001592336836418697 
6.780651324540922e-05 
4.647641112216286e-05 
-3.573846952949346e-06 
6.999039201684021e-05 
-0.0009972730603129943 
0.0002361964879942819 
0 
0.01340333218240127 
0.0009972730603129943 
0.0002361964879942819 
3.573846952949346e-06 
6.999039201684021e-05 
-6.780651324540922e-05 
4.647641112216286e-05 
-1.398817952251981e-05 
-8.201783498663353e-05 
-0.0003201514551829922 
-0.0001135800933848638 
-0.001743279739354959 
-0.0001667529228967373 
0 
0.01077468725090119 
0.001743279739354959 
-0.0001667529228967373 
0.0003201514551829922 
-0.0001135800933848638 
1.398817952251981e-05 
-8.201783498663353e-05 
-0.0001470470081350985 
0.0001740644155748044 
0.0005915219324240991 
0.0004836120909701956 
6.44399528430869e-05 
-0.0008664136555565127 
0 
0.008441576707095135 
-6.44399528430869e-05 
-0.0008664136555565127 
-0.0005915219324240991 
0.0004836120909701956 
0.0001470470081350985 
0.0001740644155748044 
0.000139380012342713 
-8.317099996625394e-06 
-1.230646353248384e-05 
-0.0009206577387195172 
-0.001994594176767229 
-0.0005215750184444821 
0 
0.003912343353799958 
0.001994594176767229 
-0.0005215750184444821 
1.230646353248384e-05 
-0.0009206577387195172 
-0.000139380012342713 
-8.317099996625394e-06 
2.97289400143397e-05 
-6.102777973903608e-05 
6.71260376472493e-05 
-0.0004856971671231413 
9.850871841857947e-05 
-0.0029097428334202 
0 
-0.007509877159785026 
-9.850871841857947e-05 
-0.0029097428334202 
-6.71260376472493e-05 
-0.0004856971671231413 
-2.97289400143397e-05 
-6.102777973903608e-05 
4.214896888942784e-05 
-4.011115734866968e-05 
-2.223999925740919e-05 
-0.000142454337456023 
-0.0003597813617739909 
-0.0003393564057742262 
0 
0.0005623451521354144 
0.0003597813617739909 
-0.0003393564057742262 
2.223999925740919e-05 
-0.000142454337456023 
-4.214896888942784e-05 
-4.011115734866968e-05 
8.939371210252349e-05 
-0.0001931984290388011 
-2.408557104526208e-05 
-0.0007755696483760498 
-0.002463652293076801 
-0.002707762050500485 
0 
0.005131151923411566 
0.002463652293076801 
-0.002707762050500485 
2.408557104526208e-05 
-0.0007755696483760498 
-8.939371210252349e-05 
-0.0001931984290388011 
-0.0001023934990396689 
2.474947627640945e-05 
-0.0001191786441331471 
0.0001289270414987121 
-0.001036611445094921 
-8.029423193482296e-06 
0 
0.009510975060798149 
0.001036611445094921 
-8.029423193482296e-06 
0.0001191786441331471 
0.0001289270414987121 
0.0001023934990396689 
2.474947627640945e-05 
9.443141029323357e-05 
-9.573589521531195e-05 
-0.0002282261425928814 
-0.0008617523448740327 
-0.003399366436298482 
-0.001407121783813317 
0 
0.008831658403227331 
0.003399366436298482 
-0.001407121783813317 
0.0002282261425928814 
-0.0008617523448740327 
-9.443141029323357e-05 
-9.573589521531195e-05 
-1.898948241826645e-05 
1.539251899554513e-05 
-0.0001741682984883321 
0.0002017249269953804 
0.0003283068575963325 
0.0009036412477012012 
0 
-0.0002964836676368656 
-0.0003283068575963325 
0.0009036412477012012 
0.0001741682984883321 
0.0002017249269953804 
1.898948241826645e-05 
1.539251899554513e-05 
-0.0001848369567780098 
1.521219969788578e-05 
-0.0001718308668044556 
0.0007113095556903463 
0.0004111873310755512 
0.0001950639869343012 
0 
0.004834834162357485 
-0.0004111873310755512 
0.0001950639869343012 
0.0001718308668044556 
0.0007113095556903463 
0.0001848369567780098 
1.521219969788578e-05 
-2.862424764033282e-05 
-4.807534033872387e-05 
3.054595793200043e-05 
-0.0007095703014923787 
-0.0009113032033289064 
-3.647925067228261e-05 
0 
-0.004565739535193495 
0.0009113032033289064 
-3.647925067228261e-05 
-3.054595793200043e-05 
-0.0007095703014923787 
2.862424764033282e-05 
-4.807534033872387e-05 
-3.773235077115143e-05 
-0.000110858859324187 
-0.0001023190181191725 
-3.516531946555697e-05 
-0.001126381194218546 
-0.0005840669696938909 
0 
0.003980515109444513 
0.001126381194218546 
-0.0005840669696938909 
0.0001023190181191725 
-3.516531946555697e-05 
3.773235077115143e-05 
-0.000110858859324187 
3.407936998735498e-05 
-0.0001334333335884612 
-0.0001109307272495481 
-0.000730423097921168 
-0.001295462572211155 
-0.003629657969983788 
0 
-0.004205919084374419 
0.001295462572211155 
-0.003629657969983788 
0.0001109307272495481 
-0.000730423097921168 
-3.407936998735498e-05 
-0.0001334333335884612 
8.652976603247375e-05 
-1.139215827011676e-05 
0.0001649253483732121 
-0.0001631532329805163 
0.001103678905455507 
-0.002393137441931894 
0 
-0.005514415350087507 
-0.001103678905455507 
-0.002393137441931894 
-0.0001649253483732121 
-0.0001631532329805163 
-8.652976603247375e-05 
-1.139215827011676e-05 
-3.589578129796625e-05 
6.49137900761849e-05 
-1.828526668687502e-05 
0.0002640011577929838 
8.511778499611717e-05 
0.002470299986540572 
0 
0.001259586782570611 
-8.511778499611717e-05 
0.002470299986540572 
1.828526668687502e-05 
0.0002640011577929838 
3.589578129796625e-05 
6.49137900761849e-05 
5.402508352751106e-05 
-5.754740207359071e-05 
0.0003724566538043938 
-0.0004287826963492539 
-0.001129169959737375 
-0.002574024876702209 
0 
-0.002106689405985491 
0.001129169959737375 
-0.002574024876702209 
-0.0003724566538043938 
-0.0004287826963492539 
-5.402508352751106e-05 
-5.754740207359071e-05 
-7.213103902826101e-05 
-8.023249621742109e-05 
-0.0002961804396231219 
-9.682893414315495e-05 
0.0002110934095292609 
-0.001004250341960307 
0 
-0.004046920516761861 
-0.0002110934095292609 
-0.001004250341960307 
0.0002961804396231219 
-9.682893414315495e-05 
7.213103902826101e-05 
-8.023249621742109e-05 
-7.230762927988391e-05 
-4.668547062329686e-06 
-0.0005926835391553737 
0.0001709836883941174 
-0.002337866889157056 
0.003777117135117348 
0 
0.01826239330329172 
0.002337866889157056 
0.003777117135117348 
0.0005926835391553737 
0.0001709836883941174 
7.230762927988391e-05 
-4.668547062329686e-06 
5.915118721804461e-05 
-0.0002183323061102234 
-0.0002453609024601752 
-0.0009456976838800794 
-0.003096514314808755 
-0.002253280711749924 
0 
0.008822594944336475 
0.003096514314808755 
-0.002253280711749924 
0.0002453609024601752 
-0.0009456976838800794 
-5.915118721804461e-05 
-0.0002183323061102234 
-4.393474731297234e-05 
-9.05537480158027e-05 
-0.0006362990473958128 
-0.0004200010762390798 
-0.002346740184034965 
0.001373651860633886 
0 
0.00903494937394466 
0.002346740184034965 
0.001373651860633886 
0.0006362990473958128 
-0.0004200010762390798 
4.393474731297234e-05 
-9.05537480158027e-05 
-0.0001320990161843031 
0.0001203717660772495 
6.687471491493163e-05 
0.0007612305205306738 
0.001054262291975274 
0.0005223077092404784 
0 
0.006501060401180499 
-0.001054262291975274 
0.0005223077092404784 
-6.687471491493163e-05 
0.0007612305205306738 
0.0001320990161843031 
0.0001203717660772495 
4.388784888717424e-05 
-0.0001410700651446176 
-6.360715920869204e-05 
-0.0008700855142160151 
-0.002735075351127179 
-0.002068929062159595 
0 
0.00315005438304926 
0.002735075351127179 
-0.002068929062159595 
6.360715920869204e-05 
-0.0008700855142160151 
-4.388784888717424e-05 
-0.0001410700651446176 
1.41534281194219e-05 
-0.0001784619408803905 
-0.0004792130372087917 
-0.0003074627389894112 
-0.001975959682453036 
0.0006023081686115259 
0 
0.007940465119321744 
0.001975959682453036 
0.0006023081686115259 
0.0004792130372087917 
-0.0003074627389894112 
-1.41534281194219e-05 
-0.0001784619408803905 
9.020180414912626e-05 
-4.226339412560998e-05 
-0.0003767691011248831 
-0.0004114132688985727 
-0.001593124430327879 
0.0006784454912523527 
0 
0.008902336197108987 
0.001593124430327879 
0.0006784454912523527 
0.0003767691011248831 
-0.0004114132688985727 
-9.020180414912626e-05 
-4.226339412560998e-05 
0.0002403554586931969 
6.624409027127412e-05 
0.001225791935562942 
-0.0008559981708794957 
0.0007999631823720704 
-0.006396790968055466 
0 
-0.009380624552411881 
-0.0007999631823720704 
-0.006396790968055466 
-0.001225791935562942 
-0.0008559981708794957 
-0.0002403554586931969 
6.624409027127412e-05 
0.0002006141799400479 
-6.030881403372321e-05 
0.0006110313985034257 
-0.0009360167464997933 
-0.000654912978891416 
-0.004892414400667376 
0 
-0.005291014431911085 
0.000654912978891416 
-0.004892414400667376 
-0.0006110313985034257 
-0.0009360167464997933 
-0.0002006141799400479 
-6.030881403372321e-05 
-0.0002116633568739656 
0.0001544597342214351 
-0.0001730834017963064 
0.001066060578285179 
-0.0001491679377838086 
0.003670326122543949 
0 
0.0112924932124703 
0.0001491679377838086 
0.003670326122543949 
0.0001730834017963064 
0.001066060578285179 
0.0002116633568739656 
0.0001544597342214351 
-0.0001249223096119892 
-9.482319907246728e-06 
0.0003268796977210885 
7.71402851873929e-05 
-0.0001747322437407351 
-0.002266055892124513 
0 
0.004514149238081092 
0.0001747322437407351 
-0.002266055892124513 
-0.0003268796977210885 
7.71402851873929e-05 
0.0001249223096119892 
-9.482319907246728e-06 
-7.345071668426776e-06 
-6.61891473811639e-05 
0.0003957518447769174 
-0.0003653485683455958 
0.0005377127504903951 
-0.004436320687533969 
0 
-0.007438440448331721 
-0.0005377127504903951 
-0.004436320687533969 
-0.0003957518447769174 
-0.0003653485683455958 
7.345071668426776e-06 
-6.61891473811639e-05 
-4.674011824866133e-05 
4.921230790567905e-05 
0.0006490973886707726 
0.0007194890779685345 
0.002537579712142851 
-0.002324659947456619 
0 
-0.001557750747484781 
-0.002537579712142851 
-0.002324659947456619 
-0.0006490973886707726 
0.0007194890779685345 
4.674011824866133e-05 
4.921230790567905e-05 
7.060617389620792e-05 
7.491748937553912e-05 
0.0001455914561337349 
-0.0001793291707838538 
-0.001196894431249308 
0.0003192105761136685 
0 
0.005094185898379548 
0.001196894431249308 
0.0003192105761136685 
-0.0001455914561337349 
-0.0001793291707838538 
-7.060617389620792e-05 
7.491748937553912e-05 
0.0001762845456072322 
0.0001886461254811719 
0.001521678171289724 
-0.0003903235694686409 
-0.0001572220483031515 
-0.006499069675748263 
0 
0.0006342585560790186 
0.0001572220483031515 
-0.006499069675748263 
-0.001521678171289724 
-0.0003903235694686409 
-0.0001762845456072322 
0.0001886461254811719 
-1.551088923340245e-05 
-4.868101900552524e-05 
0.0002130798153557534 
-0.0002631400326894681 
-0.001107317301736248 
-0.001761099398765945 
0 
0.002280850383355818 
0.001107317301736248 
-0.001761099398765945 
-0.0002130798153557534 
-0.0002631400326894681 
1.551088923340245e-05 
-4.868101900552524e-05 
7.370733880882035e-05 
-0.0001906312469387873 
-5.758897443869511e-05 
-0.0003712753294219817 
0.0004637874867820568 
-0.002950045234403657 
0 
-0.003075466104831265 
-0.0004637874867820568 
-0.002950045234403657 
5.758897443869511e-05 
-0.0003712753294219817 
-7.370733880882035e-05 
-0.0001906312469387873 
-3.747242249124205e-05 
8.204893542350627e-05 
0.0002151922837264432 
0.0004365216761297922 
-0.0001521296832483563 
-0.0005245359231369575 
0 
0.003619256872438118 
0.0001521296832483563 
-0.0005245359231369575 
-0.0002151922837264432 
0.0004365216761297922 
3.747242249124205e-05 
8.204893542350627e-05 
-0.0002007745853096358 
-2.112873762815902e-06 
-0.0009422765473364198 
0.001160950920231733 
-0.0002883630659234093 
0.004936260624554802 
0 
0.01509139479847011 
0.0002883630659234093 
0.004936260624554802 
0.0009422765473364198 
0.001160950920231733 
0.0002007745853096358 
-2.112873762815902e-06 
-9.532444115914562e-06 
-2.102936402452505e-05 
-3.615101236113988e-05 
6.588318672249636e-06 
0.0005618804673229271 
-0.0004843481404308276 
0 
0.002815963557153147 
-0.0005618804673229271 
-0.0004843481404308276 
3.615101236113988e-05 
6.588318672249636e-06 
9.532444115914562e-06 
-2.102936402452505e-05 
0.000237493025910857 
7.046265010419327e-05 
0.00140642411648217 
-0.0006745742012914759 
0.002237195121190818 
-0.006491059177457963 
0 
-0.01745409364997782 
-0.002237195121190818 
-0.006491059177457963 
-0.00140642411648217 
-0.0006745742012914759 
-0.000237493025910857 
7.046265010419327e-05 
-1.82147286362439e-05 
7.735254646749308e-05 
0.0008198778952952722 
0.0005674354777227432 
0.001692136065248581 
-0.003745028796431484 
0 
-0.0003051946760782219 
-0.001692136065248581 
-0.003745028796431484 
-0.0008198778952952722 
0.0005674354777227432 
1.82147286362439e-05 
7.735254646749308e-05 
7.801771006378037e-05 
-0.0001151507316460742 
1.491223658708344e-05 
-0.0002462301137379567 
0.000299878696219896 
-0.001926487724160241 
0 
-0.002396824283600787 
-0.000299878696219896 
-0.001926487724160241 
-1.491223658708344e-05 
-0.0002462301137379567 
-7.801771006378037e-05 
-0.0001151507316460742 
4.409433087498062e-05 
-0.0002361000804845928 
-0.0001847820368217499 
-0.0008686521826201246 
-0.001466958623831464 
-0.002556890832858205 
0 
-0.0007373794060084592 
0.001466958623831464 
-0.002556890832858205 
0.0001847820368217499 
-0.0008686521826201246 
-4.409433087498062e-05 
-0.0002361000804845928 
4.723193879711501e-05 
3.997736062251963e-05 
0.0006698300612084007 
-0.0003735461452652125 
0.001072244629133136 
-0.003625376337094443 
0 
-0.002511059389963529 
-0.001072244629133136 
-0.003625376337094443 
-0.0006698300612084007 
-0.0003735461452652125 
-4.723193879711501e-05 
3.997736062251963e-05 
8.951515316766704e-05 
0.0001085349583846192 
0.000770858797384802 
-3.987591222481978e-05 
0.002384521512683191 
-0.003565908526238388 
0 
-0.005997656607102694 
-0.002384521512683191 
-0.003565908526238388 
-0.000770858797384802 
-3.987591222481978e-05 
-8.951515316766704e-05 
0.0001085349583846192 
-6.150688510814592e-05 
-9.241666895495862e-05 
-0.0003222781205997656 
0.0003994013802008655 
-0.0008668360904244807 
0.00232817392708477 
0 
0.005285226251347094 
0.0008668360904244807 
0.00232817392708477 
0.0003222781205997656 
0.0003994013802008655 
6.150688510814592e-05 
-9.241666895495862e-05 
6.763141999899338e-05 
-0.0001437183685210395 
3.045599700729299e-06 
-0.0006512437609044117 
-0.001421948562530854 
-0.003038598069235576 
0 
0.0001014507027583505 
0.001421948562530854 
-0.003038598069235576 
-3.045599700729299e-06 
-0.0006512437609044117 
-6.763141999899338e-05 
-0.0001437183685210395 
-4.305004707531579e-05 
2.937109195780543e-05 
0.0001535453918795615 
0.0001656738385313269 
0.0004905243592767947 
-0.001429274134865565 
0 
0.002554757043231363 
-0.0004905243592767947 
-0.001429274134865565 
-0.0001535453918795615 
0.0001656738385313269 
4.305004707531579e-05 
2.937109195780543e-05 
3.231201519963534e-05 
-0.0003370995183396749 
-0.0003648280433905703 
-0.00084820263259076 
-0.001348684206733326 
-0.001982602741970318 
0 
-0.002216721386321716 
0.001348684206733326 
-0.001982602741970318 
0.0003648280433905703 
-0.00084820263259076 
-3.231201519963534e-05 
-0.0003370995183396749 
-1.130481928354435e-05 
-3.185249181232927e-05 
0.0004187750825769843 
0.0002308187286647694 
0.001042278879092629 
-0.002686560163306008 
0 
-0.0009484580615299551 
-0.001042278879092629 
-0.002686560163306008 
-0.0004187750825769843 
0.0002308187286647694 
1.130481928354435e-05 
-3.185249181232927e-05 
-1.360748421293923e-05 
0.0001706835827433775 
0.0002340841880859465 
0.0006693127934875135 
0.00151904315182962 
0.002061647556458076 
0 
0.00214415836328035 
-0.00151904315182962 
0.002061647556458076 
-0.0002340841880859465 
0.0006693127934875135 
1.360748421293923e-05 
0.0001706835827433775 
3.843115983370389e-05 
-9.465532608753884e-05 
0.0001416257765567143 
-0.0004463951901838168 
-1.462192432458189e-05 
-0.003197871373902783 
0 
-0.001525467305118595 
1.462192432458189e-05 
-0.003197871373902783 
-0.0001416257765567143 
-0.0004463951901838168 
-3.843115983370389e-05 
-9.465532608753884e-05 
-8.374036935534909e-05 
-0.0001591002874132779 
-0.0002182149864259771 
0.0001794563119828544 
0.0003747599192697887 
-0.0007209532628219643 
0 
0.003256270398176815 
-0.0003747599192697887 
-0.0007209532628219643 
0.0002182149864259771 
0.0001794563119828544 
8.374036935534909e-05 
-0.0001591002874132779 
-2.526216581822745e-05 
-4.546280171050227e-05 
-0.0002101516550593965 
0.0001583012910579557 
-0.002186606571475975 
0.0001476146995511765 
0 
0.0134222617299529 
0.002186606571475975 
0.0001476146995511765 
0.0002101516550593965 
0.0001583012910579557 
2.526216581822745e-05 
-4.546280171050227e-05 
-2.647830962121654e-05 
5.467895045119127e-05 
-0.0002224946080677903 
-0.0001075128548187664 
-0.0035195815307159 
0.001837013200109681 
0 
0.01538794894554285 
0.0035195815307159 
0.001837013200109681 
0.0002224946080677903 
-0.0001075128548187664 
2.647830962121654e-05 
5.467895045119127e-05 
0.0001193233235888818 
5.647210578742079e-05 
0.0006842241541071226 
-0.0009958572526903447 
-0.002434447254712719 
-0.00276249634742131 
0 
0.004525524450076211 
0.002434447254712719 
-0.00276249634742131 
-0.0006842241541071226 
-0.0009958572526903447 
-0.0001193233235888818 
5.647210578742079e-05 
4.032697528653455e-05 
-0.0001655130267535 
4.492370956638237e-05 
-0.0007235704388581196 
-0.001014557040719252 
-0.00325701829316054 
0 
-3.472009445425939e-06 
0.001014557040719252 
-0.00325701829316054 
-4.492370956638237e-05 
-0.0007235704388581196 
-4.032697528653455e-05 
-0.0001655130267535 
-0.0001031587643055085 
-3.561063135484675e-05 
2.566336875802932e-05 
5.50768172440272e-05 
-0.001023958750415166 
-0.0002854516706900095 
0 
0.004452052255518168 
0.001023958750415166 
-0.0002854516706900095 
-2.566336875802932e-05 
5.50768172440272e-05 
0.0001031587643055085 
-3.561063135484675e-05 
0.0001500054680262896 
1.049310868648263e-05 
0.000176794800036396 
-0.0009049539560399739 
-0.003190007991490038 
-0.001514930642713709 
0 
0.008633897286637186 
0.003190007991490038 
-0.001514930642713709 
-0.000176794800036396 
-0.0009049539560399739 
-0.0001500054680262896 
1.049310868648263e-05 
-5.304243161548863e-05 
-2.26399346203305e-05 
6.587265494863529e-05 
-0.0001971161498216538 
-0.001297399886934101 
-0.002698965521852811 
0 
0.001875696332792625 
0.001297399886934101 
-0.002698965521852811 
-6.587265494863529e-05 
-0.0001971161498216538 
5.304243161548863e-05 
-2.26399346203305e-05 
-1.113664533902155e-05 
2.655667616296468e-05 
-9.000092226247928e-05 
-0.0001318616645102425 
0.0005755558566999713 
-0.0001118823539554161 
0 
0.00065970839164114 
-0.0005755558566999713 
-0.0001118823539554161 
9.000092226247928e-05 
-0.0001318616645102425 
1.113664533902155e-05 
2.655667616296468e-05 
3.215660291864826e-05 
-0.0001059205175683383 
-0.0003136751990755314 
-0.0007286722822116375 
-0.003130386107850616 
-0.0005283765105284854 
0 
0.01034350231179569 
0.003130386107850616 
-0.0005283765105284854 
0.0003136751990755314 
-0.0007286722822116375 
-3.215660291864826e-05 
-0.0001059205175683383 
-3.935529009208453e-05 
-0.0001388300550627137 
-0.0006824186566774093 
-0.00058542420865828 
-0.002248145361384568 
0.0008842935098536028 
0 
0.0108469822991688 
0.002248145361384568 
0.0008842935098536028 
0.0006824186566774093 
-0.00058542420865828 
3.935529009208453e-05 
-0.0001388300550627137 
-0.0001686046894931159 
0.0001138179706410617 
-0.0006518117479735768 
0.0008617141645263939 
-0.001551580996120393 
0.005908051994900671 
0 
0.01875140090886234 
0.001551580996120393 
0.005908051994900671 
0.0006518117479735768 
0.0008617141645263939 
0.0001686046894931159 
0.0001138179706410617 
3.955146275889545e-05 
7.847145873241124e-05 
0.0002343756634722514 
0.0002672134746046539 
-0.0008501370785983162 
0.0003870402115917565 
0 
0.01309853730292969 
0.0008501370785983162 
0.0003870402115917565 
-0.0002343756634722514 
0.0002672134746046539 
-3.955146275889545e-05 
7.847145873241124e-05 
-3.967116572349463e-05 
-4.958662944950542e-05 
-0.000200202276894843 
-1.654682099255261e-05 
-0.002361481918964477 
-0.001462207122126087 
0 
0.01399572358519298 
0.002361481918964477 
-0.001462207122126087 
0.000200202276894843 
-1.654682099255261e-05 
3.967116572349463e-05 
-4.958662944950542e-05 
-0.0001035236998223255 
-8.017606726653143e-05 
-0.0004915039540166791 
2.162158481572082e-05 
-0.002449143461938853 
0.0008376639704857139 
0 
0.01116251265862971 
0.002449143461938853 
0.0008376639704857139 
0.0004915039540166791 
2.162158481572082e-05 
0.0001035236998223255 
-8.017606726653143e-05 
0.0001523539522153872 
0.0001065065843927692 
0.001403245746764347 
-0.0002316481298839735 
0.002026413658915563 
-0.006986580083668583 
0 
-0.00920852387109449 
-0.002026413658915563 
-0.006986580083668583 
-0.001403245746764347 
-0.0002316481298839735 
-0.0001523539522153872 
0.0001065065843927692 
9.435570283591821e-05 
-0.0001757386714515577 
0.0006287889157606728 
-0.0009346625876034695 
-0.001359594075755828 
-0.006504009593593121 
0 
-0.003729451990604067 
0.001359594075755828 
-0.006504009593593121 
-0.0006287889157606728 
-0.0009346625876034695 
-9.435570283591821e-05 
-0.0001757386714515577 
4.304678695639694e-05 
-0.0001303955825857866 
-0.0002294913239979996 
0.000120978460929359 
0.0002539672785134071 
-0.001459749209446349 
0 
0.0057511217168978 
-0.0002539672785134071 
-0.001459749209446349 
0.0002294913239979996 
0.000120978460929359 
-4.304678695639694e-05 
-0.0001303955825857866 
-0.0001292862600567646 
2.284877077156467e-05 
-0.0004055419340277225 
0.000460650943444648 
0.0001871410753819888 
0.001386117991676595 
0 
0.002480153554203805 
-0.0001871410753819888 
0.001386117991676595 
0.0004055419340277225 
0.000460650943444648 
0.0001292862600567646 
2.284877077156467e-05 
1.278135136283831e-05 
-5.668339106145079e-05 
-3.468034654458308e-05 
-0.0002727450240504563 
-0.000138060649071837 
-0.00269494572302098 
0 
0.002808546690164312 
0.000138060649071837 
-0.00269494572302098 
3.468034654458308e-05 
-0.0002727450240504563 
-1.278135136283831e-05 
-5.668339106145079e-05 
7.174402154330238e-05 
6.670385879698597e-05 
0.0001193974494368796 
-0.0005029939804263188 
-0.002792410729760656 
0.0009155284530796159 
0 
0.009877622380423218 
0.002792410729760656 
0.0009155284530796159 
-0.0001193974494368796 
-0.0005029939804263188 
-7.174402154330238e-05 
6.670385879698597e-05 
7.634527256438391e-05 
-0.0001012400332057766 
-6.248597621264227e-05 
-0.0004207141278698548 
-0.002034959641895707 
-0.00128416303579168 
0 
0.009736437553681018 
0.002034959641895707 
-0.00128416303579168 
6.248597621264227e-05 
-0.0004207141278698548 
-7.634527256438391e-05 
-0.0001012400332057766 
-0.0001062234795789021 
-0.0001075550163025441 
-0.0005385492171459256 
3.750110178756223e-05 
-0.0005263096577161906 
8.862947954551673e-05 
0 
0.007444643010911888 
0.0005263096577161906 
8.862947954551673e-05 
0.0005385492171459256 
3.750110178756223e-05 
0.0001062234795789021 
-0.0001075550163025441 
-4.774191882076601e-06 
0.0001605060915032644 
-7.994491631630897e-05 
0.0005447472396036971 
0.001181199076459695 
0.002081257085152463 
0 
0.007080714970255988 
-0.001181199076459695 
0.002081257085152463 
7.994491631630897e-05 
0.0005447472396036971 
4.774191882076601e-06 
0.0001605060915032644 
0.0001032745309019725 
6.272932764331813e-05 
0.0007606369955628807 
-0.0001667936285960386 
0.0008963457949819056 
-0.003226503959344202 
0 
-0.0006287284420048937 
-0.0008963457949819056 
-0.003226503959344202 
-0.0007606369955628807 
-0.0001667936285960386 
-0.0001032745309019725 
6.272932764331813e-05 
-5.474062230064871e-06 
2.394037592673017e-05 
0.0005836609737249476 
-0.0005075485637541098 
4.885794236351468e-05 
-0.00408879664717948 
0 
-0.006830356921925295 
-4.885794236351468e-05 
-0.00408879664717948 
-0.0005836609737249476 
-0.0005075485637541098 
5.474062230064871e-06 
2.394037592673017e-05 
2.286215554190752e-05 
-0.0001473888333662063 
0.0002961649536352106 
-0.0008112574344454221 
-0.001220833187591929 
-0.004766039021901236 
0 
-0.001562006621655657 
0.001220833187591929 
-0.004766039021901236 
-0.0002961649536352106 
-0.0008112574344454221 
-2.286215554190752e-05 
-0.0001473888333662063 
-6.4340086654259e-05 
5.596533894225915e-05 
-3.693093330509709e-05 
0.0007731952888821436 
0.003240371571562058 
0.002289548592795783 
0 
-0.001134344320940353 
-0.003240371571562058 
0.002289548592795783 
3.693093330509709e-05 
0.0007731952888821436 
6.4340086654259e-05 
5.596533894225915e-05 
-3.709518152094407e-05 
-0.0001164516855722 
-0.0003392382086476401 
6.576274599405658e-05 
0.0009435358892841987 
-0.0008243586627303657 
0 
-0.001079647772382922 
-0.0009435358892841987 
-0.0008243586627303657 
0.0003392382086476401 
6.576274599405658e-05 
3.709518152094407e-05 
-0.0001164516855722 
-0.0001067337102864775 
-2.081674942410778e-05 
-0.0004236009768679278 
-4.842266536074032e-05 
-0.002968497492033544 
0.0007811180380832589 
0 
0.01103245202840864 
0.002968497492033544 
0.0007811180380832589 
0.0004236009768679278 
-4.842266536074032e-05 
0.0001067337102864775 
-2.081674942410778e-05 
-6.785864160954993e-05 
-1.899078541084471e-06 
-0.0003556123365568634 
5.676031754683283e-06 
-0.002044601905883762 
0.00176740085236782 
0 
0.009790157399806395 
0.002044601905883762 
0.00176740085236782 
0.0003556123365568634 
5.676031754683283e-06 
6.785864160954993e-05 
-1.899078541084471e-06 
7.750334295583437e-05 
-3.639594879698228e-05 
0.0004120891473375191 
-0.00054496248161752 
0.00141750024692314 
-0.002952527221209113 
0 
-0.009913874407941042 
-0.00141750024692314 
-0.002952527221209113 
-0.0004120891473375191 
-0.00054496248161752 
-7.750334295583437e-05 
-3.639594879698228e-05 
4.130139507159615e-05 
-1.396793618247808e-05 
0.0002500489122646463 
-0.0004791429634160914 
0.001033124842917951 
-0.003047690273465661 
0 
-0.007373512053002338 
-0.001033124842917951 
-0.003047690273465661 
-0.0002500489122646463 
-0.0004791429634160914 
-4.130139507159615e-05 
-1.396793618247808e-05 
-4.120257165790712e-05 
-3.538490166672436e-05 
-0.0001906924635140097 
2.051189480525474e-05 
-0.0005717158266647537 
0.0006705103829092199 
0 
0.004879739592996127 
0.0005717158266647537 
0.0006705103829092199 
0.0001906924635140097 
2.051189480525474e-05 
4.120257165790712e-05 
-3.538490166672436e-05 
-2.764684741563016e-05 
4.627470675338623e-05 
-0.0002309963331705363 
-0.0001717866407338575 
-0.001200756911085334 
0.001722699245317756 
0 
0.004259598844286361 
0.001200756911085334 
0.001722699245317756 
0.0002309963331705363 
-0.0001717866407338575 
2.764684741563016e-05 
4.627470675338623e-05 
0.0001642581049242683 
-5.075021706896561e-05 
0.0001913865478881966 
-0.0003143859555864001 
0.002314318707983183 
-0.002877834677327721 
0 
-0.01217928984060439 
-0.002314318707983183 
-0.002877834677327721 
-0.0001913865478881966 
-0.0003143859555864001 
-0.0001642581049242683 
-5.075021706896561e-05 
8.382845551462424e-05 
0.0001499423253650012 
0.0008523284889127777 
0.0004481456541414451 
0.002807034048629253 
-0.001155578117395881 
0 
-0.004366047359181302 
-0.002807034048629253 
-0.001155578117395881 
-0.0008523284889127777 
0.0004481456541414451 
-8.382845551462424e-05 
0.0001499423253650012 
6.56935625199491e-05 
-2.156996260812722e-05 
0.0004331348211315037 
-0.0007657773918394231 
0.001176607582570645 
-0.002822378952807578 
0 
-0.01041509938195936 
-0.001176607582570645 
-0.002822378952807578 
-0.0004331348211315037 
-0.0007657773918394231 
-6.56935625199491e-05 
-2.156996260812722e-05 
-0.0002321287393607891 
-3.610911178224291e-05 
-0.000273074760496715 
0.0002870508222779888 
-0.0006418372439058878 
0.0003036472632019786 
0 
-0.001135317536759825 
0.0006418372439058878 
0.0003036472632019786 
0.000273074760496715 
0.0002870508222779888 
0.0002321287393607891 
-3.610911178224291e-05 
-0.0001002931098190254 
1.293863097891074e-05 
-0.0003394426352354938 
0.0003751441805829036 
0.001310656626169214 
0.0007180433502017037 
0 
0.0004936245087183687 
-0.001310656626169214 
0.0007180433502017037 
0.0003394426352354938 
0.0003751441805829036 
0.0001002931098190254 
1.293863097891074e-05 
-6.653116874886332e-05 
-0.0001882163922691484 
-0.0002100252037117895 
9.109389785531058e-05 
0.0007222323595594587 
-0.001782761258537773 
0 
-0.0003605682805499221 
-0.0007222323595594587 
-0.001782761258537773 
0.0002100252037117895 
9.109389785531058e-05 
6.653116874886332e-05 
-0.0001882163922691484 
-0.0001001599706160986 
-3.459515509189962e-05 
-0.0002881608317920526 
-3.597174501137423e-05 
-0.001532886861654513 
0.00107995268641184 
0 
0.005139139643572261 
0.001532886861654513 
0.00107995268641184 
0.0002881608317920526 
-3.597174501137423e-05 
0.0001001599706160986 
-3.459515509189962e-05 
2.550323029871423e-05 
-0.0001759772660842968 
-0.0008652586564562607 
-0.0005041028916136801 
-0.001995213711658095 
0.001894167737735994 
0 
0.006483242384057 
0.001995213711658095 
0.001894167737735994 
0.0008652586564562607 
-0.0005041028916136801 
-2.550323029871423e-05 
-0.0001759772660842968 
7.182853534542147e-05 
-5.521304510761977e-05 
-0.0002091539737104173 
-0.0004570539550973863 
-0.001375778724406064 
0.0003687661316471927 
0 
0.0008971179067636877 
0.001375778724406064 
0.0003687661316471927 
0.0002091539737104173 
-0.0004570539550973863 
-7.182853534542147e-05 
-5.521304510761977e-05 
-8.858977382166832e-05 
2.476268236383763e-05 
1.2671715622638e-05 
5.413966228683723e-06 
0.0004797495191572512 
-0.0009722392634810943 
0 
0.0005443942978835883 
-0.0004797495191572512 
-0.0009722392634810943 
-1.2671715622638e-05 
5.413966228683723e-06 
8.858977382166832e-05 
2.476268236383763e-05 
-1.187345861452367e-05 
-5.837574102407601e-05 
0.0001892367871303332 
9.470679305763817e-05 
-0.000210182151354205 
-0.001717821709867276 
0 
0.004647541460931537 
0.000210182151354205 
-0.001717821709867276 
-0.0001892367871303332 
9.470679305763817e-05 
1.187345861452367e-05 
-5.837574102407601e-05 
0.0001864274810628877 
-3.693144400355226e-05 
0.0002554429254537139 
-0.0003942897766538649 
0.001368621784050076 
-0.00332177877341691 
0 
-0.005209414807996639 
-0.001368621784050076 
-0.00332177877341691 
-0.0002554429254537139 
-0.0003942897766538649 
-0.0001864274810628877 
-3.693144400355226e-05 
0.000102965815080156 
-5.35192330686584e-05 
0.0002167834938086691 
-0.0005186848820157299 
0.0006939228822408787 
-0.002304229760328393 
0 
-0.003500356396603713 
-0.0006939228822408787 
-0.002304229760328393 
-0.0002167834938086691 
-0.0005186848820157299 
-0.000102965815080156 
-5.35192330686584e-05 
2.220683517623691e-05 
-2.002002450016701e-05 
0.0003763410787541589 
-2.773157230285593e-05 
0.000181071679493809 
-0.00286443639908091 
0 
0.0003604705405938714 
-0.000181071679493809 
-0.00286443639908091 
-0.0003763410787541589 
-2.773157230285593e-05 
-2.220683517623691e-05 
-2.002002450016701e-05 
0.0001316300375124671 
-6.753156779009417e-05 
-0.0002117610178797037 
-0.0007757292866371337 
0.0002425068371175341 
-0.001187371390804524 
0 
-0.00290342175279146 
-0.0002425068371175341 
-0.001187371390804524 
0.0002117610178797037 
-0.0007757292866371337 
-0.0001316300375124671 
-6.753156779009417e-05 
-5.374265664301471e-05 
-0.0001263748556144916 
-0.0002798192687815869 
4.258627601173091e-05 
0.002374572290812819 
-0.0007864543264981439 
0 
-0.00757543279654688 
-0.002374572290812819 
-0.0007864543264981439 
0.0002798192687815869 
4.258627601173091e-05 
5.374265664301471e-05 
-0.0001263748556144916 
-0.0001374044275234313 
-8.290916561490684e-05 
-0.0002474556319010018 
0.000486351654214185 
0.002817928276819062 
-8.296213975058034e-05 
0 
-0.007306281443244019 
-0.002817928276819062 
-8.296213975058034e-05 
0.0002474556319010018 
0.000486351654214185 
0.0001374044275234313 
-8.290916561490684e-05 
-0.0001553312705978873 
0.0002392933105872209 
0.000282251084898767 
0.001457827157360833 
0.003509234814605926 
0.001582753525514375 
0 
0.001017680211986605 
-0.003509234814605926 
0.001582753525514375 
-0.000282251084898767 
0.001457827157360833 
0.0001553312705978873 
0.0002392933105872209 
2.601860462510429e-05 
-1.475104680593696e-05 
0.0003991348440757551 
-0.0003274554004917292 
0.0007338606859553186 
-0.003583946652253787 
0 
-0.002260853484852118 
-0.0007338606859553186 
-0.003583946652253787 
-0.0003991348440757551 
-0.0003274554004917292 
-2.601860462510429e-05 
-1.475104680593696e-05 
-5.850808652830507e-05 
0.0001156678769986777 
0.0002330177236312521 
0.0004763875221895542 
0.002549631012079607 
-0.0007420850036614434 
0 
-0.008169799105157706 
-0.002549631012079607 
-0.0007420850036614434 
-0.0002330177236312521 
0.0004763875221895542 
5.850808652830507e-05 
0.0001156678769986777 
-6.420495025854665e-05 
-7.600626034405049e-05 
-0.0001705097750793991 
-9.066509865340722e-05 
-0.0004672833512135719 
-0.001232231500026731 
0 
0.002479917827441586 
0.0004672833512135719 
-0.001232231500026731 
0.0001705097750793991 
-9.066509865340722e-05 
6.420495025854665e-05 
-7.600626034405049e-05 
8.6789837903943e-06 
2.47307003204431e-05 
0.0002504978761181231 
-8.421412444123963e-06 
-0.001237476818675341 
-0.0005952141752588919 
0 
0.003824561305668788 
0.001237476818675341 
-0.0005952141752588919 
-0.0002504978761181231 
-8.421412444123963e-06 
-8.6789837903943e-06 
2.47307003204431e-05 
-0.0001447464343759845 
0.0001120535949530445 
6.828469394526059e-05 
0.000578435479333634 
0.001037168848314039 
0.001600882017035247 
0 
-0.001193066815530098 
-0.001037168848314039 
0.001600882017035247 
-6.828469394526059e-05 
0.000578435479333634 
0.0001447464343759845 
0.0001120535949530445 
7.355776561810517e-06 
-0.0001259944432793362 
-0.0002206180742451821 
-3.723081364149438e-05 
0.001138954812813208 
-0.0007897563942862789 
0 
-0.003778459567079491 
-0.001138954812813208 
-0.0007897563942862789 
0.0002206180742451821 
-3.723081364149438e-05 
-7.355776561810517e-06 
-0.0001259944432793362 
0.0001017217516168856 
-3.817583246743999e-05 
-0.0001646878313889439 
-0.0007898250521662321 
-0.002201142381469313 
-0.0004110045345440943 
0 
0.007449507402776654 
0.002201142381469313 
-0.0004110045345440943 
0.0001646878313889439 
-0.0007898250521662321 
-0.0001017217516168856 
-3.817583246743999e-05 
-8.780373388314243e-05 
0.0002258263181399605 
0.0002060009722677914 
0.0009450480460374512 
0.002142224402042622 
0.001722292335717839 
0 
0.002385251496218154 
-0.002142224402042622 
0.001722292335717839 
-0.0002060009722677914 
0.0009450480460374512 
8.780373388314243e-05 
0.0002258263181399605 
0.000232564537179042 
-2.341237622525233e-05 
0.001028018401753184 
-0.001220142410254834 
-0.0006735616495054979 
-0.005368455625820681 
0 
-0.00713075010583731 
0.0006735616495054979 
-0.005368455625820681 
-0.001028018401753184 
-0.001220142410254834 
-0.000232564537179042 
-2.341237622525233e-05 
1.291476206687234e-05 
-8.300657184829698e-05 
-0.0002243001773165623 
0.0005124695202125953 
0.003690068000621616 
-0.001152962244800712 
0 
-0.01132906750730096 
-0.003690068000621616 
-0.001152962244800712 
0.0002243001773165623 
0.0005124695202125953 
-1.291476206687234e-05 
-8.300657184829698e-05 
0.0001741974097085826 
1.818971966468482e-05 
0.0006353053227329843 
-0.0006962705434060844 
3.142512754044705e-05 
-0.002824186337080123 
0 
-0.005135271246574531 
-3.142512754044705e-05 
-0.002824186337080123 
-0.0006353053227329843 
-0.0006962705434060844 
-0.0001741974097085826 
1.818971966468482e-05 
0.0001416793737599054 
-9.777340933180875e-05 
0.0002619674956727338 
-0.0006363094201584275 
0.0007632241725750767 
-0.003279577636072464 
0 
-0.00796243356007206 
-0.0007632241725750767 
-0.003279577636072464 
-0.0002619674956727338 
-0.0006363094201584275 
-0.0001416793737599054 
-9.777340933180875e-05 
-7.314376996897614e-05 
3.382389997230913e-05 
-0.0003345556266290711 
0.0001126827565066707 
-7.985980982653725e-05 
0.002135919636298994 
0 
0.001391092828410806 
7.985980982653725e-05 
0.002135919636298994 
0.0003345556266290711 
0.0001126827565066707 
7.314376996897614e-05 
3.382389997230913e-05 
1.312579411218354e-05 
-0.0001375119666304188 
0.000138376800393379 
-0.0009778791210498855 
-0.003695182824635692 
-0.00286565130830213 
0 
0.005285610493990624 
0.003695182824635692 
-0.00286565130830213 
-0.000138376800393379 
-0.0009778791210498855 
-1.312579411218354e-05 
-0.0001375119666304188 
6.742893192114663e-05 
8.29970379403437e-05 
-0.0002392364097413468 
1.297803486745425e-05 
0.001593575477717133 
0.002072938506872754 
0 
-0.006041947095335723 
-0.001593575477717133 
0.002072938506872754 
0.0002392364097413468 
1.297803486745425e-05 
-6.742893192114663e-05 
8.29970379403437e-05 
4.842780237819105e-05 
-6.714763190100622e-05 
0.0004558487441552868 
-0.0002051106977199442 
0.0007573668915163955 
-0.002727810548379764 
0 
-0.004360863725031854 
-0.0007573668915163955 
-0.002727810548379764 
-0.0004558487441552868 
-0.0002051106977199442 
-4.842780237819105e-05 
-6.714763190100622e-05 
4.142174954984931e-05 
2.384563480605716e-05 
0.0005945694232808804 
-0.0006258530882446988 
-0.000253266589840019 
-0.002633792448250965 
0 
-0.005500167898881273 
0.000253266589840019 
-0.002633792448250965 
-0.0005945694232808804 
-0.0006258530882446988 
-4.142174954984931e-05 
2.384563480605716e-05 
-0.0001191610607463236 
0.0001193849152472764 
-4.809376795342367e-05 
0.0008681413893668863 
-0.0001956775264383504 
0.002174207636365322 
0 
0.008612933924322405 
0.0001956775264383504 
0.002174207636365322 
4.809376795342367e-05 
0.0008681413893668863 
0.0001191610607463236 
0.0001193849152472764 
1.963260069522612e-05 
-0.0001428410496830557 
-0.0001668422283309708 
-0.0003909524960471332 
0.0004448499666274596 
-0.001977841677705674 
0 
-0.008081989171612666 
-0.0004448499666274596 
-0.001977841677705674 
0.0001668422283309708 
-0.0003909524960471332 
-1.963260069522612e-05 
-0.0001428410496830557 
5.983887663397812e-05 
-7.378853319245498e-06 
-2.596915944459552e-05 
0.0001926657120150732 
0.002741701198278096 
-0.001765737036546362 
0 
-0.004699833978549267 
-0.002741701198278096 
-0.001765737036546362 
2.596915944459552e-05 
0.0001926657120150732 
-5.983887663397812e-05 
-7.378853319245498e-06 
0.0001037585202430435 
0.0001931747970346282 
0.000628613607812775 
4.860419725924527e-05 
0.003225188509287815 
-0.003078343876074999 
0 
-0.01078798144122031 
-0.003225188509287815 
-0.003078343876074999 
-0.000628613607812775 
4.860419725924527e-05 
-0.0001037585202430435 
0.0001931747970346282 
0.0001447574153505234 
8.37080789109004e-05 
0.0001987421375337771 
-0.0001865050606055874 
-0.00059959586002041 
0.001768805562145172 
0 
0.004557069076243204 
0.00059959586002041 
0.001768805562145172 
-0.0001987421375337771 
-0.0001865050606055874 
-0.0001447574153505234 
8.37080789109004e-05 
4.599969073889528e-05 
-0.0001179046077390809 
0.0002009475697613887 
-0.0006836109437499602 
-0.001633765996409847 
-0.003725677661079406 
0 
0.001690124913859229 
0.001633765996409847 
-0.003725677661079406 
-0.0002009475697613887 
-0.0006836109437499602 
-4.599969073889528e-05 
-0.0001179046077390809 
-2.735634113370329e-06 
-3.637921354122456e-05 
-0.0003225310990087973 
0.0001491250944185729 
0.0004847853989169045 
0.001243161476037184 
0 
-0.0003887694335779931 
-0.0004847853989169045 
0.001243161476037184 
0.0003225310990087973 
0.0001491250944185729 
2.735634113370329e-06 
-3.637921354122456e-05 
5.024464661313523e-05 
0.0001359345953576032 
0.0005459542464687664 
-0.0001304355518295632 
-0.00036368739968856 
-0.002032318958097752 
0 
0.0001805475421570495 
0.00036368739968856 
-0.002032318958097752 
-0.0005459542464687664 
-0.0001304355518295632 
-5.024464661313523e-05 
0.0001359345953576032 
4.616736490167247e-05 
-0.0002538572910930161 
-0.0005033272372166626 
-0.0004128852399134979 
-0.0001978779546951 
-0.001386933472935354 
0 
-0.002330097555010752 
0.0001978779546951 
-0.001386933472935354 
0.0005033272372166626 
-0.0004128852399134979 
-4.616736490167247e-05 
-0.0002538572910930161 
-6.839558031191552e-05 
-0.0001096734999967321 
-0.0007353785308346555 
-0.0002579427548624508 
-0.002482207302642805 
0.001841726785731638 
0 
0.005733458575405879 
0.002482207302642805 
0.001841726785731638 
0.0007353785308346555 
-0.0002579427548624508 
6.839558031191552e-05 
-0.0001096734999967321 
-0.00029228112704656 
-0.0001707234924304047 
-0.001250433011684077 
0.0007921085385383746 
-0.001351079717368264 
0.004645801235234828 
0 
0.01065186876488573 
0.001351079717368264 
0.004645801235234828 
0.001250433011684077 
0.0007921085385383746 
0.00029228112704656 
-0.0001707234924304047 
0.0001117173074188314 
-0.0001003138166992051 
-0.0001844869769492113 
-0.001099806325068651 
-0.000414844599483391 
-0.003122594135040996 
0 
-0.006745015204767803 
0.000414844599483391 
-0.003122594135040996 
0.0001844869769492113 
-0.001099806325068651 
-0.0001117173074188314 
-0.0001003138166992051 
-4.816862549951484e-05 
-6.712041289181192e-05 
-0.0001775190906482216 
0.0001175100764226648 
0.0005056818060744127 
0.0005408482261402194 
0 
-0.002850847545532694 
-0.0005056818060744127 
0.0005408482261402194 
0.0001775190906482216 
0.0001175100764226648 
4.816862549951484e-05 
-6.712041289181192e-05 
-3.062990352118798e-05 
-5.000561843435357e-05 
0.0001549873287536245 
-0.0001040896871510007 
-0.0002330115946134363 
-0.0004019886681299707 
0 
0.001147912854277723 
0.0002330115946134363 
-0.0004019886681299707 
-0.0001549873287536245 
-0.0001040896871510007 
3.062990352118798e-05 
-5.000561843435357e-05 
-0.0001613472015394669 
3.048496693078152e-06 
-0.0004235500753684135 
0.00024614074774609 
-0.0009578633673752274 
0.0006033935050663553 
0 
0.003443815619463854 
0.0009578633673752274 
0.0006033935050663553 
0.0004235500753684135 
0.00024614074774609 
0.0001613472015394669 
3.048496693078152e-06 
-0.0001218571090100215 
4.783342433334261e-05 
-0.0004722099433361324 
0.0005154764152509988 
0.0005098143017149495 
0.002071171601748035 
0 
0.005724514383961868 
-0.0005098143017149495 
0.002071171601748035 
0.0004722099433361324 
0.0005154764152509988 
0.0001218571090100215 
4.783342433334261e-05 
-4.587451427007024e-05 
-4.222752730385999e-05 
0.0006624391783055215 
-0.0003212761264508667 
0.0006868783606167213 
-0.005344946476625886 
0 
-0.01024709988186352 
-0.0006868783606167213 
-0.005344946476625886 
-0.0006624391783055215 
-0.0003212761264508667 
4.587451427007024e-05 
-4.222752730385999e-05 
5.962565808719793e-05 
1.387562148653144e-05 
0.0004361418558113482 
-0.0001251401849827704 
0.001698116162971297 
-0.003658234004840296 
0 
-0.005224930229730567 
-0.001698116162971297 
-0.003658234004840296 
-0.0004361418558113482 
-0.0001251401849827704 
-5.962565808719793e-05 
1.387562148653144e-05 
-0.0001596218537622256 
-1.05648076076933e-05 
-0.0009158035115065028 
0.0002935411786849476 
-0.00146013405610851 
0.005048007099018148 
0 
0.007428885132249988 
0.00146013405610851 
0.005048007099018148 
0.0009158035115065028 
0.0002935411786849476 
0.0001596218537622256 
-1.05648076076933e-05 
6.497023292481212e-05 
-5.024268021904883e-05 
5.109185158562254e-05 
-0.0006122408446968558 
-0.001012687583766473 
-0.0008420359786166596 
0 
-0.003629196346581826 
0.001012687583766473 
-0.0008420359786166596 
-5.109185158562254e-05 
-0.0006122408446968558 
-6.497023292481212e-05 
-5.024268021904883e-05 
-2.246261741429601e-05 
-6.283487316419846e-05 
-0.0003315047166522792 
-0.000254124688487738 
0.001376010011561506 
-0.0008350871283058963 
0 
-0.004422180314698379 
-0.001376010011561506 
-0.0008350871283058963 
0.0003315047166522792 
-0.000254124688487738 
2.246261741429601e-05 
-6.283487316419846e-05 
4.58290295576337e-05 
-0.0001228791101763676 
-0.0004280489860982426 
-0.0003679603650428873 
0.0001849209743651506 
0.0003885816956744801 
0 
-0.0003408024377755196 
-0.0001849209743651506 
0.0003885816956744801 
0.0004280489860982426 
-0.0003679603650428873 
-4.58290295576337e-05 
-0.0001228791101763676 
4.355101383830048e-05 
-0.0001150085928028721 
-0.0002429046019904679 
-0.001078398360171811 
-0.004027483601898049 
-0.0005425577789011085 
0 
0.007578646514282915 
0.004027483601898049 
-0.0005425577789011085 
0.0002429046019904679 
-0.001078398360171811 
-4.355101383830048e-05 
-0.0001150085928028721 
2.728350370754794e-05 
-0.000106006728827399 
-0.0001558568573392151 
-0.0005222235234028071 
-0.003090833072900113 
0.0001248581641762829 
0 
0.00844418069584341 
0.003090833072900113 
0.0001248581641762829 
0.0001558568573392151 
-0.0005222235234028071 
-2.728350370754794e-05 
-0.000106006728827399 
-7.13477131984438e-06 
-1.56579416894228e-05 
-0.0002527400687505444 
0.0002261458161558227 
0.001567129900250593 
0.0001702481450244616 
0 
-0.0008932332856780923 
-0.001567129900250593 
0.0001702481450244616 
0.0002527400687505444 
0.0002261458161558227 
7.13477131984438e-06 
-1.56579416894228e-05 
-5.653358356597249e-05 
6.682948190597646e-05 
0.0003111716418977561 
0.0007314792475129326 
0.002615000206607853 
-0.0009530405202717838 
0 
0.001041819629705052 
-0.002615000206607853 
-0.0009530405202717838 
-0.0003111716418977561 
0.0007314792475129326 
5.653358356597249e-05 
6.682948190597646e-05 
6.855650184376263e-05 
2.916550243318518e-05 
0.0004109040770266917 
-0.0002024373159000877 
0.001628663051508977 
-0.003434770164149668 
0 
-0.005297989222430035 
-0.001628663051508977 
-0.003434770164149668 
-0.0004109040770266917 
-0.0002024373159000877 
-6.855650184376263e-05 
2.916550243318518e-05 
-0.000116539317185663 
0.0001487457842573834 
0.0007118466118984779 
0.0005814119581108347 
0.002532305252860959 
-0.002649863221577876 
0 
-0.01042529202141339 
-0.002532305252860959 
-0.002649863221577876 
-0.0007118466118984779 
0.0005814119581108347 
0.000116539317185663 
0.0001487457842573834 
-0.0001250906462901593 
9.092236028212156e-06 
0.0003922880914074925 
0.0005851773156023786 
0.004256794849477367 
-0.003639026576863148 
0 
-0.01126112917920576 
-0.004256794849477367 
-0.003639026576863148 
-0.0003922880914074925 
0.0005851773156023786 
0.0001250906462901593 
9.092236028212156e-06 
0.0001003679143512509 
0.0001332019261902259 
0.000297466410472963 
0.0007864467386971541 
0.003472789934334844 
0.0009667918862111074 
0 
-0.001183245186688483 
-0.003472789934334844 
0.0009667918862111074 
-0.000297466410472963 
0.0007864467386971541 
-0.0001003679143512509 
0.0001332019261902259 
3.679363482274047e-05 
-2.892974487998116e-05 
0.0004330686528303869 
-0.0002494346358117544 
0.000469245004646107 
-0.002291832258473303 
0 
-0.003882801226520166 
-0.000469245004646107 
-0.002291832258473303 
-0.0004330686528303869 
-0.0002494346358117544 
-3.679363482274047e-05 
-2.892974487998116e-05 
-2.902526996761405e-05 
-0.0001001191830119087 
3.764629370051689e-05 
-0.0001092395057592056 
-0.001601737169027469 
-0.001795659160383784 
0 
0.00496931562508283 
0.001601737169027469 
-0.001795659160383784 
-3.764629370051689e-05 
-0.0001092395057592056 
2.902526996761405e-05 
-0.0001001191830119087 
-0.0001493713448024215 
-0.0001681347305468156 
-0.0005728780139968102 
-0.0001795583776178105 
-0.002494912855885703 
0.0007980583987498849 
0 
0.004716255522576861 
0.002494912855885703 
0.0007980583987498849 
0.0005728780139968102 
-0.0001795583776178105 
0.0001493713448024215 
-0.0001681347305468156 
2.264812558317809e-05 
4.932453545242885e-05 
0.0005837198583295494 
-1.770824038072559e-05 
9.285454939943352e-05 
-0.0004240944893568971 
0 
-0.002529022678078157 
-9.285454939943352e-05 
-0.0004240944893568971 
-0.0005837198583295494 
-1.770824038072559e-05 
-2.264812558317809e-05 
4.932453545242885e-05 
4.090343741113003e-05 
-0.0001529660604771624 
0.0001071059389624083 
-0.0007646751901953032 
7.107042974465675e-05 
-0.003112600716096288 
0 
-0.01152608387590546 
-7.107042974465675e-05 
-0.003112600716096288 
-0.0001071059389624083 
-0.0007646751901953032 
-4.090343741113003e-05 
-0.0001529660604771624 
0.0001016485271505144 
-2.596706331293755e-05 
3.234384620612693e-05 
-0.0002051756886696959 
0.0006336955519129733 
-0.001048214767471812 
0 
-0.003550833062735493 
-0.0006336955519129733 
-0.001048214767471812 
-3.234384620612693e-05 
-0.0002051756886696959 
-0.0001016485271505144 
-2.596706331293755e-05 
1.534905127594503e-05 
-0.0001029968678684186 
4.300920650725761e-06 
-0.0005963304134486706 
-0.0005680618639117733 
-0.002035203629259429 
0 
-0.006882939684256504 
0.0005680618639117733 
-0.002035203629259429 
-4.300920650725761e-06 
-0.0005963304134486706 
-1.534905127594503e-05 
-0.0001029968678684186 
2.060041047421806e-05 
-0.0001288669210475434 
-0.0002794771785418225 
-0.0003479709946959234 
-0.002333644081236362 
-5.30885756388566e-05 
0 
0.007483375744277907 
0.002333644081236362 
-5.30885756388566e-05 
0.0002794771785418225 
-0.0003479709946959234 
-2.060041047421806e-05 
-0.0001288669210475434 
7.521976308020635e-05 
0.0001086123684342068 
0.0001521063530756297 
0.0001702969934950319 
-0.0001118513377863062 
0.001871807595553185 
0 
0.003877245527295168 
0.0001118513377863062 
0.001871807595553185 
-0.0001521063530756297 
0.0001702969934950319 
-7.521976308020635e-05 
0.0001086123684342068 
-2.299177297934637e-05 
-5.516915600366129e-05 
4.738427611954482e-05 
-0.0002645535660472293 
-0.000765767610468416 
-8.195022574706614e-05 
0 
-0.0005764762054842963 
0.000765767610468416 
-8.195022574706614e-05 
-4.738427611954482e-05 
-0.0002645535660472293 
2.299177297934637e-05 
-5.516915600366129e-05 
5.11080472617078e-05 
-0.000185112135820718 
-0.0004054513496729494 
-0.0008623376918269145 
-0.004820307915332564 
-0.0005839363208580879 
0 
0.01109324007204889 
0.004820307915332564 
-0.0005839363208580879 
0.0004054513496729494 
-0.0008623376918269145 
-5.11080472617078e-05 
-0.000185112135820718 
-1.16459850279946e-05 
-4.023991097615566e-07 
0.0004838902800594293 
-0.0002555237903840333 
0.001410445244946628 
-0.004164713845041465 
0 
-0.01064366430843963 
-0.001410445244946628 
-0.004164713845041465 
-0.0004838902800594293 
-0.0002555237903840333 
1.16459850279946e-05 
-4.023991097615566e-07 
0.0001683967118331536 
-1.272996817117942e-05 
0.0001857082664083354 
-0.001015929380541798 
-0.001617246649186751 
-0.001724237787298917 
0 
0.0004001075527944456 
0.001617246649186751 
-0.001724237787298917 
-0.0001857082664083354 
-0.001015929380541798 
-0.0001683967118331536 
-1.272996817117942e-05 
-0.0001535438833548458 
8.223967283321256e-05 
0.0002008372491234719 
0.0008892834126334432 
0.001524686276024213 
-0.0003232972086028111 
0 
0.003466908849041573 
-0.001524686276024213 
-0.0003232972086028111 
-0.0002008372491234719 
0.0008892834126334432 
0.0001535438833548458 
8.223967283321256e-05 
3.535411156619805e-05 
-0.0002159761212102549 
5.799150117962105e-05 
1.292682385157103e-05 
5.909368368819766e-05 
-0.003592850447458841 
0 
0.001254302057203172 
-5.909368368819766e-05 
-0.003592850447458841 
-5.799150117962105e-05 
1.292682385157103e-05 
-3.535411156619805e-05 
-0.0002159761212102549 
5.342162135815768e-05 
0.0002602490769594413 
7.293654997951584e-05 
0.001287414867568686 
0.000971462288179711 
0.006223469038988083 
0 
0.01863287025651128 
-0.000971462288179711 
0.006223469038988083 
-7.293654997951584e-05 
0.001287414867568686 
-5.342162135815768e-05 
0.0002602490769594413 
0.0001502578203132621 
4.301745223514978e-05 
0.0002424400490579159 
-0.0003915106107618153 
0.0005684479891469017 
-0.002846886833063562 
0 
-0.0008224152003875583 
-0.0005684479891469017 
-0.002846886833063562 
-0.0002424400490579159 
-0.0003915106107618153 
-0.0001502578203132621 
4.301745223514978e-05 
-1.426804204819608e-05 
-0.0001253319991831249 
3.278370503517431e-05 
3.053015334941421e-05 
-5.052002021582991e-05 
-0.002981422203571462 
0 
0.002906499771609542 
5.052002021582991e-05 
-0.002981422203571462 
-3.278370503517431e-05 
3.053015334941421e-05 
1.426804204819608e-05 
-0.0001253319991831249 
7.00557790535854e-05 
-0.0001050941466466394 
0.0002279980451375289 
-0.0001296443283248099 
0.0005787356370382306 
-0.002790769821733317 
0 
-0.00234547275458059 
-0.0005787356370382306 
-0.002790769821733317 
-0.0002279980451375289 
-0.0001296443283248099 
-7.00557790535854e-05 
-0.0001050941466466394 
-7.997640090010473e-05 
-0.0002774162049724791 
-0.0004895698102100158 
-0.001060776512422367 
-0.002170859384488358 
-0.002647676708947205 
0 
-0.002835783779604482 
0.002170859384488358 
-0.002647676708947205 
0.0004895698102100158 
-0.001060776512422367 
7.997640090010473e-05 
-0.0002774162049724791 
-9.995534334019951e-05 
2.758855194021724e-05 
-9.004371846122059e-06 
0.0001534152013243207 
-0.00158709306065736 
0.001170483691451822 
0 
0.00786197941262463 
0.00158709306065736 
0.001170483691451822 
9.004371846122059e-06 
0.0001534152013243207 
9.995534334019951e-05 
2.758855194021724e-05 
-0.0001072051291154132 
-7.75444922334053e-05 
2.740415022726971e-05 
-0.0004448144100704575 
-0.002129103100706199 
-0.0007773994366369643 
0 
0.003289578041833834 
0.002129103100706199 
-0.0007773994366369643 
-2.740415022726971e-05 
-0.0004448144100704575 
0.0001072051291154132 
-7.75444922334053e-05 
9.319551886309971e-05 
-9.452914907542592e-05 
-2.77406082111684e-05 
-0.0008544765063166257 
-0.001881479283870998 
-0.0006380542352631774 
0 
0.001126386973608211 
0.001881479283870998 
-0.0006380542352631774 
2.77406082111684e-05 
-0.0008544765063166257 
-9.319551886309971e-05 
-9.452914907542592e-05 
1.71622490459884e-05 
1.089857274300782e-05 
0.0009867633263522181 
-0.0002600754995651125 
6.124607111025995e-05 
-0.005787116023261137 
0 
-0.001945365396996435 
-6.124607111025995e-05 
-0.005787116023261137 
-0.0009867633263522181 
-0.0002600754995651125 
-1.71622490459884e-05 
1.089857274300782e-05 
0.0001116128759436054 
0.0002304175325934876 
0.000929980850763262 
0.0008484523239216817 
0.003906077675975098 
-0.0006960698123731209 
0 
-0.003673246426621121 
-0.003906077675975098 
-0.0006960698123731209 
-0.000929980850763262 
0.0008484523239216817 
-0.0001116128759436054 
0.0002304175325934876 
8.441840230489878e-05 
-7.581394764566833e-05 
0.0001771071829559725 
-0.000420629164650281 
-0.0003656105196533544 
-0.003439350825707196 
0 
-0.001061259809218361 
0.0003656105196533544 
-0.003439350825707196 
-0.0001771071829559725 
-0.000420629164650281 
-8.441840230489878e-05 
-7.581394764566833e-05 
9.776923593294742e-05 
-2.158824939557953e-05 
0.0001120038484361748 
-0.0009180381205812341 
-0.001712869309004718 
-0.001491034819815877 
0 
0.0009661775203770434 
0.001712869309004718 
-0.001491034819815877 
-0.0001120038484361748 
-0.0009180381205812341 
-9.776923593294742e-05 
-2.158824939557953e-05 
5.902330587899153e-05 
0.0001204993733697723 
0.0003287266238890613 
6.61460774224777e-05 
0.00157565780602597 
-0.001374534561185072 
0 
0.0003612917766245289 
-0.00157565780602597 
-0.001374534561185072 
-0.0003287266238890613 
6.61460774224777e-05 
-5.902330587899153e-05 
0.0001204993733697723 
-7.836619062943951e-05 
-0.000128564447056725 
-0.0002758901063378324 
-0.0003145756661511323 
-0.003165119438182961 
-0.001042603779529656 
0 
0.001811988412939711 
0.003165119438182961 
-0.001042603779529656 
0.0002758901063378324 
-0.0003145756661511323 
7.836619062943951e-05 
-0.000128564447056725 
-0.0001651514007021364 
-1.058438522837866e-05 
-0.0003050609420229422 
0.000164349811586929 
0.0003511381977380193 
-0.0003124184421336173 
0 
-0.0009584856949896563 
-0.0003511381977380193 
-0.0003124184421336173 
0.0003050609420229422 
0.000164349811586929 
0.0001651514007021364 
-1.058438522837866e-05 
-0.0001019509474717401 
5.652417893632883e-07 
-0.0001729902247384916 
0.0003330483821687774 
-0.0002119494685150149 
0.002469976084933601 
0 
0.003044638974985645 
0.0002119494685150149 
0.002469976084933601 
0.0001729902247384916 
0.0003330483821687774 
0.0001019509474717401 
5.652417893632883e-07 
1.066470771201285e-05 
-0.0001484910811034804 
-0.0001616977122998704 
-0.0004275426210403328 
-0.000117315881198848 
-0.003021736162655282 
0 
1.62664730823443e-05 
0.000117315881198848 
-0.003021736162655282 
0.0001616977122998704 
-0.0004275426210403328 
-1.066470771201285e-05 
-0.0001484910811034804 
-0.0001218177823863599 
2.532888688067839e-05 
0.0004082149781586279 
0.0007711468271941283 
0.003403069002547071 
-0.002937380441864334 
0 
-0.007411454503900079 
-0.003403069002547071 
-0.002937380441864334 
-0.0004082149781586279 
0.0007711468271941283 
0.0001218177823863599 
2.532888688067839e-05 
0.0001791475462253969 
6.740441045063476e-05 
0.0001870285139083448 
0.0003388660318397106 
0.002372198228675642 
0.001914984904841939 
0 
-0.002510797869351676 
-0.002372198228675642 
0.001914984904841939 
-0.0001870285139083448 
0.0003388660318397106 
-0.0001791475462253969 
6.740441045063476e-05 
-9.94802255176126e-05 
-0.0001213755854793095 
-0.0005492156322082347 
-8.244716752259763e-05 
-0.001493630715738374 
0.0004875688992414047 
0 
0.009296653314245713 
0.001493630715738374 
0.0004875688992414047 
0.0005492156322082347 
-8.244716752259763e-05 
9.94802255176126e-05 
-0.0001213755854793095 
0.0001172877525619432 
-0.0001419954426754538 
3.820525855572901e-05 
-0.001035874137001786 
-0.0005243000822256656 
-0.002217989116851009 
0 
-0.004092412939785693 
0.0005243000822256656 
-0.002217989116851009 
-3.820525855572901e-05 
-0.001035874137001786 
-0.0001172877525619432 
-0.0001419954426754538 
6.021072566406178e-06 
-9.577868168130186e-06 
0.0005093344811145643 
-0.0002483481306082739 
0.001494530645724569 
-0.003733003357319155 
0 
-0.004759548211855223 
-0.001494530645724569 
-0.003733003357319155 
-0.0005093344811145643 
-0.0002483481306082739 
-6.021072566406178e-06 
-9.577868168130186e-06 
0.0002464168692125877 
-9.905390493650953e-05 
0.0003004054496927691 
-0.001158614825959274 
-0.001435420988912291 
-0.002274209968145034 
0 
-0.005275737533146776 
0.001435420988912291 
-0.002274209968145034 
-0.0003004054496927691 
-0.001158614825959274 
-0.0002464168692125877 
-9.905390493650953e-05 
3.99357294671804e-05 
-7.628711587538623e-05 
-0.0004573049816453843 
1.823238462415663e-05 
0.001165004217530924 
0.001488081478899645 
0 
-0.002669405204354329 
-0.001165004217530924 
0.001488081478899645 
0.0004573049816453843 
1.823238462415663e-05 
-3.99357294671804e-05 
-7.628711587538623e-05 
4.10899832429189e-06 
9.37040260422699e-05 
-3.323004452487953e-05 
0.0002172476794097565 
-0.0004063871725302193 
0.002144065648158958 
0 
0.007336401573164429 
0.0004063871725302193 
0.002144065648158958 
3.323004452487953e-05 
0.0002172476794097565 
-4.10899832429189e-06 
9.37040260422699e-05 
7.086165314355947e-05 
-0.0001670173986297797 
-0.000236050411823856 
-0.0008062610531368141 
-0.000844099154165912 
-0.001593432204455635 
0 
-0.006828182228982206 
0.000844099154165912 
-0.001593432204455635 
0.000236050411823856 
-0.0008062610531368141 
-7.086165314355947e-05 
-0.0001670173986297797 
6.936128643588505e-05 
-0.0001294970994905274 
-0.0002584911298118015 
-0.0001795331138514702 
0.0006265692864198802 
-0.0007281164334906039 
0 
0.000452619582367455 
-0.0006265692864198802 
-0.0007281164334906039 
0.0002584911298118015 
-0.0001795331138514702 
-6.936128643588505e-05 
-0.0001294970994905274 
-6.189308243095816e-05 
-1.465663429201847e-06 
-0.0003661350892302487 
0.0007630979764194525 
0.002063538448594261 
0.00263762860079674 
0 
0.00060697396265571 
-0.002063538448594261 
0.00263762860079674 
0.0003661350892302487 
0.0007630979764194525 
6.189308243095816e-05 
-1.465663429201847e-06 
-2.506746273633324e-05 
-3.106941189085595e-05 
-2.176025411020693e-05 
-0.00042808561339857 
-0.001642250577577561 
-0.001283354624431507 
0 
0.003875342229274718 
0.001642250577577561 
-0.001283354624431507 
2.176025411020693e-05 
-0.00042808561339857 
2.506746273633324e-05 
-3.106941189085595e-05 
7.764347931005562e-05 
4.379357324052568e-05 
0.0003618495490173408 
-0.0003387647551021291 
-0.0005641595764374582 
-0.001858637042999841 
0 
0.001969769084095549 
0.0005641595764374582 
-0.001858637042999841 
-0.0003618495490173408 
-0.0003387647551021291 
-7.764347931005562e-05 
4.379357324052568e-05 
7.783398539258168e-05 
-5.015678874305851e-05 
0.0002276038519004355 
-0.0004321875586365669 
0.0005287863807420936 
-0.001741573848301408 
0 
-0.004751561275870438 
-0.0005287863807420936 
-0.001741573848301408 
-0.0002276038519004355 
-0.0004321875586365669 
-7.783398539258168e-05 
-5.015678874305851e-05 
0.0001811845631526397 
-0.0003179981500469628 
-0.000409079096604535 
-0.001425255485927032 
-0.001308077721512402 
-0.003617349463429624 
0 
-0.007300785535403887 
0.001308077721512402 
-0.003617349463429624 
0.000409079096604535 
-0.001425255485927032 
-0.0001811845631526397 
-0.0003179981500469628 
2.26407019234716e-05 
-8.15511902989705e-05 
-4.781560883639256e-06 
-0.0004776413555160901 
-0.001220275588666083 
-0.0002353604982411072 
0 
-0.0005518301047972467 
0.001220275588666083 
-0.0002353604982411072 
4.781560883639256e-06 
-0.0004776413555160901 
-2.26407019234716e-05 
-8.15511902989705e-05 
-5.351947233299283e-05 
9.348258723798514e-05 
0.0001073110007122889 
0.0006781676494565377 
0.003758604818057351 
-0.0004729605477868986 
0 
-0.003488160289757994 
-0.003758604818057351 
-0.0004729605477868986 
-0.0001073110007122889 
0.0006781676494565377 
5.351947233299283e-05 
9.348258723798514e-05 
6.882875991724229e-05 
-2.847108380997335e-05 
-0.0001229504981970322 
-0.0003369855315181614 
0.0007784212444134126 
-0.0003252970044095001 
0 
-0.002387312293037961 
-0.0007784212444134126 
-0.0003252970044095001 
0.0001229504981970322 
-0.0003369855315181614 
-6.882875991724229e-05 
-2.847108380997335e-05 
-1.819906612454567e-05 
-8.674944763617843e-06 
0.0005224671432815846 
0.0002866149676706472 
0.0006858426478715821 
-0.002747399206169247 
0 
-0.0006310238984112311 
-0.0006858426478715821 
-0.002747399206169247 
-0.0005224671432815846 
0.0002866149676706472 
1.819906612454567e-05 
-8.674944763617843e-06 
-5.062177323089129e-05 
0.0001994218421695718 
-0.0002159689235793932 
0.001122149487799233 
6.56950792881032e-05 
0.005318077633877775 
0 
0.015188148053947 
-6.56950792881032e-05 
0.005318077633877775 
0.0002159689235793932 
0.001122149487799233 
5.062177323089129e-05 
0.0001994218421695718 
7.337206481187421e-05 
3.190357455712867e-05 
0.0005071832423176835 
1.412539795886498e-05 
0.001651805654619725 
-0.004164351814672697 
0 
-0.001261309716814044 
-0.001651805654619725 
-0.004164351814672697 
-0.0005071832423176835 
1.412539795886498e-05 
-7.337206481187421e-05 
3.190357455712867e-05 
0.0001302945546195687 
-6.233558075861773e-05 
0.0007486816194012851 
-0.0008235695283340564 
3.796887150448576e-05 
-0.005813223158878581 
0 
-0.008413966401059719 
-3.796887150448576e-05 
-0.005813223158878581 
-0.0007486816194012851 
-0.0008235695283340564 
-0.0001302945546195687 
-6.233558075861773e-05 
-3.757915752999565e-05 
-6.271061890989356e-05 
-0.0003168726917124601 
0.0003650047649565864 
0.001604906681206848 
-0.0002230413151384273 
0 
-0.0005400335052193153 
-0.001604906681206848 
-0.0002230413151384273 
0.0003168726917124601 
0.0003650047649565864 
3.757915752999565e-05 
-6.271061890989356e-05 
5.286567448616208e-05 
-0.0003078651731593951 
-9.850292764452721e-05 
-0.001433832166695276 
-0.00221727689219802 
-0.00436768101527356 
0 
-0.01008461146523819 
0.00221727689219802 
-0.00436768101527356 
9.850292764452721e-05 
-0.001433832166695276 
-5.286567448616208e-05 
-0.0003078651731593951 
-8.100037988518598e-06 
-6.418025411186062e-05 
1.78050516499887e-06 
-0.000348090621308178 
-0.001970966685017016 
-0.00197388866218755 
0 
0.006472041862752929 
0.001970966685017016 
-0.00197388866218755 
-1.78050516499887e-06 
-0.000348090621308178 
8.100037988518598e-06 
-6.418025411186062e-05 
-0.0001557029559852567 
-2.355920967109185e-05 
-0.0004391605502221575 
0.0005914785194287254 
-0.000759672462335901 
0.003185405835961763 
0 
0.01063486076971079 
0.000759672462335901 
0.003185405835961763 
0.0004391605502221575 
0.0005914785194287254 
0.0001557029559852567 
-2.355920967109185e-05 
0.0001150883689966012 
-0.0002774339194319904 
0.0002531936132895134 
-0.001223317567001643 
-0.0006157708365777999 
-0.006531225021990384 
0 
-0.01185508996065831 
0.0006157708365777999 
-0.006531225021990384 
-0.0002531936132895134 
-0.001223317567001643 
-0.0001150883689966012 
-0.0002774339194319904 
0.0001851036549502142 
2.766966094582964e-05 
0.0006973008575634345 
-0.001200442362666971 
-0.0033729166710325 
-0.003869837211567479 
0 
0.004363307763648492 
0.0033729166710325 
-0.003869837211567479 
-0.0006973008575634345 
-0.001200442362666971 
-0.0001851036549502142 
2.766966094582964e-05 
-0.0001380916969663229 
0.00017404109226795 
-0.0002173113613652129 
0.001164563683604594 
-0.001770201217203927 
0.0053480557510624 
0 
0.02271601532868949 
0.001770201217203927 
0.0053480557510624 
0.0002173113613652129 
0.001164563683604594 
0.0001380916969663229 
0.00017404109226795 
2.131907460933658e-05 
-0.0001719495959532751 
-0.0004552063816379601 
-0.0005697060694762217 
-0.002148535382452623 
-0.0008826509173305318 
0 
0.006537920444760398 
0.002148535382452623 
-0.0008826509173305318 
0.0004552063816379601 
-0.0005697060694762217 
-2.131907460933658e-05 
-0.0001719495959532751 
0.0001716474564751642 
-0.0001801172825022662 
-0.0002635770715277945 
-0.000770519781981133 
-0.0001101709370841263 
-0.002818846556606157 
0 
-0.001007755427174343 
0.0001101709370841263 
-0.002818846556606157 
0.0002635770715277945 
-0.000770519781981133 
-0.0001716474564751642 
-0.0001801172825022662 
9.058038571953597e-05 
5.307891922967475e-05 
6.558187927946152e-05 
-0.0002691470582485214 
0.00102368684500149 
-0.001367899095848977 
0 
-0.003816172132692884 
-0.00102368684500149 
-0.001367899095848977 
-6.558187927946152e-05 
-0.0002691470582485214 
-9.058038571953597e-05 
5.307891922967475e-05 
-5.586647226831067e-06 
-0.0001721223724512695 
-0.0003631196410514043 
-0.0005871249489624485 
-0.002436898055053928 
-0.001625260073319943 
0 
0.005410729037618155 
0.002436898055053928 
-0.001625260073319943 
0.0003631196410514043 
-0.0005871249489624485 
5.586647226831067e-06 
-0.0001721223724512695 
-0.0001457561975487783 
-2.003589402207966e-05 
-0.0009349882730317209 
0.0004944001401025178 
-0.0004846208686557679 
0.004932761698364783 
0 
0.007861223129271348 
0.0004846208686557679 
0.004932761698364783 
0.0009349882730317209 
0.0004944001401025178 
0.0001457561975487783 
-2.003589402207966e-05 
-1.984528005937873e-05 
7.48734156477661e-05 
0.0001347724354896001 
0.0001247443572050063 
0.001410386176491516 
-0.001346208326684626 
0 
-0.006268172249692366 
-0.001410386176491516 
-0.001346208326684626 
-0.0001347724354896001 
0.0001247443572050063 
1.984528005937873e-05 
7.48734156477661e-05 
-1.11019734237263e-05 
-1.814669392484632e-05 
-0.0003070976616944247 
-5.596447508414314e-05 
0.0006619540043839738 
0.0003002333703157642 
0 
0.002660588533457716 
-0.0006619540043839738 
0.0003002333703157642 
0.0003070976616944247 
-5.596447508414314e-05 
1.11019734237263e-05 
-1.814669392484632e-05 
0.0001055109350283173 
-2.685521243577801e-05 
0.0006447073964718956 
-0.0004389769293891665 
7.743742333532826e-05 
-0.004653318592023356 
0 
-0.003244125093500874 
-7.743742333532826e-05 
-0.004653318592023356 
-0.0006447073964718956 
-0.0004389769293891665 
-0.0001055109350283173 
-2.685521243577801e-05 
2.111528893188333e-07 
6.111127987779454e-05 
-0.0002739877359897897 
0.00078190031970806 
0.0001780179636385927 
0.003093211251248893 
0 
0.01174336633446207 
-0.0001780179636385927 
0.003093211251248893 
0.0002739877359897897 
0.00078190031970806 
-2.111528893188333e-07 
6.111127987779454e-05 
-5.686374447417578e-05 
-6.374427850753908e-05 
2.496583689430547e-05 
-0.0005030428835649107 
-0.001384950049066221 
-0.001422010207269078 
0 
0.002608810420678758 
0.001384950049066221 
-0.001422010207269078 
-2.496583689430547e-05 
-0.0005030428835649107 
5.686374447417578e-05 
-6.374427850753908e-05 
0.000183202210394413 
2.879628300425423e-05 
0.0005892359413466915 
-0.0001691981921485689 
0.001200629147190821 
-0.002749170505409096 
0 
-0.005636851719693606 
-0.001200629147190821 
-0.002749170505409096 
-0.0005892359413466915 
-0.0001691981921485689 
-0.000183202210394413 
2.879628300425423e-05 
-7.717437238829025e-06 
-0.0001582701329493344 
-0.0002217995072636524 
-0.0002406487261777836 
0.0008128662455527432 
-0.001880579696701404 
0 
-0.00741547162777099 
-0.0008128662455527432 
-0.001880579696701404 
0.0002217995072636524 
-0.0002406487261777836 
7.717437238829025e-06 
-0.0001582701329493344 
-2.933588058094317e-05 
-0.0001905914456337768 
-0.0004286865058179001 
-0.0007337982352026507 
-0.001845959731173494 
-0.001351736906153107 
0 
-0.0005997843194152849 
0.001845959731173494 
-0.001351736906153107 
0.0004286865058179001 
-0.0007337982352026507 
2.933588058094317e-05 
-0.0001905914456337768 
9.097211694345374e-05 
1.165102700322218e-05 
-5.629409086187477e-05 
-0.0002967772557668814 
-0.0009636147061999764 
0.0005546556855352347 
0 
0.002409947149679639 
0.0009636147061999764 
0.0005546556855352347 
5.629409086187477e-05 
-0.0002967772557668814 
-9.097211694345374e-05 
1.165102700322218e-05 
-1.707943631031695e-05 
0.0001332848872997787 
0.0002936339071046228 
0.0001729833602384702 
0.002163735508385034 
-0.000733507837461805 
0 
-0.00544199330772463 
-0.002163735508385034 
-0.000733507837461805 
-0.0002936339071046228 
0.0001729833602384702 
1.707943631031695e-05 
0.0001332848872997787 
4.53009876327417e-05 
-0.0002638972579418954 
-0.0004552329463057666 
-0.00115679159597373 
0.0001277572136146699 
-0.002523522303262753 
0 
-0.01060451422400463 
-0.0001277572136146699 
-0.002523522303262753 
0.0004552329463057666 
-0.00115679159597373 
-4.53009876327417e-05 
-0.0002638972579418954 
0.0001376936722127843 
-2.178596218627286e-05 
0.0002277478822719874 
-0.0005439300775881325 
4.131232653355349e-05 
-0.003034030070431992 
0 
-0.0001615082684677894 
-4.131232653355349e-05 
-0.003034030070431992 
-0.0002277478822719874 
-0.0005439300775881325 
-0.0001376936722127843 
-2.178596218627286e-05 
-5.528462518998746e-05 
-0.0001279814329626874 
-0.0002357777347752327 
-4.78069183817516e-05 
9.799426683144057e-05 
0.0004685008463683278 
0 
-0.003224956885091185 
-9.799426683144057e-05 
0.0004685008463683278 
0.0002357777347752327 
-4.78069183817516e-05 
5.528462518998746e-05 
-0.0001279814329626874 
-5.624942700204423e-05 
-9.157518983384056e-05 
8.360368162743615e-05 
-0.0003228975358971045 
-0.0006530121505729864 
-0.0008846948799337624 
0 
-0.002918538333371342 
0.0006530121505729864 
-0.0008846948799337624 
-8.360368162743615e-05 
-0.0003228975358971045 
5.624942700204423e-05 
-9.157518983384056e-05 
-7.145192320955911e-05 
0.0002048105172246013 
-0.0002722918606026629 
0.001434489096719517 
0.001964842960363093 
0.004424695183145476 
0 
0.01070011700756803 
-0.001964842960363093 
0.004424695183145476 
0.0002722918606026629 
0.001434489096719517 
7.145192320955911e-05 
0.0002048105172246013 
-3.875510583023609e-05 
0.0001429359942370031 
0.000396237724986745 
6.984079108530709e-05 
-0.0005571196630788353 
-0.0004181585714153676 
0 
0.001079605957745332 
0.0005571196630788353 
-0.0004181585714153676 
-0.000396237724986745 
6.984079108530709e-05 
3.875510583023609e-05 
0.0001429359942370031 
0.0001817033218085173 
-0.0001870484709763368 
8.027247801299741e-05 
-0.00103649215599614 
-0.001093363816104206 
-0.001933708163476869 
0 
-0.009626645890230911 
0.001093363816104206 
-0.001933708163476869 
-8.027247801299741e-05 
-0.00103649215599614 
-0.0001817033218085173 
-0.0001870484709763368 
0.0002486438098028225 
-3.194003533085831e-05 
0.0005867739139753229 
-0.001239604749415981 
-0.001888067756507817 
-0.003417187516837478 
0 
-0.003698489326927251 
0.001888067756507817 
-0.003417187516837478 
-0.0005867739139753229 
-0.001239604749415981 
-0.0002486438098028225 
-3.194003533085831e-05 
-0.0001189426574641098 
-1.956214268851429e-05 
0.0002544533841143831 
-8.727304831827812e-05 
-0.0006734101916392156 
-0.001311887038889029 
0 
0.004687265576615033 
0.0006734101916392156 
-0.001311887038889029 
-0.0002544533841143831 
-8.727304831827812e-05 
0.0001189426574641098 
-1.956214268851429e-05 
6.623975164703796e-05 
-3.84151108314229e-05 
0.0002845514993497808 
-0.0003655784742982767 
-0.000732834628819743 
-0.002689425809277445 
0 
0.0009418235933294983 
0.000732834628819743 
-0.002689425809277445 
-0.0002845514993497808 
-0.0003655784742982767 
-6.623975164703796e-05 
-3.84151108314229e-05 
9.949688539401789e-05 
-0.0001452832453333214 
-4.832443662471549e-05 
-0.0007475478333044734 
-0.002604776027666777 
-0.001743197853159322 
0 
0.006661258799240058 
0.002604776027666777 
-0.001743197853159322 
4.832443662471549e-05 
-0.0007475478333044734 
-9.949688539401789e-05 
-0.0001452832453333214 
9.389151077459157e-05 
-7.814082002210425e-05 
-9.481383114134213e-05 
-0.0003449214072081657 
-2.584311239855127e-05 
-0.001759053648170447 
0 
-0.002505414015544531 
2.584311239855127e-05 
-0.001759053648170447 
9.481383114134213e-05 
-0.0003449214072081657 
-9.389151077459157e-05 
-7.814082002210425e-05 
-1.120263321039046e-05 
2.787527493209324e-05 
0.0001080665477338823 
0.0002496279934289924 
0.0005055046217684844 
-0.0002349129915337667 
0 
0.002202962123308557 
-0.0005055046217684844 
-0.0002349129915337667 
-0.0001080665477338823 
0.0002496279934289924 
1.120263321039046e-05 
2.787527493209324e-05 
-6.396461929354563e-05 
-6.988443403387938e-05 
-0.0003401504145053571 
-6.302887834520641e-06 
-0.0017911532879222 
0.0003092912458723029 
0 
0.007645051875784251 
0.0017911532879222 
0.0003092912458723029 
0.0003401504145053571 
-6.302887834520641e-06 
6.396461929354563e-05 
-6.988443403387938e-05 
-0.0001021939142083308 
1.934473937739957e-05 
0.000179544410705948 
8.631661882602409e-05 
0.0005635285088724974 
-0.0004798050729761427 
0 
0.0003784749890659607 
-0.0005635285088724974 
-0.0004798050729761427 
-0.000179544410705948 
8.631661882602409e-05 
0.0001021939142083308 
1.934473937739957e-05 
-0.0002217209178685024 
9.734055632014985e-05 
-0.0002049274438920943 
0.0005086007934896456 
-0.0001008137334700596 
0.001260846017487869 
0 
0.001985862380515328 
0.0001008137334700596 
0.001260846017487869 
0.0002049274438920943 
0.0005086007934896456 
0.0002217209178685024 
9.734055632014985e-05 
0.0001336851280640112 
-0.0001133676543019417 
0.000121313098694393 
-0.001183786515948556 
-0.002593241914923323 
-0.00105644118603475 
0 
-0.0003151028910200119 
0.002593241914923323 
-0.00105644118603475 
-0.000121313098694393 
-0.001183786515948556 
-0.0001336851280640112 
-0.0001133676543019417 
-1.700173587703012e-05 
5.277393198311593e-06 
-0.0004009672347403566 
-0.000140916347752902 
-0.002795849199682151 
0.002493277591917665 
0 
0.01562921434793127 
0.002795849199682151 
0.002493277591917665 
0.0004009672347403566 
-0.000140916347752902 
1.700173587703012e-05 
5.277393198311593e-06 
9.296689432313198e-05 
-1.611789370663028e-05 
2.294405011609238e-05 
-0.0003967771775804539 
-0.001436361722232888 
-0.0005673889037971583 
0 
0.005338878609610919 
0.001436361722232888 
-0.0005673889037971583 
-2.294405011609238e-05 
-0.0003967771775804539 
-9.296689432313198e-05 
-1.611789370663028e-05 
-6.231739472089257e-05 
-5.848616819292781e-05 
-0.0003192263056760352 
0.0002210764734518907 
-0.0007481132175632121 
-0.0002732711798724496 
0 
0.00709651437512006 
0.0007481132175632121 
-0.0002732711798724496 
0.0003192263056760352 
0.0002210764734518907 
6.231739472089257e-05 
-5.848616819292781e-05 
-5.865142244458628e-05 
0.0001786313183772757 
0.0002181564719412983 
0.0007962203062557851 
0.002199308698573583 
0.001328715399800583 
0 
0.001670139848363243 
-0.002199308698573583 
0.001328715399800583 
-0.0002181564719412983 
0.0007962203062557851 
5.865142244458628e-05 
0.0001786313183772757 
1.946324622599051e-06 
-8.471388492829026e-05 
-3.817716128626557e-05 
-0.0004769704764086368 
-0.0007313716141732799 
-0.00116740848806272 
0 
-0.0007802591661024139 
0.0007313716141732799 
-0.00116740848806272 
3.817716128626557e-05 
-0.0004769704764086368 
-1.946324622599051e-06 
-8.471388492829026e-05 
-1.790460270147037e-06 
2.380799572051378e-06 
0.0005172049566389454 
-0.0002599035134718442 
0.001536375773172233 
-0.003769921788473737 
0 
-0.01201661592130197 
-0.001536375773172233 
-0.003769921788473737 
-0.0005172049566389454 
-0.0002599035134718442 
1.790460270147037e-06 
2.380799572051378e-06 
9.072776560639676e-05 
0.0001616502640508547 
0.0009146318883688499 
-0.0001469575156319615 
-0.0003335278336261596 
-0.003032533607979694 
0 
0.002538566161367526 
0.0003335278336261596 
-0.003032533607979694 
-0.0009146318883688499 
-0.0001469575156319615 
-9.072776560639676e-05 
0.0001616502640508547 
-8.029004632824126e-05 
-0.0002601702725852991 
-0.0004402402689370358 
-0.0007178687524389359 
-0.0006669784016954125 
-0.002748297042815275 
0 
-0.01070303922797795 
0.0006669784016954125 
-0.002748297042815275 
0.0004402402689370358 
-0.0007178687524389359 
8.029004632824126e-05 
-0.0002601702725852991 
0.0001262754126960364 
-0.0001491688566142803 
0.0002901833378456618 
-0.0006706381934923984 
0.0003535307476412362 
-0.003781507553734666 
0 
-0.009272521445349563 
-0.0003535307476412362 
-0.003781507553734666 
-0.0002901833378456618 
-0.0006706381934923984 
-0.0001262754126960364 
-0.0001491688566142803 
-1.360862949645126e-05 
-2.450930200957191e-05 
0.0002125907054276503 
-0.0004267604097658764 
-0.001926974349143955 
-0.001058252853528274 
0 
0.004257062880790465 
0.001926974349143955 
-0.001058252853528274 
-0.0002125907054276503 
-0.0004267604097658764 
1.360862949645126e-05 
-2.450930200957191e-05 
2.277350531502634e-05 
-8.24620744615509e-05 
0.0002649690567907847 
9.093506339732554e-05 
0.00105632421574252 
-0.001988336976672483 
0 
-0.006725881140125324 
-0.00105632421574252 
-0.001988336976672483 
-0.0002649690567907847 
9.093506339732554e-05 
-2.277350531502634e-05 
-8.24620744615509e-05 
-5.257023221237644e-05 
1.141556725424195e-05 
7.734834414857509e-05 
0.0001963420668808886 
-0.0007236486823214445 
6.176044873587728e-05 
0 
0.007213236923264214 
0.0007236486823214445 
6.176044873587728e-05 
-7.734834414857509e-05 
0.0001963420668808886 
5.257023221237644e-05 
1.141556725424195e-05 
-1.191951567411984e-05 
2.040010149835863e-05 
-0.0001307819866881254 
0.0003175348823818524 
-0.0009708892969933289 
0.001977155872856462 
0 
0.007641312697203963 
0.0009708892969933289 
0.001977155872856462 
0.0001307819866881254 
0.0003175348823818524 
1.191951567411984e-05 
2.040010149835863e-05 
7.819561308341993e-05 
2.692389521644025e-05 
0.0004030019532335207 
-0.0004991808076816795 
-0.002886019328576245 
-0.002001002042046854 
0 
0.008925419890011244 
0.002886019328576245 
-0.002001002042046854 
-0.0004030019532335207 
-0.0004991808076816795 
-7.819561308341993e-05 
2.692389521644025e-05 
-1.598235636852608e-05 
-0.0001250104273412621 
-0.0001897949110526054 
-0.0001308431694445817 
-0.001211363941014641 
-0.0006703421951588388 
0 
0.003421664065749377 
0.001211363941014641 
-0.0006703421951588388 
0.0001897949110526054 
-0.0001308431694445817 
1.598235636852608e-05 
-0.0001250104273412621 
4.213580770577464e-05 
2.271620942233387e-06 
0.0003749714022259079 
-0.0001998592124823328 
-0.0001714704441656664 
-0.002012084184364123 
0 
-0.0003046124504783703 
0.0001714704441656664 
-0.002012084184364123 
-0.0003749714022259079 
-0.0001998592124823328 
-4.213580770577464e-05 
2.271620942233387e-06 
-4.773577567673408e-05 
-5.853922956024447e-05 
-0.0003164204476036513 
-9.461804993517277e-05 
3.366505738495881e-05 
-0.000376849320456279 
0 
-0.004268565688483644 
-3.366505738495881e-05 
-0.000376849320456279 
0.0003164204476036513 
-9.461804993517277e-05 
4.773577567673408e-05 
-5.853922956024447e-05 
3.594649173189798e-05 
-8.084807087967445e-06 
-9.838710256720732e-05 
-0.0002587489374629265 
-0.001583914372190092 
0.0002583602774337392 
0 
0.005491792835729352 
0.001583914372190092 
0.0002583602774337392 
9.838710256720732e-05 
-0.0002587489374629265 
-3.594649173189798e-05 
-8.084807087967445e-06 
-0.0001136655989638317 
6.737766489246631e-05 
-0.0003655724054543234 
0.0009880955421843062 
0.002555315635858879 
0.0009936476456890134 
0 
0.0001309957342742725 
-0.002555315635858879 
0.0009936476456890134 
0.0003655724054543234 
0.0009880955421843062 
0.0001136655989638317 
6.737766489246631e-05 
4.612545056995671e-05 
-0.0001540626678110109 
-0.0003589936195902149 
-0.0003275732150143881 
-0.0002392106331903496 
-0.001027632518348398 
0 
-0.0006777034697421288 
0.0002392106331903496 
-0.001027632518348398 
0.0003589936195902149 
-0.0003275732150143881 
-4.612545056995671e-05 
-0.0001540626678110109 
-1.229035881795867e-05 
-7.067845622455393e-05 
0.0003852569053994969 
-0.0002572214179969933 
0.001377319215070417 
-0.003649870584473814 
0 
-0.006179177744655841 
-0.001377319215070417 
-0.003649870584473814 
-0.0003852569053994969 
-0.0002572214179969933 
1.229035881795867e-05 
-7.067845622455393e-05 
-0.0001279824026677436 
0.0001900361004960438 
4.305045884336484e-05 
0.001275964811042528 
0.001572833912116309 
0.002207987383722602 
0 
0.007296373763628957 
-0.001572833912116309 
0.002207987383722602 
-4.305045884336484e-05 
0.001275964811042528 
0.0001279824026677436 
0.0001900361004960438 
3.535438687668564e-05 
1.09974130639062e-05 
0.0005294558472104815 
-0.0002338357693630822 
-0.0002948740386991963 
-0.003259585526895419 
0 
-0.000151270816621066 
0.0002948740386991963 
-0.003259585526895419 
-0.0005294558472104815 
-0.0002338357693630822 
-3.535438687668564e-05 
1.09974130639062e-05 
5.086794400255579e-05 
-3.686869556712963e-06 
0.0001882803910281686 
-4.363842407494865e-05 
0.001742923231692018 
-0.002755503930711074 
0 
-0.0009539259594586817 
-0.001742923231692018 
-0.002755503930711074 
-0.0001882803910281686 
-4.363842407494865e-05 
-5.086794400255579e-05 
-3.686869556712963e-06 
5.314325689184836e-05 
-5.098354438901296e-05 
5.8425807426922e-05 
-0.0001196643198018518 
0.0004708534232091524 
-0.00242581238697693 
0 
-0.0002209075982854144 
-0.0004708534232091524 
-0.00242581238697693 
-5.8425807426922e-05 
-0.0001196643198018518 
-5.314325689184836e-05 
-5.098354438901296e-05 
-5.615170311803279e-05 
-5.702442189139246e-05 
-0.0003563040127999354 
-0.0002877240446568811 
-0.001276873272742389 
-0.0003153031618358165 
0 
0.004933135941561423 
0.001276873272742389 
-0.0003153031618358165 
0.0003563040127999354 
-0.0002877240446568811 
5.615170311803279e-05 
-5.702442189139246e-05 
4.432238404825372e-05 
-1.161107190176654e-05 
-0.0001079994268130096 
-0.0002913248579285526 
-0.002895286040154424 
0.001182272864782526 
0 
0.01329143267556834 
0.002895286040154424 
0.001182272864782526 
0.0001079994268130096 
-0.0002913248579285526 
-4.432238404825372e-05 
-1.161107190176654e-05 
-3.344041538229381e-05 
0.0001335059830331213 
-5.413014688239955e-05 
0.000284354124491341 
-0.0006400519534038783 
0.002405675231994478 
0 
0.01058655937604722 
0.0006400519534038783 
0.002405675231994478 
5.413014688239955e-05 
0.000284354124491341 
3.344041538229381e-05 
0.0001335059830331213 
-4.611995082916934e-05 
-9.836399838219753e-05 
-0.0002518589456577935 
-0.0002407259677790901 
-0.0003661615166431308 
-0.001504746946286069 
0 
0.0009184839872827021 
0.0003661615166431308 
-0.001504746946286069 
0.0002518589456577935 
-0.0002407259677790901 
4.611995082916934e-05 
-9.836399838219753e-05 
3.111286628646867e-05 
-5.832808726792912e-05 
1.41278193366527e-05 
-0.000420813576249097 
-0.001854089066623712 
-0.002058812563795341 
0 
0.01101587697016283 
0.001854089066623712 
-0.002058812563795341 
-1.41278193366527e-05 
-0.000420813576249097 
-3.111286628646867e-05 
-5.832808726792912e-05 
-5.399795913227802e-05 
0.0001767306289240152 
-0.0001488772499948377 
0.0004618066870153016 
0.0006422280728232956 
0.00288127947548858 
0 
0.002541522717101387 
-0.0006422280728232956 
0.00288127947548858 
0.0001488772499948377 
0.0004618066870153016 
5.399795913227802e-05 
0.0001767306289240152 
9.216836616014223e-05 
5.894141135916296e-05 
0.0006682649251095935 
-0.00033636018393717 
0.0004317764896874794 
-0.003730283610297344 
0 
-0.004846392417970336 
-0.0004317764896874794 
-0.003730283610297344 
-0.0006682649251095935 
-0.00033636018393717 
-9.216836616014223e-05 
5.894141135916296e-05 
6.821791824877973e-05 
-0.0001775278766107864 
0.0004647210757477705 
-0.000870452758475057 
6.151110125847852e-05 
-0.005966187866896642 
0 
-0.01011320659835834 
-6.151110125847852e-05 
-0.005966187866896642 
-0.0004647210757477705 
-0.000870452758475057 
-6.821791824877973e-05 
-0.0001775278766107864 
5.272385937443852e-05 
-5.703271113843055e-05 
-9.983125957290832e-05 
-0.0002005972769776324 
-0.001748778333247405 
-0.002427379929376551 
0 
0.008322345596658681 
0.001748778333247405 
-0.002427379929376551 
9.983125957290832e-05 
-0.0002005972769776324 
-5.272385937443852e-05 
-5.703271113843055e-05 
8.706901010019099e-05 
-3.939608804305072e-05 
-0.0002261937832273229 
-0.0009092103165418598 
-0.004336300715539356 
0.001732758393517456 
0 
0.01020605009240625 
0.004336300715539356 
0.001732758393517456 
0.0002261937832273229 
-0.0009092103165418598 
-8.706901010019099e-05 
-3.939608804305072e-05 
1.885589293384507e-05 
-2.870038092047584e-05 
-0.0006854458667049042 
-0.0001105156584065703 
-0.002147455110280487 
0.002249502666217973 
0 
0.01201029797460659 
0.002147455110280487 
0.002249502666217973 
0.0006854458667049042 
-0.0001105156584065703 
-1.885589293384507e-05 
-2.870038092047584e-05 
0.0001021298875342083 
-4.325810096746441e-05 
0.0003034689181075517 
-0.0002876730605939228 
0.0001405142757073364 
-0.003570393102222028 
0 
-0.002821536937866093 
-0.0001405142757073364 
-0.003570393102222028 
-0.0003034689181075517 
-0.0002876730605939228 
-0.0001021298875342083 
-4.325810096746441e-05 
-8.06680850501496e-05 
-9.305951209564103e-06 
2.348743580597577e-05 
0.0002457198227185814 
0.00190421112129592 
-0.002612884486366637 
0 
-0.008348759052552434 
-0.00190421112129592 
-0.002612884486366637 
-2.348743580597577e-05 
0.0002457198227185814 
8.06680850501496e-05 
-9.305951209564103e-06 
0.0001755631555138998 
-8.703347247663345e-05 
0.0005898878847704481 
-0.0004566078701537872 
0.000396767869348785 
-0.005267674989657809 
0 
-0.003471765820090508 
-0.000396767869348785 
-0.005267674989657809 
-0.0005898878847704481 
-0.0004566078701537872 
-0.0001755631555138998 
-8.703347247663345e-05 
-0.0001693169689104111 
4.33951035972395e-05 
-0.0005100215189691809 
0.0009844833612083471 
-0.0007650450365310509 
0.00269946398005332 
0 
0.01606446777470759 
0.0007650450365310509 
0.00269946398005332 
0.0005100215189691809 
0.0009844833612083471 
0.0001693169689104111 
4.33951035972395e-05 
3.46886893485565e-05 
-0.0001193791468219165 
-0.0002751187895134337 
-0.000413640795062524 
-0.002647666043473145 
-0.0007793415072558138 
0 
0.01166574095980678 
0.002647666043473145 
-0.0007793415072558138 
0.0002751187895134337 
-0.000413640795062524 
-3.46886893485565e-05 
-0.0001193791468219165 
2.509593098808141e-05 
-0.0002299860689033191 
-0.0005991437553838051 
-0.000736121224492101 
-0.002521017802832625 
-4.349892754449023e-05 
0 
0.004721558586744416 
0.002521017802832625 
-4.349892754449023e-05 
0.0005991437553838051 
-0.000736121224492101 
-2.509593098808141e-05 
-0.0002299860689033191 
2.64671099771724e-05 
-0.0001551223398260214 
-0.0003559441484141637 
-0.0005879702783476591 
-0.003103606928480902 
-0.0001282875013753455 
0 
0.01153242823812807 
0.003103606928480902 
-0.0001282875013753455 
0.0003559441484141637 
-0.0005879702783476591 
-2.64671099771724e-05 
-0.0001551223398260214 
0.0001052100483507123 
-0.000124033706291944 
-0.0006854801590410147 
-0.0007876181274522812 
-0.004664571180178189 
0.001324523320819474 
0 
0.01692999067351382 
0.004664571180178189 
0.001324523320819474 
0.0006854801590410147 
-0.0007876181274522812 
-0.0001052100483507123 
-0.000124033706291944 
0.0001043521261654227 
0.0002603484513270053 
0.0009304117629861575 
0.0002060518697192157 
-6.514327480436081e-05 
-8.68527112364449e-06 
0 
0.006898679841978981 
6.514327480436081e-05 
-8.68527112364449e-06 
-0.0009304117629861575 
0.0002060518697192157 
-0.0001043521261654227 
0.0002603484513270053 
8.304417446385028e-05 
-6.155073595883762e-05 
-0.0001699037805789239 
-0.0004543684259008403 
0.0006440919040162221 
-0.0007002425506702878 
0 
-0.001804897041005197 
-0.0006440919040162221 
-0.0007002425506702878 
0.0001699037805789239 
-0.0004543684259008403 
-8.304417446385028e-05 
-6.155073595883762e-05 
-0.0001335747215221428 
9.618127995302417e-05 
0.0003175184843791038 
0.0009003927315289398 
0.00295592187939804 
-0.001597041735689952 
0 
0.00160888964663868 
-0.00295592187939804 
-0.001597041735689952 
-0.0003175184843791038 
0.0009003927315289398 
0.0001335747215221428 
9.618127995302417e-05 
2.449680592937922e-05 
-3.177393563253656e-05 
0.0004510084208964472 
-1.690437014016202e-05 
0.0002071253505297175 
-0.002689033232290349 
0 
0.001161230184385834 
-0.0002071253505297175 
-0.002689033232290349 
-0.0004510084208964472 
-1.690437014016202e-05 
-2.449680592937922e-05 
-3.177393563253656e-05 
-6.337736783069364e-05 
0.0002590008566438751 
0.0003139966584426042 
0.001074677442081252 
0.0008751224693381749 
0.002317349751099102 
0 
0.01082561045043063 
-0.0008751224693381749 
0.002317349751099102 
-0.0003139966584426042 
0.001074677442081252 
6.337736783069364e-05 
0.0002590008566438751 
3.862877183623539e-05 
-0.0001669872629267255 
-2.302457630018586e-05 
-0.0006382369267736026 
-0.001226996375166118 
-0.003051267265534615 
0 
0.003490438095646174 
0.001226996375166118 
-0.003051267265534615 
2.302457630018586e-05 
-0.0006382369267736026 
-3.862877183623539e-05 
-0.0001669872629267255 
0.0001241876150389126 
0.0001574631564094218 
0.0004182278895494946 
0.0003304715043326867 
0.0006884902796591721 
0.001788054862738523 
0 
0.007486627036116639 
-0.0006884902796591721 
0.001788054862738523 
-0.0004182278895494946 
0.0003304715043326867 
-0.0001241876150389126 
0.0001574631564094218 
0.0001237110731400673 
-3.036113221638446e-05 
0.0004295020801572808 
-0.0001711575049258085 
0.001531302829347227 
-0.004066518918399732 
0 
-0.006934880580862448 
-0.001531302829347227 
-0.004066518918399732 
-0.0004295020801572808 
-0.0001711575049258085 
-0.0001237110731400673 
-3.036113221638446e-05 
-2.974833328890061e-05 
-5.282244649944702e-05 
0.0002509919631930875 
-0.0005204507822721637 
-0.00097434990893739 
-0.002971558745707609 
0 
0.00120037275311419 
0.00097434990893739 
-0.002971558745707609 
-0.0002509919631930875 
-0.0005204507822721637 
2.974833328890061e-05 
-5.282244649944702e-05 
4.764126917276838e-05 
-0.0001218554962753692 
-0.0002491015472490179 
-0.0006321661353657663 
-0.001075287645500717 
-0.0006219651889235154 
0 
-0.003767911584363572 
0.001075287645500717 
-0.0006219651889235154 
0.0002491015472490179 
-0.0006321661353657663 
-4.764126917276838e-05 
-0.0001218554962753692 
-6.590214619400067e-05 
8.6370972580319e-05 
0.000336081296684246 
0.0001505803455670529 
0.0007210855890969608 
-0.0008002838197319372 
0 
-0.001004868407155398 
-0.0007210855890969608 
-0.0008002838197319372 
-0.000336081296684246 
0.0001505803455670529 
6.590214619400067e-05 
8.6370972580319e-05 
6.338143885126867e-05 
6.006257465275e-07 
0.0001605072709031057 
-0.000654434584590008 
0.002387685174408995 
-0.002274182725546763 
0 
-0.01152927341282146 
-0.002387685174408995 
-0.002274182725546763 
-0.0001605072709031057 
-0.000654434584590008 
-6.338143885126867e-05 
6.006257465275e-07 
-2.005362167203001e-05 
-6.194156502219928e-05 
-0.0003202730452015476 
-0.0001454641663883377 
-0.0007106025573173447 
0.0006646913314961054 
0 
0.003325482082315589 
0.0007106025573173447 
0.0006646913314961054 
0.0003202730452015476 
-0.0001454641663883377 
2.005362167203001e-05 
-6.194156502219928e-05 
-8.03868229686315e-05 
0.0001869752688922788 
7.829601341692603e-05 
0.001420674406028279 
0.003607204729098464 
0.002694988435450589 
0 
-0.001095674893356472 
-0.003607204729098464 
0.002694988435450589 
-7.829601341692603e-05 
0.001420674406028279 
8.03868229686315e-05 
0.0001869752688922788 
7.954046311088224e-05 
-0.0001621081167447396 
-0.0001409405342418613 
-0.0001387786324321083 
0.002099865514089405 
-0.001840825678120983 
0 
-0.01227071937056827 
-0.002099865514089405 
-0.001840825678120983 
0.0001409405342418613 
-0.0001387786324321083 
-7.954046311088224e-05 
-0.0001621081167447396 
3.105857004431779e-05 
0.0002321999831271054 
0.0001840908217291733 
0.0009108869287928652 
0.00189832540301343 
0.003628796054122976 
0 
0.004986283315612132 
-0.00189832540301343 
0.003628796054122976 
-0.0001840908217291733 
0.0009108869287928652 
-3.105857004431779e-05 
0.0002321999831271054 
-2.348894431710833e-05 
-7.271435868822561e-05 
-1.828038757747419e-06 
0.0001645502968818538 
0.001423973415705937 
-0.001099971807377365 
0 
-0.005137180589798423 
-0.001423973415705937 
-0.001099971807377365 
1.828038757747419e-06 
0.0001645502968818538 
2.348894431710833e-05 
-7.271435868822561e-05 
0.0001388111229981321 
-2.372246520150729e-05 
6.248320409769821e-05 
-0.0003700662815363414 
-5.608859553738451e-05 
-0.0009733351068034912 
0 
-0.001437341004722346 
5.608859553738451e-05 
-0.0009733351068034912 
-6.248320409769821e-05 
-0.0003700662815363414 
-0.0001388111229981321 
-2.372246520150729e-05 
-4.945441483942103e-05 
4.262046154076857e-05 
-0.0008164673604165943 
-0.0001283156279718993 
-0.003784700598125145 
0.005261227320087105 
0 
0.02082938482011851 
0.003784700598125145 
0.005261227320087105 
0.0008164673604165943 
-0.0001283156279718993 
4.945441483942103e-05 
4.262046154076857e-05 
1.427717333215346e-05 
8.487870879383518e-05 
-8.015453109179671e-05 
7.406377903553439e-05 
-0.001074738384135188 
0.001127298793430562 
0 
0.01083025306623262 
0.001074738384135188 
0.001127298793430562 
8.015453109179671e-05 
7.406377903553439e-05 
-1.427717333215346e-05 
8.487870879383518e-05 
2.139327279703785e-05 
-0.0002300035187123759 
-0.0004659404887869946 
-0.0001106294401183272 
9.719441901782142e-05 
-0.001908092491050202 
0 
0.0004924247566080297 
-9.719441901782142e-05 
-0.001908092491050202 
0.0004659404887869946 
-0.0001106294401183272 
-2.139327279703785e-05 
-0.0002300035187123759 
8.307140548544899e-05 
-5.354220030724297e-05 
7.825473756053072e-05 
-5.012337403101975e-05 
0.0004183308479320245 
-0.001478947678923376 
0 
-0.0002532560938319462 
-0.0004183308479320245 
-0.001478947678923376 
-7.825473756053072e-05 
-5.012337403101975e-05 
-8.307140548544899e-05 
-5.354220030724297e-05 
2.787925482097247e-05 
1.145358402525715e-05 
0.0009093298863725203 
-0.0002077166864208934 
0.003680530371784849 
-0.006738065185245621 
0 
-0.02438558037593253 
-0.003680530371784849 
-0.006738065185245621 
-0.0009093298863725203 
-0.0002077166864208934 
-2.787925482097247e-05 
1.145358402525715e-05 
0.0001746356807549631 
-6.488858087860293e-05 
-4.006803808596109e-05 
-0.001018904136311762 
-0.002578761431001491 
-0.000840835849866391 
0 
0.004451579626985862 
0.002578761431001491 
-0.000840835849866391 
4.006803808596109e-05 
-0.001018904136311762 
-0.0001746356807549631 
-6.488858087860293e-05 
0.0001185514935850271 
1.083678379861836e-05 
0.0003149443746100195 
-0.0002637353571992248 
-0.001233686675994926 
-0.001951321823888109 
0 
0.006673365352059596 
0.001233686675994926 
-0.001951321823888109 
-0.0003149443746100195 
-0.0002637353571992248 
-0.0001185514935850271 
1.083678379861836e-05 
-6.756515253534756e-05 
-3.017614308748871e-05 
-0.0003000566974388924 
-0.000225245081879608 
-0.002439704835682121 
0.0002973235059112856 
0 
0.01374163542559084 
0.002439704835682121 
0.0002973235059112856 
0.0003000566974388924 
-0.000225245081879608 
6.756515253534756e-05 
-3.017614308748871e-05 
-9.713154024185778e-05 
-4.754578199658489e-06 
-0.0003628398616231224 
-0.0001944994157635482 
-0.002170912051964801 
0.001782199353015431 
0 
0.008617016795219316 
0.002170912051964801 
0.001782199353015431 
0.0003628398616231224 
-0.0001944994157635482 
9.713154024185778e-05 
-4.754578199658489e-06 
-1.091732178732264e-05 
-0.0001019365945631342 
-0.0003965037021065894 
-0.0001693572896898071 
-0.002214284304919841 
0.0005179541763121345 
0 
0.01012407084477483 
0.002214284304919841 
0.0005179541763121345 
0.0003965037021065894 
-0.0001693572896898071 
1.091732178732264e-05 
-0.0001019365945631342 
1.900605774704875e-05 
3.451800040201539e-06 
-2.849117167819811e-05 
0.0002995130541023177 
0.0005362225621850334 
-0.0004607036635656421 
0 
0.004623553076631327 
-0.0005362225621850334 
-0.0004607036635656421 
2.849117167819811e-05 
0.0002995130541023177 
-1.900605774704875e-05 
3.451800040201539e-06 
0.0001179201189567188 
1.078294901542168e-05 
0.0005543256902365814 
-0.0007633773056422396 
-0.002910968011217064 
-0.002521405595422768 
0 
0.008652334025239357 
0.002910968011217064 
-0.002521405595422768 
-0.0005543256902365814 
-0.0007633773056422396 
-0.0001179201189567188 
1.078294901542168e-05 
-1.450649518792059e-05 
-6.202156819015925e-05 
1.317130333502087e-05 
-0.0002298848892108792 
-0.00140541682690944 
-0.0004049915385929836 
0 
0.00261693373672078 
0.00140541682690944 
-0.0004049915385929836 
-1.317130333502087e-05 
-0.0002298848892108792 
1.450649518792059e-05 
-6.202156819015925e-05 
0.0001353675774492642 
-9.308751512013825e-05 
0.0006358115357872025 
-0.00072480097942168 
0.001249494797285325 
-0.006033938417037927 
0 
-0.01537506990887305 
-0.001249494797285325 
-0.006033938417037927 
-0.0006358115357872025 
-0.00072480097942168 
-0.0001353675774492642 
-9.308751512013825e-05 
-0.0001348791463058308 
-2.130090558988753e-05 
0.0002224689140116871 
0.0004318819604610214 
4.352184664140299e-05 
-0.002408431849656719 
0 
0.006375283789184065 
-4.352184664140299e-05 
-0.002408431849656719 
-0.0002224689140116871 
0.0004318819604610214 
0.0001348791463058308 
-2.130090558988753e-05 
-0.000115349126332384 
-9.305818379661417e-05 
-0.0002856513700009068 
0.0002661862992742044 
0.001396983792734375 
-0.0004456644758099565 
0 
-5.672077534493219e-06 
-0.001396983792734375 
-0.0004456644758099565 
0.0002856513700009068 
0.0002661862992742044 
0.000115349126332384 
-9.305818379661417e-05 
1.479581111317551e-05 
1.547407009823858e-05 
-0.0001337206423399168 
-1.234823355538291e-06 
-0.0008313038835219205 
-0.0009666945380213562 
0 
0.011495051578656 
0.0008313038835219205 
-0.0009666945380213562 
0.0001337206423399168 
-1.234823355538291e-06 
-1.479581111317551e-05 
1.547407009823858e-05 
-3.330979516913933e-06 
5.749369648738339e-05 
-0.0001781008664167247 
0.000267525876228002 
-0.001873799617035133 
0.002283557398089117 
0 
0.01437911356058875 
0.001873799617035133 
0.002283557398089117 
0.0001781008664167247 
0.000267525876228002 
3.330979516913933e-06 
5.749369648738339e-05 
5.304475828232815e-06 
-6.357691729347282e-06 
-0.0003094488624950955 
-0.0002954094162000043 
-0.001214074884246056 
0.001088905543591129 
0 
0.003165862291495509 
0.001214074884246056 
0.001088905543591129 
0.0003094488624950955 
-0.0002954094162000043 
-5.304475828232815e-06 
-6.357691729347282e-06 
4.638277197369836e-05 
6.733758464055986e-05 
-8.973469501278465e-05 
-1.492150834718621e-05 
0.0001746608577795081 
0.0006175529068934972 
0 
0.008926980388942797 
-0.0001746608577795081 
0.0006175529068934972 
8.973469501278465e-05 
-1.492150834718621e-05 
-4.638277197369836e-05 
6.733758464055986e-05 
8.841482129831207e-05 
-1.051098151962118e-06 
0.000484448017652078 
-0.0004057028359708282 
-0.0001209506524587071 
-0.002565409581603268 
0 
-0.0008163926179250591 
0.0001209506524587071 
-0.002565409581603268 
-0.000484448017652078 
-0.0004057028359708282 
-8.841482129831207e-05 
-1.051098151962118e-06 
-6.470431955560104e-05 
-0.0001726800767729123 
-0.0002030411084532882 
-4.599303504375411e-05 
-0.0007696803812703438 
-0.001635400402207942 
0 
0.004162397578772857 
0.0007696803812703438 
-0.001635400402207942 
0.0002030411084532882 
-4.599303504375411e-05 
6.470431955560104e-05 
-0.0001726800767729123 
8.799327895087071e-05 
-7.906079334033595e-06 
0.0005900568739060174 
-0.0006362964880956599 
0.0005057469083340533 
-0.003775954522644917 
0 
-0.0116086825447099 
-0.0005057469083340533 
-0.003775954522644917 
-0.0005900568739060174 
-0.0006362964880956599 
-8.799327895087071e-05 
-7.906079334033595e-06 
-5.902681605119132e-05 
-1.538836488051836e-05 
-9.089886889021776e-05 
-0.000296663302514243 
-0.0008827902428051889 
-0.0004163383724639139 
0 
0.002626987705913752 
0.0008827902428051889 
-0.0004163383724639139 
9.089886889021776e-05 
-0.000296663302514243 
5.902681605119132e-05 
-1.538836488051836e-05 
-0.0001926595617628441 
2.6170644336268e-05 
-0.0004292073071214332 
0.0002842836789465844 
-0.0007589881820194287 
0.0008409676861714104 
0 
0.01281166617569458 
0.0007589881820194287 
0.0008409676861714104 
0.0004292073071214332 
0.0002842836789465844 
0.0001926595617628441 
2.6170644336268e-05 
4.935011780834243e-05 
1.050004464383755e-05 
-0.0001564711664796341 
-7.232572027474857e-05 
-0.000439137554114187 
0.0003252855034813202 
0 
0.01003037626703355 
0.000439137554114187 
0.0003252855034813202 
0.0001564711664796341 
-7.232572027474857e-05 
-4.935011780834243e-05 
1.050004464383755e-05 
9.10020730783192e-05 
4.849216795104615e-06 
-0.0002596044331233722 
-0.0006308130900619459 
-0.002413394600516023 
0.0004428998232673624 
0 
0.007532910061915791 
0.002413394600516023 
0.0004428998232673624 
0.0002596044331233722 
-0.0006308130900619459 
-9.10020730783192e-05 
4.849216795104615e-06 
-3.550107869181499e-05 
0.0001038504895692237 
0.0003278218020024352 
0.0001370096932991277 
-0.0007491384054445615 
-0.0008043202624658412 
0 
0.0066997516334266 
0.0007491384054445615 
-0.0008043202624658412 
-0.0003278218020024352 
0.0001370096932991277 
3.550107869181499e-05 
0.0001038504895692237 
-3.410569413091006e-05 
7.805098664708784e-05 
-0.0003858842949589357 
0.0007144708158296904 
-0.0005254807912829944 
0.002281682713494988 
0 
0.01827562603366648 
0.0005254807912829944 
0.002281682713494988 
0.0003858842949589357 
0.0007144708158296904 
3.410569413091006e-05 
7.805098664708784e-05 
-0.0001204926301727759 
-0.00011488814364621 
-0.0004093386294159665 
0.0004900973905154881 
0.001482181189102275 
-0.0007884355052517762 
0 
0.002179115091430909 
-0.001482181189102275 
-0.0007884355052517762 
0.0004093386294159665 
0.0004900973905154881 
0.0001204926301727759 
-0.00011488814364621 
6.436596756468823e-06 
-7.614300853633119e-05 
-0.0003464861168191581 
-0.0004671726166662656 
-0.001979242961826745 
6.038761602997301e-05 
0 
0.008555841748499484 
0.001979242961826745 
6.038761602997301e-05 
0.0003464861168191581 
-0.0004671726166662656 
-6.436596756468823e-06 
-7.614300853633119e-05 
-5.591177239972142e-05 
0.0002174703691653559 
0.0008963444069329839 
0.0003561224414180277 
0.002328979310948272 
-0.002791763212058065 
0 
-0.009071999634115735 
-0.002328979310948272 
-0.002791763212058065 
-0.0008963444069329839 
0.0003561224414180277 
5.591177239972142e-05 
0.0002174703691653559 
8.201371560013469e-05 
7.047289737873481e-05 
0.0006048470604807275 
-0.0002218551196916204 
0.0004829362240950435 
-0.002752304250715945 
0 
-0.00139275075551691 
-0.0004829362240950435 
-0.002752304250715945 
-0.0006048470604807275 
-0.0002218551196916204 
-8.201371560013469e-05 
7.047289737873481e-05 
-1.313617577005567e-05 
-8.418122542552625e-05 
-0.0004386113425360115 
-2.771910704968504e-05 
0.0001726845847943754 
-0.001343841936940939 
0 
0.006144195070514076 
-0.0001726845847943754 
-0.001343841936940939 
0.0004386113425360115 
-2.771910704968504e-05 
1.313617577005567e-05 
-8.418122542552625e-05 
9.693196849297326e-05 
-6.725862921658725e-05 
0.0004606602279088892 
-0.0006758752116143898 
-0.001425933458454402 
-0.003513655756202857 
0 
0.00341252988721927 
0.001425933458454402 
-0.003513655756202857 
-0.0004606602279088892 
-0.0006758752116143898 
-9.693196849297326e-05 
-6.725862921658725e-05 
-2.72499881106052e-06 
-0.0002498094436264915 
-0.0006258711707450367 
-0.0004390509063436541 
0.0003233470537954906 
-0.0004559519802470016 
0 
-0.002602557047809614 
-0.0003233470537954906 
-0.0004559519802470016 
0.0006258711707450367 
-0.0004390509063436541 
2.72499881106052e-06 
-0.0002498094436264915 
8.014107152130393e-05 
2.199599371456471e-05 
-2.23574624886173e-05 
-2.147641457480447e-05 
8.020021133888305e-05 
5.629624437727653e-05 
0 
0.003104926488408867 
-8.020021133888305e-05 
5.629624437727653e-05 
2.23574624886173e-05 
-2.147641457480447e-05 
-8.014107152130393e-05 
2.199599371456471e-05 
6.242128485936145e-05 
-7.419237472655718e-05 
-1.942586597734578e-05 
-0.0004939668367396248 
-0.002635277890823312 
-0.001579239183744452 
0 
0.01115305971732083 
0.002635277890823312 
-0.001579239183744452 
1.942586597734578e-05 
-0.0004939668367396248 
-6.242128485936145e-05 
-7.419237472655718e-05 
-5.482456361000296e-05 
5.315805903994973e-05 
-7.76693725293125e-08 
-9.602238320474045e-05 
-0.002758349972245795 
-0.0002365721708780687 
0 
0.01652295478659422 
0.002758349972245795 
-0.0002365721708780687 
7.76693725293125e-08 
-9.602238320474045e-05 
5.482456361000296e-05 
5.315805903994973e-05 
7.806574566827003e-06 
8.86671419499701e-05 
5.296625673662076e-05 
-0.0003114840018274223 
-0.003232280267215014 
0.000392861325669288 
0 
0.01614216107736549 
0.003232280267215014 
0.000392861325669288 
-5.296625673662076e-05 
-0.0003114840018274223 
-7.806574566827003e-06 
8.86671419499701e-05 
-0.0001209053079311204 
-0.00010776421860371 
-2.112651503543262e-05 
-0.0001072854522946288 
-0.0002340964630790509 
-0.003086171554035435 
0 
-0.003557951302857142 
0.0002340964630790509 
-0.003086171554035435 
2.112651503543262e-05 
-0.0001072854522946288 
0.0001209053079311204 
-0.00010776421860371 
0.0001297667404082813 
8.327664932771908e-05 
0.0001872170210436336 
-0.0005089592842681282 
-0.001726690193092403 
-0.0003156092118107165 
0 
0.008504085510564648 
0.001726690193092403 
-0.0003156092118107165 
-0.0001872170210436336 
-0.0005089592842681282 
-0.0001297667404082813 
8.327664932771908e-05 
0.0001842777122662703 
-7.708323754228435e-05 
0.0001721581028374585 
-0.0009962570644031648 
-0.00321749555620057 
-0.002180399386323893 
0 
0.01317285127100429 
0.00321749555620057 
-0.002180399386323893 
-0.0001721581028374585 
-0.0009962570644031648 
-0.0001842777122662703 
-7.708323754228435e-05 
1.924233556317086e-05 
9.82486744881882e-05 
8.550751369136534e-05 
6.85501379315323e-05 
0.0005462695374633752 
-0.001130598393373611 
0 
0.00417285260078833 
-0.0005462695374633752 
-0.001130598393373611 
-8.550751369136534e-05 
6.85501379315323e-05 
-1.924233556317086e-05 
9.82486744881882e-05 
-1.276473618145137e-05 
-5.226215118367378e-05 
6.094608912197575e-05 
-0.000594321143562589 
-0.003040190151511244 
-0.001396072382770452 
0 
0.0082187585661015 
0.003040190151511244 
-0.001396072382770452 
-6.094608912197575e-05 
-0.000594321143562589 
1.276473618145137e-05 
-5.226215118367378e-05 
-0.0001699665186185171 
-8.522858153663881e-05 
-0.001275154676494395 
0.0002976294152782262 
-0.003878264808532719 
0.004273239588818949 
0 
0.02584666515276904 
0.003878264808532719 
0.004273239588818949 
0.001275154676494395 
0.0002976294152782262 
0.0001699665186185171 
-8.522858153663881e-05 
-1.970011001050272e-05 
-7.126520406552263e-05 
-0.0005333645499869152 
-0.0002383621045509558 
-0.002798484305609342 
0.001280325467426025 
0 
0.01705145887796307 
0.002798484305609342 
0.001280325467426025 
0.0005333645499869152 
-0.0002383621045509558 
1.970011001050272e-05 
-7.126520406552263e-05 
-0.0001485975503425226 
-1.815169717998364e-05 
-4.850316957883303e-05 
3.74786073440192e-05 
-0.002039859053422351 
-0.002207354637330021 
0 
0.01198803694081787 
0.002039859053422351 
-0.002207354637330021 
4.850316957883303e-05 
3.74786073440192e-05 
0.0001485975503425226 
-1.815169717998364e-05 
-5.227259930135753e-05 
2.378767912356466e-05 
3.350352368496603e-05 
7.167597864509384e-05 
-0.002105648613638103 
-0.0007281426269892401 
0 
0.01210232391526748 
0.002105648613638103 
-0.0007281426269892401 
-3.350352368496603e-05 
7.167597864509384e-05 
5.227259930135753e-05 
2.378767912356466e-05 
-8.351352727497388e-05 
-0.000209698363303656 
-0.0005234594073456017 
-0.0006439011776495631 
-0.003237480151097963 
-0.001108381415003727 
0 
0.006155521170460067 
0.003237480151097963 
-0.001108381415003727 
0.0005234594073456017 
-0.0006439011776495631 
8.351352727497388e-05 
-0.000209698363303656 
4.390023816557097e-05 
-3.695405332577474e-05 
0.0005651755356287265 
-0.000169935009125059 
-0.001177284316406411 
-0.004015587145111465 
0 
0.005457262652849459 
0.001177284316406411 
-0.004015587145111465 
-0.0005651755356287265 
-0.000169935009125059 
-4.390023816557097e-05 
-3.695405332577474e-05 
8.531902845600775e-05 
-3.244680867330479e-05 
0.0002131668927090031 
-0.0006523468769456932 
-0.0004375920468564635 
-0.003590365412834402 
0 
0.001348159762004424 
0.0004375920468564635 
-0.003590365412834402 
-0.0002131668927090031 
-0.0006523468769456932 
-8.531902845600775e-05 
-3.244680867330479e-05 
-6.006037282386851e-06 
1.6017697403553e-05 
0.0004314557571975773 
-0.0001717484828393714 
-0.00127549358635099 
-0.002919777307678523 
0 
0.006826340928492527 
0.00127549358635099 
-0.002919777307678523 
-0.0004314557571975773 
-0.0001717484828393714 
6.006037282386851e-06 
1.6017697403553e-05 
-0.0002656652697833399 
2.172523686754351e-05 
-0.0008122053457681854 
0.0007496041048949092 
-0.003684438448804242 
0.004043414133494705 
0 
0.02733036676533073 
0.003684438448804242 
0.004043414133494705 
0.0008122053457681854 
0.0007496041048949092 
0.0002656652697833399 
2.172523686754351e-05 
-9.827028479592064e-05 
0.0001041041891081613 
-0.0003987796671363385 
0.0005318424793008769 
-0.001876207108245112 
0.003207070222380485 
0 
0.02054632948814146 
0.001876207108245112 
0.003207070222380485 
0.0003987796671363385 
0.0005318424793008769 
9.827028479592064e-05 
0.0001041041891081613 
-0.0001120605415050925 
9.208180688871016e-05 
-0.0003064480653471138 
0.0003816536332359788 
-0.003526955795707596 
0.002448105933944547 
0 
0.02498413509206942 
0.003526955795707596 
0.002448105933944547 
0.0003064480653471138 
0.0003816536332359788 
0.0001120605415050925 
9.208180688871016e-05 
-4.767284168274248e-05 
-1.844003280244516e-05 
-0.0004566407338433777 
0.0003119462962611627 
-0.001223130074094056 
0.001276947073944386 
0 
0.01660079413255276 
0.001223130074094056 
0.001276947073944386 
0.0004566407338433777 
0.0003119462962611627 
4.767284168274248e-05 
-1.844003280244516e-05 
6.343437785225868e-05 
-7.890924281139717e-05 
0.0001098205740369527 
-0.0004565161539132602 
-0.001434927918349035 
-0.002590668122224403 
0 
0.004440784958409841 
0.001434927918349035 
-0.002590668122224403 
-0.0001098205740369527 
-0.0004565161539132602 
-6.343437785225868e-05 
-7.890924281139717e-05 
2.868024296726884e-05 
2.860023655250305e-05 
0.0002891521059521064 
-0.0003075132753281983 
0.0005127381097136026 
-0.002713892201699298 
0 
-0.005419897357357116 
-0.0005127381097136026 
-0.002713892201699298 
-0.0002891521059521064 
-0.0003075132753281983 
-2.868024296726884e-05 
2.860023655250305e-05 
0.0001579725598655047 
-2.724105717950041e-06 
0.0007790760058236598 
-0.0008219271226331864 
-0.001026660001480184 
-0.004890210418620128 
0 
-0.00276734995065275 
0.001026660001480184 
-0.004890210418620128 
-0.0007790760058236598 
-0.0008219271226331864 
-0.0001579725598655047 
-2.724105717950041e-06 
9.378151625047301e-06 
-3.087980206662288e-05 
-3.848420665622884e-05 
0.0001188838570046555 
-0.001185685028042144 
0.0005087249480234115 
0 
0.0142999761510687 
0.001185685028042144 
0.0005087249480234115 
3.848420665622884e-05 
0.0001188838570046555 
-9.378151625047301e-06 
-3.087980206662288e-05 
-5.742076874655638e-05 
-0.0001416871933807794 
-0.0003295051998783905 
0.0001180009633920267 
-0.002920303498247486 
-0.0002753431950515768 
0 
0.01739498342188163 
0.002920303498247486 
-0.0002753431950515768 
0.0003295051998783905 
0.0001180009633920267 
5.742076874655638e-05 
-0.0001416871933807794 
-8.124364116862291e-05 
-0.0001335959090044675 
-0.0008146866997087701 
-0.0004158964195198962 
-0.00387529904464852 
0.00146725780077248 
0 
0.01624094124172844 
0.00387529904464852 
0.00146725780077248 
0.0008146866997087701 
-0.0004158964195198962 
8.124364116862291e-05 
-0.0001335959090044675 
6.573354755191134e-05 
-6.387563544714389e-05 
8.568968891905115e-05 
-0.000766186301084514 
-0.001712016186039628 
-0.001449451280826975 
0 
2.29913580139763e-05 
0.001712016186039628 
-0.001449451280826975 
-8.568968891905115e-05 
-0.000766186301084514 
-6.573354755191134e-05 
-6.387563544714389e-05 
-7.144442343231017e-05 
0.0001401203858625643 
0.0001149467744621322 
0.0006960578869850251 
0.001390368273827144 
0.0003162906211319329 
0 
0.004640386633938484 
-0.001390368273827144 
0.0003162906211319329 
-0.0001149467744621322 
0.0006960578869850251 
7.144442343231017e-05 
0.0001401203858625643 
-0.0001055443198194943 
-1.23634582258449e-05 
0.0001376979871830905 
0.0004197889041201421 
0.001660472735508505 
-0.002030672363811401 
0 
-0.004214574553631874 
-0.001660472735508505 
-0.002030672363811401 
-0.0001376979871830905 
0.0004197889041201421 
0.0001055443198194943 
-1.23634582258449e-05 
-4.791381883092951e-05 
4.61412691389017e-06 
0.0007717044752409135 
3.333073417716574e-05 
-0.00100282132442365 
-0.003468920065918463 
0 
0.0004864363286431517 
0.00100282132442365 
-0.003468920065918463 
-0.0007717044752409135 
3.333073417716574e-05 
4.791381883092951e-05 
4.61412691389017e-06 
2.374913498067672e-06 
-8.252691931160902e-05 
0.0001683666702050013 
-8.888772259344366e-05 
0.003151109876953012 
-0.002886048687097877 
0 
-0.0176694164425579 
-0.003151109876953012 
-0.002886048687097877 
-0.0001683666702050013 
-8.888772259344366e-05 
-2.374913498067672e-06 
-8.252691931160902e-05 
-1.77451268133833e-05 
-7.218616683692308e-05 
2.353563445013306e-05 
0.0002427249805985483 
0.00246726606264555 
-0.001154896209786289 
0 
-0.009282668108068753 
-0.00246726606264555 
-0.001154896209786289 
-2.353563445013306e-05 
0.0002427249805985483 
1.77451268133833e-05 
-7.218616683692308e-05 
-0.0001169988915610249 
0.0004604430590338194 
-0.0002400730283173441 
0.002613080050562262 
0.002354355310038748 
0.01053576118254275 
0 
0.02869873361943942 
-0.002354355310038748 
0.01053576118254275 
0.0002400730283173441 
0.002613080050562262 
0.0001169988915610249 
0.0004604430590338194 
-3.826119932186083e-05 
0.0001227208448594197 
0.0006532220379715923 
8.683323432383745e-05 
0.00141955882858124 
-0.002329914170266708 
0 
-0.0004669286115361587 
-0.00141955882858124 
-0.002329914170266708 
-0.0006532220379715923 
8.683323432383745e-05 
3.826119932186083e-05 
0.0001227208448594197 
9.734160737483729e-05 
4.132966454369423e-05 
0.0003836327418988195 
-0.0003801786507696779 
-0.0004230553735232292 
-0.001436195592144375 
0 
-0.001627289811026674 
0.0004230553735232292 
-0.001436195592144375 
-0.0003836327418988195 
-0.0003801786507696779 
-9.734160737483729e-05 
4.132966454369423e-05 
-0.001590659174231412 
-0.008331640441574004 
-0.01190757911370801 
-0.01381140442039315 
-0.01387842655021745 
-0.01067617505131506 
-0.009743598705420879 
-0.001026792952519281 
-0.003131558916272837 
-0.007411610553785776 
-0.009085730974248767 
-0.01012677225369962 
-0.01408470114466581 
-0.009403219932631386 
-0.009594236409378022 
0.0002893782424385376 
-0.001649934017808858 
-0.009796290592449538 
-0.009665132489808593 
-0.01100963086594972 
-0.01347762554267375 
-0.01149994318940549 
-0.01056108369106145 
-0.001095185584453929 
0.0001451113801473166 
-0.009870004790063667 
-0.00736169891284329 
-0.00873423317689905 
-0.009647388937663773 
-0.009815594742373285 
-0.008378450916691208 
-0.00201698207670678 
0.001987585480720218 
-0.005960116116986568 
-0.004389545168578704 
-0.005663380730773854 
-0.01027207048227547 
-0.004519396154624589 
-0.003322891054343284 
0.0009655508723537075 
0.004235702969715044 
-0.005425899627146719 
-0.01503992193458051 
-0.01997935928118853 
-0.01769827547703884 
-0.01361857576734548 
-0.005549496193315501 
7.021078435754005e-05 
-0.0005199984421812748 
-0.008784770007146638 
-0.00943857586316918 
-0.01373702957452451 
-0.01741021636283474 
-0.01757753667007096 
-0.01365008160588193 
-0.00425426472927055 
-0.00134721087166682 
-0.009988582699320719 
-0.01014682124188189 
-0.009141676253370904 
-0.008462847461670914 
-0.01324306985532061 
-0.01446649058548304 
-0.003972168967453765 
0.007218858012985381 
0.002001777765893702 
-0.001694542238245753 
-0.003471868536887373 
-0.004505732364578225 
0.0001219702827107657 
0.0008543911170518851 
0.007959618974853068 
0.006356568295658413 
0.005020600631418383 
0.004222896883376817 
0.0006918338749655516 
-0.0009178034761138297 
0.00159627333782223 
0.0008695676640360611 
0.009050608644685182 
0.005595371155792289 
-0.002394012802128856 
0.001722517449934543 
-9.737355436904605e-06 
-0.001719693408302674 
-0.002132780213887458 
-0.002664890833504008 
0.005650645448440344 
0.004345123797796818 
-0.006456903206899765 
-0.001565514785584672 
-0.004681484683743461 
-0.005343705364198762 
-0.005088350061565921 
-0.00202226284966712 
0.002299570411766923 
0.005962516241427118 
-0.00595772690297295 
-0.006041177101130175 
-0.005308676507196479 
-0.01045900000011716 
-0.005216105557820703 
-0.001801780341434961 
0.005244567436762872 
0.008153997004978694 
-0.00225224253007909 
-0.0118721923764712 
-0.01792702895678126 
-0.01634642658781487 
-0.0110694946498488 
-3.78737277608179e-05 
0.005770389199594683 
0.004955135291186106 
-0.005557335562290478 
-0.00562010800664532 
-0.008811634181673102 
-0.01220284463956869 
-0.01110333971744337 
-0.007543346662530964 
0.0009761783553155555 
0.003550610434901843 
-0.006445886466064152 
-0.007530696188811192 
-0.006719719721711619 
-0.006273438437569698 
-0.01036790199866796 
-0.01031964663598249 
-0.0009619347836901552 
0.008815211739374825 
0.004465604669375429 
0.0004378569845300447 
-0.001650175268374471 
-0.003275478152298371 
0.0003784105067211104 
0.00133556936648319 
0.006825883587499586 
0.007938351799181764 
0.007087300073246336 
0.007468167710182724 
0.002208356525500887 
0.0009754946700141267 
0.002386838336099869 
0.0008691935436680239 
0.006898015389609912 
0.006331392062312837 
-0.00218061166739095 
0.004657899006189544 
0.0007638334047138038 
-0.000106208095243047 
-0.002547483047691237 
-0.004355427277786645 
0.002822683077220157 
0.004408061741173529 
-0.006654281814249649 
-0.0006017179390123674 
-0.005031244319414918 
-0.005480741782159855 
-0.004956674736268402 
-0.001030089773648615 
-0.0009114437019806203 
0.006783118240118623 
-0.00794038683964121 
-0.007423512353930272 
-0.005679827505284799 
-0.01129407865411962 
-0.005336090988594535 
-0.0008975270978555225 
0.002406050106449167 
0.008351427597469227 
-0.004957338590211915 
-0.01338777354747893 
-0.01952328404878951 
-0.01848513436037168 
-0.01343568038109581 
-0.003772698320583029 
0.001655338480433437 
0.004713989487457116 
-0.0095878999730096 
-0.009118991749346659 
-0.01115868349231773 
-0.01384066187710071 
-0.01374911991960175 
-0.01038885776121622 
-0.0005199072465115224 
0.001538237839833467 
-0.01154783336414478 
-0.0132176882725884 
-0.01305498182810665 
-0.0121026192500476 
-0.01498557281939649 
-0.01468870122580962 
-0.00403267880323578 
